<unk>	0.0
<s>	0.0
</s>	0.0
<mask>	0.0
<pad>	0.0
<CLS>	0.0
<SEP>	0.0
<EOD>	0.0
▁▁▁▁▁▁▁▁▁▁▁▁▁▁▁▁▁▁▁▁▁▁▁▁	-1.0
▁▁▁▁▁▁▁▁▁▁▁▁▁▁▁▁▁▁▁▁▁▁▁	-1.0
▁▁▁▁▁▁▁▁▁▁▁▁▁▁▁▁▁▁▁▁▁▁	-1.0
▁▁▁▁▁▁▁▁▁▁▁▁▁▁▁▁▁▁▁▁▁	-1.0
▁▁▁▁▁▁▁▁▁▁▁▁▁▁▁▁▁▁▁▁	-1.0
▁▁▁▁▁▁▁▁▁▁▁▁▁▁▁▁▁▁▁	-1.0
▁▁▁▁▁▁▁▁▁▁▁▁▁▁▁▁▁▁	-1.0
▁▁▁▁▁▁▁▁▁▁▁▁▁▁▁▁▁	-1.0
▁▁▁▁▁▁▁▁▁▁▁▁▁▁▁▁	-1.0
▁▁▁▁▁▁▁▁▁▁▁▁▁▁▁	-1.0
▁▁▁▁▁▁▁▁▁▁▁▁▁▁	-1.0
▁▁▁▁▁▁▁▁▁▁▁▁▁	-1.0
▁▁▁▁▁▁▁▁▁▁▁▁	-1.0
▁▁▁▁▁▁▁▁▁▁▁	-1.0
▁▁▁▁▁▁▁▁▁▁	-1.0
▁▁▁▁▁▁▁▁▁	-1.0
▁▁▁▁▁▁▁▁	-1.0
▁▁▁▁▁▁▁	-1.0
▁▁▁▁▁▁	-1.0
▁▁▁▁▁	-1.0
▁▁▁▁	-1.0
▁▁▁	-1.0
▁▁	-1.0
▁	-1.0

	0.0
<0x00>	0.0
<0x01>	0.0
<0x02>	0.0
<0x03>	0.0
<0x04>	0.0
<0x05>	0.0
<0x06>	0.0
<0x07>	0.0
<0x08>	0.0
<0x09>	0.0
<0x0A>	0.0
<0x0B>	0.0
<0x0C>	0.0
<0x0D>	0.0
<0x0E>	0.0
<0x0F>	0.0
<0x10>	0.0
<0x11>	0.0
<0x12>	0.0
<0x13>	0.0
<0x14>	0.0
<0x15>	0.0
<0x16>	0.0
<0x17>	0.0
<0x18>	0.0
<0x19>	0.0
<0x1A>	0.0
<0x1B>	0.0
<0x1C>	0.0
<0x1D>	0.0
<0x1E>	0.0
<0x1F>	0.0
<0x20>	0.0
<0x21>	0.0
<0x22>	0.0
<0x23>	0.0
<0x24>	0.0
<0x25>	0.0
<0x26>	0.0
<0x27>	0.0
<0x28>	0.0
<0x29>	0.0
<0x2A>	0.0
<0x2B>	0.0
<0x2C>	0.0
<0x2D>	0.0
<0x2E>	0.0
<0x2F>	0.0
<0x30>	0.0
<0x31>	0.0
<0x32>	0.0
<0x33>	0.0
<0x34>	0.0
<0x35>	0.0
<0x36>	0.0
<0x37>	0.0
<0x38>	0.0
<0x39>	0.0
<0x3A>	0.0
<0x3B>	0.0
<0x3C>	0.0
<0x3D>	0.0
<0x3E>	0.0
<0x3F>	0.0
<0x40>	0.0
<0x41>	0.0
<0x42>	0.0
<0x43>	0.0
<0x44>	0.0
<0x45>	0.0
<0x46>	0.0
<0x47>	0.0
<0x48>	0.0
<0x49>	0.0
<0x4A>	0.0
<0x4B>	0.0
<0x4C>	0.0
<0x4D>	0.0
<0x4E>	0.0
<0x4F>	0.0
<0x50>	0.0
<0x51>	0.0
<0x52>	0.0
<0x53>	0.0
<0x54>	0.0
<0x55>	0.0
<0x56>	0.0
<0x57>	0.0
<0x58>	0.0
<0x59>	0.0
<0x5A>	0.0
<0x5B>	0.0
<0x5C>	0.0
<0x5D>	0.0
<0x5E>	0.0
<0x5F>	0.0
<0x60>	0.0
<0x61>	0.0
<0x62>	0.0
<0x63>	0.0
<0x64>	0.0
<0x65>	0.0
<0x66>	0.0
<0x67>	0.0
<0x68>	0.0
<0x69>	0.0
<0x6A>	0.0
<0x6B>	0.0
<0x6C>	0.0
<0x6D>	0.0
<0x6E>	0.0
<0x6F>	0.0
<0x70>	0.0
<0x71>	0.0
<0x72>	0.0
<0x73>	0.0
<0x74>	0.0
<0x75>	0.0
<0x76>	0.0
<0x77>	0.0
<0x78>	0.0
<0x79>	0.0
<0x7A>	0.0
<0x7B>	0.0
<0x7C>	0.0
<0x7D>	0.0
<0x7E>	0.0
<0x7F>	0.0
<0x80>	0.0
<0x81>	0.0
<0x82>	0.0
<0x83>	0.0
<0x84>	0.0
<0x85>	0.0
<0x86>	0.0
<0x87>	0.0
<0x88>	0.0
<0x89>	0.0
<0x8A>	0.0
<0x8B>	0.0
<0x8C>	0.0
<0x8D>	0.0
<0x8E>	0.0
<0x8F>	0.0
<0x90>	0.0
<0x91>	0.0
<0x92>	0.0
<0x93>	0.0
<0x94>	0.0
<0x95>	0.0
<0x96>	0.0
<0x97>	0.0
<0x98>	0.0
<0x99>	0.0
<0x9A>	0.0
<0x9B>	0.0
<0x9C>	0.0
<0x9D>	0.0
<0x9E>	0.0
<0x9F>	0.0
<0xA0>	0.0
<0xA1>	0.0
<0xA2>	0.0
<0xA3>	0.0
<0xA4>	0.0
<0xA5>	0.0
<0xA6>	0.0
<0xA7>	0.0
<0xA8>	0.0
<0xA9>	0.0
<0xAA>	0.0
<0xAB>	0.0
<0xAC>	0.0
<0xAD>	0.0
<0xAE>	0.0
<0xAF>	0.0
<0xB0>	0.0
<0xB1>	0.0
<0xB2>	0.0
<0xB3>	0.0
<0xB4>	0.0
<0xB5>	0.0
<0xB6>	0.0
<0xB7>	0.0
<0xB8>	0.0
<0xB9>	0.0
<0xBA>	0.0
<0xBB>	0.0
<0xBC>	0.0
<0xBD>	0.0
<0xBE>	0.0
<0xBF>	0.0
<0xC0>	0.0
<0xC1>	0.0
<0xC2>	0.0
<0xC3>	0.0
<0xC4>	0.0
<0xC5>	0.0
<0xC6>	0.0
<0xC7>	0.0
<0xC8>	0.0
<0xC9>	0.0
<0xCA>	0.0
<0xCB>	0.0
<0xCC>	0.0
<0xCD>	0.0
<0xCE>	0.0
<0xCF>	0.0
<0xD0>	0.0
<0xD1>	0.0
<0xD2>	0.0
<0xD3>	0.0
<0xD4>	0.0
<0xD5>	0.0
<0xD6>	0.0
<0xD7>	0.0
<0xD8>	0.0
<0xD9>	0.0
<0xDA>	0.0
<0xDB>	0.0
<0xDC>	0.0
<0xDD>	0.0
<0xDE>	0.0
<0xDF>	0.0
<0xE0>	0.0
<0xE1>	0.0
<0xE2>	0.0
<0xE3>	0.0
<0xE4>	0.0
<0xE5>	0.0
<0xE6>	0.0
<0xE7>	0.0
<0xE8>	0.0
<0xE9>	0.0
<0xEA>	0.0
<0xEB>	0.0
<0xEC>	0.0
<0xED>	0.0
<0xEE>	0.0
<0xEF>	0.0
<0xF0>	0.0
<0xF1>	0.0
<0xF2>	0.0
<0xF3>	0.0
<0xF4>	0.0
<0xF5>	0.0
<0xF6>	0.0
<0xF7>	0.0
<0xF8>	0.0
<0xF9>	0.0
<0xFA>	0.0
<0xFB>	0.0
<0xFC>	0.0
<0xFD>	0.0
<0xFE>	0.0
<0xFF>	0.0
0	-5.805020
1	-5.645150
2	-5.924738
▁x	-9.613986
3	-6.463900
4	-6.647572
6	-6.734589
8	-6.702914
5	-6.809443
7	-6.988518
s	-7.001126
▁the	-6.483019
9	-6.567993
▁if	-8.409774
▁t	-10.667944
▁define	-12.965485
▁int	-7.876642
▁const	-8.392534
▁return	-8.261113
▁void	-7.831883
▁a	-7.781595
▁to	-7.166274
▁i	-9.179610
d	-8.373867
▁is	-7.606157
▁of	-6.676160
▁for	-7.670377
▁struct	-8.753337
S	-8.648397
▁n	-10.069177
▁in	-7.028699
▁h	-11.608829
▁c	-9.923543
▁p	-9.766605
D	-8.692921
▁static	-8.010162
▁f	-10.607183
▁NULL	-8.446619
▁uint	-9.486660
r	-8.958979
A	-8.949548
▁char	-8.943944
▁and	-7.060691
▁include	-12.677599
C	-8.693633
▁b	-10.105315
▁get	-9.777876
p	-8.238734
▁m	-9.464496
▁else	-8.572865
▁data	-9.631333
▁size	-9.776649
▁value	-9.430507
X	-9.345594
P	-9.297399
▁this	-8.474792
I	-9.284328
▁case	-9.705542
▁endif	-10.777021
▁set	-9.714913
▁u	-10.629991
R	-9.435146
L	-9.357803
▁unsigned	-9.351731
▁be	-8.489403
▁type	-10.173702
▁v	-10.019622
▁bool	-9.272110
y	-9.119880
▁lean	-9.343185
x	-7.210405
▁std	-10.005528
▁C	-9.504560
n	-8.137286
T	-9.108578
▁e	-10.605831
M	-9.532765
i	-8.429673
e	-9.253829
F	-9.147534
t	-7.867636
▁object	-10.602757
▁T	-9.451441
▁break	-9.734869
▁The	-7.955858
E	-9.195077
f	-8.262235
▁param	-13.920900
▁that	-8.220424
ed	-8.747161
▁This	-9.229977
ID	-9.541825
Type	-9.291396
▁error	-9.889339
V	-9.754084
▁not	-8.722183
B	-9.123716
Get	-9.680587
▁with	-8.305179
▁pyx	-19.090317
▁string	-10.863540
c	-8.582663
▁from	-8.090787
▁class	-8.922985
▁by	-8.207226
▁sizeof	-9.968812
▁name	-10.186023
N	-9.909981
v	-9.111860
▁file	-9.719324
Set	-9.806308
▁or	-8.744246
▁id	-11.602241
name	-8.769107
▁new	-9.674792
id	-8.849774
▁ret	-9.890058
a	-8.900087
G	-9.873926
U	-9.350773
▁it	-8.677668
▁arg	-11.991668
ing	-8.974526
▁long	-9.751971
▁k	-10.447383
▁g	-10.637929
▁F	-10.025191
q	-10.009966
▁state	-10.360366
▁on	-8.311436
o	-9.915389
▁xff	-19.832576
▁index	-10.634779
▁U	-10.309550
▁typedef	-9.109722
W	-9.940264
▁H	-10.405992
▁buffer	-10.510568
l	-9.695413
size	-8.732816
u	-8.928952
Data	-9.693695
type	-8.655207
▁j	-10.709702
▁we	-9.351754
len	-9.310511
▁dev	-12.612715
▁out	-9.543992
▁result	-10.095436
H	-9.001109
▁are	-8.719829
▁float	-10.697089
er	-9.631362
▁key	-10.607545
▁double	-10.434273
▁B	-9.879942
▁function	-9.734128
▁inline	-9.726132
▁as	-8.355904
▁l	-10.536456
list	-9.471013
▁device	-10.801966
▁E	-10.025292
▁free	-10.824617
data	-8.770934
info	-9.381155
▁len	-10.925346
▁status	-10.490601
▁an	-9.146823
▁code	-10.264168
▁defined	-10.134544
▁goto	-10.786437
b	-8.923121
▁xFF	-22.359869
▁use	-9.775200
▁read	-10.850427
▁info	-11.861373
in	-8.982531
buf	-9.486030
or	-9.915316
▁true	-9.617582
▁flags	-11.029499
▁init	-12.122085
▁public	-8.685298
▁node	-10.975300
▁false	-9.607177
▁offset	-11.012894
▁can	-9.294425
▁mode	-10.665903
▁start	-10.857384
K	-10.110586
▁GL	-10.279380
▁virtual	-10.630452
Q	-10.182011
▁extern	-9.735962
▁end	-10.725510
▁ifndef	-13.261641
▁ctx	-12.177422
▁OF	-10.032400
m	-8.979874
O	-10.235555
▁ifdef	-12.504442
▁ptr	-12.788499
▁num	-11.214988
▁at	-8.602514
▁MAX	-12.325259
Info	-9.978354
Z	-10.258334
▁list	-10.223555
▁default	-10.440440
Value	-9.922455
▁next	-10.788483
▁add	-11.107983
▁will	-9.434869
▁buf	-11.492048
▁used	-9.762126
▁has	-9.405277
ptr	-9.462660
▁base	-11.023115
▁err	-10.305992
▁write	-11.204141
▁License	-9.839630
▁context	-11.143326
▁CONFIG	-10.967053
▁typename	-10.870762
Name	-9.855574
Y	-10.428430
String	-9.746325
▁ERROR	-13.335432
▁input	-10.701320
h	-7.847016
Size	-10.116221
▁number	-9.982383
▁bit	-10.868889
▁src	-11.285863
▁brief	-13.092120
▁count	-11.062887
w	-9.713200
set	-8.843686
▁length	-10.911933
In	-10.144964
k	-9.396248
▁DEFAULT	-12.327192
▁current	-10.499460
▁template	-9.939388
API	-9.985221
▁tmp	-11.260048
▁output	-10.764675
▁max	-11.124754
▁w	-11.167874
pos	-10.241344
▁test	-10.689202
▁all	-9.440212
▁OR	-10.202070
List	-9.915419
CTRL	-10.997604
▁entry	-11.253422
CH	-11.122049
str	-9.600452
▁handle	-11.142010
Id	-10.176473
State	-10.057363
▁vector	-11.838644
▁while	-10.201967
▁event	-10.963024
▁GPIO	-11.531710
▁copy	-10.559539
▁IS	-10.999487
▁addr	-12.369926
TYPE	-9.729563
Object	-9.959896
▁property	-12.125119
▁port	-11.455107
▁UL	-16.750272
Mode	-10.539486
▁array	-11.097116
▁block	-10.796905
To	-10.186191
▁If	-10.001109
▁check	-10.813516
EN	-10.814115
▁IN	-10.609128
▁first	-9.768488
▁address	-10.772357
▁namespace	-9.318739
out	-9.470603
▁THE	-10.080544
▁must	-10.105090
▁have	-9.159341
▁NO	-11.651730
▁PyObject	-10.503507
file	-9.668911
▁lock	-12.438000
Index	-10.338593
▁source	-10.509723
Error	-10.162849
▁time	-9.962826
val	-9.550013
Pos	-10.883641
▁INT	-11.798854
Ptr	-10.465568
IO	-10.408894
▁MASK	-13.936580
▁using	-9.928445
▁reg	-11.943944
▁may	-9.684284
▁request	-11.095313
▁register	-10.871994
▁Copyright	-10.413173
▁op	-11.968569
▁str	-11.801567
Buffer	-10.423948
▁user	-10.991066
▁only	-9.890293
▁memory	-10.795996
count	-9.776638
io	-10.064121
▁when	-9.694889
▁msg	-12.208754
Status	-10.240827
▁TYPE	-14.062613
▁last	-10.613243
▁do	-9.796537
▁self	-11.236366
▁ANY	-10.465095
map	-10.081452
▁config	-12.158328
▁mask	-11.627982
MODE	-10.680481
ip	-10.528451
▁any	-9.879224
on	-10.235131
no	-9.646670
▁which	-9.359029
Node	-10.438667
▁val	-11.577216
▁xf	-16.883983
▁private	-9.497671
code	-9.694190
g	-9.587229
state	-9.458942
▁assert	-11.533112
▁obj	-12.196130
▁z	-11.376164
Context	-10.407698
▁res	-11.268937
line	-9.675099
▁hash	-11.528154
▁should	-10.065488
▁dst	-11.725676
▁func	-11.821761
▁bytes	-11.098452
▁enum	-10.152541
▁target	-11.171029
▁Py	-11.353252
▁table	-10.859311
▁message	-10.956008
▁create	-11.081665
▁one	-9.558017
z	-9.753795
File	-10.355893
Key	-10.538523
▁tx	-12.415185
▁cmd	-12.144904
num	-9.805263
key	-9.715184
EXT	-10.498518
to	-9.412372
▁version	-10.578552
▁Pyx	-18.691843
ch	-10.404415
▁field	-10.884128
▁printf	-12.116671
J	-10.597903
▁pointer	-10.793747
IF	-10.685695
▁DMA	-11.556669
db	-10.653025
For	-10.819756
▁UINT	-11.316644
▁glad	-10.471371
▁you	-9.319914
link	-10.616107
▁header	-11.356592
▁SIZE	-15.190313
▁image	-11.263084
able	-9.848921
▁re	-11.387999
Count	-10.501007
Array	-10.521850
▁mm	-13.315238
▁other	-9.786063
Is	-10.693922
▁ADC	-11.702457
▁Lean	-14.891364
▁path	-11.427041
▁format	-11.228996
time	-9.869109
int	-7.985540
▁no	-10.033317
OUT	-10.706978
▁ctor	-17.569705
Create	-10.962991
▁NOT	-11.276219
ly	-9.871986
▁xF	-18.669719
▁operator	-10.888898
▁client	-11.706604
▁so	-9.928816
end	-7.645031
▁update	-11.449398
▁xc	-16.312249
OR	-11.332151
▁override	-10.537806
dev	-9.536987
Handle	-10.548122
▁xa	-17.400253
le	-10.424017
▁xe	-16.800173
▁under	-9.888210
▁switch	-11.489500
▁rc	-11.134221
▁module	-11.281254
▁HAL	-11.216071
▁values	-10.751677
▁but	-9.520899
UI	-10.711719
▁interface	-11.265014
lib	-10.483002
Base	-10.660741
▁iVar	-12.085039
▁frame	-11.578572
▁following	-9.919119
addr	-10.077795
Vector	-10.789656
CR	-11.241738
▁thread	-11.514842
ref	-10.139371
SIZE	-10.095531
▁internal	-11.269410
Event	-10.613734
if	-6.776728
IP	-11.066458
Image	-10.657701
of	-9.897183
dir	-10.612348
▁USE	-11.273586
▁call	-10.881157
ED	-10.202398
log	-10.283743
▁FALSE	-10.811330
▁CMU	-12.273576
sp	-10.893489
▁stream	-11.748572
▁line	-10.915977
es	-9.905864
▁DEBUG	-12.405616
All	-11.265299
mode	-10.231678
Time	-10.742023
Request	-10.782987
Register	-11.526288
▁GET	-13.159361
▁channel	-11.492532
▁sub	-11.522896
▁USB	-11.488029
▁Windows	-11.737114
al	-9.767523
table	-10.108478
Check	-11.213507
▁page	-11.016295
NAME	-10.587063
▁idx	-12.385089
▁ERR	-13.209976
▁BIT	-12.776420
▁software	-10.401024
off	-10.751757
▁REG	-13.031308
▁FOR	-10.804055
SET	-10.442416
▁byte	-11.542329
▁send	-11.682696
▁BOOL	-11.842982
op	-10.008500
▁server	-11.595836
▁callback	-11.478112
▁xb	-18.025625
▁width	-11.618969
IN	-10.074933
fd	-10.418099
▁volatile	-11.754909
▁params	-12.538779
▁CHECK	-11.887769
▁local	-11.173281
▁SHIFT	-17.093612
▁command	-11.160943
▁method	-11.036361
▁level	-11.159667
▁without	-10.269473
DATA	-10.489784
▁gl	-12.072045
ON	-10.898928
▁args	-12.040560
max	-10.167499
▁xd	-15.936697
Int	-10.788132
Map	-10.716679
it	-10.571805
Add	-11.038656
col	-10.715896
INT	-10.356395
▁queue	-12.035658
err	-9.579261
Read	-11.131390
ctx	-9.934443
System	-11.238512
Function	-10.633019
fs	-10.767743
en	-9.240960
▁old	-11.141215
▁auto	-11.378836
path	-10.272380
j	-9.895811
▁conn	-13.035092
▁attribute	-12.325020
▁map	-11.696866
▁hw	-13.514098
me	-11.049695
Init	-10.763646
re	-9.736883
Input	-10.851937
▁null	-11.597980
Result	-10.721361
▁xE	-17.621331
ERR	-10.298386
get	-8.890704
▁enable	-11.956559
▁dec	-14.396897
▁PIN	-13.655727
View	-10.713856
▁TRUE	-10.902199
▁cpu	-12.516796
▁cur	-12.283461
▁http	-11.504157
PROC	-10.891274
cp	-10.997713
is	-9.296652
▁TO	-11.190994
▁packet	-11.796593
▁left	-11.287657
▁rx	-13.146165
st	-9.753057
▁parent	-11.881734
Table	-10.823718
▁AND	-10.761967
DB	-10.932302
▁was	-8.611922
▁retval	-11.909975
▁failed	-10.990256
▁instance	-11.376800
▁text	-11.534420
hdr	-11.161784
▁mutex	-13.556954
▁ASSERT	-13.188334
reg	-10.264933
▁window	-11.460613
▁item	-11.813832
▁bits	-11.634972
▁clear	-11.572208
▁print	-11.721694
▁load	-12.196504
▁SSL	-11.925491
▁priv	-13.739256
ADDR	-11.197274
▁OK	-12.954295
▁work	-10.520445
ac	-11.243591
up	-10.100073
LOC	-12.123683
▁find	-11.093124
▁need	-10.556700
Address	-10.996847
IC	-11.072445
REG	-10.592882
ER	-11.173709
Mask	-11.236246
Stream	-10.954999
Write	-10.930453
▁DATA	-12.768220
▁Software	-10.794994
Device	-10.903881
▁into	-9.887895
Config	-11.028675
On	-11.163910
arg	-9.600851
Block	-10.977947
LOG	-10.476570
index	-9.825614
Free	-10.992572
▁options	-11.661566
▁ref	-12.840612
▁STATUS	-13.513787
NV	-11.097258
obj	-10.245956
▁Msk	-21.927004
OS	-10.949161
INFO	-10.493965
value	-9.339791
VAL	-10.497741
ent	-11.044511
Offset	-11.128673
CLK	-11.469438
word	-10.996630
buffer	-9.888013
an	-10.544138
▁see	-10.771958
No	-10.824795
port	-10.201603
▁yy	-11.274278
▁group	-11.161907
▁tag	-12.075079
▁log	-11.878992
Var	-10.173995
string	-9.178114
pc	-11.080882
▁exit	-11.075002
Item	-10.948369
Message	-10.894874
MS	-11.695226
▁non	-10.792007
▁nonatomic	-12.938795
▁TIM	-12.355610
MAC	-11.244456
▁make	-10.596547
▁temp	-11.840345
▁reserved	-10.867197
▁RX	-13.172009
Class	-10.955420
▁task	-11.805653
SEL	-11.550553
▁xC	-20.718234
▁reset	-11.809723
▁OP	-11.871839
▁XFF	-19.632265
SR	-11.712978
With	-10.920618
▁min	-11.896755
args	-10.548606
▁Returns	-10.797306
▁req	-12.795450
CFG	-11.400974
node	-10.042648
▁handler	-12.151258
▁short	-10.843298
From	-10.898166
▁height	-11.775832
mask	-10.455414
▁LL	-12.309446
cl	-11.052000
STR	-10.995304
▁color	-11.707506
▁SUCCESS	-14.109486
▁mem	-12.892555
▁flag	-11.547675
▁GLenum	-12.276779
us	-10.236564
Source	-11.187340
▁RTC	-12.162877
cs	-11.004200
▁row	-11.876865
▁ENABLED	-14.024815
▁then	-10.167126
▁argv	-12.611247
▁more	-9.835404
box	-10.956451
▁driver	-11.648197
Test	-10.998322
si	-11.048446
▁zero	-11.596696
▁USART	-12.234475
Pointer	-11.096001
▁fprintf	-11.738532
▁zend	-12.601265
▁session	-12.136511
▁VERSION	-15.559215
LEN	-11.213738
lock	-10.137532
▁SOFTWARE	-10.928138
Start	-10.948108
▁open	-11.394360
Number	-11.246549
▁TX	-12.840320
gen	-10.892542
var	-10.276449
▁alloc	-13.423348
Version	-10.872601
PTR	-11.246453
sz	-11.031704
New	-10.814492
▁after	-10.105297
RT	-11.049063
block	-10.472604
▁given	-10.575225
be	-10.892815
▁host	-11.896110
stat	-11.131813
▁found	-10.526187
▁EXPORT	-13.135272
sh	-11.140375
cm	-11.005471
▁system	-10.722753
ex	-10.787126
char	-9.331414
▁RCC	-12.713278
Callback	-11.226770
▁See	-8.525251
▁debug	-12.801161
Length	-11.064216
▁point	-11.078775
▁specific	-10.862565
cb	-10.804451
pp	-11.004078
▁import	-11.174148
Path	-10.983374
net	-10.393688
▁NSString	-11.519747
▁each	-10.592369
vm	-11.019994
Instance	-11.125988
▁element	-11.443057
base	-10.042787
▁continue	-10.691278
▁SET	-13.456438
▁above	-10.656041
Control	-11.460826
spec	-11.115286
▁range	-11.336029
▁CC	-12.906147
Client	-11.001906
▁put	-11.885342
▁child	-11.620261
▁We	-10.324799
min	-10.625391
▁shared	-12.404036
▁LOG	-13.475906
im	-11.031088
Flags	-11.172629
Color	-11.027057
▁stack	-11.729347
▁control	-11.289321
Default	-10.987163
▁called	-10.619200
▁hr	-12.044106
▁var	-11.663009
▁parameter	-11.318762
▁valid	-11.657645
▁attr	-13.012805
res	-10.119189
conf	-11.331052
▁GLuint	-12.289734
mem	-10.249170
▁ZEND	-11.652374
▁functions	-10.908826
proc	-11.255094
DMA	-11.224616
▁right	-11.030752
rel	-11.069862
Update	-11.022458
▁sys	-12.969468
▁process	-11.051526
CS	-11.339183
▁SPI	-12.100270
▁interrupt	-11.400473
▁empty	-11.811388
▁HAVE	-11.062818
Code	-11.090525
ps	-10.760843
lp	-10.881339
▁filter	-12.016505
Ref	-10.801997
▁root	-11.873463
▁position	-11.192393
▁WARRANTIES	-11.002651
CODE	-10.870670
cc	-11.122493
▁conditions	-10.711115
▁cache	-12.071792
▁INVALID	-12.902308
at	-10.584953
ms	-10.962912
down	-11.339644
Matrix	-11.268215
▁match	-11.418604
▁TEST	-12.433063
END	-10.344790
idx	-10.632344
Channel	-11.676213
Format	-11.066054
ING	-10.774205
mod	-11.108789
▁before	-10.404151
▁information	-10.419665
IS	-10.574358
▁BASE	-14.595402
▁returns	-11.198828
Text	-10.924186
OP	-10.617693
array	-10.234509
Frame	-11.197587
Command	-11.255705
cnt	-11.231388
▁connection	-11.622708
ns	-10.970730
bits	-10.918208
▁desc	-13.448749
msg	-10.250178
▁notice	-11.145641
▁done	-10.681567
▁token	-12.196511
SC	-11.547485
▁access	-11.343361
▁rights	-10.610566
▁sc	-12.413019
▁same	-10.507269
▁remove	-11.886546
End	-11.182544
sa	-10.877274
▁query	-12.049550
Global	-11.586519
▁EVENT	-12.084723
▁timer	-12.232969
fn	-11.058690
CTL	-11.528606
li	-10.661605
ST	-11.352617
▁specified	-11.150909
▁push	-12.819316
▁timeout	-12.126020
▁STM	-12.518042
Output	-11.171208
Bit	-11.767880
PC	-11.732734
▁ok	-11.920328
▁nullptr	-11.261118
Model	-11.361431
MASK	-10.519218
▁fd	-12.375865
▁program	-11.050721
▁there	-10.034562
▁iterator	-12.811363
Out	-11.178778
▁dest	-12.548210
rd	-10.847110
Memory	-11.031736
▁its	-9.968888
▁NONE	-14.046939
▁pragma	-13.657209
md	-11.297994
KEY	-10.811897
pt	-11.235265
▁env	-13.126800
ds	-11.075126
▁linux	-15.579304
Point	-11.286575
func	-10.386308
▁PFNGL	-11.332849
▁INCLUDING	-11.833821
▁than	-10.207725
▁xA	-20.419952
▁option	-11.626355
Window	-11.169148
▁un	-12.042563
LINE	-11.403008
Handler	-11.214005
mac	-11.331044
flags	-10.023046
low	-11.574491
ctrl	-11.389876
sym	-11.026977
▁provided	-10.806861
cache	-10.775760
▁irq	-13.256850
▁binary	-11.298792
▁clock	-11.772310
BUFFER	-11.326846
bit	-10.366926
▁cb	-13.107857
clk	-11.559190
ar	-10.509195
▁response	-11.372689
sign	-12.010281
▁org	-13.188181
▁delete	-11.865593
sync	-11.088864
Num	-11.298150
MP	-11.739406
GL	-10.313066
▁copyright	-11.043394
sec	-10.812178
dc	-11.447772
ev	-11.103043
▁memcpy	-12.130281
▁tree	-11.670638
▁global	-11.927576
▁per	-11.467531
▁HRESULT	-11.244175
▁fp	-13.266019
▁skb	-12.796374
ic	-10.690986
▁closed	-12.152752
MAP	-11.268524
LIB	-11.188482
rs	-10.579238
AT	-11.725636
AL	-11.294994
CALL	-11.214841
ab	-11.311502
ring	-11.384239
▁iParam	-12.698081
▁order	-10.882446
▁part	-10.623092
▁operation	-11.225834
▁my	-10.316270
▁tp	-12.878277
gl	-9.863593
▁DWORD	-11.216561
▁AS	-12.655485
LIST	-11.336531
Call	-11.544238
Max	-11.442947
Module	-11.246426
Use	-12.171727
▁FILE	-12.401023
▁parameters	-11.263848
Filter	-11.364539
▁net	-12.089980
space	-11.054460
▁structure	-10.942980
sum	-11.448048
▁distributed	-11.364079
TIME	-11.376586
▁active	-11.901801
dp	-11.329557
▁You	-10.385939
▁MIN	-13.515240
▁required	-10.973154
▁wait	-12.089434
▁filename	-12.736954
cmd	-10.463279
▁total	-11.404344
▁loop	-11.683490
pr	-11.239475
ation	-10.470658
Op	-11.483191
th	-9.463707
▁UART	-12.103323
▁unit	-11.904674
▁VALUE	-12.793991
ALL	-11.537574
Port	-11.531046
▁enabled	-11.737336
sc	-10.893316
▁available	-10.950320
free	-9.438113
CLASS	-11.417478
scale	-11.540168
ul	-10.923921
▁prev	-12.897801
▁READ	-13.927958
▁been	-9.901550
va	-11.082677
Entry	-11.250185
as	-10.334500
ce	-11.232489
DC	-11.500285
▁THIS	-11.462482
▁head	-11.791470
▁exception	-12.273803
class	-9.738800
VM	-11.551930
▁com	-13.474042
Property	-11.249740
▁ENABLE	-14.138746
PS	-11.496162
Log	-11.288019
▁xB	-17.927694
cast	-10.995617
def	-8.566451
ion	-10.989331
▁ARG	-14.844763
▁up	-10.144622
▁signal	-12.065384
▁fields	-11.546366
▁NRF	-11.567339
Expr	-11.527286
▁undef	-13.042670
ARB	-11.604792
CC	-11.196262
FS	-11.336055
tm	-11.669568
▁STATE	-13.891366
▁TIMER	-12.812355
▁move	-12.128991
cap	-11.421745
ts	-10.743854
pass	-11.470813
Position	-11.483137
start	-9.694607
os	-10.589146
▁unlock	-14.075198
▁argument	-11.416731
▁common	-11.616264
▁GLint	-12.283837
▁INFO	-16.681916
▁begin	-12.375582
EX	-11.373540
▁WRITE	-14.505841
VAR	-11.427244
Timer	-11.536132
▁inc	-14.506701
hash	-10.653240
User	-11.263102
▁either	-10.936007
▁resource	-12.262173
STATUS	-10.528573
mb	-11.468033
UL	-10.735599
▁ext	-13.364657
desc	-10.904259
▁close	-11.886731
hi	-11.464451
BLOCK	-11.484708
▁real	-11.532291
▁PRS	-13.232293
Local	-11.401831
stream	-10.358441
▁release	-11.835707
point	-10.851859
Field	-11.348992
Element	-11.304759
ld	-11.202883
▁core	-12.738745
▁Shifted	-12.465720
▁raw	-12.793639
Sub	-11.397951
▁PORT	-13.516418
▁kernel	-12.266942
▁here	-10.441687
Manager	-11.116021
Group	-11.242188
do	-10.330055
▁variable	-11.497991
▁fail	-11.234803
UN	-10.692932
per	-10.768899
▁matrix	-11.765443
▁GLAPI	-11.253523
shift	-11.870544
nr	-11.477243
CMD	-11.093454
▁cast	-12.662613
▁insert	-12.735237
Val	-11.585621
sb	-11.629413
mp	-11.142909
bt	-11.495487
PER	-11.581001
ra	-11.416028
tab	-11.561625
Options	-11.327728
STATE	-10.818145
con	-11.130296
▁pre	-11.985494
xx	-11.714564
test	-10.181172
Core	-11.334376
chan	-11.665947
tree	-10.983367
▁inode	-12.811656
Reg	-11.635263
▁SDL	-12.014041
▁opt	-13.177580
MM	-11.834598
▁does	-10.785809
▁st	-12.527042
av	-11.369710
printf	-10.307546
▁returned	-11.151933
▁rt	-12.555326
▁DEVICE	-14.773569
tag	-10.982916
▁GNU	-11.242751
error	-9.544379
pi	-11.325879
MD	-11.606966
sw	-11.424822
TAG	-11.618112
el	-10.615170
over	-10.904613
▁location	-11.696396
api	-11.396545
back	-10.424980
config	-10.293184
MC	-11.414736
▁license	-11.451978
parse	-11.241993
fc	-11.681787
DE	-11.516817
▁two	-10.076446
DEV	-11.391016
Str	-11.526416
flag	-10.978371
mm	-10.517831
are	-11.894479
PR	-11.568768
▁Foundation	-11.424394
▁cfg	-13.567153
▁xD	-19.168622
Interface	-11.237502
▁disable	-12.174088
ll	-10.710885
Enable	-11.834235
bo	-11.720438
dict	-11.494209
mc	-11.741859
rv	-11.264695
BUF	-11.545317
▁socket	-12.206700
▁www	-13.839103
AC	-11.730171
DIV	-12.146263
CB	-11.723339
NET	-11.184059
regs	-11.732013
Range	-11.351307
iv	-11.475149
SW	-11.468464
IT	-11.369531
▁WTIMER	-13.275334
▁memset	-12.134381
BYTE	-11.545300
Open	-11.626646
▁strcmp	-13.441100
▁CAN	-12.439616
and	-10.541134
▁strlen	-11.953431
▁INLINE	-14.841436
form	-11.466282
▁configuration	-11.406811
Line	-11.342830
bl	-11.971347
▁pg	-12.780833
▁errno	-12.945250
load	-10.602720
not	-10.914600
▁CMD	-13.419013
▁EFI	-11.397617
EV	-11.990038
pd	-11.569457
▁already	-11.059104
▁label	-12.461226
PM	-11.743401
Current	-11.619817
LE	-11.655939
▁FLAG	-15.296961
▁pin	-12.351553
Clear	-11.260552
▁texture	-12.779404
▁integer	-11.819395
▁where	-10.355432
rc	-10.451044
LP	-11.472633
vec	-11.349752
▁pool	-12.507322
Header	-11.437380
▁expected	-11.604056
Thread	-11.354508
req	-10.854654
PRE	-11.685534
▁IMPLIED	-11.419344
fb	-11.865708
Load	-11.465115
LOCK	-11.568557
call	-10.629969
▁STRING	-14.642093
▁APIENTRYP	-16.558020
freq	-12.247723
▁stderr	-13.456694
▁invalid	-11.913210
▁vec	-12.459643
▁elements	-11.566325
▁display	-11.858333
Queue	-11.601173
pid	-11.548473
flow	-11.410351
Obj	-11.654314
PP	-11.762469
tr	-11.013899
Query	-11.290123
ec	-11.365478
▁json	-12.620417
Hash	-11.521590
CF	-11.520550
▁xffff	-46.495002
Flag	-11.598110
our	-12.558442
FB	-11.857296
mi	-11.290734
▁change	-11.216458
PG	-11.495233
spi	-11.643949
Release	-11.308384
▁cursor	-12.605600
sub	-10.370082
COUNT	-11.588854
▁top	-11.478029
▁single	-11.062664
Service	-11.397218
▁KEY	-13.137196
RC	-11.542569
▁wpa	-12.727627
▁constexpr	-11.676976
▁main	-10.873602
▁unique	-12.240486
▁protocol	-12.080168
FORMAT	-11.688712
▁iface	-14.081522
Server	-11.398878
range	-11.175485
▁malloc	-12.676107
▁destroy	-13.553337
PARAM	-11.658032
▁argc	-11.985894
▁FUNCTION	-14.401085
offset	-10.188020
Len	-11.549186
pm	-11.545073
▁stats	-12.907232
NO	-10.104779
SP	-11.651607
▁some	-10.284778
▁once	-10.630290
▁BE	-11.786098
▁OFFSET	-16.513746
FILE	-10.870626
Param	-10.818506
Response	-11.472764
rec	-11.577379
STAT	-11.444938
▁prefix	-12.436477
▁orig	-13.144190
▁SYS	-13.411132
Cache	-11.451449
If	-11.436873
▁column	-11.985357
TX	-11.029538
sm	-11.492996
Lock	-11.434240
▁full	-11.389545
▁END	-12.334190
ad	-11.132580
Process	-11.311739
pack	-11.628262
▁LIMITED	-11.471736
py	-10.051673
Desc	-11.632614
acc	-12.157607
▁LICENSE	-11.905596
▁asn	-12.997341
co	-11.020707
▁success	-11.405534
▁stop	-12.012798
DBG	-11.816128
Char	-11.491758
TABLE	-11.528114
UP	-11.431282
Copy	-11.113472
Tx	-11.729108
▁BUT	-11.488823
OF	-11.295170
level	-10.817015
HW	-11.765819
▁RPC	-13.652703
▁epi	-15.044586
exp	-11.552178
read	-9.950562
GC	-11.624688
all	-10.884991
IR	-11.625196
AD	-11.885851
place	-12.129256
cmp	-10.996184
un	-8.969174
REF	-10.610731
▁Interrupt	-11.783487
▁mp	-12.732714
▁RETURN	-13.750656
frame	-10.736490
▁WITHOUT	-11.385524
term	-11.602870
ca	-11.200396
priv	-10.773791
▁section	-11.706969
▁implementation	-11.477759
▁AF	-12.880735
▁INIT	-14.824262
write	-10.119069
▁phy	-13.783305
▁run	-11.357592
▁action	-11.548916
NODE	-11.601154
▁mono	-12.507019
FC	-10.805904
▁don	-10.922141
▁impl	-13.123132
▁ps	-13.521254
Description	-11.913676
PORT	-11.084672
▁depth	-12.621421
▁app	-12.246735
sort	-11.840530
ob	-11.452182
Level	-11.538186
TS	-11.736188
PHY	-11.876341
sd	-11.666175
And	-11.206275
pf	-11.892161
trans	-11.072883
▁convert	-12.256852
OBJ	-11.791850
TO	-11.007595
AP	-11.628140
TC	-11.908689
▁CPU	-12.196964
▁just	-10.499691
▁service	-11.111369
GEN	-11.837146
▁descriptor	-12.320265
EP	-11.933272
▁pci	-13.175342
▁Bit	-11.633487
Task	-11.527999
▁model	-11.536033
▁chip	-13.019280
rt	-10.939170
opt	-10.996161
PLL	-12.107764
INDEX	-11.744372
▁atomic	-12.801276
loc	-11.727775
enc	-11.858519
Arg	-11.600018
▁MSG	-13.304921
▁record	-11.030005
Exception	-11.269170
Func	-11.632046
ee	-11.534375
Send	-11.560838
▁PURPOSE	-11.373359
▁supported	-11.558940
▁setup	-12.367043
alloc	-10.622157
stack	-11.101638
▁power	-11.377783
RAM	-11.966564
cfg	-11.210792
▁None	-11.295293
Target	-11.523183
CM	-10.883579
▁try	-11.295862
▁reference	-11.582297
▁entries	-12.220566
xml	-11.635935
Texture	-11.619344
SM	-11.951282
Re	-11.479734
AR	-11.743522
▁LIABILITY	-11.782993
▁connect	-13.231289
▁types	-11.629580
▁It	-9.795686
▁sk	-12.931384
▁FIELD	-14.953006
▁HANDLE	-13.887268
Page	-11.502058
FD	-11.503477
▁rhs	-12.142339
host	-10.906599
▁save	-12.067641
init	-9.754146
▁WITH	-12.303324
Of	-11.332090
chain	-12.022855
▁SHA	-13.332795
MT	-11.884140
▁FITNESS	-11.365971
▁parse	-12.277638
▁details	-11.254767
▁parser	-12.856156
add	-10.017367
dt	-11.735650
▁MERCHANTABILITY	-11.347523
▁also	-8.381633
BY	-11.537750
▁TRACE	-13.415850
▁ULONG	-11.615827
keys	-11.960293
pool	-11.266423
▁ss	-13.278736
DT	-11.931091
▁def	-13.678066
pair	-11.912675
▁union	-11.046518
help	-11.814930
▁peer	-12.422766
gc	-11.821335
Attribute	-11.645082
▁multi	-12.235456
▁sqlite	-12.284300
▁gpio	-13.522494
Resource	-11.610063
COMP	-11.863904
▁Elab	-18.862859
fe	-11.371712
tx	-10.617796
▁unlikely	-13.773511
▁General	-10.469365
▁FT	-11.973336
▁append	-13.196393
url	-11.524181
auth	-11.780844
▁because	-10.663489
▁dw	-12.587562
Reset	-11.575031
CL	-11.777081
▁ssize	-12.419824
lv	-12.020381
bb	-11.659742
CON	-11.643611
Return	-11.709732
lo	-11.370049
▁NUM	-13.963318
Debug	-11.512085
DIR	-11.714629
ast	-11.936010
se	-11.017932
FLAG	-11.246458
dd	-11.721900
▁now	-10.581151
de	-10.224898
ret	-9.277276
▁style	-10.919028
▁uParam	-14.089755
fill	-12.027612
▁prop	-13.349534
▁png	-13.016366
▁PARTICULAR	-11.393272
OK	-10.321101
OPT	-11.815317
▁final	-11.176504
FIFO	-12.031617
tc	-11.768160
em	-11.231094
main	-11.262360
BC	-11.806276
▁COLOR	-15.038010
Un	-11.447003
▁MBEDTLS	-12.138362
Internal	-11.527738
▁VK	-12.381537
NS	-10.511425
▁modify	-11.688681
▁PWM	-12.584696
▁ssl	-13.262351
▁PCI	-12.442103
▁content	-11.672998
▁adapter	-12.892804
mat	-11.699377
HTTP	-11.720246
Token	-11.637505
Method	-11.433222
▁view	-11.916383
mul	-11.976596
▁show	-11.335942
▁Public	-10.616404
Bits	-11.759535
▁received	-11.073429
PROTO	-11.365899
BASE	-11.036641
UART	-11.607542
Mem	-11.769640
Delete	-11.519510
▁snd	-12.416195
▁platform	-12.196045
▁store	-11.898874
▁win	-12.196003
▁proto	-13.666730
row	-10.860094
TDMETHODCALLTYPE	-11.665988
blocks	-12.282105
▁bad	-11.656695
▁lua	-12.889184
▁chunk	-12.620507
▁high	-11.162625
▁skip	-12.220810
As	-11.539562
core	-10.920967
SUB	-11.737323
abs	-11.891139
Msg	-11.813826
PB	-11.992630
▁PA	-12.708836
cr	-11.625325
▁events	-10.952343
SRC	-12.002324
▁php	-14.038723
status	-9.972235
script	-11.543446
▁library	-11.525731
▁heap	-12.570847
nd	-10.620684
ear	-12.005523
▁CONST	-13.262236
Float	-11.748530
▁written	-10.817236
▁GB	-12.021678
EM	-12.064773
cell	-11.857087
▁extra	-12.181558
page	-10.807947
Meta	-12.032446
▁usb	-12.675730
DR	-12.090200
AM	-12.213467
act	-11.545081
MOD	-11.869188
pad	-11.681106
▁your	-10.092373
RD	-11.830590
entry	-10.324934
sf	-11.817654
▁XF	-16.121085
Vec	-12.062603
▁WIN	-13.118947
LL	-11.275435
▁whether	-11.174145
MEM	-10.920527
MAX	-10.009163
blk	-11.991188
CHAR	-11.473714
▁otherwise	-11.421084
▁macro	-12.533570
view	-11.018745
pa	-11.296880
ui	-11.056463
Clock	-11.889513
TCP	-11.759347
LOAD	-11.889796
▁stride	-13.135418
vp	-11.978596
▁ngx	-12.145896
ION	-12.148472
ue	-11.648446
cf	-12.024797
round	-12.309605
▁always	-11.319288
pl	-11.631752
▁dma	-13.445530
attr	-11.002060
▁slot	-12.494944
cd	-11.794213
tt	-11.785222
IM	-12.030354
LA	-11.448361
Packet	-11.853376
BITS	-11.972266
▁region	-11.797959
▁Note	-11.339425
▁seq	-13.131717
card	-11.481695
▁tuple	-12.855482
dm	-11.986135
NUM	-11.249384
context	-10.276840
▁spin	-13.818384
▁BEGIN	-12.884280
rows	-11.960546
CI	-12.140870
AN	-11.888176
▁noexcept	-11.919765
▁ui	-13.115280
Params	-11.780027
▁back	-10.966769
▁PIO	-13.130558
Impl	-11.675600
Width	-11.749291
▁KIND	-11.776548
Shift	-12.126301
▁names	-11.436933
▁IRQ	-13.326882
uc	-11.840861
Invalid	-11.712017
CA	-11.927564
▁Return	-11.042132
Buf	-11.891588
ALT	-12.205045
dv	-12.378895
seq	-11.422399
PE	-11.916483
ak	-12.020302
▁ARRAY	-13.497710
▁xFFFF	-21.558230
RX	-11.082761
Rect	-11.873360
asm	-11.635025
▁Aws	-12.042011
▁NS	-12.264679
▁tcp	-13.189196
▁GLsizei	-12.750039
ma	-10.131056
oid	-11.899725
sel	-11.618074
DEFINE	-11.558731
item	-10.771980
field	-10.531284
sl	-11.416496
▁UNUSED	-13.586684
tb	-11.978210
di	-11.403556
▁Enable	-11.603212
types	-11.136106
la	-11.220730
▁USER	-12.896521
▁layer	-12.304827
▁contains	-11.473059
▁settings	-12.060193
ctl	-11.606071
Do	-12.032310
Bool	-11.708802
am	-11.219873
▁ops	-14.882271
format	-10.782763
Not	-11.834370
bin	-11.455796
Iterator	-11.709530
▁since	-11.008739
XML	-11.589253
▁AV	-12.252879
te	-11.053487
bytes	-10.915564
▁runtime	-12.744747
HASH	-11.821937
▁failure	-11.629065
▁counter	-12.200436
Failed	-11.903755
CK	-12.140454
▁readonly	-12.710052
Disable	-11.766458
Access	-11.598822
▁dump	-13.006999
bd	-12.016503
Parser	-11.944384
digit	-12.448381
graph	-12.006518
▁ap	-13.095810
IE	-12.045801
Next	-11.629307
▁ATTR	-15.055079
▁assign	-13.025905
group	-10.432861
fp	-11.028916
▁EINVAL	-13.144120
PATH	-11.730059
▁symbol	-12.401021
▁second	-10.977607
exec	-11.467955
entity	-12.365266
▁files	-11.594738
▁needed	-11.501098
doc	-11.472967
REQ	-12.032415
ia	-10.915161
▁de	-10.384624
▁note	-12.835536
▁between	-10.496933
Tag	-11.609399
▁transaction	-11.913821
bind	-11.831474
PT	-11.986727
Tensor	-12.204148
Print	-11.568492
Addr	-11.976065
Struct	-11.922169
ti	-11.591205
ok	-11.116723
▁except	-11.445063
Action	-11.627144
Store	-11.644747
▁description	-11.526514
CONTROL	-11.996309
queue	-10.765786
▁FUNC	-14.443278
Stack	-11.753574
bf	-11.863656
▁mark	-12.486480
lhs	-12.138705
▁DECL	-13.063018
▁support	-10.948894
pb	-11.913471
AA	-12.213985
px	-11.402983
▁pkt	-13.765510
tmp	-10.350416
NG	-11.834389
▁sequence	-11.950541
▁search	-11.927648
FE	-11.838025
By	-11.711038
ge	-11.298233
result	-9.869228
▁component	-12.272533
Session	-11.782131
go	-11.380982
▁elif	-13.307573
▁ff	-14.682223
FLOAT	-11.917123
▁MEM	-13.659121
da	-10.959508
ct	-11.807625
▁implied	-11.501132
▁generated	-11.724668
Initialize	-11.581670
▁expr	-13.106145
▁arguments	-11.663991
FP	-11.861782
PL	-11.892839
Descriptor	-11.804123
▁lpVtbl	-16.430600
swap	-11.767188
ib	-11.833858
Display	-11.756693
▁NEXT	-14.704048
▁space	-11.452588
nv	-11.848823
▁documentation	-11.563117
Reserved	-11.808479
CONTRACT	-13.117193
▁transfer	-12.066142
Select	-11.721925
▁font	-12.543532
ap	-10.705090
ext	-10.904247
age	-11.304021
▁reply	-12.987412
▁COPYRIGHT	-11.781262
tail	-11.948862
▁allocated	-12.127151
br	-10.530697
App	-11.767787
▁FF	-14.635688
▁surface	-12.397283
lower	-12.446157
Parameter	-11.811918
▁network	-11.729375
▁ROUTE	-16.923658
▁protected	-10.301817
▁pending	-12.724942
Parse	-11.724774
▁shape	-12.643723
direct	-12.183554
ba	-11.078829
event	-10.373748
Connection	-11.678244
less	-11.311609
STRING	-11.078032
dma	-11.378346
OC	-12.113547
▁comp	-13.350017
STACK	-11.874663
CMP	-12.196071
▁xFFFFFFFF	-87.803404
SL	-11.926273
FLAGS	-12.013705
Controller	-11.724073
CORE	-11.896333
speed	-12.201580
▁select	-12.270074
uv	-12.018134
sg	-12.145336
▁character	-11.405417
▁objects	-11.722337
side	-11.457449
ENTRY	-11.106899
▁payload	-12.616495
curr	-11.964728
ie	-11.152301
PD	-12.078281
OFF	-11.887064
SS	-11.888221
assert	-10.320939
▁ARM	-12.927641
▁associated	-11.406359
▁llvm	-12.637690
▁being	-10.629516
Find	-12.419159
TEXTURE	-11.892759
▁application	-11.475933
BIT	-10.816401
date	-11.632249
Byte	-11.888381
check	-10.509352
DS	-11.711458
Tree	-11.632387
ME	-11.894184
initialize	-11.421771
▁directory	-11.846925
▁bp	-13.488469
ES	-11.742279
win	-10.959948
ir	-11.468875
▁terms	-11.259031
Ex	-11.909182
▁remote	-12.385612
▁emit	-12.653593
rep	-12.005780
util	-11.343544
▁bcm	-12.646363
POS	-12.028910
ack	-12.196395
▁disclaimer	-11.663402
so	-11.099764
▁draw	-12.141487
pg	-11.365926
VT	-12.066578
▁container	-12.633830
align	-10.322017
mv	-12.239025
BB	-12.044013
▁storage	-12.307156
ep	-11.329964
bi	-11.322696
board	-11.741017
First	-11.835091
▁want	-11.034421
STREAM	-11.992985
▁vscale	-16.207504
son	-11.072005
▁retain	-12.117026
bar	-11.354657
CE	-11.977353
▁scan	-12.638328
▁got	-11.602217
scan	-11.481454
▁ep	-13.579242
object	-9.950091
eq	-11.586477
▁BLE	-12.860635
thread	-10.626763
▁fmt	-13.044838
Args	-11.929315
▁alpha	-12.728816
DP	-12.032421
scope	-11.963490
ci	-11.663434
mt	-12.007287
gp	-12.141243
np	-11.831265
SPI	-11.390588
▁STATIC	-12.333601
Button	-11.656203
▁about	-9.878685
▁dim	-13.336595
dbg	-12.129538
▁sock	-13.265709
Reference	-11.586464
▁os	-12.467066
rp	-12.015837
Parameters	-11.541975
src	-10.520492
div	-10.722588
▁rate	-12.169589
open	-10.728154
▁sig	-12.840731
LCD	-12.895807
cond	-11.869717
RA	-12.306980
cert	-11.954973
▁LEVEL	-16.937539
TR	-11.879581
▁MPI	-12.862438
WORD	-11.540541
DO	-11.587224
▁optional	-12.418345
▁PHP	-12.083424
▁complete	-11.910487
Host	-11.685982
YTHON	-11.958004
Kind	-11.845676
▁even	-10.869773
▁cleanup	-11.718437
mark	-11.392150
DF	-12.158136
slice	-12.325374
Min	-12.057683
▁sample	-12.316841
▁lookup	-13.061283
arm	-12.093837
▁basic	-12.455172
af	-11.884166
cons	-12.709356
vt	-12.245302
DIS	-11.958254
vector	-10.263622
seg	-12.336163
▁stbi	-12.584760
▁build	-12.006190
bc	-12.012046
▁pixel	-12.832123
width	-10.671508
Configuration	-11.829939
BE	-11.689845
CP	-11.918570
▁shader	-13.224107
▁sent	-11.683516
rule	-12.261647
length	-10.282075
Layout	-11.647667
▁scalar	-12.607297
nc	-12.010235
Bytes	-11.890961
TE	-12.191086
▁rb	-13.021772
Font	-11.887478
ho	-12.374499
▁MODULE	-13.246747
del	-11.704629
CHANNEL	-12.130342
▁iter	-13.507331
mon	-11.602883
CAP	-12.001755
▁these	-10.558946
CD	-10.915059
arr	-11.966538
join	-12.243171
LED	-11.948993
▁licenses	-13.499019
▁domain	-12.565666
▁Redistributions	-11.745726
MB	-11.671105
▁ASN	-13.325770
df	-12.039609
▁cplusplus	-18.583679
Identifier	-11.844583
▁bitmap	-13.111830
▁EXTI	-13.292051
▁LONG	-13.328732
▁bus	-12.563113
diff	-11.974708
ops	-11.238659
Change	-11.638560
text	-10.291502
▁created	-11.142475
▁could	-10.633707
▁changed	-11.732478
rm	-11.466322
▁language	-11.449248
Record	-11.865545
AB	-12.007965
Rx	-12.188380
lc	-11.980806
▁DAMAGES	-11.904444
FORM	-11.937236
Storage	-11.875328
Cmd	-11.995927
CONNECT	-12.669681
dy	-11.526341
uart	-12.074617
▁ADD	-13.772494
▁pthread	-12.435308
GP	-11.990726
AS	-11.268185
sys	-10.604718
▁permission	-11.540693
▁cannot	-11.598539
HEADER	-11.897338
CU	-12.083551
MR	-12.188802
▁decode	-13.407605
Pin	-12.403421
URL	-11.691745
Label	-11.751697
float	-10.215735
EQ	-12.083989
handle	-10.496784
meta	-11.605802
SIG	-11.870620
close	-10.561084
▁HAS	-13.838198
uct	-13.854788
Operation	-12.048432
normal	-12.348609
fl	-11.931393
gt	-12.063250
Layer	-11.964654
hal	-11.798929
RS	-11.973483
lf	-12.723004
byte	-10.979502
▁compiler	-12.438398
HOST	-12.105150
▁NI	-12.760069
rate	-11.346304
▁them	-10.402451
part	-11.385698
▁CRYPTO	-13.333530
SYNC	-12.080060
▁DEF	-13.324056
PROP	-12.239751
▁equal	-12.331605
DEF	-11.448564
TEST	-10.949358
▁they	-10.004320
ity	-10.852448
ARG	-11.023485
▁bfd	-12.410082
MSG	-11.328494
COL	-12.000968
Link	-11.702515
added	-13.259772
button	-12.172637
RNA	-12.703425
ITEM	-12.131113
pages	-12.283870
tile	-11.279880
CONTEXT	-12.108894
▁EVP	-12.646882
▁FROM	-12.252977
▁vertex	-12.957181
▁Inc	-11.359976
est	-11.505364
IMAGE	-12.046852
ai	-11.896881
RGB	-12.114813
Media	-12.052087
Library	-12.129888
▁google	-14.372694
OPEN	-11.817244
CLIENT	-12.117699
▁through	-10.637886
ERROR	-9.886085
▁tv	-13.603590
▁friend	-11.759289
opts	-12.145649
bus	-11.473295
Transform	-11.993014
ml	-11.853456
PAD	-12.384145
▁generic	-12.517675
▁trace	-12.863933
▁RESET	-14.719131
▁LENGTH	-17.112840
▁opcode	-12.883926
▁expression	-11.719468
▁EXPRESS	-11.973410
▁metadata	-12.659008
RF	-12.182647
▁extension	-12.185603
drv	-11.990866
ht	-12.179550
▁allow	-11.882882
Enum	-12.019604
CLOCK	-12.162973
ro	-11.531865
▁AES	-13.482719
▁DECLARE	-12.471861
▁OTHER	-12.234959
Audio	-11.813823
Draw	-11.282198
▁writing	-11.487239
Null	-11.985501
OID	-11.957317
lu	-11.994714
SH	-12.041299
▁based	-10.649314
▁mk	-14.179131
▁drm	-12.558653
COPY	-11.874059
▁controller	-12.279408
FILTER	-12.117128
store	-11.332957
▁START	-13.830419
iter	-11.390131
▁priority	-12.455350
▁pipe	-12.947470
▁INTERFACE	-16.172767
menu	-12.195855
eb	-12.184069
arch	-11.728587
▁td	-14.311155
BR	-12.017646
disk	-12.580006
Decl	-12.060382
Space	-11.851558
vi	-11.954185
PF	-11.646622
▁ARGS	-15.838832
nl	-11.878881
ft	-11.771010
MEMORY	-11.925058
head	-10.677841
FRAME	-12.235965
img	-12.280343
▁codec	-13.472570
▁inst	-14.059599
FREE	-11.890372
▁TLS	-13.191967
FIX	-12.322175
FMT	-12.197501
▁winrt	-13.599901
Template	-11.942678
▁selected	-11.797343
▁setting	-11.902305
▁verify	-12.708501
Match	-12.350070
Idx	-12.252555
TMP	-12.762458
par	-11.609236
▁body	-11.813943
Async	-12.201536
SI	-12.009072
▁member	-11.439976
ix	-11.866608
▁pattern	-12.427271
Last	-11.892273
ni	-11.560866
▁fast	-12.608347
▁distribution	-11.355381
ARRAY	-11.475992
Make	-12.681538
▁limit	-12.313178
ri	-11.574251
▁FLASH	-13.102263
new	-9.899539
▁compare	-12.802393
ACTION	-11.982079
▁passed	-11.702088
▁recv	-13.639047
trigger	-12.645222
Remove	-11.853239
▁LIABLE	-11.960621
▁PROVIDED	-12.026412
prod	-13.374201
print	-10.944456
RES	-12.204120
▁explicit	-12.066121
▁CTX	-15.545574
▁GLfloat	-12.875449
complex	-12.329692
aa	-12.191528
lines	-12.035463
▁SHALL	-11.982874
com	-10.050829
▁netdev	-13.047430
▁instead	-11.539114
▁RE	-12.624852
▁later	-10.882234
RM	-12.540659
▁transform	-12.525830
▁DISABLE	-15.211553
▁wx	-12.595442
At	-11.871197
▁pdev	-14.301101
COM	-11.842435
GROUP	-12.130886
il	-11.654639
▁channels	-12.271876
LOW	-12.302157
▁allocate	-12.291101
RE	-11.340835
Multi	-11.806525
▁errors	-12.096539
▁WHETHER	-11.998926
param	-9.186396
▁BT	-13.047206
like	-11.434392
▁AUTO	-14.505706
HI	-12.306799
wr	-12.148910
fi	-11.584394
Or	-11.778578
STRUCT	-12.094682
▁DECREF	-17.505426
▁maximum	-11.918589
▁such	-10.578796
▁INPUT	-14.215929
DA	-11.971065
tls	-12.034494
▁master	-12.538582
VA	-12.154290
▁FAILURE	-13.188072
▁buff	-14.329079
▁delta	-12.946583
ea	-11.918893
CONF	-12.205234
IL	-11.973080
▁delay	-12.852487
AF	-11.630880
red	-11.412437
FUNC	-11.270610
CSR	-12.510297
▁methods	-11.589709
ature	-13.236071
Container	-11.904434
▁previous	-11.690133
TEXT	-12.072777
▁actual	-11.944806
Protocol	-11.779303
▁ABI	-13.211773
ins	-11.369666
aw	-12.538932
wl	-12.181732
split	-12.068673
SEC	-12.042019
ust	-13.257718
CNT	-12.567329
INIT	-11.149852
▁PYX	-18.716321
qp	-12.497198
Only	-12.424240
GE	-12.054708
▁possible	-11.361226
sv	-12.066326
▁OBJECT	-14.979220
comp	-11.253521
ADDRESS	-12.217969
▁flush	-13.169725
Component	-11.837867
▁timestamp	-12.638781
▁encoding	-12.618582
sig	-11.616610
▁ARISING	-12.153380
▁both	-10.844107
▁Apache	-11.978683
ram	-11.852695
ost	-13.019561
PA	-12.061247
CT	-12.038447
dx	-12.320574
LINK	-12.051820
▁kind	-12.081290
Style	-11.666676
Row	-11.870723
vl	-12.478444
MI	-11.826669
MUX	-12.209059
RB	-12.133586
TIMEOUT	-12.197574
LD	-12.145536
▁METHOD	-15.766822
EXIT	-11.773802
NL	-12.150200
▁sin	-13.545396
▁different	-11.025379
▁step	-12.122011
vars	-12.246811
MA	-12.333308
▁points	-11.568394
▁keep	-11.675508
Settings	-12.008644
▁simple	-12.064394
work	-11.208125
dl	-11.952904
▁too	-11.237602
▁screen	-12.380596
▁uni	-14.055716
Height	-11.961482
VER	-11.939711
US	-11.443033
face	-12.221071
BF	-12.172231
▁FAIL	-12.917394
▁async	-12.930593
▁builtin	-13.691446
Term	-12.410068
▁mapping	-12.692104
adj	-13.012333
manager	-12.243991
EW	-12.468837
GET	-10.647087
▁post	-11.842610
▁segment	-12.591058
JS	-12.000520
CACHE	-12.161079
▁WINAPI	-11.875203
snprintf	-12.355917
sem	-12.082257
by	-10.836261
▁INTERNAL	-15.373803
receive	-12.376348
▁CONTRIBUTORS	-12.035369
ort	-12.742093
proxy	-12.415606
▁safe	-12.512654
▁elem	-13.741469
▁including	-10.919317
▁present	-11.559120
aux	-11.997582
NC	-12.101078
Socket	-12.066220
IV	-12.093015
▁crypto	-12.821608
▁items	-12.366023
▁multiple	-11.449783
Network	-12.130332
ind	-12.113825
RANGE	-12.224736
bio	-12.144305
rea	-12.430142
NR	-11.977882
▁would	-10.180675
RESULT	-11.974046
▁TODO	-12.013311
SA	-12.326639
cycle	-12.516033
▁compute	-12.332960
bot	-12.072270
▁machine	-12.363098
▁area	-11.177640
bucket	-12.478089
Option	-12.086855
▁xFE	-19.220022
rpc	-12.165107
WS	-12.320413
Auto	-12.160576
▁YY	-12.374765
▁apache	-14.615090
way	-11.931926
Close	-11.648047
▁merge	-12.615370
▁layout	-12.531472
▁original	-11.271689
sta	-12.089504
ment	-10.768016
ot	-11.893358
▁edge	-12.400641
▁external	-12.180308
Video	-11.979435
Cell	-11.746456
NT	-11.983411
Box	-11.582974
▁ipv	-13.590192
job	-12.635530
▁ROM	-13.287133
▁caller	-12.151500
▁example	-11.244635
▁warning	-12.382221
ae	-11.626552
fr	-12.216378
Location	-11.326788
ice	-12.162664
▁what	-10.422455
sensor	-12.555020
▁https	-12.015300
▁report	-12.010329
▁execute	-12.300086
fw	-12.038827
limit	-11.458611
copy	-10.760674
sr	-12.131653
▁nb	-13.286267
GR	-12.471981
Compare	-12.193763
tp	-11.082897
wm	-12.199924
▁APP	-12.615887
ii	-11.704027
family	-12.132136
▁factor	-12.225907
▁signed	-13.316630
Pool	-11.754607
WIDTH	-12.223318
profile	-12.284431
▁PyErr	-12.301590
▁database	-12.046100
pe	-11.452425
Double	-12.133527
▁OTHERWISE	-12.191191
▁attributes	-12.240033
Active	-11.873698
WAIT	-12.232409
ARE	-11.598535
Render	-12.050502
▁vtk	-12.167724
dot	-12.012991
ise	-12.357239
▁copies	-11.769221
▁video	-10.956543
▁Tcl	-12.405050
Def	-11.953028
phy	-11.685994
MESSAGE	-12.195583
compress	-12.340576
▁endpoint	-12.589704
▁zval	-13.999190
wp	-11.819024
conv	-12.281695
▁registers	-12.170230
SOURCE	-12.229467
owner	-12.150473
unused	-12.592146
BACK	-12.111020
ids	-11.908290
case	-8.548523
Sync	-12.092703
AND	-11.770766
Real	-12.348589
BN	-12.182786
half	-12.736533
▁stmt	-14.283622
▁cluster	-12.553272
bound	-11.832996
▁until	-11.061717
loop	-11.519346
cu	-12.040941
Counter	-12.093240
▁TORT	-12.150753
POINT	-12.113422
Vk	-11.945521
tk	-12.363957
▁instruction	-12.190206
TH	-11.828664
▁calls	-12.023254
▁DAC	-13.389300
PI	-11.909658
▁custom	-12.572856
next	-10.121365
▁constant	-12.323371
EE	-12.409390
▁APB	-14.253579
eth	-12.026984
▁PAGE	-13.534017
POWER	-12.193868
▁BAD	-14.683031
DD	-12.202738
poll	-12.042919
▁wchar	-13.049164
expr	-11.657341
▁NRFX	-12.050010
▁encode	-13.729296
THREAD	-12.042252
▁during	-10.687281
▁apply	-12.165702
▁SOC	-13.493504
Private	-12.361413
Inst	-12.394518
FR	-12.413466
boolean	-12.034069
▁WARRANTY	-11.947354
axis	-12.696294
▁initial	-12.097587
LT	-12.544539
bm	-12.348313
SYMBOL	-12.091124
JSON	-11.960160
plane	-12.546952
▁rect	-13.469036
▁policy	-12.058521
Variable	-12.108121
▁EXTERN	-12.650578
et	-11.149851
flash	-12.653454
pix	-12.411223
Sample	-12.064682
angle	-12.206354
FN	-11.936147
lt	-12.141133
▁usage	-12.233556
STOP	-12.365451
bool	-9.632883
REGISTER	-12.222915
▁When	-11.163185
▁mbedtls	-12.642583
LOCAL	-12.155358
ept	-13.911130
▁force	-12.146102
▁pixels	-12.765340
grid	-12.607396
zone	-12.372264
Wait	-11.960225
generate	-12.575024
DESC	-12.243297
media	-12.023276
ALIGN	-12.197864
▁running	-11.851965
▁within	-11.106750
NEW	-12.063932
▁ETH	-13.206641
notify	-12.137077
▁sprintf	-12.875205
temp	-11.110191
▁OUTPUT	-14.633231
ADC	-11.777359
edit	-12.502885
hook	-12.230240
▁doesn	-11.650726
▁audio	-12.611009
conn	-10.905695
light	-12.034084
Stmt	-12.078788
Content	-11.685322
▁below	-11.394762
▁engine	-12.659448
lineno	-12.928158
Define	-13.899451
▁track	-12.018823
sock	-11.469781
pw	-12.474911
▁direction	-12.204234
Pre	-12.276238
Region	-12.249982
Interrupt	-12.769899
▁obtain	-11.635770
UTF	-12.279313
▁DIRECT	-12.556533
cv	-12.227999
▁serial	-12.796477
fix	-12.228504
▁fixed	-12.378830
Stop	-11.910897
LONG	-11.366109
ff	-10.969870
EC	-11.720161
▁slave	-12.839025
▁glGet	-13.281114
Run	-12.346484
▁protobuf	-14.321147
Assert	-11.963603
▁TARGET	-13.527320
ISR	-12.602643
world	-12.247837
mu	-11.935670
▁eval	-13.696758
partition	-12.672865
ls	-11.623182
▁best	-11.342587
pic	-12.687184
frames	-12.674562
▁ESP	-12.823106
Build	-11.928502
UInt	-12.305191
CLR	-12.572276
HasBeenSet	-12.433842
PRINT	-12.244002
trace	-11.639327
▁random	-12.428920
cipher	-12.236324
▁results	-10.786428
▁feature	-12.125363
dist	-11.847849
▁take	-11.233235
▁NVIC	-12.774230
▁identifier	-12.532022
▁CRC	-13.181150
▁avoid	-11.948916
rq	-12.418317
Destroy	-11.888753
Enabled	-12.175278
▁WARNING	-13.680793
Has	-12.317089
WR	-12.239573
▁disabled	-12.314342
▁pop	-12.291132
crypt	-11.619435
▁sure	-11.548903
render	-12.095336
disp	-12.488803
mx	-12.600052
FEATURE	-12.311983
▁variables	-11.891837
▁MONO	-12.866904
FA	-12.059029
RO	-12.147103
EB	-12.312934
plan	-12.133294
oc	-11.606266
own	-12.495999
Common	-12.235022
upper	-12.733503
COMMAND	-12.378570
nk	-12.271547
▁nodes	-12.520047
▁insn	-13.443029
vc	-12.214555
▁unknown	-11.812337
ANT	-12.244123
▁throw	-12.474235
RST	-12.770072
▁SQLITE	-12.521087
font	-11.678877
math	-10.791290
socket	-11.473864
Builder	-11.977494
▁QString	-12.468944
▁SPECIAL	-12.310781
Oid	-12.155968
top	-11.084117
cx	-12.415160
▁stored	-12.135435
▁needs	-11.814287
PWR	-12.640009
ABLE	-11.748369
▁APIENTRY	-12.453862
ator	-11.674956
▁none	-11.952395
▁forward	-12.191669
support	-12.239709
ws	-12.145224
ha	-11.634495
▁definition	-12.096204
▁NAMESPACE	-15.072929
Word	-12.351735
▁synthesize	-15.900957
ency	-12.481987
Generic	-12.061536
▁properties	-11.845034
▁permissions	-11.822622
▁interval	-12.976848
▁special	-11.625004
▁sha	-13.987808
bs	-11.702876
▁stdio	-15.064488
Net	-11.801026
DM	-12.312575
CLEAR	-12.353356
hp	-12.105575
probe	-12.486386
boot	-11.954699
BA	-12.364540
▁xfe	-20.960499
Spec	-12.074484
▁fetch	-13.401074
▁buffers	-12.576834
stats	-11.377955
alias	-12.743014
STD	-12.019216
USB	-11.380806
ACTIVE	-12.308042
CREATE	-12.366712
Vertex	-12.154195
Scan	-12.108240
Shader	-12.223941
ance	-11.500306
ACCESS	-12.223893
Graph	-12.109285
root	-11.207672
fa	-11.927768
KERNEL	-12.259111
LABEL	-12.327123
ren	-12.883143
Unit	-12.250971
▁fff	-20.753878
ive	-11.609535
▁native	-12.275013
PK	-12.595110
▁FAR	-13.706349
ENUM	-12.284329
abi	-12.268460
▁DEFINED	-16.302181
▁allowed	-11.950131
title	-11.875759
TI	-12.397101
wrapper	-12.208672
dynamic	-12.541779
▁subject	-11.645133
GPU	-12.250061
▁ACPI	-12.521516
Loc	-12.195932
▁operations	-11.734724
ble	-11.982117
html	-11.549697
Shape	-12.261202
slot	-11.609877
CPU	-11.698272
alt	-12.014569
▁mesh	-13.241479
SUPPORT	-11.485470
HIGH	-12.452212
▁WM	-12.514297
resp	-12.427656
AV	-11.674916
Up	-11.994814
NOT	-10.941118
▁StringCopy	-17.575891
▁transport	-12.118580
CONFIG	-10.186892
tom	-12.358659
Any	-12.587988
CO	-12.308830
MOVE	-12.458416
SB	-12.320246
IMPL	-12.313802
▁threads	-12.687583
ULL	-12.633823
True	-12.270837
drop	-12.272256
sk	-10.888697
Web	-12.030457
tty	-12.227113
nt	-11.769794
ger	-11.885498
▁destination	-12.314205
INDIRECT	-12.221108
▁columns	-12.500523
one	-10.867348
▁allocator	-13.019053
▁stm	-13.225255
Search	-12.238519
▁overflow	-12.444227
Power	-12.517870
tbl	-12.417190
BUS	-12.389006
filter	-11.238409
▁dispatch	-13.025225
ant	-11.541263
▁how	-10.861803
Setup	-12.219737
tor	-11.624457
operand	-12.655889
▁initialized	-12.411012
guard	-13.032490
▁uses	-11.395197
blob	-12.696699
MIN	-11.205285
PARAMETER	-12.263739
▁xffffff	-44.587063
Widget	-11.986754
▁PY	-13.220256
mouse	-12.673063
Mesh	-12.277285
most	-12.563741
▁express	-11.959183
Cluster	-12.302275
IA	-12.321622
ADD	-11.632728
Non	-12.127835
Save	-11.984060
ONLY	-12.134140
BSD	-12.078292
Driver	-12.069549
rb	-11.662426
man	-10.263562
BD	-12.147926
cpp	-12.279272
txt	-12.195616
number	-10.916831
Convert	-12.081390
HP	-12.059582
mf	-12.529159
Surface	-12.229854
SAM	-12.947190
rand	-12.409717
sup	-12.605242
Can	-12.454627
rx	-11.001391
▁headers	-12.684073
ready	-12.442485
▁lambda	-13.908141
Step	-12.320708
sql	-12.183212
Column	-12.140101
imm	-12.518886
Delegate	-12.262745
ole	-12.767842
EA	-12.464122
MF	-12.221013
▁aws	-15.425116
AE	-12.401393
NF	-12.742200
▁backend	-12.923218
gre	-13.161290
▁derived	-12.016323
SYSTEM	-12.331042
Capture	-12.432323
Alloc	-12.322758
weight	-11.927805
Pass	-12.399470
SE	-11.646341
TREE	-12.387428
Err	-11.951697
ver	-11.288977
Proc	-12.206986
CHECK	-11.019387
fmt	-11.716763
pv	-12.022099
▁STRICT	-12.397255
▁soc	-13.779173
Properties	-12.010285
LV	-12.393605
HD	-12.103316
DL	-12.331990
Policy	-12.226120
Lib	-12.067677
Reader	-12.093578
Script	-12.047108
WARN	-11.806635
DEBUG	-10.508847
iod	-13.390046
dr	-11.800832
▁esp	-13.418697
Application	-11.869534
LY	-12.003803
ctxt	-12.379190
long	-10.624836
rank	-12.635750
condition	-12.527375
cost	-12.580847
wc	-12.419913
RET	-12.098322
fifo	-12.509522
vf	-12.648819
IX	-11.946567
CAL	-12.877301
tid	-12.411680
DI	-12.368715
ization	-11.579498
VPROC	-12.386632
▁uuid	-13.884252
Program	-12.179198
Insert	-12.236084
que	-11.802034
hw	-10.953105
▁fini	-15.609582
▁prior	-11.620633
Types	-11.804884
▁completion	-12.542251
indices	-13.032585
▁amount	-11.950234
constr	-12.787791
rr	-12.310319
reader	-12.546116
inner	-12.558674
▁might	-11.337444
Left	-12.211771
UPDATE	-12.381598
Allocator	-12.286049
BT	-11.812203
▁means	-11.566863
ne	-11.194052
Helper	-12.117495
ATTRIBUTE	-12.443977
RSA	-12.437809
▁included	-11.361702
TIMER	-11.864663
dummy	-12.785488
dec	-10.160246
batch	-12.799628
QUEUE	-12.365210
nor	-12.763320
Factory	-12.010670
▁applicable	-11.826062
tuple	-11.665936
run	-11.087003
match	-11.121626
unk	-12.813612
mov	-12.040786
dns	-12.535440
ACC	-12.633335
prop	-11.496271
Date	-12.047925
routine	-13.731706
SG	-12.349097
color	-10.843692
SQL	-11.979831
NUMBER	-12.353939
ig	-11.699983
▁threshold	-12.756578
REQUEST	-12.318546
▁utf	-13.385324
▁XK	-13.332950
return	-7.315526
▁compliance	-12.026418
KHR	-12.573076
FAILED	-12.188308
Used	-12.218979
It	-11.553017
▁uintptr	-13.399408
client	-10.764559
▁contents	-12.400196
▁grpc	-13.258817
Move	-12.138419
▁via	-11.787519
rl	-12.210833
ssl	-11.443525
timer	-11.332657
▁EC	-12.803986
Win	-11.716582
▁ignore	-12.461276
▁strong	-11.998245
typ	-12.454959
▁least	-11.508122
mr	-12.304135
NI	-11.665378
fname	-12.447529
De	-12.030379
PNG	-12.303593
LO	-12.460392
FL	-12.289104
Loop	-12.172297
SOCKET	-12.282409
▁currently	-11.654523
▁ieee	-13.043977
uid	-12.119606
Long	-11.792740
Attributes	-12.213034
decl	-11.873504
VALUE	-11.162478
cookie	-12.779272
CY	-12.390273
▁modification	-11.965518
DEC	-11.141981
Pixel	-12.355352
sets	-12.760831
SERVER	-12.032904
▁sockaddr	-12.480602
Scalar	-12.351021
▁xmm	-13.666325
Values	-12.144374
▁AWS	-12.959484
ize	-11.623247
RATE	-12.370111
play	-12.037584
Trigger	-12.361278
COLOR	-11.281022
center	-10.720191
Begin	-12.138471
aint	-12.920024
RING	-12.309976
params	-10.947308
Src	-12.428964
▁strings	-12.405854
▁Licensed	-12.328194
EVENT	-11.352552
Raw	-12.186151
SF	-11.736884
▁stage	-11.540069
▁isl	-13.286970
crc	-12.642621
▁useful	-11.913431
▁exists	-12.235723
utils	-12.110957
One	-12.028636
▁allocation	-12.332668
selection	-13.023416
▁messages	-12.232503
closure	-12.580470
FW	-11.897364
▁OPENSSL	-12.407659
IB	-12.206450
ACK	-12.422960
version	-10.940589
ENC	-12.602343
Allocate	-12.269683
▁small	-11.454010
▁yych	-16.318373
▁BCM	-12.742827
START	-11.578600
BM	-12.602950
dh	-12.560624
▁features	-11.773993
LEVEL	-11.502562
▁distance	-12.250934
Priority	-12.437509
DONE	-12.593704
OBJECT	-11.426140
Dir	-12.226485
Root	-12.230526
writer	-11.967748
ut	-11.694303
DLL	-12.364567
ck	-11.838994
▁requested	-12.269097
struct	-8.513519
uri	-12.013655
▁jl	-13.777862
AST	-12.329005
▁characters	-11.269455
WAY	-12.417862
ZERO	-12.287101
ve	-11.249614
▁RV	-15.560794
Section	-12.401210
nat	-12.407290
Export	-12.374861
Ext	-12.392510
Extension	-12.176706
sleep	-12.263711
Integer	-11.974318
Profile	-12.264870
Off	-12.580070
left	-10.264135
SELECT	-12.416469
Instruction	-12.028138
player	-12.390785
▁GPL	-13.322361
▁met	-11.460550
DOUBLE	-12.401932
▁UNKNOWN	-14.601053
PH	-12.427998
▁VOID	-11.382116
bp	-11.588844
bh	-12.332291
Native	-12.412180
▁UNICODE	-13.304704
Low	-12.735812
MIT	-11.955792
Information	-12.284977
TOP	-12.300411
▁secp	-13.181820
lx	-12.959625
exc	-12.568084
lex	-12.800881
Const	-12.373031
GLOBAL	-12.316971
hex	-12.380354
▁standard	-11.885132
▁still	-11.063864
Compute	-12.308512
▁did	-10.921007
digest	-12.529711
att	-12.364343
▁hardware	-12.194774
SCAN	-12.494769
ALLOC	-12.359759
route	-12.700835
IDX	-12.639284
NE	-11.845238
clip	-12.316970
project	-12.633122
BL	-12.237259
device	-10.175201
gr	-12.156818
ECC	-12.757672
tables	-12.825599
CG	-11.891517
inc	-10.578355
maj	-14.346362
▁prepare	-12.964442
Tuple	-12.264075
CV	-12.310633
▁materials	-11.802054
▁samples	-12.589716
ND	-12.107410
Proxy	-12.313831
Sequence	-12.309798
SO	-11.898424
ping	-12.131058
NB	-12.599560
strdup	-12.478622
attach	-12.548378
warn	-12.016517
Screen	-12.068818
Transaction	-12.195744
▁algorithm	-12.384044
▁WINED	-12.980339
Parent	-12.232163
▁xffffffff	-22.024749
▁negative	-12.223690
Trace	-12.372928
Expression	-12.146588
▁HOLDERS	-12.262056
▁LOSS	-12.465027
SYS	-11.147880
▁limitations	-11.480565
tensor	-12.614026
MPU	-12.973062
exist	-12.397473
mutable	-12.730841
cos	-12.459138
mux	-12.653687
DIO	-12.970779
target	-10.925450
ting	-11.607618
INTEGER	-12.479500
▁calling	-12.132686
▁PyLong	-13.153418
External	-12.640224
commit	-12.644787
Scale	-12.256051
sn	-11.946870
▁constructor	-12.164287
▁extract	-12.861385
POINTER	-12.450868
expand	-12.840264
Changed	-12.261758
inv	-12.279653
ef	-10.214177
Child	-12.205564
▁IRQn	-14.764819
ty	-11.178099
bg	-12.091133
▁soap	-12.965520
phase	-12.849765
DOWN	-12.438965
Transfer	-12.371900
▁encoder	-13.397193
leaf	-12.740535
▁governing	-11.878758
we	-12.250054
ATOM	-13.476997
▁additional	-11.482798
detail	-11.922804
▁BASIS	-12.306745
tl	-12.221901
PART	-12.447147
big	-12.266816
Valid	-12.267738
TypeDef	-12.041626
▁aligned	-13.791398
HDR	-12.603009
SEQ	-12.775713
None	-11.538335
High	-12.638635
▁RESERVED	-13.189490
Metadata	-12.375790
sched	-12.459826
Scope	-12.295365
ga	-11.821130
Rate	-12.366076
Provider	-12.374528
▁devices	-12.242133
fv	-12.601147
▁large	-11.513318
TT	-12.385562
▁their	-9.982409
schema	-12.679425
MU	-12.767791
▁SYSCTL	-13.023760
▁alignment	-12.618652
TF	-12.500578
Edge	-12.307884
ICAL	-12.325751
Ch	-12.784066
zip	-12.542774
use	-9.857209
EMPTY	-12.428875
TP	-12.077796
Zero	-12.185293
TA	-12.518242
Right	-12.295608
▁CONSEQUENTIAL	-12.372410
▁bounds	-12.914406
Engine	-12.090721
▁restrict	-13.643103
IEN	-13.457384
▁USBD	-13.295684
▁another	-11.137145
wait	-11.299082
PID	-12.656872
Menu	-12.150625
HT	-12.581326
Ret	-12.391487
PRIVATE	-12.531915
na	-11.109257
Report	-12.562629
bv	-12.779769
▁permitted	-11.997381
wrap	-12.418854
acl	-12.602377
▁intel	-13.571568
▁CONDITIONS	-12.211284
cy	-12.016023
FORCE	-12.504386
frag	-12.279667
label	-10.888133
Kernel	-12.411877
EF	-12.209975
RUN	-12.567935
nn	-12.360726
FFF	-11.951615
iov	-12.802008
TEMPLATE	-12.808620
http	-10.827900
opa	-13.089699
▁psz	-13.124114
Standard	-13.150080
▁These	-11.452884
ML	-12.163514
volume	-12.965589
▁hwnd	-13.417720
Attr	-12.522431
VP	-12.271522
RW	-12.518597
Created	-12.397624
▁PyUnicode	-13.100969
▁vacc	-13.821585
ACT	-12.307500
Selection	-12.267257
Slot	-12.502699
Temp	-12.380951
CHIP	-12.654616
Scene	-12.314878
▁relation	-12.787239
scsi	-12.629838
▁INCIDENTAL	-12.414719
TRACE	-11.576588
▁interp	-14.187973
▁kInstruction	-13.067097
comm	-12.602765
EL	-12.314163
Structure	-11.886448
hut	-13.521504
TASK	-12.524906
XXX	-12.373034
▁padding	-12.844455
Timeout	-12.423722
dup	-12.573850
vert	-12.335394
security	-12.717210
▁collection	-12.032728
▁progress	-12.452853
▁CWindows	-23.130338
ng	-11.677010
Main	-12.233442
Cursor	-12.407442
CONN	-12.416563
▁IEEE	-13.140212
Receive	-12.573699
INSTANCE	-12.685829
▁summary	-12.113506
prog	-12.335065
MATRIX	-12.726752
GT	-12.210392
adc	-12.666356
DRIVER	-12.503300
names	-11.845893
▁BIO	-13.469042
image	-10.835915
ag	-11.933977
AUDIO	-12.592727
compile	-11.784561
FULL	-12.598870
READ	-11.205778
PASS	-12.288816
matrix	-11.767523
▁errmsg	-13.066146
▁scene	-12.530911
mgr	-12.663936
dis	-10.524288
▁xdc	-14.934975
▁ioctl	-13.828932
cont	-12.388775
sq	-12.504486
atom	-11.797941
step	-11.940288
▁never	-11.335830
DRV	-12.739165
▁PROFIT	-12.524035
SV	-12.423084
mg	-12.815783
▁saved	-12.649758
▁GTEST	-13.058099
vk	-12.575887
ph	-11.939616
▁forms	-11.866280
band	-11.952300
select	-11.495474
ers	-10.378873
hf	-12.772632
rev	-12.343140
▁changes	-11.608775
▁clang	-12.656714
FUN	-12.501954
Heap	-12.443942
alg	-12.576170
▁wined	-12.952966
▁IDirect	-12.902177
tick	-12.416662
pu	-12.319097
server	-10.998280
SZ	-12.632042
Document	-12.181569
EQUAL	-12.665051
▁commands	-12.488992
GS	-12.365617
js	-11.845935
gpu	-12.544483
EXTPROC	-12.699102
tok	-12.496514
glyph	-12.636902
hold	-12.974723
stride	-11.801447
create	-10.748426
tex	-12.625608
▁SUCH	-12.022372
ter	-11.626603
Static	-12.358770
vb	-12.726537
env	-11.322608
▁removed	-12.089155
cancel	-12.558696
led	-11.570344
tri	-12.573820
GUI	-12.356351
BUTTON	-12.629139
Endpoint	-12.604785
▁SECTION	-14.145870
▁PROTOBUF	-13.770291
ave	-12.631210
DEVICE	-11.347452
pn	-12.686013
rw	-12.525758
comment	-12.745658
attrs	-12.578411
Devices	-12.911546
▁FEAT	-12.206070
▁NON	-14.970830
▁ImGui	-12.756376
Usage	-12.144052
Dynamic	-12.410791
Limit	-12.469514
▁IPV	-14.110118
Constant	-12.425961
pdu	-12.953636
Uint	-12.519352
hs	-12.252311
Part	-12.446846
Append	-12.430417
▁Unless	-12.155495
▁inputs	-12.733935
▁SERVICES	-12.544813
▁WINRT	-13.239304
This	-10.438319
monitor	-12.858056
MULTI	-12.296110
▁ostream	-14.988168
dim	-11.851143
▁shall	-11.790770
LS	-12.476646
Simple	-12.216275
effect	-12.823300
Shared	-12.359041
ONE	-11.781990
MX	-12.281796
▁conversion	-12.388874
patch	-12.228685
ATION	-12.078465
dump	-11.672299
header	-10.806965
▁mrb	-13.141307
OB	-12.136436
eat	-12.772340
ax	-12.636151
PRIORITY	-12.582944
▁apr	-12.842078
SEND	-12.623024
ei	-12.356536
icon	-12.357440
▁xfc	-16.516106
um	-11.293556
Mac	-12.620847
▁reinterpret	-13.336989
Mark	-12.545577
▁NEGLIGENCE	-12.598402
▁POSSIBILITY	-12.225649
▁ADVISED	-12.549937
Order	-12.209410
Mono	-12.157974
▁DAMAGE	-12.006264
▁etc	-12.078456
▁password	-12.787582
Macro	-12.257353
Player	-12.422042
▁DISCLAIME	-12.425374
NA	-12.240383
▁capacity	-12.714256
SK	-12.340362
unit	-11.536990
ASSERT	-10.806768
OT	-12.419873
escape	-13.127024
sample	-11.542717
▁many	-10.841789
Fill	-12.454079
HEAD	-12.318811
Full	-12.536406
VIDEO	-12.494433
rtc	-12.334158
STA	-12.526986
SPACE	-11.665380
magic	-12.572584
Stats	-12.299599
rf	-12.482844
▁NSObject	-12.596170
cpu	-10.971295
▁correct	-12.170447
only	-10.983099
▁agreed	-11.910305
▁statement	-11.996859
Mat	-12.944885
save	-11.328517
web	-12.072062
▁good	-11.190414
border	-12.583030
sid	-12.204701
▁WCHAR	-12.981710
▁tests	-12.311473
▁ecs	-12.776044
caps	-12.676258
HS	-12.426491
▁containing	-12.017945
PRI	-12.608015
Custom	-12.273508
PROPERTY	-12.595752
right	-10.469719
AUTH	-12.410823
VALID	-11.129939
▁again	-11.229791
▁PUBLIC	-13.697972
LC	-12.557077
der	-11.833852
Ctx	-12.527244
CAN	-12.126283
▁packets	-12.876105
Collection	-12.352107
Light	-12.508234
visit	-13.176235
▁Redistribution	-12.350585
double	-10.336070
bn	-12.577067
hd	-12.434368
▁reproduce	-12.324002
MATCH	-12.636016
ub	-12.396631
ALPHA	-12.656591
DSP	-12.761534
Entity	-12.337961
▁resources	-12.167730
Game	-12.538655
zx	-13.298594
cause	-13.242391
action	-11.122846
STORE	-12.679470
▁xaa	-20.577204
▁catch	-12.132194
▁times	-11.597596
SYM	-12.707094
LIMIT	-12.607421
input	-10.607841
CASE	-12.396405
▁corresponding	-12.189452
FF	-10.245995
▁enough	-11.700920
Res	-12.718665
Switch	-12.286077
▁peripheral	-12.612466
rgb	-12.840052
▁mlx	-13.257608
EXP	-11.956979
Form	-12.065022
▁arena	-13.737213
gate	-11.982140
tv	-11.758447
Col	-12.539232
Post	-12.406464
▁HOWEVER	-12.518834
▁seconds	-12.492334
BU	-13.209189
TOKEN	-12.571618
lb	-12.540225
▁Sk	-12.461741
Push	-12.388058
▁framework	-13.006924
GUID	-12.700330
Io	-12.529340
▁PFNGLGET	-12.618097
om	-12.146804
▁ensure	-12.343728
document	-12.202409
words	-12.663889
▁xcb	-13.741435
MODULE	-11.526644
strcpy	-12.491062
SIMD	-12.725779
Symbol	-12.483380
Show	-12.435720
▁ENOMEM	-14.161613
RPC	-11.548349
Body	-12.186465
▁restore	-12.833906
OSC	-13.064227
hard	-12.556372
perf	-12.671805
neg	-12.225954
OFFSET	-11.585542
▁CAUSED	-12.536455
MODEL	-12.733913
PACKET	-12.690066
aff	-12.968232
Mod	-12.451621
inter	-10.931971
Edit	-12.068773
day	-11.769687
nx	-12.762385
▁interrupts	-12.679489
cg	-12.725505
▁modified	-12.408643
▁defines	-12.226740
td	-11.292057
curve	-13.038336
Boolean	-12.374900
▁XDECREF	-20.755160
clean	-11.810963
pow	-13.100934
soft	-12.313200
qual	-12.634690
CFGR	-13.392650
consume	-12.938516
can	-11.359439
Depth	-12.477337
▁matches	-11.985219
fg	-12.676446
DNS	-12.539892
po	-12.001838
▁future	-11.897872
CAST	-12.576217
vlan	-12.849492
REGION	-13.030901
GO	-12.072342
▁know	-11.005425
UC	-12.550147
app	-11.238093
▁BUSINESS	-12.594123
▁SUBSTITUTE	-12.577472
UE	-12.525888
▁existing	-12.183039
MENT	-12.322099
▁yet	-11.727646
grp	-12.607018
My	-11.926951
▁packed	-13.442713
▁nothing	-11.744275
▁processing	-12.264751
PKT	-12.872131
▁contain	-12.431167
LEFT	-12.561067
▁GOODS	-12.578241
nil	-12.712963
lnum	-12.801143
▁NGX	-12.635310
Empty	-12.282257
last	-10.753519
cli	-12.617917
PATCH	-12.613732
WIN	-11.207095
norm	-12.689468
▁extent	-12.800920
▁PROCUREMENT	-12.559528
RESOURCE	-12.614524
RIGHT	-12.405216
Co	-12.348899
Req	-12.755473
linear	-12.884630
Permission	-12.501365
VIEW	-12.486927
NORMAL	-12.598862
WINDOW	-12.146088
▁necessary	-11.897095
export	-12.454497
Material	-12.235263
Normal	-12.402464
inf	-12.343092
SHADER	-12.743789
▁relative	-12.410888
pred	-12.703823
FX	-12.607712
MISC	-12.956319
▁INTERRUPTION	-12.599273
▁along	-11.486984
let	-11.779877
hand	-11.978742
▁offsetof	-13.323769
TK	-12.450129
hr	-11.688267
scroll	-12.785781
eap	-12.781941
▁THEORY	-12.511329
QUERY	-12.589880
Dev	-12.437865
ln	-12.329787
FAST	-12.575133
udp	-12.769321
▁ZVAL	-15.913044
VECTOR	-12.685023
dst	-11.014374
▁validate	-13.033437
ARCH	-12.473044
SN	-12.362473
▁duration	-12.834837
▁stdout	-13.437828
▁dirty	-13.331336
reduce	-13.011159
su	-12.201622
rect	-12.048363
VL	-12.964347
Xaml	-13.621834
gid	-12.840095
▁sctp	-13.357450
▁redistribute	-12.416435
method	-11.183464
score	-12.686381
▁remaining	-12.384897
Binary	-12.502833
▁callbacks	-12.901637
AMD	-12.662031
▁initialization	-12.507564
UV	-12.607454
▁lapack	-13.150890
calloc	-12.969618
cn	-12.703730
const	-8.719428
DX	-12.414304
▁EXEMPLARY	-12.555196
span	-11.681728
minor	-12.817659
VS	-12.255222
Operand	-12.780406
builder	-12.463558
▁successful	-12.043423
Platform	-12.135944
tf	-12.487682
MAKE	-12.636260
▁granted	-12.147008
user	-10.707915
▁pointers	-12.575704
kw	-12.514164
Rec	-12.448829
Success	-12.212443
▁published	-11.145272
BYTES	-12.859744
mount	-12.091576
▁products	-11.807777
▁expect	-12.986864
debug	-11.027294
LAST	-12.612378
verse	-12.593866
▁cached	-13.138985
Sys	-12.370824
FM	-11.882903
Notify	-12.530522
VR	-12.245225
▁PLAT	-13.952954
▁were	-9.783862
Dialog	-12.341017
Json	-12.470008
rial	-14.486492
▁APORT	-14.853864
Remote	-12.548903
eric	-12.563099
SSL	-11.175015
Iter	-12.549419
source	-11.007101
▁requires	-12.281474
TB	-12.765179
▁INET	-13.963567
agg	-12.746262
game	-12.610492
Fixed	-12.547233
▁windows	-13.149585
groups	-12.716420
Tab	-12.465472
Total	-12.524901
Work	-12.694036
order	-11.414902
CIPHER	-12.754902
plus	-11.390779
Pattern	-12.480697
au	-11.907849
Http	-12.442889
cols	-12.484826
pub	-12.293206
Bitmap	-12.606902
Mutex	-12.538736
points	-12.221406
put	-10.886006
▁rdev	-14.886233
dn	-12.649491
▁listener	-13.453860
visible	-13.060380
STATS	-12.640960
Track	-12.617065
hint	-13.096309
▁glUniform	-13.885443
clone	-12.636324
logical	-12.335333
LAB	-12.393394
well	-12.084302
▁rtl	-14.208091
factor	-12.447524
▁xFC	-87.803404
Feature	-12.339396
▁requests	-12.502391
VERIFY	-12.844439
UDP	-13.002234
archive	-12.830053
INTR	-12.762034
Face	-12.373190
▁promote	-12.334077
role	-12.835228
ary	-11.167763
Unknown	-12.091110
▁encoded	-12.947050
tool	-12.701405
sim	-12.356179
old	-10.787940
Dictionary	-12.200868
mit	-11.738589
ORDER	-12.378410
rn	-12.420323
Exit	-12.121304
▁author	-11.683820
known	-12.028153
Support	-12.760430
▁FIXME	-12.746139
▁xFFFE	-87.803404
BS	-11.750785
Import	-12.499250
HANDLE	-11.374684
HCI	-12.731070
widget	-12.404022
▁xef	-25.100320
▁limits	-13.154613
▁AHB	-14.727814
▁every	-11.425034
REAL	-12.601065
pk	-12.674327
▁PyTuple	-13.269802
pcb	-12.933855
buff	-11.852357
▁erase	-13.377935
Comp	-12.735415
▁dpy	-15.134965
▁SERCOM	-14.355747
Fn	-12.871232
Project	-12.638681
▁directly	-12.004461
▁camera	-12.953286
Configure	-12.528076
▁insertion	-13.852500
Security	-12.647019
wd	-12.667444
Graphics	-12.519960
CONST	-11.792504
MV	-12.458344
ANS	-13.792778
fold	-12.563452
▁pname	-13.024115
urb	-12.733489
PIPE	-12.722020
ath	-12.527484
Red	-12.863101
category	-12.901221
▁updated	-12.428073
FT	-11.997367
ru	-12.102524
ident	-12.105195
OPTION	-12.504843
PRESC	-14.195266
Runtime	-12.420977
indent	-12.599111
Member	-12.532715
elem	-11.955939
▁gnu	-14.971038
Camera	-12.446271
▁retry	-12.710444
ating	-12.006679
gui	-12.366639
▁decoder	-13.461732
▁persistent	-13.768032
TEMP	-12.780530
schedule	-12.546386
Single	-12.643558
▁xbf	-22.673951
MARK	-12.671843
CURRENT	-12.791864
FIRST	-12.648360
▁BPF	-13.830815
VC	-12.578799
hid	-12.344761
dims	-12.893871
▁GOTRE	-20.601223
▁nullable	-13.217043
▁mpi	-14.781491
Account	-12.510251
configure	-12.949186
mid	-12.652224
Signature	-12.519714
capture	-13.137299
▁CWE	-13.145091
local	-10.923903
▁vcpu	-14.513805
traits	-12.716627
▁Amazon	-12.540152
mapped	-13.249022
jump	-13.185071
Generator	-12.569097
▁SWIFT	-13.313204
SAMPLE	-12.847839
▁IID	-13.773743
▁svn	-13.128803
▁warranty	-12.278223
▁assignment	-12.666639
VERTEX	-12.718152
PACK	-12.280664
▁slots	-12.614385
publish	-12.461046
NU	-13.141394
ApplicationModel	-13.401252
gap	-12.894240
▁spdk	-13.288164
▁primary	-11.894868
ISO	-12.286406
bss	-12.842307
▁SCTP	-13.479382
nic	-12.642199
Functions	-12.223231
Master	-12.718816
cq	-12.982678
Maximum	-12.619175
std	-9.411027
Back	-12.407337
Argument	-12.506643
sink	-13.036766
Domain	-12.502391
▁rtx	-13.276374
Top	-12.383462
▁HandleTypeDef	-87.803404
▁TCC	-14.565498
malloc	-11.703094
▁SCB	-13.950562
Down	-12.438619
Void	-12.949289
PLAYER	-13.468412
shell	-12.790486
ling	-11.539335
Basic	-12.320016
INC	-11.198108
▁dimension	-12.840213
▁ACMP	-14.407829
▁verbose	-13.402280
▁likely	-12.352732
Tile	-12.879468
ASM	-12.648722
VI	-12.342930
ENT	-11.941860
precision	-13.183983
Job	-12.598854
▁minimum	-12.501541
options	-11.175778
▁distribute	-12.621808
mail	-12.619975
▁kvm	-13.507012
▁starting	-12.205073
bridge	-12.333339
tyObject	-13.700828
clear	-10.804266
▁glVertexAttrib	-13.854830
PU	-12.611848
ify	-11.763849
Gen	-12.406865
bank	-12.648131
pipe	-11.843683
Writer	-12.290971
UNIT	-12.742541
▁ignored	-12.597078
hci	-12.651271
▁outer	-12.921884
poly	-12.974953
gs	-11.983757
WDT	-13.213044
branch	-13.013492
▁LESENSE	-14.362195
▁git	-14.187262
Per	-12.565566
pkt	-11.890752
Relation	-12.357133
fault	-12.880727
vis	-12.533860
address	-11.033733
EVT	-12.956738
ness	-11.420749
nm	-12.949564
fm	-12.639463
▁certificate	-12.942418
SOCK	-12.756455
RR	-12.655355
inet	-12.481630
Segment	-12.730069
Constraint	-12.653657
kind	-11.876186
zero	-11.360734
▁background	-11.681683
FLT	-13.151766
TV	-11.470815
DH	-12.670383
Std	-13.012323
scratch	-13.312742
rk	-12.583090
Optional	-12.584148
DELAY	-12.844834
Interval	-12.682661
▁GLdouble	-13.546589
▁reading	-10.297608
Gr	-12.732234
▁BOOLEAN	-12.296583
▁MHz	-14.227401
bw	-12.961883
diag	-12.854867
hit	-12.956568
guid	-13.012028
FO	-13.114574
▁invoke	-13.272232
ur	-11.971394
intr	-12.689186
Other	-12.790506
ence	-12.055684
▁SUPPORTED	-15.330737
ah	-12.067173
fit	-12.959396
pll	-13.155712
▁dtype	-13.652498
cred	-12.886752
PAGE	-12.036338
SCALE	-12.929004
▁rarg	-19.112610
plugin	-12.669242
dat	-12.789055
IPv	-12.852233
SSE	-12.822716
Generated	-12.643429
Virtual	-12.407324
▁KERN	-14.430389
▁riid	-13.420433
▁execution	-12.465677
bias	-13.173937
▁kfree	-15.527747
▁sfr	-13.420201
▁OTG	-14.560431
LAN	-12.621134
gamma	-12.746641
DEPTH	-12.692789
des	-11.943421
Bus	-12.854407
realloc	-13.003133
IRQ	-11.536468
pat	-12.595444
After	-12.658126
▁GLAD	-13.114269
Direct	-12.343198
Skip	-12.559406
ud	-12.231053
INV	-13.010601
Put	-13.010355
Bar	-12.242081
MAIN	-12.673611
ies	-11.401100
dw	-11.601561
ux	-12.630626
IMGUI	-13.167853
he	-12.126657
▁PyExc	-14.632816
fx	-12.815186
NVPROC	-12.984602
Elements	-12.477326
ov	-11.737864
▁charge	-12.334403
handler	-11.216719
Exp	-12.799155
gfx	-12.802398
Notification	-12.647803
sector	-13.046121
WM	-12.360445
look	-13.159313
▁There	-11.013884
▁actually	-11.850062
cur	-10.900134
▁fragment	-13.155395
MON	-12.814892
Generate	-12.594222
WT	-12.740752
coeff	-13.133214
TRANS	-12.785364
Decode	-12.802616
Plugin	-12.582167
▁macros	-12.766628
pin	-11.595273
ELEMENT	-12.788155
Seq	-12.878242
INPUT	-11.921455
cat	-11.992109
instr	-12.798110
uint	-9.037490
mo	-11.635700
BUSY	-12.456644
Peripheral	-12.871415
▁definitions	-12.363811
▁defgroup	-18.436911
HC	-12.661558
channel	-11.065877
tz	-12.243233
▁endian	-13.795887
gain	-13.290448
ry	-11.463126
Be	-12.611688
POST	-12.649777
▁perform	-12.412756
▁implemented	-12.479568
BIG	-12.450198
SDK	-12.756634
Chunk	-12.814251
▁IFS	-15.599448
lm	-12.706615
shadow	-12.920289
ual	-12.100957
SPEED	-12.715945
cls	-12.796451
Complete	-12.263768
▁classdump	-12.919327
▁Otherwise	-12.643683
codes	-13.115556
bdev	-13.200975
▁INCREF	-18.469066
RAW	-12.828746
vd	-12.896930
gu	-11.858635
front	-12.537960
PARAMS	-12.769948
▁Sets	-12.602231
exit	-10.913049
thr	-12.872835
USE	-11.054921
Verify	-12.648415
Expected	-12.919715
Try	-13.342278
▁PyArray	-13.322111
▁refcount	-13.481942
cam	-12.631671
▁wasm	-13.757806
vx	-13.096007
▁stdcall	-17.430695
INTEL	-12.973088
Operator	-12.543446
dep	-12.697890
EOF	-12.556197
False	-12.512975
▁PKEY	-16.355476
Signal	-12.546647
▁xAA	-26.338751
Delay	-12.676166
▁parallel	-12.649510
DataType	-12.753250
▁So	-11.044785
edge	-12.164877
▁SWIG	-13.129463
▁environment	-12.234266
▁dyld	-16.965071
dens	-13.781012
▁curwin	-13.474083
▁VENDOR	-15.733124
SPEC	-12.327936
▁inside	-12.015976
Clause	-12.607690
ture	-13.016755
Animation	-12.417421
Auth	-12.706554
gb	-12.758949
ber	-12.193243
▁contributors	-12.596103
ATI	-12.968177
▁nfs	-13.278536
▁crtc	-14.694403
Grid	-12.471621
Connect	-12.575333
▁exclusive	-13.363412
chars	-12.755182
sound	-12.823097
▁NSArray	-13.401461
▁partial	-12.825892
Exec	-12.671027
Variant	-12.399425
resume	-13.012233
BOX	-12.461544
▁deal	-12.045635
▁components	-12.478801
SHORT	-12.805118
irq	-11.152185
HANDLER	-12.759399
increment	-12.736547
wide	-12.670895
APPLE	-12.815170
Wrapper	-12.677244
ACL	-12.852085
tg	-12.965881
wallet	-13.500757
beta	-12.609384
rest	-12.601783
Condition	-12.625324
function	-10.704743
Constructor	-12.472012
INCLUDE	-12.258700
CCR	-13.476371
Old	-12.696889
Rel	-12.553953
PROT	-13.468305
Fast	-12.993840
its	-12.106320
ine	-11.630583
tract	-12.588461
RI	-12.658154
FI	-12.569966
▁MAJOR	-17.857199
Abstract	-12.111416
rhs	-12.379498
▁loaded	-12.809812
SIM	-12.902404
TSRML	-13.327141
send	-11.055326
QT	-12.452832
clause	-13.529336
Icon	-12.533822
processor	-12.536752
▁netif	-13.990595
▁GFP	-13.188475
▁deleted	-12.842687
used	-11.600376
VERSION	-10.986109
values	-11.647422
▁allows	-12.295295
IDLE	-12.901541
NULL	-9.851080
srv	-13.052022
▁those	-11.056725
sis	-12.772783
Traits	-12.813360
TIM	-11.795597
arity	-13.537433
fh	-13.124097
wire	-12.927877
▁UIKit	-14.591348
SQ	-12.880163
Direction	-12.563699
now	-12.120369
nf	-12.636313
height	-11.191425
radius	-13.157593
▁ingroup	-19.923418
Datum	-11.947888
Bind	-12.766475
▁offsets	-13.427224
▁NPY	-13.082608
mate	-13.245260
touch	-13.118291
literal	-13.079381
RED	-12.523457
▁endorse	-12.647858
Prop	-12.641695
Slice	-12.829005
▁extended	-12.593821
calc	-12.437254
▁snapshot	-13.244851
SINGLE	-12.901455
fds	-12.953162
▁outputs	-13.152606
binding	-12.771897
wt	-12.908726
Lookup	-12.778298
COUNTER	-13.002827
▁hypre	-13.132579
▁wrong	-12.207743
move	-11.396486
locale	-13.094666
▁geometry	-13.019763
▁isn	-12.314910
▁supports	-12.595429
WRITE	-11.253534
Directory	-12.470116
▁fxp	-13.535680
▁checksum	-13.338398
wi	-12.548368
LF	-12.754975
Enter	-12.411155
nodes	-12.267528
▁restart	-13.042282
ratio	-13.226314
PARSE	-12.780103
ate	-11.442013
begin	-10.797380
SHIFT	-11.123471
UT	-12.554338
od	-11.948725
▁pfn	-13.902391
catalog	-12.991632
tup	-12.861407
vol	-11.502954
▁construct	-13.597926
▁GrB	-12.894772
eg	-12.483332
▁LWIP	-13.007392
Volume	-12.796802
stub	-13.326868
▁ndim	-13.888563
MAGIC	-12.754081
▁memcmp	-14.460142
Speed	-12.372033
BOOT	-12.828312
▁cases	-11.624362
rem	-12.386697
▁pins	-13.279357
rot	-12.625194
▁iteration	-13.246758
▁Corporation	-11.972445
Warning	-12.393873
lang	-11.988659
Alpha	-12.619391
sse	-12.936007
tion	-11.397449
glProgramUniform	-13.150707
fatal	-13.019864
bx	-13.339287
▁RefNanny	-87.803404
IER	-13.050843
Ctrl	-12.853102
coll	-12.959550
backup	-13.305967
token	-11.361078
CERT	-12.942483
ian	-11.176824
▁ssid	-14.250265
ET	-12.333615
▁hope	-12.076279
deprecated	-13.232577
prot	-12.957217
DDR	-13.146266
UUID	-13.008422
▁testing	-12.390573
Py	-9.926944
Force	-13.099815
TD	-12.477905
Describe	-13.232469
hc	-13.076367
▁missing	-11.077326
▁xfd	-18.734606
TIFF	-12.913888
Geometry	-12.758308
from	-10.534497
▁completed	-11.560182
CALLBACK	-12.640713
▁related	-11.878719
▁usr	-16.234659
▁foo	-13.464835
Head	-12.710708
▁renderer	-13.604076
ios	-12.635400
Equal	-12.406424
▁handling	-12.531404
▁generator	-13.162226
ta	-11.503206
PRIO	-12.836543
module	-11.019031
▁constraints	-13.054564
▁lane	-14.506378
FREQ	-13.169694
COMMON	-12.846460
▁logging	-13.142122
for	-9.771328
St	-12.575795
▁WINDOWS	-13.994452
Pack	-12.600599
EDGE	-13.085608
real	-11.606998
ist	-11.407406
NK	-12.431197
live	-12.835951
BAR	-12.750205
▁addresses	-12.766123
prom	-13.085100
elt	-12.937521
BLE	-12.170109
detect	-13.094751
▁licensed	-12.763784
Ty	-13.117903
CRC	-12.790411
RL	-12.841655
BP	-12.589555
members	-13.256346
coord	-13.001706
Fetch	-12.816454
sqrt	-12.383717
FileName	-12.790131
press	-12.664121
PV	-12.017021
FUNCTION	-11.199343
Serial	-12.752973
▁GLboolean	-13.041557
HAL	-11.454669
nb	-12.106685
Flow	-12.655958
mix	-13.169899
share	-13.101533
Swap	-12.766862
▁READWRITE	-12.502161
▁errcode	-14.725598
vr	-12.750341
dom	-12.448650
grad	-12.752186
SESSION	-12.919027
arginfo	-13.264196
▁transmit	-13.249711
Ready	-12.760033
▁delegate	-13.211425
usb	-11.822242
▁PCNT	-14.799615
▁IFC	-15.223308
▁xbd	-19.509880
Title	-12.058406
declaration	-13.831669
fid	-13.085758
Allocation	-12.792796
Pair	-12.763039
sat	-13.027397
▁pull	-13.113977
XC	-13.108116
pixel	-11.862604
▁Also	-12.076093
TION	-12.995909
▁QSPI	-13.713276
metric	-12.581944
Api	-12.732156
sep	-12.637660
▁UnityEngine	-13.833716
VEC	-13.033949
CODEC	-13.026282
ser	-11.982938
reference	-11.918120
PIXEL	-12.900120
▁registered	-12.625234
CRYPT	-12.091028
message	-10.936847
Sort	-12.464408
▁behavior	-12.362945
▁Lesser	-12.409724
Dest	-12.954311
▁constants	-12.949192
▁guint	-13.222579
PCM	-12.928936
avail	-12.545186
OVERRIDE	-12.844380
ENV	-12.847596
VF	-12.996930
cid	-12.886677
▁checks	-12.693468
▁numbers	-12.033830
▁GCC	-13.231398
▁rotation	-13.067993
BSP	-13.097476
Events	-12.608666
▁due	-11.539553
SCRIPT	-12.633822
ENDIAN	-12.767645
ENTER	-12.581457
ENABLE	-10.445760
▁nrf	-13.478481
LDAP	-12.835963
IND	-12.767111
UINT	-10.993644
FAIL	-11.243585
body	-11.487469
▁itself	-11.932166
READY	-12.751962
MK	-12.829759
STORAGE	-13.020414
ctr	-13.104457
classes	-13.290194
Green	-13.265892
▁shim	-15.614811
CRIT	-12.740699
CN	-12.823065
rg	-12.674685
▁matching	-12.769043
Author	-13.409783
suspend	-12.936627
▁appropriate	-12.307212
▁dentry	-13.651248
IVPROC	-12.901707
MSK	-13.405625
Adapter	-12.697481
RG	-12.826700
Monitor	-12.556876
CPP	-12.798842
Case	-12.706833
IOC	-12.870518
▁waiting	-12.620039
▁btrfs	-13.284251
ROW	-12.461696
▁history	-10.485938
▁xbe	-17.909949
▁purpose	-12.217295
BUILD	-12.724284
Batch	-12.849305
white	-11.952531
Now	-13.029590
room	-12.542677
ized	-11.713747
XT	-13.276805
pwm	-13.209690
Card	-12.863042
CTX	-11.915386
bu	-12.666036
▁xfb	-17.431313
Failure	-12.681959
Rule	-12.689661
vo	-12.138415
scheme	-13.466483
MG	-12.835607
▁HYPRE	-13.154122
PUSH	-12.761635
SWAP	-13.059147
AI	-12.546104
change	-11.509586
busy	-13.138499
mz	-13.372858
Env	-12.441389
Unicode	-12.444722
DST	-13.178781
Called	-12.704609
▁indicates	-12.507128
EST	-12.819226
Dump	-12.668602
▁ownership	-12.809012
Definition	-12.390389
INST	-13.052294
▁uLocal	-12.645620
URI	-12.803593
idl	-13.212339
kv	-12.973825
GRP	-13.176725
LB	-12.855165
REL	-12.672141
GPIO	-11.316921
LUA	-12.895170
BLK	-13.154577
lr	-12.686635
▁physical	-12.414099
FLOW	-12.957442
vertices	-13.557400
▁glew	-17.670763
walk	-12.989639
site	-12.732185
GA	-12.645428
▁radio	-11.912518
▁intptr	-13.908132
POOL	-12.911816
ViewController	-12.862682
▁made	-10.778840
search	-11.868498
EG	-12.744512
drive	-12.988781
jit	-12.819208
eed	-13.028792
avg	-13.187557
▁npy	-13.376732
Mouse	-12.743490
Cancel	-12.671990
SAVE	-12.847913
mbuf	-13.053928
BO	-12.824868
inst	-12.057037
▁started	-11.808181
MO	-12.599432
Binding	-12.738802
Outcome	-13.406476
DECL	-11.333896
▁href	-12.664908
▁detach	-13.669464
klass	-13.157406
SMP	-13.107626
▁specify	-12.841193
Blue	-13.127872
broadcast	-13.361740
▁NUL	-12.987373
LIGHT	-12.845084
▁provide	-11.769694
EDIT	-12.404408
Character	-12.656465
▁pData	-13.940930
ASCII	-12.958503
colors	-13.269938
▁secret	-13.099080
Plan	-12.733603
Cast	-12.828855
▁hereby	-12.752748
Bad	-12.993990
Cfg	-13.123166
nu	-12.239822
trap	-12.770209
delay	-11.706089
quote	-13.074625
Results	-12.551891
APP	-12.217951
FONT	-12.951078
REV	-13.173370
PRO	-12.625417
▁calculate	-12.831928
lat	-12.719880
Short	-12.748454
edges	-13.391957
▁cdef	-13.070108
Area	-12.784081
▁finished	-12.366552
▁EMIT	-13.865086
SERVICE	-12.851498
TL	-12.640107
graphic	-12.749786
SLEEP	-13.145340
▁numpy	-14.406193
Forward	-12.428120
blocking	-13.299303
▁curl	-13.280635
STEP	-12.923181
process	-11.531912
HF	-12.667856
▁named	-11.226180
arc	-13.128632
▁notification	-13.093390
SCR	-13.349851
cho	-12.938627
CX	-12.524753
ability	-11.813589
Chain	-12.555416
▁carry	-12.714630
▁xcc	-18.128139
▁ZEPHIR	-14.801954
▁Neither	-12.805485
Allow	-12.813738
▁listen	-13.307622
Flush	-12.703607
para	-12.373490
▁handlers	-13.396232
pte	-13.352352
MEDIA	-12.914387
loader	-12.830930
variant	-13.015700
▁require	-12.174181
▁general	-11.564751
svc	-13.110591
clock	-11.875878
AG	-12.681516
▁strerror	-13.470618
▁Rights	-12.331633
Tick	-12.912679
quad	-12.490459
▁FOUNDATION	-12.943939
RELEASE	-12.918472
seek	-12.969607
▁extensions	-12.984320
Self	-12.893627
Encoding	-12.866149
tot	-13.020536
PRESENT	-13.007018
Public	-13.068734
White	-13.159165
RDY	-13.525127
Listener	-12.622637
▁pipeline	-13.160037
▁representation	-12.454473
ASSIGN	-12.857733
Stat	-12.751920
INS	-12.702705
Kit	-11.957125
▁configured	-12.887275
▁palette	-13.686548
PQ	-12.787964
phi	-12.394363
ull	-12.803886
cursor	-11.645387
ulong	-12.956721
Utils	-12.496300
▁unregister	-14.174311
▁handles	-13.011549
packet	-11.419316
▁xdf	-21.776343
provider	-13.234527
TAB	-12.986354
INTERRUPT	-12.884770
Calculate	-14.331038
kb	-11.952953
▁EXPECT	-13.108004
verifier	-13.484564
▁permit	-12.680884
proto	-10.811232
▁flatbuffers	-13.587249
focus	-12.735751
▁AddRef	-14.333523
amp	-12.885613
▁startup	-13.217266
SEG	-13.188535
model	-11.567906
▁sizes	-13.097813
▁Intel	-12.812510
nid	-13.096879
vid	-12.920261
vals	-13.073141
UNLOCK	-12.693207
POSITION	-13.074850
CHANGE	-12.945980
▁strncmp	-14.827252
OSE	-13.221260
router	-13.343021
kill	-12.717857
▁unexpected	-13.353286
motion	-13.108574
Effect	-12.693946
SPD	-13.363115
ROUND	-13.191665
MIPS	-13.083665
▁protoc	-16.115021
files	-12.335377
▁PERI	-14.956735
region	-11.689354
cal	-12.024814
Complex	-13.179935
DOM	-12.796272
Database	-12.228715
ATTR	-11.634380
Qt	-13.145180
▁docs	-14.468011
TRIGGER	-13.080210
window	-11.377833
IMP	-12.796448
request	-10.818175
ToString	-12.833252
▁includes	-11.820117
▁GNUC	-16.958605
ean	-12.037757
▁restriction	-12.647511
Names	-12.429811
parent	-11.022910
ticks	-12.977349
▁TPM	-13.360878
RESET	-11.902776
kp	-13.311363
Setting	-12.727386
▁person	-11.759523
CNTL	-13.271154
▁NIM	-14.189233
valid	-11.138993
▁actions	-12.595451
Progress	-12.636679
Random	-12.598698
Initial	-12.625836
ASYNC	-13.137674
query	-11.307629
INTER	-12.941198
▁memoryview	-15.340903
HTML	-12.230983
Processor	-12.819448
mmc	-13.169606
▁undefined	-12.908554
▁initWith	-15.058417
Drop	-12.693775
LOOP	-12.979093
▁automatically	-12.575903
Should	-13.708909
ino	-12.071090
TERM	-12.908280
pitch	-13.453068
mach	-12.921742
▁cpi	-14.107568
funcs	-13.158641
▁CLAIM	-12.927567
refresh	-13.185509
layout	-11.738097
MOV	-13.109473
fun	-13.010029
Cy	-13.097470
Black	-12.951111
Named	-13.008088
▁reserve	-13.241966
NAN	-13.490834
Eigen	-13.058683
▁successfully	-12.537427
CLOSE	-12.878400
Cost	-12.809515
Sig	-12.871455
MESH	-13.146479
▁wake	-13.543393
OV	-12.893068
▁firmware	-13.287620
▁unless	-12.546720
ENCODE	-13.068324
▁ereport	-15.370111
▁QueryInterface	-14.870781
resolution	-13.664868
xe	-11.685666
DRAW	-12.780858
rom	-12.712533
domain	-11.963658
▁hresult	-17.104890
INSERT	-13.124010
syntax	-13.396581
Pro	-12.785098
▁checking	-12.775759
ki	-12.007542
ted	-11.658307
erts	-13.024576
extend	-12.806482
▁syscall	-13.471951
Background	-12.772878
Abort	-12.896943
SERIAL	-12.147860
▁rcu	-14.170893
BANK	-13.310669
ICON	-13.017478
bug	-13.222687
descr	-13.087189
▁joaa	-13.232703
▁CURL	-13.278119
Nt	-12.975166
resolve	-12.847031
DES	-12.990310
▁opline	-15.051967
MASTER	-13.046853
▁Don	-11.708529
▁modes	-13.078015
BOOL	-10.678244
urn	-14.480063
Sec	-11.634303
TYPES	-12.562013
MACRO	-13.040898
ks	-11.926621
UNDEF	-12.852836
sion	-12.867525
Flash	-13.384758
▁AUTHORS	-12.856551
▁globals	-14.430649
▁University	-9.646955
Python	-12.536925
VARIANT	-13.067896
heap	-12.006061
▁processed	-12.982066
mesh	-12.291892
ROM	-12.449127
Inc	-13.561784
den	-11.655049
Arguments	-12.284837
ipc	-13.177372
HEX	-13.371933
▁iLocal	-14.507348
SAFE	-12.951007
die	-12.430446
Db	-12.911946
thrift	-13.429839
▁vendor	-13.807245
tw	-12.890647
▁copied	-12.981359
VERB	-13.558184
▁xaf	-22.368028
CHAN	-13.113259
OVER	-12.739135
interface	-10.839594
prim	-12.168675
dq	-13.352741
▁desired	-12.763281
WL	-12.804959
PEN	-13.555097
HL	-12.884322
Product	-12.416707
ical	-12.378566
▁xfa	-19.548380
SLOT	-13.212686
hl	-12.673874
ephir	-13.249488
HEAP	-13.046830
RNG	-13.097323
▁SPH	-13.919469
Partition	-12.869160
Invoke	-13.094777
▁uchar	-13.990558
▁LLU	-19.059346
PIX	-13.150848
mult	-13.188648
AZ	-12.890838
Aux	-13.480446
SU	-12.808624
Transmit	-13.275369
Category	-12.480653
issue	-13.040416
▁fails	-12.783898
lan	-12.031632
Mapping	-12.827743
wb	-13.112790
screen	-12.077576
paths	-13.223897
tra	-12.521407
Opt	-12.977836
install	-13.045943
USER	-11.792394
▁openssl	-15.051819
pol	-12.983327
▁rtw	-14.200577
SGIX	-13.195143
far	-13.124327
Encode	-13.001068
PERF	-13.366226
iso	-12.626050
Assign	-13.038947
OM	-12.552661
▁stdint	-17.386202
MUL	-13.228859
MENU	-12.920045
Pending	-12.978395
▁MemoryView	-19.832283
Language	-13.006162
RGBA	-13.129518
Extra	-12.556819
chunk	-11.898705
TMR	-13.285047
smp	-13.114241
▁FWD	-16.180571
rna	-12.664706
xfer	-13.203035
▁portions	-12.452081
▁connector	-13.942449
▁modules	-13.174644
Cur	-12.631909
rules	-13.347068
PROGRAM	-12.904731
▁NimString	-14.230113
UNI	-12.038129
Dst	-13.172839
Tactic	-14.262076
Uniform	-12.193605
▁sell	-12.719799
Prefix	-12.932284
FFFFFF	-12.018925
▁interfaces	-13.123835
CLI	-13.015313
▁indicate	-12.622236
BI	-12.894257
▁pdata	-14.519808
Validate	-12.646963
TLS	-11.725961
▁TCL	-12.981607
stop	-11.462617
wifi	-13.157148
secure	-13.378728
watch	-12.741416
LM	-12.801792
UR	-13.169988
Con	-12.663306
SENSOR	-13.116784
▁chartInstance	-14.023108
ray	-11.938434
▁pSrc	-13.596907
csr	-13.335260
bundle	-13.459796
▁XE	-15.869414
▁IDS	-13.327029
▁something	-11.454679
▁linked	-12.843176
▁xFD	-31.761996
Com	-13.104427
Factor	-12.600747
▁SND	-13.781625
▁give	-11.774602
Java	-13.410822
fu	-12.744655
wise	-12.509977
DISPLAY	-13.059744
Statement	-12.596673
▁temporary	-12.765949
Payload	-13.028541
OD	-13.244908
▁pubkey	-14.560797
▁determine	-12.371632
ATT	-13.210715
Done	-12.677386
Renderer	-12.884310
dll	-12.972658
lw	-12.678294
fle	-14.416225
fork	-13.358434
GU	-13.511784
▁LEAN	-14.290686
▁DISABLED	-15.383674
fffff	-12.907718
dialog	-13.366909
virt	-13.055572
ssa	-13.092740
MZ	-13.127059
SCSI	-13.069225
cross	-13.022974
▁provides	-12.084800
Doc	-12.625550
FATAL	-13.009037
reload	-13.403864
UND	-14.640265
INTEN	-13.330874
gi	-12.390598
symbols	-13.715491
problem	-14.042912
▁assume	-12.809443
MALLOC	-13.084365
DSI	-13.382313
Keys	-12.835145
buflen	-13.046538
Fields	-12.698619
xy	-12.931631
LastError	-13.147304
Points	-12.479622
▁dimensions	-13.032228
PIC	-13.231143
assoc	-13.245709
▁EXTENSION	-15.415723
ao	-12.329318
RECORD	-13.069545
control	-11.084817
Math	-12.976322
Supported	-12.938596
Go	-12.843723
▁shm	-14.329689
Observer	-12.759861
DU	-13.260695
▁INCLUDED	-14.718080
DELETE	-12.947435
IVE	-13.111362
Each	-13.757250
reloc	-13.044565
▁xfs	-13.542937
puts	-12.813034
▁datatype	-13.848696
gd	-12.939892
RTL	-13.095407
EXPR	-12.852167
yn	-12.870992
COMPARE	-13.055366
▁intern	-16.124754
AUX	-13.179866
Si	-13.385375
topic	-13.292391
Sampler	-13.109861
enum	-10.816461
tlv	-13.337124
scr	-12.918247
▁versions	-12.203577
▁appear	-12.416690
▁boundary	-12.879962
▁handshake	-13.773926
DV	-13.045252
style	-10.981489
BINARY	-12.988147
default	-9.843907
strip	-13.340674
ErrorCode	-12.916241
▁statistics	-11.095451
stmt	-12.053864
▁parsed	-13.328313
counter	-11.929633
maps	-13.127249
gf	-13.284966
agent	-13.254027
▁greater	-12.415694
Asset	-13.106521
▁BKE	-13.590659
▁nVersion	-13.258911
Foundation	-12.023569
TRI	-12.972884
ABI	-12.349978
▁checked	-13.027912
pmd	-13.591082
▁coordinates	-12.948754
NP	-12.893888
child	-11.588336
ified	-12.292007
▁slow	-12.909627
▁blen	-15.063879
Sign	-13.133128
▁serialize	-13.768676
zz	-13.043797
Dec	-13.070468
▁terminated	-13.467059
jpeg	-13.160137
rcv	-13.285264
EXCEPTION	-12.860418
BG	-13.003089
SHA	-11.940235
PUT	-13.101541
micro	-13.213469
SWITCH	-13.153850
Items	-12.782109
ADV	-13.129443
▁happen	-12.515497
LR	-12.949599
Pipeline	-12.927194
Lo	-12.998736
▁semaphore	-13.550271
▁amazon	-17.254386
SIL	-13.001804
Compiler	-13.053188
▁compressed	-13.418870
section	-11.581480
▁TWI	-13.783179
mgmt	-13.356054
BOARD	-12.982560
EGL	-13.206464
dio	-12.377036
▁vectors	-13.095587
Ignore	-12.869958
▁particular	-11.997673
lin	-11.896813
BREAK	-12.624845
▁timing	-13.380691
XA	-13.559987
Semaphore	-13.136109
relid	-13.210876
vif	-13.850078
Must	-14.023609
Atom	-13.003237
sense	-13.483061
CAM	-12.855156
INSN	-13.548240
wk	-13.137104
cloud	-13.043769
RP	-12.903904
▁writel	-17.153510
tcp	-11.892700
▁NONINFRINGEMENT	-12.898211
SETUP	-12.831131
▁arrays	-13.133049
▁NID	-13.406403
▁anon	-13.438252
▁nested	-13.484804
▁ovs	-13.451573
▁detected	-12.947357
GMAC	-14.035995
METHOD	-11.487417
▁generation	-12.569812
PAIR	-13.231848
GF	-13.161054
SHARED	-13.159620
EXEC	-12.840189
▁regular	-12.350344
Schema	-12.830030
Elem	-13.153178
Unlock	-12.773745
du	-12.053158
late	-12.422292
Cnt	-13.096885
▁mmap	-14.149048
Bucket	-13.187185
▁xbb	-18.698654
▁atoi	-13.250234
Desktop	-13.347937
▁FOREACH	-15.352642
shape	-11.823788
▁creation	-12.562465
ol	-11.955877
Apply	-12.961464
Dict	-12.820045
SEQUENCE	-12.945358
▁obtaining	-12.864573
▁whole	-11.979039
Execute	-12.691322
SAI	-13.324760
ACE	-13.013234
▁HWND	-13.413462
little	-13.923404
rad	-12.944763
▁substantial	-12.362558
props	-12.989735
ang	-12.472856
Scroll	-12.965148
pro	-11.697195
▁structures	-11.474529
DEPRECATED	-13.066882
parser	-11.794706
ABORT	-12.965533
tools	-12.873629
▁tasks	-12.924056
Statics	-13.749571
ppc	-13.233589
▁very	-11.053236
Atomic	-13.302602
lcd	-13.216449
▁strcasecmp	-15.214697
imag	-13.382199
Hz	-13.746267
▁xab	-20.077660
▁hidden	-13.087121
GD	-13.226125
▁whom	-12.201789
NATIVE	-13.177185
sess	-13.104321
▁according	-12.012837
IsValid	-12.904582
▁parsing	-13.049716
Worker	-12.910064
Package	-12.829564
▁Authors	-12.531578
▁compatible	-13.359842
▁held	-11.418122
▁critical	-12.810167
Sum	-12.885394
LU	-11.532194
Stub	-12.946550
stuff	-13.845713
ible	-11.982708
PROCESS	-13.005850
▁longer	-12.143792
▁limitation	-12.716347
NETWORK	-13.201222
uni	-11.462200
DOT	-13.312125
Reply	-12.910270
gcc	-13.172496
STS	-13.311576
PERIPH	-13.304460
Route	-12.971920
Example	-12.069131
▁prevent	-12.517410
▁hpp	-16.566435
REGS	-13.318901
RTC	-12.000207
▁executed	-12.617391
▁floating	-13.061638
vfs	-13.244803
ascii	-13.301753
terminal	-13.578288
connect	-11.511836
raw	-11.504173
AK	-12.850730
ROOT	-13.171949
▁ENTITY	-15.510027
▁msgs	-15.544092
python	-13.153609
▁immediately	-12.335307
Proto	-12.807142
ALG	-13.272991
▁PMC	-14.643029
acquire	-13.290412
neighbor	-13.746306
TEX	-13.133905
Alignment	-13.030931
suffix	-13.573900
▁DEALINGS	-12.912107
Split	-12.800002
Windows	-11.232783
RECT	-13.112187
▁MAY	-14.317779
▁finalize	-14.153036
POP	-12.713105
CFE	-13.517418
▁xBF	-24.357014
▁SKIP	-15.316050
▁operands	-13.754952
Decoder	-13.105673
WORK	-12.983662
SSI	-13.567486
▁primitive	-13.459433
Fail	-12.879220
▁txid	-14.868092
▁wine	-13.253262
DUMP	-13.140138
position	-11.426769
output	-10.760336
system	-11.527860
XD	-13.268183
▁unordered	-15.137583
ql	-13.205867
KS	-12.863325
chk	-13.128652
DISP	-13.046570
▁PPU	-16.341479
▁instructions	-12.757219
toggle	-13.472958
PIN	-11.195040
Cert	-13.173555
tim	-12.157800
CUR	-13.017101
Blob	-13.101865
▁WPA	-13.759339
Glyph	-13.206502
▁furnished	-12.826045
Sym	-12.786243
xxx	-13.152889
Services	-12.917637
▁tokens	-13.525367
Distance	-12.790975
▁instances	-13.003098
Transport	-12.960599
Pop	-12.913167
RFC	-13.905404
▁weights	-13.626825
LIT	-14.237592
ioc	-13.090055
Safe	-12.879492
▁anything	-12.032361
panel	-13.181846
Url	-12.821006
ier	-12.171284
▁SYSCFG	-14.345062
Dim	-12.842888
▁performance	-11.465975
SUN	-12.942160
▁fopen	-13.490480
Pad	-12.830777
area	-12.182303
▁persons	-12.523942
▁clients	-12.968766
MOCK	-13.299772
CDC	-13.128274
Wallet	-12.979483
▁utility	-13.248819
draw	-11.717246
Blocks	-13.051016
▁aom	-14.106518
ssh	-13.139426
▁diagnostic	-12.773522
PROFILE	-13.152493
Same	-13.604619
▁pkey	-14.639324
IPROC	-13.165326
MQTT	-13.261257
COMPONENT	-12.851051
mtx	-13.300716
first	-10.882344
Required	-12.865892
LSB	-13.407984
ERTS	-13.205406
BW	-13.349992
qos	-13.482453
▁legacy	-12.647040
Lower	-13.131784
META	-13.163400
▁FMC	-13.970280
misc	-12.877443
Identity	-12.910418
ally	-12.022242
Restore	-12.927283
lit	-12.711183
▁sender	-13.588500
sect	-13.175224
Sink	-12.938464
DIM	-13.503052
Play	-12.858819
MSI	-13.320976
▁RADIO	-13.974276
dsp	-13.308410
EEPROM	-13.255364
▁PED	-16.141529
COMM	-13.285840
▁fclose	-12.923025
Magick	-12.391184
Since	-14.112626
barrier	-13.323303
eh	-12.669821
Bound	-13.028263
ffe	-13.381603
CTR	-13.507443
refs	-13.102579
fence	-13.387958
TICK	-13.428316
Overflow	-13.128042
Disabled	-13.167119
Machine	-13.148494
pq	-13.053911
Pipe	-13.037498
sprite	-13.610782
Cached	-12.932817
Side	-13.116123
the	-10.544978
Blend	-13.102734
▁AUTHOR	-13.325659
GB	-12.083303
xp	-12.890777
sy	-11.933797
Received	-13.140608
cuda	-13.132304
wa	-12.320832
▁CGAL	-13.338674
Focus	-12.864785
▁selmon	-14.488104
this	-9.959389
CHK	-13.344905
FAULT	-12.580009
logic	-13.524255
▁mca	-14.073351
ValueType	-13.127705
ELEM	-13.347684
TOR	-12.612052
DER	-13.046635
HR	-12.598344
Ip	-13.109854
LENGTH	-11.892753
▁cinfo	-14.010539
▁dataset	-13.373533
xl	-13.061760
null	-11.094597
▁xba	-22.830041
Stage	-13.051140
Some	-13.384234
▁PFNGLUNIFORM	-13.406852
WIFI	-13.314916
▁keyword	-13.551023
Ver	-13.036588
PWM	-12.609010
USAGE	-13.175413
Sensor	-13.154765
XL	-12.961608
▁really	-11.640097
World	-12.506492
RN	-13.190738
▁LPTIM	-14.302599
Throw	-12.930078
▁ctype	-14.746998
▁sx	-14.186917
▁counters	-13.636793
Destination	-12.922318
ENGINE	-13.127306
vn	-13.083822
NumberOf	-13.146432
her	-12.413317
ABS	-13.073110
noise	-13.554298
bulk	-13.466760
IMR	-13.983467
ini	-11.719581
Zone	-12.998669
▁freed	-13.091822
TILE	-13.371455
Weight	-12.832927
ens	-12.140255
▁boxed	-15.479892
mtu	-13.416609
KB	-13.022095
TRIG	-13.714360
Objects	-12.928419
▁sptr	-14.272518
Available	-12.836342
translate	-13.394905
ay	-12.200473
▁queues	-13.848115
hm	-12.783285
Snapshot	-13.088894
SHR	-13.191341
Sound	-13.058963
▁routines	-12.926825
▁ImVec	-14.207689
▁assigned	-12.701909
QP	-13.420245
▁dictionary	-13.179843
Contact	-12.708596
▁OPCODE	-14.542626
empty	-11.449517
Center	-13.042892
MANAGER	-13.191775
TW	-12.682030
Trans	-13.253245
nxt	-13.460265
terminate	-13.071952
VE	-12.675466
▁REDIS	-13.387376
ros	-12.211689
Rep	-13.164068
Threshold	-13.155196
MOUSE	-13.180064
UA	-13.004209
solver	-13.152859
roll	-12.838414
tap	-12.973536
▁Creates	-13.064441
clamp	-13.620970
Cannot	-13.492363
gg	-12.929043
emu	-13.289808
perm	-13.183371
▁QSTR	-18.647521
Cb	-13.439437
icmp	-13.445148
POL	-13.467373
lists	-13.279758
FNGLVERTEXATTRIB	-13.190253
book	-12.429428
▁xce	-18.398055
ata	-11.980994
rdp	-13.382645
acp	-13.357277
Retrieve	-13.075575
xor	-13.214952
▁transpose	-13.681081
Align	-13.251280
▁images	-12.587448
▁IOM	-16.341570
track	-11.874351
▁streams	-13.499383
nh	-13.106981
ELF	-13.248144
gm	-12.012661
POLL	-13.060204
seen	-13.524530
Details	-12.467930
rop	-13.609627
dead	-12.637457
PHYS	-13.322872
wakeup	-13.154561
KA	-13.022379
▁IUnknown	-13.444314
▁sublicense	-13.282457
TER	-12.883156
alpha	-11.832011
The	-9.915925
▁PFN	-14.001323
WD	-12.910801
▁SERIALIZE	-16.471801
▁references	-11.967848
DateTime	-13.099026
mip	-13.340656
▁connections	-12.921726
mic	-12.334028
▁capnp	-17.840639
baud	-13.228239
▁endl	-14.528273
▁receiver	-13.177125
MAN	-12.451921
Cloud	-12.435100
accel	-13.291640
advance	-13.381547
NX	-13.126670
▁PyDict	-14.131462
dg	-13.155703
▁transition	-12.891664
▁FreeRTOS	-13.598504
▁getter	-14.549999
▁voltage	-13.393141
chip	-11.797364
VLAN	-13.359460
▁xcd	-18.265131
flip	-13.445661
DEN	-12.914134
ICR	-13.560612
▁MODEM	-14.877599
▁jint	-13.905476
Replace	-13.066463
▁sqInt	-13.034596
▁third	-11.698593
▁latest	-13.115054
IDs	-13.109339
symbol	-12.058875
register	-10.896409
repl	-13.298838
▁strchr	-13.825031
SEM	-13.233831
ofs	-13.283397
element	-11.402275
PRINTF	-13.210239
fail	-11.163603
▁SetString	-15.672703
▁NTSTATUS	-12.173585
ele	-12.632864
Google	-13.470140
▁GLubyte	-14.027271
Util	-12.924071
az	-12.498511
miss	-12.581550
▁usec	-15.131695
AH	-12.700078
unnel	-13.752632
mn	-13.147715
JIT	-13.249859
▁overlap	-13.609558
DN	-13.170328
Files	-12.629061
▁declspec	-18.163576
▁disconnect	-13.895758
Clip	-12.911142
UF	-13.739762
GI	-12.914837
Fault	-13.242516
▁opal	-13.814141
MY	-12.475552
▁positive	-12.306301
pre	-10.933797
Conversion	-13.071611
task	-11.358036
compat	-12.725423
▁DUK	-13.938121
▁HRTIM	-14.469756
Timestamp	-13.005704
ated	-11.607772
▁much	-11.168151
simd	-13.462291
har	-12.511367
DESCRIPTOR	-13.277569
AX	-12.998255
CODING	-13.248909
Join	-12.771228
▁assembly	-13.298971
tic	-12.269524
Angle	-13.093233
CONV	-13.138776
▁starts	-12.804874
ENA	-13.570292
SIGNAL	-13.062709
JPEG	-13.240964
▁inp	-14.818508
Environment	-12.476804
plain	-13.271446
Vtbl	-11.904004
▁STBI	-13.335963
▁records	-11.996501
Linux	-13.678069
mq	-13.053589
KV	-12.860712
car	-12.212629
Derived	-12.960042
▁LFA	-16.560666
DHCP	-13.261561
▁sending	-12.951176
▁handled	-13.007897
erate	-13.754517
filled	-13.948773
▁keyboard	-13.449018
▁redis	-13.591306
▁formats	-13.236209
▁incoming	-13.293724
ever	-12.791905
depth	-11.748772
REC	-13.154368
specs	-13.459263
IW	-12.852921
shuf	-15.452128
▁ERRCODE	-16.426314
Merge	-12.959697
WAKE	-13.480180
▁recovery	-13.075352
REPORT	-13.186296
isc	-12.990431
MOS	-13.157979
latency	-13.725629
INF	-13.172339
filename	-11.514527
Owner	-13.011292
Archive	-12.868919
Bounds	-13.198871
▁GLFW	-13.472181
▁takes	-12.285954
▁ecma	-13.812617
FLUSH	-13.213005
CSS	-12.781991
fall	-12.783328
impl	-11.721127
UG	-13.998002
▁nla	-13.812709
NOTIFY	-13.202801
vg	-13.351436
MCU	-13.380211
MII	-13.476805
DYNAMIC	-13.182271
compatibility	-12.970496
Buffers	-13.150051
WC	-12.922359
▁marked	-12.821648
ecc	-13.419627
Nodes	-13.094594
SIGN	-13.141661
▁writes	-13.004150
▁BLI	-13.692708
MAT	-13.276220
DROP	-13.042637
ute	-11.906701
Ad	-12.887487
rng	-13.412587
▁coordinate	-13.218843
Opcode	-13.239012
Present	-12.575021
fee	-13.745734
Linear	-12.868840
Primitive	-13.196533
mag	-12.831981
▁HFXO	-15.651002
mysql	-13.123610
En	-12.941554
▁xee	-23.171504
ial	-11.793438
▁unlink	-13.815616
command	-11.296897
▁avx	-16.463797
GFX	-13.341800
▁tif	-16.381308
PO	-12.840020
▁curbuf	-13.962434
tell	-13.662344
▁lpfc	-13.925911
▁xFB	-21.225093
COMPLETE	-12.949208
▁xac	-19.967614
iw	-13.234779
active	-11.361330
conflict	-13.843312
suit	-14.348170
▁difference	-12.488820
protect	-12.405807
datum	-13.259819
BIND	-13.257945
Delta	-12.743199
▁xbc	-21.040617
Im	-12.839725
▁strides	-14.479116
▁absolute	-12.918861
hist	-13.155930
UTIL	-13.161316
WP	-13.315572
▁underlying	-12.863176
▁hres	-13.487788
▁PINMUX	-14.889312
iph	-13.526638
Matcher	-13.298032
EVENTS	-13.592085
MATH	-13.219357
▁compiled	-13.234601
Boot	-12.969929
▁lda	-13.791294
msi	-13.207143
▁METH	-13.889126
▁specifies	-13.195819
DAC	-12.753391
DATE	-13.076174
CARD	-12.856727
ips	-12.891318
DAT	-13.594657
▁tstate	-14.004890
pal	-12.602196
Management	-13.478184
▁filters	-13.533664
fol	-14.639495
Literal	-13.226933
▁chunks	-13.604744
Algorithm	-12.980137
Conv	-13.322221
▁separate	-12.435880
MSB	-13.520799
Special	-13.184011
pause	-12.897441
Callable	-13.630077
PDU	-13.483388
LINUX	-13.119401
▁beginning	-12.280039
parm	-13.399777
ZIP	-13.086082
undo	-12.869139
Extract	-13.082946
UB	-13.326612
▁quic	-15.023446
▁PyInt	-14.005778
▁discard	-13.548739
▁LEUART	-14.889094
▁SUCCEEDED	-16.760782
lg	-13.194813
▁duk	-14.495967
▁IGNORE	-15.391319
tu	-12.489828
PDF	-12.877813
▁three	-10.869915
Stride	-13.446935
ALLOW	-12.750972
▁xdd	-19.723590
▁radeon	-13.871719
TY	-12.819615
Syntax	-13.209867
▁Whether	-12.937444
▁xea	-26.844541
pri	-13.102727
▁nbytes	-13.717163
ftp	-13.414709
lua	-11.895841
FIXED	-13.312399
floor	-13.505616
▁krb	-13.706966
jj	-13.457825
ell	-12.132965
▁foreach	-13.769913
▁gets	-12.462740
REMOVE	-13.272412
sol	-12.971729
Duration	-13.072258
switch	-10.484868
RTS	-13.277151
PULLUP	-13.693296
Namespace	-13.058886
ile	-12.147306
Serialize	-13.092811
folder	-13.632584
usart	-13.424532
ARGS	-11.762696
Peer	-13.057486
▁cairo	-13.777940
Construct	-13.011520
Completion	-13.260317
AU	-13.215041
mer	-12.226335
▁MUST	-13.634408
prime	-13.209744
Axis	-13.126719
▁xad	-17.942428
pick	-13.859002
Hook	-12.966671
Wrap	-13.168289
Console	-12.864831
SER	-12.934683
Arena	-13.113931
Curve	-13.221900
SSP	-13.456523
INTERVAL	-13.359399
BITMAP	-13.067431
ih	-13.219241
vtable	-13.583919
▁won	-11.361810
BINDING	-13.293944
display	-11.674827
▁xBB	-22.431123
▁However	-11.579546
collect	-12.695430
ARP	-13.303084
layer	-12.147365
Entries	-13.155474
arp	-13.426958
Break	-12.747961
SourceLocation	-13.045981
▁against	-11.020441
VX	-13.283756
Features	-13.096459
▁OVS	-13.688034
team	-13.021882
▁EIC	-14.974566
OWNER	-13.252263
▁simde	-13.820335
Crypto	-12.956040
▁segments	-13.308227
chr	-13.035355
▁omap	-13.966489
▁xde	-20.131453
▁represents	-12.700213
Sleep	-13.455663
qh	-13.644220
ans	-12.131891
HEIGHT	-13.396994
lab	-12.017048
Prepare	-13.010169
Slave	-13.709935
PLUS	-13.235466
MEMBER	-13.240693
▁MIDL	-14.778252
SCAL	-13.337768
serv	-12.909694
PROGRAMUNIFORM	-13.434426
▁Gets	-12.942350
wq	-13.439707
RESPONSE	-13.317702
PCIE	-13.688610
DOMAIN	-13.362832
▁mavlink	-14.221668
NM	-13.158773
▁IOCTL	-14.503698
echo	-12.898425
hints	-13.522294
decimal	-13.742856
PULSE	-14.294845
Dispatch	-12.993050
written	-12.680228
Visual	-13.388336
Filename	-13.281931
Cpu	-13.350827
sun	-12.969185
cut	-12.841744
▁fib	-14.416727
Lim	-14.792109
PARAMETERS	-13.080999
▁DDevice	-87.803404
unpack	-13.143198
▁scheduler	-13.646773
Period	-13.038387
▁NSNumber	-13.577914
Idle	-13.255197
Updated	-13.135529
DEL	-13.350522
▁SCIP	-13.445985
OPTIONS	-13.212876
Particle	-13.168219
pts	-13.388616
▁uiv	-19.788503
▁attached	-12.844329
Plane	-13.218030
attrib	-13.394048
Tk	-13.270550
▁opened	-11.888519
▁gboolean	-12.383782
▁salt	-12.799761
▁COPYING	-13.466030
Comm	-13.149568
▁UNSIGNED	-16.084044
NN	-13.126791
Disk	-13.011440
Border	-12.828398
mk	-12.160842
qf	-13.750885
frm	-13.620209
▁doing	-11.996466
management	-13.998490
Extended	-13.539319
▁dealloc	-15.138003
ARM	-12.147774
▁RID	-14.594921
enable	-10.853412
ether	-12.770311
GOTO	-13.445666
▁reflection	-14.099343
FU	-13.135237
PARSER	-13.238356
uf	-12.828889
prob	-13.273864
REFERENCE	-13.275186
RESP	-13.503854
quant	-12.836960
Tmp	-13.398863
Comment	-12.675263
WU	-13.836813
loss	-13.278760
ny	-11.703596
Rows	-13.222999
instance	-11.338570
CW	-13.087170
▁mock	-13.928267
▁Includes	-13.579634
▁declare	-12.890008
safe	-12.142888
▁ifp	-15.140034
▁entire	-12.300597
Origin	-12.502490
Certificate	-13.130451
WF	-13.445273
cvt	-13.470661
implicit	-13.985857
minus	-13.459866
PRT	-13.829938
▁iwl	-13.891054
▁rectangle	-13.487202
HY	-13.259455
ze	-11.882867
Xml	-13.146500
qs	-13.284192
Definitions	-12.759193
ICE	-12.966490
omp	-12.934020
▁comparison	-12.853578
▁xEF	-23.431162
LOCATION	-13.270210
Will	-13.295703
▁larger	-12.540327
lim	-12.707474
fully	-13.161472
▁xdb	-19.416586
▁exact	-12.994413
paint	-13.673847
option	-11.355224
▁reuse	-13.357802
procedure	-14.548095
ess	-12.980557
▁xFA	-30.446567
QC	-13.251226
mmu	-13.079256
▁XMC	-14.418751
Note	-12.836735
cpy	-11.965588
sch	-12.450012
Yellow	-14.700054
▁xcf	-19.126859
▁retrieve	-13.197331
History	-12.778507
▁sampler	-13.987379
▁RAC	-14.955219
Download	-12.834880
▁UINTN	-12.865318
Cap	-13.400713
BAND	-13.363083
▁slab	-14.350610
DICT	-13.310695
Encoder	-13.264785
▁ucs	-13.866533
Unique	-13.135324
▁absl	-13.751948
Revision	-13.104645
Finish	-12.995499
Emit	-13.346438
pwr	-13.549117
qc	-13.745639
coords	-13.477899
▁sam	-14.068064
FLD	-13.575180
▁isolate	-13.565066
second	-11.576976
RENDER	-13.385757
syn	-12.877909
▁journal	-13.479757
SOFT	-13.097346
▁xeb	-27.151161
▁uniform	-13.426970
▁xae	-19.279496
BV	-13.323988
▁elog	-15.860280
USED	-12.880585
Malloc	-13.445887
▁attempt	-12.558779
▁metrics	-13.682759
▁MAVLINK	-14.201465
▁vch	-13.987653
▁had	-9.921644
▁tvb	-14.485880
links	-13.129288
abilities	-13.381961
▁BSTR	-13.817972
General	-12.686477
Selected	-12.955409
nonce	-13.541492
alarm	-13.717310
Frequency	-13.231406
done	-11.568707
Constants	-13.091240
tgt	-13.594773
Implementation	-12.713220
▁instancetype	-15.052837
▁objc	-14.265056
▁tensorflow	-14.201988
▁tsk	-14.035096
Folder	-13.205963
▁returning	-12.844289
og	-12.435653
▁Operating	-13.222124
▁mini	-13.615131
▁SDMMC	-14.309898
▁NONNULL	-17.331521
CUDA	-13.261387
Inputs	-13.253764
▁pmix	-13.966529
equal	-11.986367
▁selector	-13.499144
reset	-11.276531
SEEK	-13.380827
▁UCHAR	-13.667909
▁Please	-12.478379
ped	-12.291196
▁workspace	-14.073122
eps	-13.319640
circ	-12.947573
▁CSL	-13.920863
Role	-12.542166
▁indexes	-13.578856
▁outside	-12.110300
ox	-13.078369
duplicate	-13.989078
▁fake	-13.569660
Guid	-13.247330
ism	-11.185214
LARGE	-13.170044
When	-12.777807
CONTENT	-13.472006
▁Enables	-13.469816
BUILTIN	-13.426706
Registry	-13.058907
Marker	-13.293046
xc	-11.555084
▁Cyan	-12.606330
art	-12.432961
TLV	-13.550116
RK	-13.038680
Loader	-13.121845
gemm	-13.808470
zy	-13.050239
▁ZAP	-14.563806
Compile	-13.019226
Selector	-13.166082
Accept	-13.039680
▁USA	-12.191978
STRUCTURE	-13.600574
prov	-13.105594
Purpose	-14.440510
▁framebuffer	-14.216206
STYLE	-13.153956
Reason	-12.926006
Alias	-13.297274
EXPORT	-10.963739
rotate	-13.849197
ez	-12.357077
Fragment	-13.026355
ker	-12.413575
▁sds	-13.846955
ler	-11.615809
Family	-12.599322
▁developers	-13.093626
json	-11.665033
▁controls	-13.129100
▁previously	-12.274028
mont	-12.987305
Password	-13.002839
strncpy	-13.514847
bea	-13.777884
InitStruct	-13.214704
WRAP	-13.402756
CXX	-12.913451
claim	-13.486653
holder	-13.056513
Freq	-13.540091
prio	-13.332134
UM	-13.132893
▁xabababab	-87.803404
vari	-12.131157
▁ppvObject	-15.310676
▁htim	-14.289318
blank	-13.355971
LI	-12.995288
odd	-12.508746
▁deref	-15.556217
Keyboard	-12.745952
vq	-13.699744
obs	-13.619166
▁recursive	-13.768617
SUM	-13.270903
▁IMF	-13.862622
Authentication	-13.482235
▁OBSERVER	-18.410779
BX	-13.227589
BIN	-13.487836
GAIN	-13.745572
dk	-12.779625
▁makes	-12.075407
▁bmc	-16.592524
Editor	-12.420468
Logger	-13.142767
HA	-12.775790
GM	-12.942292
Resize	-13.312016
SX	-13.271472
pan	-12.267285
isr	-13.283860
▁hdc	-14.084741
hz	-13.478266
pda	-14.181684
▁cout	-14.391571
clr	-13.448757
tuples	-13.418462
▁transactions	-13.018487
▁occurred	-12.599654
▁glfw	-14.575041
Numeric	-13.396181
▁xed	-15.586148
lun	-13.446084
HE	-13.363307
▁counts	-13.313798
oo	-12.576414
gw	-13.610088
▁cells	-12.449707
▁better	-11.683678
Two	-13.021682
candidate	-13.570490
HashTable	-13.271745
▁VkDevice	-13.580154
BLEND	-13.290039
oe	-12.675859
▁cJSON	-13.920652
▁going	-11.530451
▁vertical	-13.455679
ALWAYS	-13.202177
▁vout	-14.266926
▁LETIMER	-15.225670
▁gint	-13.335315
HERE	-13.817246
THRESHOLD	-13.533548
steps	-13.779581
▁implement	-12.887017
▁reads	-13.093263
ong	-12.339250
Using	-13.681401
void	-8.445436
▁accompanying	-12.936432
▁YYCURSOR	-15.312779
▁scoped	-13.747477
GTK	-13.482776
qt	-13.439812
▁Magenta	-12.663042
▁delayed	-13.684954
Before	-13.137049
DESCRIPTION	-13.477622
▁revision	-13.432312
COND	-13.462914
▁DECLSPEC	-13.702072
SIMPLE	-13.418108
rnd	-13.572522
▁UCS	-13.930421
ite	-12.297698
▁OSSL	-13.764107
FFFF	-12.144696
▁xnn	-14.452592
▁creating	-12.643696
▁easy	-12.709553
▁addtogroup	-16.989002
smart	-13.324861
Branch	-13.352135
disc	-12.947967
IGSEL	-15.436642
sections	-13.753025
LAT	-12.908471
pj	-13.475566
LN	-13.444187
CAPS	-13.536357
▁invoked	-13.234699
pdf	-13.158318
SCI	-13.324019
Big	-12.528183
registry	-13.728402
layers	-13.570662
POLICY	-13.438167
Shadow	-12.909119
FLASH	-12.482094
Declaration	-13.007112
timeout	-11.598394
actor	-13.347075
IG	-12.784995
XOR	-13.586480
MMU	-13.513699
Paint	-13.164443
tal	-12.360991
EventArgs	-13.716147
CHUNK	-13.488039
▁strcat	-13.777438
SCOPE	-13.359385
bond	-13.706895
ANCE	-13.088302
pulse	-13.291885
nand	-13.507130
▁reached	-12.426825
Framework	-12.976339
LAYER	-13.447193
▁signals	-12.728101
PW	-13.105469
Execution	-13.172234
▁SIZEOF	-14.093686
▁ctrlr	-15.956167
regex	-13.539418
▁rename	-14.158978
Px	-13.663511
▁applied	-12.522102
▁integr	-15.652237
▁xec	-19.909220
rdma	-13.587534
▁contact	-12.524926
▁MLX	-14.224260
browser	-13.540759
SECURITY	-13.371866
▁Microsoft	-12.533071
▁AVAILABLE	-15.599516
oss	-13.289781
▁EXTERNAL	-15.038118
▁detection	-13.007394
LESS	-13.259848
pointer	-11.619162
mnt	-13.619786
▁OPA	-16.144732
▁softc	-17.045350
▁username	-13.687382
wnd	-12.985084
Touch	-12.848625
thing	-12.915140
ivity	-13.589352
▁NSDictionary	-14.058541
LFXO	-14.562936
Sparse	-13.465606
recv	-12.188821
hub	-12.348960
PN	-13.284886
mh	-13.568516
▁addition	-12.052265
spawn	-13.457489
▁converted	-12.959495
vel	-12.793156
▁destructor	-13.469311
TG	-13.046041
prec	-13.229004
prompt	-13.602872
bmp	-13.590877
▁nonnull	-15.927894
strm	-13.424602
▁GTLR	-13.584849
AO	-13.290249
OA	-13.412012
FACE	-13.308240
COMPILE	-12.837697
org	-10.769297
Second	-13.177050
▁mtd	-14.471945
THREADS	-13.005337
prt	-13.754201
Codec	-13.267159
▁animation	-12.907420
▁supplied	-13.144746
iq	-13.048763
▁gdb	-14.099379
▁rettv	-14.362958
▁EIGEN	-13.465224
with	-11.171779
▁Unable	-14.746752
ALIAS	-13.445136
flush	-11.879645
NVM	-13.454273
nz	-13.144560
square	-13.495985
▁ENR	-17.668290
▁sph	-13.996700
▁itk	-13.107814
▁equivalent	-12.674555
my	-11.142831
Hdr	-13.520203
▁governed	-13.154346
sens	-13.416439
Hit	-13.086137
▁avctx	-14.764189
NEG	-13.435495
▁NEED	-15.033417
FILL	-13.542879
assign	-11.897803
SSH	-13.279643
Secure	-13.152153
▁xda	-20.301777
▁gpointer	-13.392575
▁performed	-12.145628
Logical	-13.277024
MUTEX	-13.315624
▁kafka	-16.660650
▁circuit	-13.018737
▁PGUID	-14.904532
ka	-11.391988
TRY	-13.047825
FRC	-14.135327
Bin	-13.588555
parms	-13.635127
Receiver	-13.250317
▁users	-12.605124
Over	-13.082165
II	-11.715195
TAILQ	-13.536460
short	-11.695293
crt	-13.301346
Channels	-13.339802
▁whose	-12.228760
FIELD	-11.448285
▁exponent	-13.638938
HZ	-13.300507
▁CUI	-15.905065
ide	-12.804147
RULE	-12.982764
intf	-13.561446
But	-12.644402
fin	-12.431576
ative	-11.615023
▁notifier	-14.601375
pci	-11.937566
coin	-12.985267
pairs	-14.000833
▁lws	-14.199652
hu	-12.781209
MGMT	-13.547206
▁ASSUME	-16.709553
▁todo	-13.600563
Apple	-13.756284
CTS	-13.568954
XR	-13.505324
pose	-12.761897
Acquire	-13.161035
Conn	-12.965282
▁viewport	-14.152626
star	-12.514837
SVC	-13.552715
lvl	-13.627255
update	-10.895245
eu	-12.747019
fld	-13.578774
HARD	-13.350639
SOL	-13.300690
▁working	-11.781624
defs	-13.186809
Ok	-12.918978
Browser	-12.857418
prev	-11.329104
PROXY	-13.437216
▁contained	-12.796063
▁interpret	-14.237791
YUV	-13.607646
▁Could	-14.099552
Tail	-13.191660
▁PURE	-13.519396
snap	-12.914421
scaling	-13.283928
▁encryption	-13.487582
▁ofproto	-14.364641
INFORMATION	-13.303217
CUSTOM	-13.369275
Coord	-13.509859
BufferSize	-13.321127
OVR	-14.026680
▁invalidate	-13.929314
unmap	-13.195713
XM	-13.213448
Increment	-13.258102
multiply	-14.298893
IVEREF	-13.580872
▁EXPECTED	-15.441839
▁fffffff	-19.346147
▁fout	-14.472424
PSK	-13.585897
FUL	-13.791555
ik	-12.350158
XS	-13.208167
Sp	-13.091703
DIG	-13.740236
FLEX	-13.844204
Final	-13.041017
vuint	-13.865650
authentication	-14.429285
Agent	-12.907731
▁masked	-14.255100
GPR	-13.682989
prefix	-11.935952
grow	-13.611154
▁glm	-14.146640
▁OpenSSL	-13.612822
▁ISC	-14.178953
▁HSE	-14.415956
hole	-12.763723
FUSE	-14.001938
pop	-11.630425
WI	-13.102093
▁drivers	-12.129315
▁illegal	-13.288947
strict	-12.390063
▁computed	-13.297670
thresh	-12.709534
▁abfd	-15.507812
Eq	-13.613545
▁phalcon	-16.109382
xw	-13.790690
▁submit	-13.561713
random	-12.309328
Alarm	-13.757154
▁declarations	-12.976736
qi	-13.280941
▁IPT	-13.830384
FETCH	-13.517320
msr	-13.728997
tun	-13.320281
total	-11.694187
▁DESCR	-13.153958
OpenGL	-13.197510
reach	-12.866203
▁flat	-13.313742
SPROC	-13.317120
inherit	-13.376295
GNSP	-15.008121
tol	-13.402853
▁dobj	-16.232976
▁higher	-12.205508
Eval	-13.387081
▁rval	-13.860856
ldap	-13.546208
▁descriptors	-13.511755
Phase	-12.810832
Workspace	-14.135637
CHAIN	-13.436055
▁bitwidth	-17.248516
ATTRIB	-13.489813
COR	-13.534674
Motion	-13.414275
▁LSM	-13.915087
Ar	-13.252054
SLAVE	-13.609207
▁things	-11.684290
pend	-13.667972
wave	-13.227997
spaces	-13.590964
▁referenced	-13.351773
OL	-12.893163
▁WOLFSSL	-13.553579
geo	-13.321157
click	-12.838369
PENDING	-13.485281
SEARCH	-13.405678
Seg	-13.312463
OE	-13.283665
Perform	-13.180135
fbb	-12.795227
▁UNIX	-14.298343
UID	-13.348260
▁highest	-12.427385
Prev	-13.275150
choose	-14.046391
piece	-13.414969
ccb	-13.943819
▁xdr	-14.443807
Added	-13.155328
Enc	-13.360924
▁OPERAND	-15.856376
▁unistd	-17.709271
▁certain	-12.161434
imp	-12.857590
modifier	-13.545597
▁produce	-12.776284
▁github	-15.123117
▁PMIX	-13.591035
Me	-12.597161
▁anchor	-13.464949
BIAS	-13.903590
ENCLR	-14.448028
▁hri	-14.733999
TU	-13.158246
▁sysbio	-87.803404
dac	-13.468475
▁isset	-16.885485
PAR	-13.292499
STRLEN	-13.669483
eal	-13.067181
fixed	-12.428511
Div	-13.179122
STAMP	-13.499755
usage	-12.275144
▁velocity	-13.531820
▁rather	-12.044788
▁spinlock	-14.413376
▁updates	-13.066404
Backend	-13.342073
NOR	-13.414694
▁loading	-13.389324
Original	-13.347605
Overlay	-13.582780
▁pbuf	-13.909194
▁temperature	-12.830098
Did	-12.848424
hdl	-13.647554
HB	-13.113206
audio	-12.363618
combine	-13.584276
▁quality	-12.568794
kl	-13.266333
Found	-12.960004
▁swift	-13.979609
Sel	-13.412448
▁hWnd	-14.439708
ke	-11.978177
OPERATION	-13.478738
stp	-13.652262
brush	-13.309132
Place	-13.626194
YES	-13.608546
dai	-13.286747
hb	-13.506072
oh	-12.703096
▁xCC	-22.057843
▁occurs	-12.723074
mw	-13.631641
post	-11.709941
printer	-13.753228
BLUE	-13.086328
VB	-13.454011
Need	-13.873104
▁CRYP	-14.209921
▁filesystem	-13.815217
▁Mountain	-12.221920
answer	-13.751467
ko	-11.967330
iff	-13.405915
prof	-13.031005
Look	-13.669213
▁hmac	-15.071014
▁predicate	-13.652576
Patch	-13.261854
▁mex	-16.254579
▁separator	-13.714017
multi	-11.696241
▁please	-12.489112
▁translation	-12.774069
▁APR	-13.407735
Inline	-13.321181
intra	-13.755077
gsl	-13.890567
PJ	-13.431107
FORWARD	-13.402926
Visible	-13.188483
Viewport	-13.540071
hot	-13.439529
▁DCHECK	-13.629462
TOOL	-13.374553
▁Specifies	-13.747760
▁milliseconds	-13.623309
cbmc	-14.393386
Inter	-13.304751
▁xca	-20.037439
▁unable	-13.232183
come	-13.891820
WK	-13.536422
▁btree	-14.282154
jmp	-13.349925
Amount	-13.284214
NIC	-13.332631
PEND	-14.168469
▁pybuffer	-17.452049
Gui	-12.798886
▁consider	-12.525267
xi	-12.739660
COMPRESSED	-13.527630
tran	-13.431778
GH	-13.400781
iz	-12.536110
Clk	-13.773458
admin	-13.057519
▁taken	-11.963124
▁ffd	-17.484391
XY	-13.206473
▁optarg	-14.244447
RUNTIME	-13.268850
ern	-12.683037
break	-8.303097
mbox	-13.322067
▁tcg	-13.844734
▁resolver	-14.922255
Composition	-13.800478
master	-11.929770
Include	-12.793828
ous	-11.797190
Geo	-13.471903
▁various	-11.831643
RHS	-13.646588
lst	-13.453179
inity	-15.113622
SMB	-13.537991
cw	-13.580296
Install	-12.873325
▁vsi	-14.858295
burst	-13.336734
▁inserted	-13.341416
▁FSL	-13.948018
▁owned	-12.678062
GRAPH	-13.380756
▁odp	-14.567848
fwd	-13.584765
Comparator	-13.655519
▁ENET	-14.118085
mpz	-13.866130
Shell	-12.942717
▁rewrite	-13.855309
Qual	-13.314703
Modify	-13.557872
▁SIMDE	-14.094840
▁dtor	-15.597557
Mgr	-13.457834
▁ETM	-15.352169
▁LIBXSMM	-14.128097
estimate	-14.091305
signal	-11.779458
▁hdev	-15.671794
SORT	-13.438773
▁smaller	-12.639550
BK	-13.123110
Cleanup	-13.044181
insert	-11.524779
Pixels	-13.567754
Sprite	-13.341253
▁vdev	-15.115765
Elf	-13.962183
▁glColor	-14.598021
▁sad	-13.961020
FPU	-13.781264
SCL	-13.867162
TARGET	-12.136200
▁BLAZE	-13.846389
▁irqrestore	-17.850827
Quad	-13.187914
Distributed	-14.859528
Drive	-13.601703
Band	-13.380218
Transition	-13.189487
▁srna	-15.918080
HO	-13.226369
Take	-13.421038
Pt	-13.469332
TRANSFORM	-13.542910
Given	-14.324310
alert	-13.552718
Round	-13.415096
access	-11.638092
▁blaze	-13.996326
▁built	-11.800456
Fix	-13.183350
▁posix	-14.085592
grab	-13.739980
▁mdb	-14.423382
▁overlay	-14.054612
▁decoded	-13.810172
▁xEE	-87.803404
push	-11.139507
DDS	-13.508206
▁USING	-14.712913
targets	-13.900856
ffff	-12.453759
lk	-13.120183
▁RELOC	-15.670708
WA	-12.973858
Super	-13.035390
neos	-14.006454
▁horizontal	-13.526587
▁epoch	-13.940702
ATA	-13.308053
Indirect	-13.545293
Override	-11.922325
SCREEN	-13.449837
Ensure	-14.731099
▁initializer	-13.858579
cas	-13.223816
Sz	-13.456934
▁COMPILER	-15.183477
Methods	-13.427030
TLE	-15.087576
Recv	-13.505127
ArrayRef	-13.393292
▁TypeError	-14.952652
Unsigned	-13.342842
▁GLAPIENTRY	-14.169232
▁topology	-13.999987
trim	-13.455368
delta	-12.099635
Digital	-14.124813
▁octet	-14.240215
ark	-13.795887
rss	-13.694725
rid	-12.805959
▁services	-11.502950
▁evaluate	-13.321820
▁ACTIONS	-13.454952
IMG	-13.507233
Drag	-13.267520
▁glVertex	-14.404392
Keep	-13.812723
fine	-14.084771
▁buckets	-14.334476
vv	-13.693064
Minimum	-13.330396
▁SOAP	-14.144034
▁phba	-15.849959
gpr	-13.773640
CLKSEL	-14.171666
ash	-12.920258
GATE	-13.482068
buttons	-13.847636
any	-12.021449
axi	-13.741550
Cut	-13.600437
▁sidl	-13.897605
rst	-13.201461
CURSOR	-12.595449
▁EIO	-15.090519
lic	-11.712092
ick	-12.891348
▁IDC	-13.601763
Tex	-12.827692
▁vget	-14.797876
▁upb	-14.271838
▁dart	-13.325205
▁cleared	-13.342248
ZCL	-13.789150
SAMPLER	-13.501858
fac	-13.511360
sbmc	-14.520675
▁upload	-13.737011
CAT	-13.286279
nav	-12.954678
LW	-13.048986
▁setter	-14.376459
IMPORT	-13.202630
Bank	-13.373756
balance	-13.445956
Bi	-13.182147
▁drvdata	-17.314884
▁adding	-12.839150
▁debugging	-13.295702
meth	-13.478662
sigma	-12.985334
Cycle	-13.144960
cube	-13.290322
strategy	-13.838070
Capacity	-13.384166
▁validation	-13.332614
▁Elias	-13.699873
▁probably	-12.253675
ashcho	-14.531954
Ids	-13.537913
Registers	-13.441804
FRAMEBUFFER	-13.478898
▁SFD	-17.106517
TIMING	-13.906521
structure	-13.073450
▁spl	-14.300805
▁CAmount	-13.505351
xid	-13.318712
▁further	-11.767904
shared	-11.364037
▁StatusTypeDef	-87.803404
grant	-13.474882
SENSE	-13.644142
LJIT	-14.291218
May	-12.983075
tn	-13.334479
Actor	-13.506405
flt	-13.827653
▁protection	-12.633917
▁bVar	-14.310353
ew	-12.518842
Bridge	-13.253897
▁STDMETHOD	-13.650116
Clone	-13.331502
▁TNode	-14.369727
▁leading	-12.401347
▁refer	-11.077287
demo	-12.960458
LVL	-13.905781
▁PPI	-14.082674
HOOK	-13.355886
▁explicitly	-13.119219
▁solution	-12.523244
▁trailing	-13.535931
memory	-11.032855
▁endcode	-17.257931
▁ovld	-22.163651
frac	-11.865919
ITER	-13.560206
ENSET	-14.962268
▁elab	-18.205847
offs	-13.026610
Hint	-13.469728
▁mqtt	-14.491755
▁adds	-13.483814
RQ	-13.688605
oy	-12.811407
▁ptrdiff	-13.970010
Analog	-14.405705
ana	-11.868472
▁VDAC	-15.152227
▁HSI	-14.683554
CLUSTER	-13.624920
Expand	-13.947674
anal	-14.669312
▁sources	-12.022595
Specific	-12.796899
▁THROW	-15.090318
▁SDH	-16.477831
dbus	-13.534687
activate	-13.485937
Arr	-13.441527
Multiple	-13.616029
BER	-13.442203
▁pxd	-18.197381
ard	-12.096164
▁DEVINFO	-15.375283
IFG	-14.348421
Lite	-13.368226
▁Nonnull	-16.123635
panic	-13.403375
Man	-12.551363
Span	-13.310382
GAME	-13.234107
fptr	-13.684425
land	-10.981239
Vars	-13.515551
bk	-13.662139
Rpc	-13.680695
Micro	-13.472631
Small	-13.313025
▁vld	-14.423878
subscribe	-13.857871
Pa	-13.165762
Maybe	-13.600384
▁OPTIONAL	-14.129286
Tool	-12.906348
QM	-13.734723
▁ZSTR	-14.650326
▁HFCLK	-15.646465
Pr	-13.435294
wind	-13.076270
STENCIL	-13.440107
SUPP	-13.209743
mmio	-13.724736
▁cospi	-15.181331
Photo	-13.289264
Panel	-12.900432
margin	-12.426466
DIFF	-13.369149
▁PyCFunction	-15.490129
▁GATT	-14.708827
ANY	-12.366861
xt	-13.278113
▁middle	-12.518327
▁NOTICE	-13.696320
hop	-13.430116
▁PVOID	-13.353093
▁regval	-13.866970
VertexAttrib	-12.308224
▁folly	-13.839895
Hi	-13.170346
Diff	-13.318555
▁party	-11.994462
▁decrypt	-14.571719
▁yyvs	-15.632839
GLX	-13.475407
Intrinsic	-13.721959
km	-11.527553
Board	-13.522491
VO	-12.911029
TBL	-13.617456
Isolate	-13.398983
Unsafe	-14.249084
MIC	-13.095051
stencil	-13.632484
peek	-13.786409
▁regmap	-14.794374
▁capability	-13.681776
gz	-13.486785
mii	-13.745791
fat	-13.661689
stroke	-13.490695
have	-12.766730
napi	-13.795055
fire	-12.956588
Initialization	-13.277258
IDE	-13.247473
pseudo	-14.097356
anim	-13.061697
Attrib	-13.712785
▁indicating	-13.136044
Indices	-13.555962
▁exchange	-13.032638
PHASE	-13.591919
login	-13.381623
▁BORINGSSL	-14.817997
▁vport	-15.078292
Scheme	-13.254329
StringRef	-13.388010
INSTR	-13.714991
items	-12.192926
▁nSize	-13.756727
plt	-13.539621
Collections	-13.546872
Half	-13.618685
session	-11.351186
HeapTuple	-13.007314
▁queued	-13.929389
unlock	-11.030415
▁opensource	-15.897356
MSP	-13.635630
▁CCP	-14.093050
ONCE	-13.726606
▁readl	-14.424713
fuse	-13.574003
define	-7.564817
TRIM	-14.148909
Columns	-13.397638
Visitor	-13.171030
SPC	-13.490320
▁occur	-12.895446
Samples	-13.379290
pkg	-13.343258
PCI	-12.513597
launch	-13.763528
Summary	-11.898363
truncate	-13.379590
WEB	-12.432609
SECOND	-13.380342
mixer	-13.771757
NOP	-13.246506
spell	-13.312416
▁though	-11.864786
oper	-12.671555
▁hyg	-17.068255
mirr	-14.012311
TOK	-13.476670
▁lost	-12.089453
oston	-17.480960
Based	-13.568062
USHORT	-13.316409
bson	-13.505417
LANG	-13.238153
lut	-13.430853
▁SFR	-16.410638
Upper	-13.453275
AXIS	-13.743686
Preview	-13.615381
sib	-14.446931
Demo	-12.709827
▁scaled	-14.084260
OLD	-13.473524
▁jiffies	-14.174969
Fee	-13.398978
▁REQUIRED	-15.532770
▁MagickFalse	-13.731767
algo	-13.564984
TransactionId	-13.374284
nop	-13.278288
▁SPDK	-14.328022
ppp	-13.891328
RND	-14.224631
CRL	-13.865733
▁regulator	-13.982998
▁INPUTSEL	-19.188858
▁across	-11.931086
java	-12.297328
dest	-11.509918
▁ValueError	-14.566789
PCR	-13.461642
Controls	-13.552175
air	-12.499156
▁resulting	-12.723089
theta	-13.087357
▁NEON	-14.901068
geom	-13.605234
Dimension	-13.340478
▁neon	-15.143661
REP	-13.708112
Pg	-13.558197
▁substream	-15.279665
away	-13.109417
▁immediate	-13.224907
Collision	-13.511300
▁matched	-13.546352
Hex	-13.355570
Determine	-15.408330
Ethernet	-13.430933
hh	-13.640666
normalize	-13.515167
csum	-13.779954
DMI	-15.227125
GEO	-13.900319
COLUMN	-13.452475
▁positions	-12.449889
▁YCH	-18.914782
Visit	-13.114250
Mutable	-12.969690
▁XED	-13.903861
EI	-12.941781
▁BITCOIN	-13.177860
KEEP	-13.517569
Cx	-13.648431
▁holding	-12.739490
Routine	-12.945973
TRA	-13.242712
callback	-11.314779
Outputs	-13.469332
sPer	-13.703246
Team	-13.353013
▁average	-12.408436
▁released	-11.612571
PERIOD	-13.823007
▁xCD	-23.397153
▁bnx	-14.218703
MIX	-13.262460
Share	-12.499728
Headers	-13.393011
force	-12.113823
wo	-13.062158
Additional	-14.092373
▁fixup	-14.611172
ISP	-13.640505
UD	-13.007235
fact	-13.787295
▁IXGBE	-14.022996
▁computation	-13.316967
▁SINGLECTRL	-19.386985
Rtl	-13.462205
chrono	-13.498342
IRQHandler	-13.282725
▁FTM	-14.464181
▁holds	-12.769121
▁deep	-12.856729
accum	-13.514562
isa	-12.868152
userdata	-13.619727
MPEG	-13.625954
GCM	-13.832870
eax	-13.424985
▁ROR	-15.549477
VID	-13.632313
▁DOCTEST	-13.807894
MemoryContext	-13.174077
▁gatt	-15.149541
IQ	-13.629442
BLAS	-13.916987
det	-12.918030
libc	-13.540143
▁riscv	-15.473179
▁simply	-12.378643
▁representing	-12.887428
common	-11.277417
Modifier	-13.438856
ObjC	-13.512270
Adjust	-13.376000
Analysis	-13.437443
▁traverse	-14.154723
Variables	-13.126586
NORM	-13.163486
▁fabs	-14.537020
▁packages	-13.912570
SHOW	-13.289953
oa	-12.686375
▁IInspectable	-15.274613
▁inverse	-13.638423
Usb	-13.662049
ug	-13.146802
IPSETTING	-13.879006
▁correctly	-13.016589
Rotation	-13.396279
▁SHIM	-16.712650
▁managed	-12.867595
engine	-12.208173
Disp	-13.574794
▁orientation	-13.528331
ek	-12.249971
subtype	-13.921592
Cpp	-13.339252
▁multiplication	-13.544333
PROBE	-13.619042
Score	-12.897470
rtp	-13.724700
mempool	-13.720858
MN	-13.289067
DK	-13.228453
Modified	-13.347343
▁chroma	-14.654449
WB	-13.431090
Sim	-13.566070
INLINE	-11.417013
▁GENERATED	-13.605180
gather	-13.624176
Always	-14.082740
Site	-13.313295
ODR	-14.187684
ESC	-13.649849
Leave	-13.584365
▁popup	-14.190656
Floor	-14.685470
WE	-12.832219
LEAVE	-13.280156
cmds	-13.599383
FFI	-13.726813
concat	-13.618438
▁CTransaction	-13.566864
PARM	-13.677535
▁EBI	-14.852711
CPL	-13.768450
▁glMultiTexCoord	-14.662548
CLIP	-13.401775
▁GST	-13.957923
TRACK	-13.491505
▁memmove	-14.450210
QUIC	-13.585876
ities	-12.387180
▁adev	-16.033470
ass	-12.861467
▁PCD	-14.876185
▁scanner	-14.132153
letter	-14.052289
Builtin	-13.306239
nw	-13.692656
Par	-13.174758
▁implements	-13.146964
▁nxv	-16.918218
crash	-14.317970
Caps	-13.688881
rho	-12.939965
Mon	-13.501155
Instr	-13.623420
That	-12.620428
▁everything	-12.302940
HINT	-13.703192
▁regions	-12.804529
cxt	-13.643020
canvas	-13.798800
▁stdin	-14.118315
▁prototype	-13.569647
▁exactly	-12.665966
percent	-13.725942
Dis	-13.217251
▁estate	-13.062576
DECODE	-12.850125
▁GLshort	-14.342860
▁having	-11.689151
▁past	-12.137990
Locale	-13.490492
PTE	-14.001398
cent	-12.557991
ITY	-12.475068
try	-11.468023
▁padapter	-16.012048
CONTROLLER	-13.753809
voice	-13.370892
▁dependent	-13.378299
Pull	-13.500306
gst	-13.763942
▁SMU	-14.430044
other	-11.693856
CELL	-13.628067
▁similar	-11.974513
lite	-13.220528
gpio	-11.927517
REMOTE	-13.717727
Raise	-13.405951
cdb	-13.845886
Tr	-13.403645
▁WMI	-14.360128
cdev	-13.701373
▁moved	-12.088843
Spatial	-13.737592
▁individual	-12.195398
▁luaL	-13.922493
make	-11.740745
eval	-12.440066
▁upstream	-14.220708
OW	-13.464292
Once	-13.768926
Poly	-13.158412
EU	-13.592046
Checks	-13.462764
Ro	-12.934662
▁irqsave	-17.383771
cch	-13.744620
OMP	-13.529779
▁ldb	-14.155716
dna	-13.929336
▁depending	-13.069985
▁VMA	-13.855847
Sock	-13.431032
▁libxsmm	-14.369762
rivateFrameworks	-13.861254
▁daemon	-14.081505
rates	-13.405266
▁PyTypeObject	-14.013738
▁xCE	-31.254848
ged	-12.792987
btn	-13.431311
bone	-13.690720
gradient	-14.115328
▁obliv	-16.931028
▁timeval	-13.262301
Holder	-13.253638
LZ	-13.867032
cpus	-13.757869
▁strstr	-14.609293
▁backward	-13.767004
global	-11.465671
TXT	-13.629350
▁consumer	-13.525549
Cond	-13.396883
BaseType	-13.615850
DSA	-13.761348
Protection	-14.096130
▁glVertexAttribI	-14.875621
▁ordered	-12.892392
Mock	-13.140025
▁vint	-15.133189
Orientation	-13.491584
UserData	-13.806410
Hardware	-13.945512
▁reject	-13.637794
DIGEST	-13.712345
▁XCH	-17.016868
▁watchdog	-14.019251
hx	-14.191267
▁unref	-16.188819
drag	-13.212964
rh	-13.384199
▁bandwidth	-14.067054
exe	-13.421795
GetCurrent	-13.425928
GENERAL	-13.597861
▁stopped	-12.950501
WX	-13.516620
▁vlib	-14.174290
EXCEPT	-13.686046
template	-11.116111
slash	-13.499666
▁CCMR	-15.890905
ord	-12.972782
▁DISPID	-14.079736
▁stores	-12.998665
anti	-12.978454
yield	-13.782384
vin	-12.657589
elm	-13.728427
NDRV	-13.874321
preferred	-14.202898
BIOS	-13.610175
AQ	-13.833994
MAG	-13.666702
▁typval	-14.262637
Jump	-13.591174
EXIST	-13.468965
DOG	-14.151364
▁compl	-14.745772
▁sbitmap	-13.313733
Callbacks	-13.510354
▁observer	-14.080200
hv	-13.577501
power	-11.822984
Backup	-13.536940
▁xAB	-25.412807
dsi	-13.950758
Indexed	-13.599363
IBM	-13.709485
▁yes	-13.086360
iot	-13.400649
divide	-13.750730
Parallel	-13.354010
wh	-13.554947
▁checkpoint	-13.857171
SYN	-13.905432
zu	-13.005167
wall	-13.209774
▁MKL	-15.082797
tyEnum	-14.469915
▁ofp	-14.122377
▁secondary	-12.908998
▁REFI	-13.597827
Unexpected	-13.611575
CRT	-13.483875
esc	-13.412811
▁lsm	-14.271362
Chars	-13.708155
▁specification	-13.399174
▁considered	-12.028434
HUB	-13.655624
CTRLA	-14.763000
▁follows	-12.051296
NDIS	-13.664517
Navigation	-13.177838
fft	-13.872836
hide	-13.036042
BasicBlock	-13.509565
▁VTSS	-14.744352
ATTACHMENT	-13.600015
Toggle	-13.550513
Acpi	-13.249482
▁redraw	-13.992358
Spi	-13.573112
arrow	-12.947730
▁blocked	-13.667774
Dummy	-13.540392
▁encrypted	-13.909329
▁bParam	-14.735883
Buff	-13.647332
ERASE	-13.944713
CONT	-12.968857
fan	-13.240534
Bundle	-13.173727
MCS	-13.784869
ward	-12.548915
Anim	-13.747849
visibility	-13.857448
▁OPAL	-13.758279
▁pstate	-15.167559
▁fcntl	-15.253690
hcd	-13.808263
▁enqueue	-14.310912
ERATOR	-13.448276
qu	-12.555059
Xfer	-13.686583
OVERFLOW	-13.621919
▁PRIu	-14.785434
netlink	-13.660301
OO	-13.579086
GetAttr	-14.089191
charset	-13.873550
▁JNIEnv	-15.253772
ten	-12.070403
FAT	-13.708050
PPP	-13.588128
RSP	-13.788199
LITERAL	-13.900509
▁dropped	-13.085399
extra	-11.979113
Interp	-13.743272
CScript	-13.530590
▁jlong	-14.311482
▁qla	-14.484862
Physical	-13.702205
INITIAL	-13.635177
Wire	-13.332147
iterate	-14.262867
▁xBD	-87.803404
ZONE	-13.558742
WHITE	-13.508727
▁DECODER	-16.989930
Returned	-13.192178
Picker	-13.653402
PRODUCT	-13.576468
ory	-13.132107
Ring	-13.610919
true	-11.133835
LAYOUT	-13.752362
▁SYNCBUSY	-16.989543
Signed	-13.560306
ACCEPT	-13.589316
Major	-13.387643
Running	-12.936232
Del	-13.345394
gram	-13.123208
tau	-13.042798
NaN	-14.196041
TCB	-13.745953
got	-12.276895
STMT	-13.608409
▁xBE	-30.980175
PAUSE	-13.603664
▁amdgpu	-14.113123
siz	-13.872127
▁FSMC	-14.559884
TRANSFER	-13.755404
find	-11.438879
▁bitfield	-14.109467
▁upon	-11.727664
column	-11.833641
zlib	-13.665697
Inner	-13.162998
RTT	-13.846830
Then	-13.573414
FAMILY	-13.726189
ries	-12.541814
▁EFM	-14.263856
▁Il	-12.959282
▁stb	-14.123638
Commit	-13.232099
▁ENODEV	-16.141029
CreateInfo	-13.625785
▁LPCWSTR	-13.881510
▁fallback	-13.953754
gx	-13.902833
sci	-13.336272
DAY	-13.235040
bufs	-13.631901
▁executable	-13.744146
▁effects	-12.113666
cstr	-13.770961
▁emlrt	-14.666740
▁normalized	-13.817121
CONVERT	-13.905313
▁processes	-12.802218
ake	-13.107641
Frames	-13.646466
Sup	-14.016663
integer	-12.262450
storage	-12.151367
Automation	-14.210865
Chip	-13.334932
WRAPPER	-13.604231
FRAGMENT	-13.749592
Activity	-12.812004
▁few	-11.635094
MTU	-13.791879
registration	-14.069989
▁rendering	-13.507318
CString	-13.575358
Refresh	-13.388711
Printer	-13.360550
▁nlmsg	-14.765610
▁coap	-14.311058
▁xBC	-18.850058
▁elapsed	-13.888934
gettext	-13.759257
Disconnect	-13.523709
itive	-12.566549
Resources	-13.275046
Help	-12.829813
Tracker	-13.493367
PRSSEL	-14.997506
Pose	-13.786666
MCR	-14.070539
▁NSInteger	-14.482449
Accessor	-13.382944
Suite	-13.362733
Gp	-13.743055
TRANSPORT	-13.768673
PMU	-14.005560
▁RESETVALUE	-87.803404
▁gevent	-17.266516
Gradient	-13.593105
▁nTime	-13.794383
ARN	-13.953675
▁EFAULT	-15.763081
adr	-12.879575
Imm	-13.729046
cgroup	-13.782227
▁serialized	-13.511409
Gain	-13.562528
▁dpif	-14.535864
AMP	-13.443951
LINEAR	-13.564949
DRIVE	-13.770894
VTK	-13.663309
quit	-12.862389
xyz	-13.795408
▁subsystem	-14.006343
Ray	-13.277586
Hub	-13.315000
▁nType	-13.955277
GREEN	-13.521960
CONSTRAINT	-13.707902
boxes	-13.423616
Dist	-13.399346
Cmp	-13.827354
Picture	-13.666005
BIF	-13.793934
▁divider	-14.104110
Closure	-13.303015
ou	-12.692168
Solver	-13.672313
Attachment	-13.596312
▁perror	-14.089267
plot	-13.385791
SIGNATURE	-13.820781
REPLY	-13.705852
▁ompi	-14.319246
▁ticket	-13.800563
Gpu	-13.733465
VERIFIER	-13.756463
cbc	-13.904467
attack	-13.756894
mapping	-12.371369
mpc	-14.152668
VARIABLE	-13.557974
surf	-13.682044
▁HFPERCLK	-17.962121
sur	-12.743023
meter	-12.935635
SRS	-14.153562
▁mongoc	-14.068769
VG	-13.638799
VISIBLE	-13.740784
▁mvm	-15.979552
xact	-13.375354
Contains	-13.493218
▁TOO	-15.753751
sil	-13.290704
BOOST	-13.851617
▁htons	-13.879278
Os	-13.152243
SOF	-13.856294
▁NIMCALL	-87.803404
allocated	-12.558107
▁assertion	-13.721460
▁indic	-15.624890
Shutdown	-13.363403
▁possibly	-13.023733
xa	-11.499615
Day	-13.102951
Declarations	-13.190383
WSA	-13.512482
▁xDD	-21.277662
▁dwFlags	-14.129322
IZE	-12.377627
full	-11.962651
Radio	-13.113092
tbtt	-14.400949
scanf	-13.278659
mass	-13.759922
gray	-13.583831
▁calculation	-13.421361
▁smb	-14.301866
GAP	-13.743036
▁DISALLOW	-13.909559
argv	-11.271195
▁transparent	-13.654715
▁ucp	-14.194490
DataSize	-13.642689
Chat	-13.323235
▁UNSUPPORTED	-16.447735
SURFACE	-13.660985
psk	-13.924635
Payment	-13.471149
XP	-13.180446
BROWSE	-13.832851
FINAL	-13.165817
serial	-11.906269
ldr	-13.917791
OPS	-13.471942
▁decoding	-13.600077
clauses	-13.621116
asoc	-13.884992
MONITOR	-13.733884
nim	-13.678909
IES	-12.900223
Utility	-13.444486
COMPRESS	-13.706160
tar	-12.714437
Tests	-13.246937
TAIL	-13.830404
nan	-12.684052
indx	-13.884877
lh	-13.920436
▁pindex	-14.182123
stl	-13.701589
RECV	-13.666974
optimize	-13.592536
yp	-13.257153
▁described	-10.966684
setup	-11.799945
dpi	-13.823674
CAR	-13.028255
BSS	-13.857257
Printf	-13.753515
▁Indicates	-13.747294
▁comments	-12.571424
false	-11.190546
Errors	-13.324144
JUMP	-13.486695
Android	-13.402042
convert	-12.256704
▁OSPEED	-19.352580
CAPTURE	-13.895836
▁vreinterpret	-14.740323
Arc	-13.491570
Commands	-13.492622
iy	-13.541673
ua	-12.705836
ja	-12.101420
NAT	-13.692605
▁RTCC	-15.104265
▁Phalcon	-15.330203
▁executor	-14.084722
▁asset	-13.782777
GetDatum	-13.748908
Inv	-13.533047
LOOKUP	-13.833973
IFF	-13.800252
Partial	-13.070913
▁SYSCALL	-15.064661
▁functionality	-13.215109
▁operators	-12.972149
Dense	-13.677951
▁matcher	-14.292906
contiguous	-13.679832
Plus	-13.045074
▁expressions	-13.352450
▁represent	-12.853637
Metrics	-13.466122
▁transformation	-13.388134
smooth	-14.159082
BODY	-13.317157
Weak	-13.438376
nmp	-14.074457
▁increase	-12.503441
▁dependency	-13.743219
▁identify	-13.061309
JOIN	-13.950329
HALF	-13.821544
GOT	-12.361769
▁declared	-12.782206
Bottom	-12.737652
service	-11.863640
repr	-13.971498
mission	-12.796451
vect	-13.919627
nam	-13.003793
TXD	-14.124417
LOWER	-13.958687
▁pkcs	-14.772130
GetItem	-13.857831
LK	-13.577872
Joint	-13.665168
Broadcast	-12.989996
▁equals	-14.092199
▁fsm	-14.928774
ISA	-13.546894
DIAG	-13.564019
ris	-12.679040
water	-12.592793
▁helpstring	-19.460294
TAP	-13.867821
Cookie	-13.312710
coef	-13.791418
▁properly	-12.824024
FLG	-14.048621
ushort	-13.823217
FIND	-13.617020
ations	-11.993716
xxxx	-14.840220
▁locals	-14.233713
Erase	-13.715340
Seconds	-13.571670
▁xBA	-26.427456
REASON	-13.723956
▁GenTree	-14.301180
CCU	-14.130296
ARR	-13.827949
Statistics	-13.480425
RH	-13.589629
peak	-14.279726
▁fileName	-14.255320
PRIV	-13.788627
▁CBlockIndex	-13.473234
AIN	-14.186962
RLE	-14.027421
▁pA	-15.910155
▁repeated	-13.304915
▁broken	-13.006392
Capabilities	-13.715353
Parameteriv	-13.845303
CHG	-14.173470
Rectangle	-13.591765
stamp	-12.475872
jo	-12.301342
Predicate	-13.607695
ow	-12.667267
oi	-12.936112
▁BIGNUM	-14.172329
UIView	-13.456185
dsa	-13.449904
▁ndev	-15.955020
PARENT	-13.735628
▁reported	-12.236958
SOUND	-13.495689
Reduce	-13.621276
ttl	-13.744270
ill	-12.615033
States	-13.229461
OFS	-14.110927
Dot	-13.403392
Prim	-13.660208
▁PyList	-14.264616
station	-13.723420
Vi	-13.640913
Networking	-13.840612
polygon	-14.334628
sky	-12.146108
bde	-15.654002
hashtable	-13.747812
pnt	-14.146074
ect	-13.557230
cover	-13.137320
▁resolved	-13.583132
▁applications	-12.519214
ful	-12.279105
IOS	-13.355805
leak	-14.357709
▁dreg	-15.483662
▁xfff	-27.023173
wcs	-13.797588
Subscription	-13.523641
▁sbi	-15.441238
Live	-12.862021
▁MINT	-14.752246
▁significant	-12.339112
▁xAC	-28.101186
phone	-13.072643
mime	-13.429918
▁warnings	-13.442599
SDA	-14.057866
errno	-11.326668
high	-11.922827
ACCEL	-13.799619
Brush	-13.609409
Watch	-13.230386
Mul	-13.700599
DEST	-13.892964
▁IRDA	-14.656224
Representation	-13.240218
DG	-13.180000
vaddr	-13.836573
RAND	-13.715235
ose	-12.299109
COMPAT	-13.510784
▁cdecl	-17.115602
Transpose	-13.679756
QOS	-14.051120
solve	-13.964102
LITE	-13.313447
▁pDst	-14.275689
proj	-13.741207
XB	-14.253774
Timing	-13.627377
Ti	-13.511390
VOL	-13.262524
Caller	-13.594035
alter	-13.172558
glob	-13.404775
Pred	-13.828151
Detail	-13.484931
▁css	-15.143841
Nb	-13.870283
lpc	-13.997065
ace	-12.969476
▁EID	-15.326742
Severity	-13.822157
bios	-13.249916
driver	-11.477824
SETTINGS	-13.701794
sdl	-13.937073
CEC	-14.025226
Extensions	-13.390532
namespace	-11.930717
WAL	-13.632190
ish	-12.053420
▁analog	-13.894513
▁envoy	-14.749719
pending	-12.044238
Pause	-13.525943
▁advertising	-13.152278
▁nghttp	-14.013741
GX	-13.565150
MOUNT	-13.903362
STB	-13.794423
Ind	-13.599019
learn	-14.164292
▁efx	-14.678137
ANGLE	-13.654307
DBL	-13.882351
UAL	-13.946704
scal	-12.518605
SIDE	-13.129893
▁njs	-14.019277
▁predictor	-15.253193
Requested	-13.777946
PLAY	-13.446050
here	-13.245289
▁dpp	-15.446091
▁gchar	-13.627701
Alter	-14.113963
▁lifetime	-13.593878
cor	-12.855866
Future	-13.629102
sdp	-14.013106
eng	-12.989066
Palette	-13.730610
corner	-14.157793
tlb	-13.768948
SCHEMA	-13.804217
▁gasnet	-14.389079
SCH	-13.934058
CSI	-13.473647
▁nothrow	-16.663145
▁lld	-16.751845
FINISH	-13.255599
CHILD	-13.711088
Sent	-13.283106
▁DTLS	-14.490036
ku	-12.783747
▁VEHICLE	-16.327459
foreign	-14.054512
▁iommu	-14.913536
compound	-14.235567
▁CDTI	-18.988892
skip	-11.987602
▁triggers	-13.792139
▁measurement	-13.419127
▁aarch	-15.421248
Quic	-13.439462
VD	-13.588284
Fmt	-13.918407
RECEIVE	-13.852388
▁thus	-12.378837
TAMP	-14.442010
cmap	-13.925678
Sh	-13.534342
sTo	-13.547206
ntDefaultHandler	-13.571552
CANCEL	-13.551330
arb	-13.761759
EH	-13.673637
PLANE	-13.925821
DISK	-13.708969
CONSOLE	-13.627142
merge	-12.631793
▁hyper	-13.542394
delete	-11.485914
izing	-12.637472
Voice	-13.583420
ention	-15.088240
▁acado	-15.298888
dsc	-14.146253
PATTERN	-13.759107
lz	-13.651171
egl	-13.956347
▁glTexCoord	-14.813379
hello	-13.494911
PMD	-13.843183
Defines	-13.559331
▁zeros	-14.055989
MULT	-13.920650
macro	-11.996882
Front	-13.360044
▁MHZ	-17.178356
FALSE	-11.239883
sdk	-13.690337
wal	-13.135043
Reverse	-13.317239
dB	-13.952696
Xt	-13.803941
▁bsize	-14.687048
▁tiles	-14.428896
▁llu	-17.808230
▁sentinel	-14.019210
colour	-14.111109
▁destroyed	-12.988864
trig	-13.719739
feed	-13.308320
▁RADEON	-14.335704
destruct	-13.222106
ning	-12.267577
ndx	-13.954624
PQExpBuffer	-12.994765
Radius	-13.664505
FPROC	-13.672837
ves	-12.794752
▁hstring	-15.221803
▁mismatch	-13.926082
Secret	-13.456413
EO	-13.629538
LUT	-14.072239
basis	-14.345908
▁decompress	-14.567494
▁smartlist	-13.829508
▁xAD	-23.631972
Seek	-13.691211
▁fflush	-13.593497
SCHED	-13.739765
ADAPTER	-13.740677
MESA	-14.018097
Missing	-13.224241
Behavior	-13.204660
circle	-13.886608
Alert	-13.460298
Alternate	-13.539737
▁imx	-14.701944
▁accessor	-14.452613
Ob	-13.543104
LSR	-14.288874
Attempt	-13.494205
gh	-13.159685
ural	-13.346055
zi	-12.872052
itor	-14.420529
even	-12.943199
encode	-11.833427
RANDOM	-13.728885
hip	-13.299449
crl	-14.058820
MODIFY	-13.962197
BTN	-13.889152
Uri	-13.592530
dig	-13.246330
▁ANALOG	-16.089166
Soft	-13.197477
Launch	-13.214128
note	-11.247383
Alt	-13.306001
▁nodiscard	-20.121996
▁INITIALIZER	-18.375186
AES	-12.484007
Bluetooth	-13.571675
TOTAL	-13.808516
▁happens	-12.961956
▁fVar	-14.347461
Framebuffer	-13.270283
▁sectors	-14.062626
Scoped	-13.651353
SECURE	-13.883525
Mux	-14.168728
energy	-13.856030
SysTick	-13.994273
▁clinic	-16.029752
runs	-14.563885
KE	-13.136010
▁UniValue	-14.106976
▁SECP	-15.770632
self	-10.482000
▁xhci	-14.835824
▁sampling	-13.957698
vw	-13.759575
FilePath	-13.611352
tip	-13.644111
ji	-12.323679
Mo	-13.196805
THR	-13.510289
Previous	-13.807849
▁Ltd	-12.629031
WAVE	-13.332535
▁hdma	-14.756754
▁lpsz	-14.370926
series	-13.420491
repo	-13.805604
Popup	-13.846005
Turn	-14.007728
ATOR	-13.478203
MIS	-13.929592
▁MICROPY	-13.724074
PDM	-13.915488
ade	-12.795009
BASIC	-13.532456
mmask	-14.274137
fo	-12.949790
▁NSError	-14.713853
RETURN	-11.223654
ering	-13.178706
▁manage	-13.478294
STUB	-13.779225
DET	-14.269863
▁LFRCO	-15.818569
Velocity	-13.728057
Ali	-13.955895
JOY	-13.718811
eff	-13.647471
ANDROID	-13.655789
highlight	-13.972709
mpt	-14.115190
▁SMARTCARD	-14.677468
Best	-12.709963
▁histogram	-14.106666
VOLUME	-13.797695
HV	-13.722762
▁flb	-13.923570
▁newly	-13.037849
kk	-13.637195
PSR	-14.091619
▁sysctl	-14.670584
▁noop	-15.464404
located	-14.627877
VIRTUAL	-13.734397
▁scb	-15.180178
lay	-12.463187
GG	-13.645908
OU	-14.110862
▁EXTINT	-16.647663
Crypt	-13.477353
incr	-13.703000
Coll	-13.793066
▁alive	-13.535777
TLB	-14.001192
bufsize	-13.765251
JL	-13.905010
▁upgrade	-13.938512
mxArray	-13.884909
Wide	-13.917309
▁msm	-14.497272
▁replaced	-12.620576
DOC	-13.034507
Like	-13.590987
▁wlan	-14.673553
ey	-11.810595
▁proper	-12.759616
PING	-13.637525
droid	-15.894413
locations	-14.008466
motor	-14.048776
▁indexed	-13.993282
istic	-12.871680
▁udev	-15.115258
damage	-14.127303
ina	-11.907785
Padding	-13.684396
ECDSA	-13.942666
▁xAF	-29.530063
ETH	-12.571624
kt	-13.327582
POLY	-13.851346
RIS	-13.893368
Just	-13.412131
raid	-13.724834
▁hashmap	-14.039564
pen	-12.898334
CLOUD	-13.942265
lexer	-13.840676
FFT	-13.964321
ATTRIBUTES	-13.555941
Resolution	-13.276806
IOT	-13.748012
▁triggered	-13.642428
▁GCLK	-15.703166
▁alloca	-14.660081
▁iomem	-17.222741
▁xCF	-23.468617
Leaf	-13.496211
don	-11.994654
surface	-12.135378
▁communication	-12.820357
zoom	-14.088093
▁CLKOUT	-16.982998
Click	-13.007383
▁buffered	-14.259650
NAMED	-13.689558
Canvas	-13.565655
supply	-14.309885
wild	-13.682538
JA	-13.117467
writ	-13.844898
Rank	-13.349656
OUS	-13.663807
STAGE	-13.452433
Unsupported	-13.732638
▁pNext	-14.368106
decode	-11.929173
▁SiS	-15.291453
collation	-13.827992
▁ASF	-14.029669
Smi	-13.814308
▁EVSYS	-14.773545
Contents	-12.700405
sheet	-13.059693
SPLIT	-13.798387
Rotate	-13.735967
JOB	-13.752974
Uni	-13.952992
Macros	-13.512418
▁authors	-12.447000
ics	-13.038692
Registration	-13.420017
emp	-13.332621
Converter	-13.572754
Destructor	-13.347240
Persistent	-13.586784
▁Ipp	-14.678158
ular	-13.050200
▁others	-11.893924
Finished	-13.444164
Translate	-13.631889
record	-11.798878
Connected	-13.468344
▁sas	-15.050424
Recursive	-13.609287
OGR	-14.143417
▁unsafe	-13.950420
MACHINE	-13.537477
▁succeeded	-13.157704
▁bssid	-15.437563
deferred	-14.130414
Printing	-14.470943
▁deinit	-15.460647
▁ddraw	-14.856518
▁ndarray	-15.823694
EXPAND	-13.877047
Legacy	-13.933087
AREA	-13.933728
▁opc	-14.955159
fraction	-14.064506
train	-13.165736
monst	-14.216385
Undefined	-13.588737
COMPUTE	-14.002195
RETRY	-13.861779
HELPER	-13.812037
INI	-13.898481
▁IDA	-14.901423
ned	-12.721798
current	-10.738019
Remaining	-13.394638
Tasks	-13.552048
SPL	-13.857393
Arm	-13.725280
Arn	-13.939694
▁wmi	-14.807430
ADR	-14.020546
KR	-13.421358
SON	-13.147356
Occurred	-13.950460
SGIS	-13.958701
▁NoneT	-15.934988
▁who	-10.109204
▁ecere	-16.733083
LHS	-14.124862
▁views	-12.948266
sRequest	-14.017354
FIT	-13.928419
Under	-13.455980
▁sockets	-14.085403
nbr	-14.036061
Polygon	-13.599673
EACH	-13.300778
mut	-13.371098
REQUIRE	-13.000794
▁overload	-13.875201
DUP	-13.683286
ane	-12.640540
▁digital	-12.756704
RU	-13.312598
FG	-13.324921
▁subset	-13.807739
▁MONS	-14.572399
TZ	-13.678798
Ops	-13.725973
▁ixgbe	-14.306835
BLOB	-13.833810
▁xAE	-87.803404
▁pC	-14.628249
planes	-13.547608
▁GETARG	-16.494550
hy	-12.890658
▁TIMx	-14.295315
▁sysfs	-14.704568
ANA	-13.178799
cdc	-14.047795
Opaque	-13.799852
▁ovsdb	-14.009048
Fire	-13.528808
PAN	-13.820852
DQ	-13.818011
▁cctx	-15.112286
PARITY	-14.018804
Validation	-13.456394
pattern	-12.220123
▁expansion	-12.928885
Dependency	-13.649307
Dlg	-13.587486
▁didn	-12.019630
▁rspamd	-14.394219
▁usually	-12.427341
▁anyway	-13.104390
upd	-13.838796
cst	-13.872585
content	-11.485011
▁SYSCLK	-15.117764
▁DFMT	-20.020174
Functor	-13.715751
Playback	-13.888178
build	-12.059920
Components	-13.326023
Oc	-14.651641
apic	-13.845474
▁drw	-15.181198
pmc	-13.950029
cnfn	-14.004699
STL	-13.624222
gn	-12.683024
Have	-13.382624
AUTO	-12.181834
▁loadu	-17.856813
leader	-13.803168
kh	-13.119342
Pick	-14.214300
▁building	-11.912364
Strings	-13.139877
mos	-13.135122
Tags	-13.525170
vote	-14.231999
Seed	-13.607207
▁dual	-13.661398
▁trying	-12.254377
▁offload	-14.797970
UNDER	-13.624403
bitmap	-12.322079
SHELL	-13.683840
▁testcase	-14.235466
audit	-14.051071
▁exceptions	-13.626201
CLEAN	-13.605684
TypeInfo	-13.568759
Groups	-13.226023
ROT	-13.953384
Home	-13.101443
▁QWidget	-14.070484
Vendor	-13.730656
cil	-13.341218
▁lParam	-14.338125
▁XFS	-14.292586
PCLK	-14.291345
▁ALC	-14.968785
efi	-13.847175
cgi	-13.801207
▁represented	-12.515534
MULTITEXCOORD	-13.929572
▁printLine	-13.534166
▁hwloc	-14.406419
▁followed	-12.363779
qm	-14.106093
Immediate	-13.712679
▁swig	-14.840337
oct	-13.632009
ure	-11.915525
particle	-13.980567
UARTE	-13.942054
Mass	-13.666521
fpu	-14.026317
▁supplicant	-16.945376
Lua	-13.620318
verb	-11.932575
▁TSS	-14.319086
▁PULL	-15.811633
▁depends	-13.212345
▁ALTER	-14.238363
▁bindings	-14.536616
Calc	-13.553421
▁FORCEINLINE	-14.008771
Tri	-13.352819
▁replacement	-12.625868
▁FUNCTIONS	-14.207097
Theme	-13.056901
▁limited	-12.573331
DIGIT	-13.904883
lrd	-14.576988
Processing	-13.459924
BMP	-13.861851
CTRLB	-14.902962
HU	-13.734367
CQ	-13.840709
Wave	-13.065484
deflate	-14.425209
Ui	-13.244209
▁vkGet	-15.130186
multiplier	-14.358994
Schedule	-13.897661
▁PDC	-14.556346
▁drawing	-13.258194
Relative	-13.400852
tiny	-13.663892
Instances	-14.071111
SVG	-13.709021
▁UNEXPECTED	-16.318729
LIN	-13.622291
FLAC	-14.020648
▁HOLDER	-13.781414
PDX	-13.097886
Interaction	-13.441971
Assignment	-13.363205
beg	-13.670270
▁platforms	-13.163810
mar	-12.313854
AW	-13.624483
ObjectType	-13.728262
Let	-13.196535
qd	-13.996947
KEYS	-13.785577
CUBE	-13.761895
STANDARD	-13.563375
VkPhysicalDevice	-13.728626
WG	-13.850760
▁overwrite	-13.980278
ada	-12.230040
▁creates	-13.232427
rwlock	-14.000358
▁jobject	-13.957404
AsyncCaller	-14.917762
▁KEYWORD	-15.716818
▁sli	-15.356277
lease	-14.219894
▁obtained	-12.601476
TUPLE	-13.995610
AFTER	-13.934868
ead	-14.001530
ahead	-13.496642
DCT	-14.018613
▁UNIVERSAL	-15.885197
▁alternative	-12.834862
Br	-13.573085
XV	-13.579620
getenv	-13.898872
AGE	-13.226900
aio	-13.919907
▁ATTRS	-17.435841
Rev	-13.652539
SSD	-14.118628
▁changing	-13.024078
COMPLEX	-13.591922
SEED	-13.891911
Performance	-13.812064
DXGI	-13.590349
Children	-13.107627
Agg	-13.513071
lead	-13.801746
race	-13.586413
▁CGFloat	-14.175522
Resume	-13.615853
DEFAULT	-11.115727
FROM	-12.371676
Declare	-13.388053
▁spirit	-13.561119
▁inflate	-14.212877
Coin	-13.333746
nes	-12.348270
propagate	-14.687149
▁subclass	-14.009755
LIC	-11.630320
▁HSTRING	-14.768525
Conf	-13.268598
Candidate	-13.642723
▁plat	-15.191659
facet	-14.171073
release	-11.338905
EAP	-13.906767
nest	-13.044384
▁xDB	-21.880064
ium	-12.644940
▁newline	-14.082062
▁DTFC	-18.538111
▁TORSO	-18.814802
Fc	-13.361819
MGR	-14.071255
NMI	-14.152205
▁SPIS	-14.325638
Compressed	-13.545046
mis	-13.010308
Steam	-14.150219
Calling	-13.993866
ptp	-14.103483
division	-14.493957
▁relocation	-13.771124
▁ATL	-14.924415
▁PyBytes	-14.535154
▁timed	-14.327215
Histogram	-13.822123
▁OMX	-14.015475
▁sscanf	-14.903029
Smart	-13.849625
mad	-13.147724
VREF	-14.487026
RSTR	-14.812606
▁pst	-15.020167
▁getting	-12.295827
Norm	-13.736875
Bias	-13.850907
Packed	-14.001326
▁crop	-14.112229
ww	-13.964324
▁vval	-18.665562
bor	-13.361473
▁embedded	-13.635909
▁vwsn	-19.709201
credentials	-14.307918
Upload	-13.663139
▁XXH	-14.464020
▁SELF	-16.685587
RUNNING	-13.866984
Primary	-13.635421
▁prefetch	-14.579627
▁xEB	-23.184136
▁PyThreadState	-14.842144
▁online	-12.375553
▁assumed	-13.248436
lru	-14.034506
FTP	-13.639972
STALL	-14.223015
Attach	-13.656686
INTFLAG	-15.084358
▁manual	-13.562963
intrinsic	-14.544739
ival	-13.790814
ending	-13.322362
USR	-13.748895
BPROC	-13.844318
PLUGIN	-13.761744
IPP	-14.087433
Union	-13.439114
vers	-13.184283
ZX	-13.712708
EventHandler	-13.895566
bat	-12.905816
▁mDNS	-14.359107
HELP	-13.746048
IAM	-13.810580
COEF	-14.527723
SCU	-14.446783
qe	-13.937784
Ctor	-14.100393
Metric	-13.675480
El	-12.595040
expose	-15.154763
isnull	-13.622052
ROLE	-13.839689
▁conditional	-13.872573
Credit	-13.376437
▁compilation	-12.593146
▁itemsize	-14.912004
▁purposes	-12.786460
▁feedback	-13.601720
▁ICU	-14.244928
lon	-12.767493
▁IOTHUB	-14.841733
MPL	-13.902284
▁accessed	-13.476701
▁NSURL	-14.543601
tle	-13.032853
▁dnx	-15.114576
osc	-13.855982
Collect	-14.148489
comma	-14.310173
OES	-13.727373
REPLACE	-13.743392
Sector	-14.079029
▁xEC	-25.766849
▁hcryp	-14.774998
▁composite	-13.103587
Lines	-13.527772
RefPtr	-13.898697
each	-11.939856
stddef	-13.210603
ceil	-14.130496
▁projection	-13.785099
dif	-9.974457
▁vpx	-14.679322
ware	-12.603680
Ns	-13.703932
OWN	-13.713631
SAS	-13.707107
FREQUENCY	-14.034907
▁serialization	-13.850795
UTILS	-13.820038
▁dirent	-14.451182
ERRNO	-13.758396
▁integers	-13.659395
raster	-14.241339
▁wParam	-14.446044
▁bitmask	-14.297846
▁ordering	-13.667047
▁dct	-14.450223
ORIG	-14.953640
verts	-13.940482
SRV	-14.023812
strength	-14.218412
occ	-13.748706
▁psa	-14.380126
Clean	-13.947731
Nv	-14.188392
GetValue	-13.906034
▁replication	-13.829533
▁PSM	-14.400195
▁xEA	-25.685138
QS	-13.712811
samp	-14.242388
License	-11.648730
Pi	-13.383896
▁loops	-13.873448
COORD	-13.830295
▁transmission	-13.119462
coding	-13.313794
PTP	-13.989106
GetString	-13.812701
▁email	-12.927379
Logging	-13.628630
Repeat	-13.548290
MH	-13.578258
SDHC	-14.385215
tracing	-14.272493
icroelectronics	-14.144939
TTY	-13.476456
▁outline	-13.811001
sequence	-12.253451
Car	-13.291730
▁XMM	-15.788025
LDO	-14.358678
qr	-13.939885
OTA	-13.918542
▁glIs	-14.808477
INITIALIZE	-13.072060
▁XDMAC	-15.824159
Capability	-13.840335
constant	-12.491370
feat	-13.381176
Acc	-13.704888
▁dependencies	-13.436010
RenderTarget	-14.034931
▁COBJMACROS	-12.909312
▁IHTML	-14.814162
drain	-14.126146
bed	-13.059447
thd	-14.590560
Unary	-13.873986
Walk	-13.843528
Messages	-13.549162
▁incorrect	-13.790702
▁recover	-13.819652
Ms	-12.525658
reorder	-13.890115
Thr	-14.110681
matrices	-15.540360
Ctl	-13.769686
▁ymm	-15.269986
Poll	-13.904042
▁enumeration	-13.780536
PIPELINE	-14.045942
unload	-13.935401
▁debugstr	-14.508332
Executor	-13.608907
Parameterfv	-14.097241
EZ	-13.773293
ctiva	-17.287469
appendStringInfo	-13.784273
▁xDC	-22.708830
▁clib	-14.068312
delim	-13.778579
iu	-13.215534
city	-12.681462
QE	-14.226743
▁altivec	-17.621983
▁glClear	-14.783893
eo	-12.337970
Activation	-13.837746
▁ENOENT	-14.448236
encoding	-12.373330
Ax	-13.430111
▁IMX	-14.898163
Encryption	-13.789294
▁combination	-13.011620
lev	-13.099452
CHANGED	-13.957014
▁nRF	-14.822879
ij	-12.834313
▁coefficients	-13.679749
cpl	-12.570551
BLACK	-13.669105
▁LLC	-13.338219
Dead	-13.876648
DEAD	-13.730549
RCV	-14.046700
▁deserialize	-14.315803
Ack	-13.861836
IDL	-13.652081
▁hapd	-15.629673
rou	-13.836281
▁NSData	-14.525003
MORE	-13.342972
ya	-11.728979
▁xCB	-26.484363
Gtk	-13.536287
Msp	-13.650330
▁wrapped	-13.867304
QUE	-13.761338
▁pinfo	-15.073238
Rendering	-13.883571
VERTEXATTRIBI	-14.087491
more	-12.001174
▁kcontrol	-16.527558
▁subdev	-16.170545
ero	-12.501127
TWO	-13.944492
ask	-13.325419
itr	-13.821798
TableView	-14.043893
Where	-13.207949
▁Does	-12.751919
VDD	-14.429062
▁orx	-14.807451
Sa	-13.113163
▁SWI	-15.285016
▁xFFF	-42.494869
▁stable	-13.412912
▁making	-11.965509
Fun	-13.278450
uck	-13.479225
iscsi	-14.025567
intersect	-14.382395
Gpio	-14.279012
▁outgoing	-14.106353
▁locking	-13.826819
ddr	-13.765494
same	-12.940142
VFS	-13.930502
Resolve	-13.752824
Locked	-13.630512
ASS	-12.372196
SEGMENT	-13.966920
policy	-12.371418
More	-13.487268
depend	-12.456262
FV	-13.644905
▁pure	-13.556056
RSSI	-14.226395
med	-12.676607
▁lgl	-14.727245
Enumerator	-14.310212
Finalize	-13.761014
▁nHeight	-14.116643
▁suppress	-14.064247
enet	-14.010025
Completed	-13.716717
Own	-13.399685
IST	-13.206137
ron	-12.599611
GUARD	-13.660013
ZC	-14.281183
allocate	-12.874464
STK	-14.031419
Dll	-13.800274
hang	-13.132035
▁cython	-16.393808
CENT	-13.921372
COIN	-13.702595
finite	-13.960402
▁calibration	-14.027354
▁kzalloc	-14.229810
DYN	-14.149648
resource	-11.593366
SAT	-13.769580
▁affiliates	-13.345589
▁remap	-14.859434
▁KVM	-14.267788
kc	-13.975880
Polarity	-14.197743
SHADOW	-13.870307
mutex	-11.069336
Suspend	-13.753066
Deriving	-14.953542
CTLR	-14.024908
days	-13.691049
▁glDelete	-14.781602
Annotation	-13.656999
▁Perl	-14.236582
▁affect	-13.338614
▁masks	-13.977539
Pages	-12.956742
▁battery	-13.592178
▁unset	-14.210513
ball	-12.363869
Dma	-14.240265
Scheduler	-13.588721
shr	-13.795409
JP	-13.294055
▁kmp	-14.869226
▁vhost	-14.869444
BOUND	-13.923133
ALIGNMENT	-13.931954
Bitcoin	-14.466600
pkts	-13.995991
▁palloc	-14.308437
ECS	-13.842131
▁pIn	-14.539125
FIAsyncOperation	-14.611885
MST	-14.308107
abc	-13.962452
Strip	-13.602609
aml	-14.147746
Stencil	-13.634864
TOUCH	-13.866353
PixelFormat	-14.098094
video	-12.178784
▁commercial	-12.531518
ili	-12.915226
Phone	-13.301311
Diagnostics	-13.907262
APIC	-14.016130
instantiate	-14.876082
▁numberOf	-14.348155
TRAP	-13.911138
Guide	-14.390794
passwd	-13.843768
Balance	-13.486661
Hold	-14.147881
▁USBC	-15.455848
mpd	-14.188902
Undo	-13.635408
ste	-13.144265
Catalog	-13.486870
▁DCDC	-15.747381
▁unaligned	-14.771728
aj	-12.742954
▁UPB	-14.742092
Physics	-13.838682
Cross	-13.582064
CONTAINER	-13.974033
▁guarantee	-13.628138
▁exceed	-14.218696
Critical	-13.640757
▁LETTER	-14.910879
▁ABCDEF	-18.340225
▁CYCLES	-17.051320
Digest	-13.681223
▁ukernel	-19.030794
▁lcid	-14.559117
UChar	-14.035714
Detect	-13.834927
WiFi	-14.168296
FromString	-13.702316
Here	-13.809820
Admin	-13.580458
tape	-13.933495
Unix	-13.552087
▁IGNORED	-15.922927
▁subsequent	-13.070472
▁MAYBE	-15.203627
ARI	-13.796476
ASH	-14.110459
SAR	-13.898945
und	-12.358333
Measurement	-13.997593
qpair	-14.392635
HOT	-13.611796
Large	-13.610967
ENTRIES	-13.951114
diagonal	-14.517577
DIF	-14.111562
HOLD	-13.948134
▁pCtx	-15.509902
periodic	-13.654857
FEC	-14.212983
uh	-13.456088
DataSource	-13.784890
▁internally	-13.686755
▁exclude	-13.972401
▁TEE	-14.290882
FACTOR	-13.975249
EXCLUSIVE	-14.010496
▁inout	-15.602166
blas	-13.609861
Written	-13.912209
▁MYSQL	-14.373850
▁PCRE	-14.379686
imap	-14.150021
Fence	-13.954108
ifier	-12.481193
▁accepted	-12.925030
▁infoPtr	-15.010502
SIZ	-14.302751
gateway	-14.358971
wn	-13.799049
IMU	-14.967562
▁Ifx	-14.572948
▁ends	-13.196703
ale	-12.532808
wf	-13.950044
NEGSEL	-15.521903
trie	-14.085642
▁gfp	-14.616082
lsn	-14.144071
dz	-13.561250
STRIDE	-14.228189
▁visitor	-14.245332
▁pio	-16.357054
midi	-13.912991
Email	-12.883212
GN	-13.479162
marks	-12.885170
▁calculated	-13.241745
prep	-13.146927
oap	-13.127880
SHUTDOWN	-13.799048
Gt	-13.942368
▁OBJC	-14.864442
Tracking	-13.738153
Guard	-13.688961
USCI	-14.375412
Implicit	-13.838531
Busy	-13.922111
▁assemble	-14.109024
▁They	-11.278820
▁timers	-14.236302
▁SPECIES	-15.701069
INTERFACE	-11.658729
▁ceph	-14.458482
Limited	-14.951884
▁reflect	-13.428642
XYZ	-13.893315
▁OMAP	-14.430080
rain	-13.456758
Lang	-13.683537
JNI	-13.279530
▁why	-12.000322
▁marshall	-16.105915
▁lookahead	-14.709741
dfs	-14.056518
aq	-13.411503
▁expire	-14.532941
Ratio	-13.733770
▁CURLE	-13.609566
▁important	-11.825617
▁Adds	-13.843337
▁TWIS	-14.338160
▁guaranteed	-13.596406
▁lowest	-13.381667
Software	-12.806317
▁wstring	-15.891965
Phy	-13.485109
Cont	-13.746285
ions	-12.222136
vy	-13.234339
▁xdeadbeef	-87.803404
nary	-13.380860
▁kwds	-16.177747
PCH	-14.134206
CST	-14.192597
▁SQR	-16.148909
Abs	-13.698067
▁APIs	-13.561446
Probe	-13.764781
▁xDE	-32.778423
Descr	-14.028855
TexSubImage	-14.249645
BRIDGE	-13.870295
locate	-14.130260
APPLICATION	-13.878514
▁looking	-12.253200
▁tegra	-14.452036
BUFFERS	-13.824334
XFER	-14.172767
SUPER	-13.442636
▁copying	-13.712977
ATE	-13.000547
CAMERA	-13.918472
TRUE	-11.595038
▁UDMA	-14.370026
Vert	-13.722567
▁verification	-13.815131
plug	-14.009102
lot	-13.351184
▁typed	-14.202657
Multiply	-13.767909
▁IWL	-14.863097
▁SMBUS	-15.088749
BURST	-14.064711
▁skipped	-14.011571
▁fts	-14.367324
Sw	-13.675570
SCROLL	-13.914111
▁Initializes	-13.747729
▁usbd	-15.180792
procs	-14.008186
Nested	-13.812665
Mix	-13.746558
private	-10.604176
keylen	-13.975472
UPD	-14.257538
▁architecture	-11.850096
Nav	-13.354075
Ap	-13.506598
▁design	-11.951012
aspect	-14.481297
Assertion	-13.817364
▁pathname	-14.643868
DETECT	-14.042597
▁PyArg	-16.889767
▁aead	-15.247806
nss	-14.132026
tracker	-13.880946
vga	-14.163959
▁goodG	-13.799582
mega	-13.746778
▁EAGAIN	-14.669823
▁PyString	-14.390193
confirm	-13.576960
LOCKED	-14.167376
▁largest	-12.582468
wsi	-14.160256
PROG	-13.928836
▁subs	-14.557095
ALERT	-14.043118
stand	-13.602219
▁xfffffffe	-87.803404
ple	-12.592874
throw	-12.117805
▁QDEC	-14.274689
▁reduction	-13.126246
uring	-13.284559
▁emm	-14.952426
Renderbuffer	-13.931802
desktop	-14.080031
Flex	-13.544196
ZZ	-13.789873
Unregister	-13.769840
faces	-13.796216
▁xaaaaaaaa	-87.803404
RAS	-14.138992
DPLL	-14.387162
Pkt	-14.129312
Fi	-13.223380
CDF	-14.158068
▁lwip	-14.826933
degree	-14.000793
▁several	-11.432487
ITS	-13.782702
iocb	-14.324188
▁outb	-15.707094
AKE	-14.323245
▁fread	-14.747599
REPEAT	-14.076764
property	-10.258508
Managed	-13.685929
uu	-13.269188
EFFECT	-13.856456
quota	-14.295065
▁shouldn	-13.467211
trunc	-13.862494
Triangle	-13.641512
bsd	-13.957337
uk	-12.207097
▁pretty	-12.788202
▁QObject	-14.299875
▁consumed	-13.902544
analyze	-14.471719
▁become	-11.914693
KW	-13.881752
rfc	-14.248760
▁fwrite	-14.674422
HK	-13.363110
IZATION	-13.645423
▁xmlChar	-13.896107
▁treat	-13.565282
QR	-13.530803
UPPER	-14.124539
▁xfffffffd	-87.803404
determined	-15.157123
▁divisor	-13.470020
smc	-14.104856
plist	-13.889166
Retry	-13.880781
▁debugfs	-15.373473
onto	-14.579186
▁requirements	-12.707203
Quantum	-13.725307
MIME	-13.914376
shrink	-14.387462
▁pBuffer	-14.548654
▁OPC	-14.798626
passes	-14.775222
▁receiving	-13.038550
▁quiet	-13.561791
How	-12.748573
▁wps	-15.315989
▁clocks	-14.176427
▁fmadd	-18.809220
Divide	-14.661505
bfa	-14.408357
▁nondet	-14.939352
▁CMedia	-17.497529
▁rxq	-15.697699
cdf	-14.325691
Reflection	-13.496626
▁NSMutable	-14.337346
GetProcAddress	-14.383827
▁blocksize	-14.810428
▁intended	-12.794169
MINI	-14.065382
LJ	-13.815414
▁describe	-13.213320
▁together	-11.921657
workers	-13.916736
▁nonzero	-14.088895
▁addrs	-15.568831
DSS	-14.121605
vmx	-14.164391
limb	-13.808925
puc	-14.199597
▁decltype	-14.694920
ARC	-13.608652
Quaternion	-14.038129
Defaults	-13.726227
▁portal	-13.984994
Di	-13.237996
▁statements	-13.042034
Hw	-14.011379
ARGB	-14.144011
RAD	-14.069669
ROUTE	-13.019225
Attrs	-14.009521
▁Franklin	-12.918677
tan	-12.802627
kit	-12.937656
Cm	-14.133975
▁ALEN	-19.317537
Sql	-13.612918
Le	-12.009420
stk	-14.089957
Quick	-13.186172
IGN	-12.621017
▁stcb	-15.558175
conc	-14.280436
Tf	-13.974130
Blk	-14.157982
PRIMITIVE	-14.087644
rmtol	-14.302649
GRAPHICS	-14.089407
OLE	-13.649670
Changes	-13.703391
▁responsible	-12.738659
stripe	-13.998616
Th	-13.997217
decrement	-13.876272
DIST	-13.780620
▁subtract	-14.157026
▁Fifth	-13.075751
Regs	-14.061085
APPEND	-13.844548
LEGACY	-13.952854
Technology	-15.625055
Cr	-13.793787
mib	-13.986320
iop	-13.928904
▁SDRAM	-14.952910
FinishContext	-13.729452
▁CBlock	-13.507752
ransformFeedback	-14.300178
efree	-13.467969
Tp	-13.921204
▁emplace	-15.796288
ode	-12.903387
Quality	-13.790963
Perf	-14.018635
▁btl	-16.278921
his	-13.311656
agged	-14.802869
▁streaming	-13.706668
mtime	-14.203731
compos	-13.633582
kin	-12.517480
▁huart	-14.628479
secs	-13.783882
auto	-11.325168
zv	-13.625299
▁EMR	-15.368515
▁extents	-14.626002
FRAG	-13.972760
fec	-14.201332
▁slen	-14.379499
▁spa	-14.521745
association	-14.368427
Foo	-13.513420
preview	-14.221000
Gl	-13.636293
Imp	-13.615159
tfm	-14.188853
lval	-14.067035
▁faster	-13.241720
lid	-13.644858
SECTOR	-14.214650
▁ntohs	-14.411272
CONNECTED	-13.672333
▁addReply	-13.757596
▁gmail	-17.523192
shmem	-14.134468
▁breakpoint	-14.489618
ocfs	-14.119463
pressure	-14.274952
▁lengths	-13.980975
AIR	-13.537882
▁JNICALL	-13.737131
Diag	-13.881157
under	-12.558967
Mult	-14.012112
Known	-13.442252
▁FIVector	-87.803404
Cat	-13.316944
▁LDMA	-15.360037
▁bstr	-14.858908
ESS	-13.713725
▁MASKWRITE	-87.803404
FSR	-14.493920
entities	-14.320353
Dirty	-13.601938
OFP	-13.874957
▁usize	-15.621858
vertex	-12.355504
▁LSE	-15.580701
▁terminator	-14.116444
VISION	-13.816671
cdata	-14.131692
ndr	-14.200190
CHANNELS	-14.080406
▁effective	-12.810802
▁adap	-16.219219
▁paddr	-15.110219
Aligned	-13.971128
▁className	-14.251043
Calibration	-14.055270
▁queries	-13.831282
FILENAME	-13.829238
▁fputs	-14.135639
▁getType	-14.712521
▁payment	-13.488653
MMIO	-14.188914
Sep	-14.019441
▁toString	-14.363531
Te	-13.820811
Trust	-14.048618
Activate	-13.855722
▁xCA	-28.500101
▁glsl	-15.378595
HUD	-13.988331
ran	-12.487008
zf	-14.404972
ipp	-13.981951
udata	-14.161099
▁alternate	-13.512556
WEIGHT	-14.042716
olar	-15.044985
HX	-13.699624
rio	-13.117446
▁RESTRICT	-15.243679
Assembly	-13.583673
▁operating	-12.804105
▁ptype	-15.914024
▁wiphy	-15.192616
▁hspi	-14.807987
wqe	-14.363848
▁however	-11.990775
▁OCI	-14.504188
▁chosen	-13.143509
els	-12.694316
▁modifiers	-14.343339
Units	-13.809641
ATH	-13.964845
prm	-14.262857
AML	-13.899772
▁seat	-12.903123
SLOTS	-13.603251
zh	-13.180903
RECOVER	-14.086457
Jit	-13.983729
▁displayed	-13.316811
▁VARARGS	-17.482477
Coins	-13.557197
hack	-13.412347
▁nearest	-12.604370
PPS	-14.030077
Rot	-14.368666
▁prediction	-13.854808
Vertical	-13.589341
LONGLONG	-13.796200
QUAD	-13.894915
▁vnet	-14.836841
Communication	-14.675335
SNMP	-13.960941
▁normally	-13.345875
ECP	-14.129557
Too	-13.786636
life	-12.759301
TYP	-14.246291
OUTPUT	-12.194466
Ni	-13.158137
izer	-12.924931
XO	-13.430912
RESTART	-13.904160
NPC	-13.925846
▁WEAK	-14.677190
▁protocols	-13.827178
PCTL	-14.342702
▁robj	-14.279294
Iteration	-13.846757
consensus	-14.369890
XLog	-13.356444
Fd	-13.909894
mute	-13.866186
lag	-13.218991
Ca	-13.016334
Vm	-14.036134
▁Cortex	-14.285490
Startup	-13.733878
symtab	-14.124127
Defined	-13.902678
roi	-13.905237
▁UNORM	-18.323497
▁closing	-13.439764
entries	-12.148836
hashes	-14.100327
connection	-11.644841
▁maxlen	-14.559431
colon	-13.577995
vic	-13.502252
MINUS	-14.096491
▁scanline	-14.682777
▁MCG	-14.490065
Negative	-13.549112
cop	-13.390794
dvb	-14.177650
PUPDR	-14.969877
shl	-14.240907
▁NSMutableArray	-14.219287
▁CONTINUE	-15.228072
Matches	-12.658405
Bulk	-13.837474
▁globus	-14.011031
KI	-13.406028
ich	-12.752992
complete	-12.021929
HM	-13.394854
VV	-13.984770
fil	-13.384712
independent	-14.182144
guess	-14.670717
▁orte	-15.578369
TN	-13.262267
▁Chromium	-13.866974
▁LPWSTR	-14.124333
printed	-14.552393
Composite	-13.539535
▁darkskin	-19.834627
▁COMPONENTS	-15.407277
Assume	-15.273260
STICK	-14.143902
▁meaning	-12.693766
axes	-13.582628
Redis	-13.687198
locator	-13.282010
Simd	-14.261883
Fl	-13.609221
QU	-14.601044
Are	-13.237764
▁TCG	-14.603583
recur	-13.517387
▁xDA	-30.938105
AWD	-14.706344
Implement	-13.706682
▁Napi	-14.725537
PUB	-12.512926
▁uplo	-14.615063
Constraints	-13.790667
▁bounding	-14.065524
Horizontal	-13.677746
joystick	-14.001151
▁AVR	-14.775744
SHAPE	-13.985460
▁qemu	-14.372950
▁seems	-12.445286
▁consistent	-13.188419
Advanced	-14.268597
ner	-11.783561
Feedback	-13.748554
▁combined	-12.945188
▁xED	-30.834950
shader	-12.325628
▁contexts	-14.007424
▁qed	-14.686145
ByteArray	-13.889593
Cipher	-13.908680
SetupContext	-14.318136
objs	-14.005939
▁strto	-14.345188
SPELL	-14.009966
WORLD	-13.356766
gra	-13.056119
ipaddr	-14.246582
Operations	-14.009847
SharedPtr	-14.026990
KILL	-13.768393
UDB	-14.915144
SIGNED	-13.022205
Allowed	-13.896828
▁DFSDM	-15.104670
Stroke	-13.804771
EAR	-13.885787
kn	-13.628852
Anchor	-13.665983
CEE	-13.994875
Enumeration	-14.001096
shot	-12.629468
los	-13.120900
▁GetArena	-14.630085
▁EXTENDED	-16.005610
▁moves	-13.532946
▁passing	-13.091011
psi	-13.315874
RENDERBUFFER	-13.961113
Codes	-13.988028
▁PROTOTYPES	-15.622639
sts	-13.249510
found	-11.686100
▁evaluation	-13.145354
guide	-14.114192
DELTA	-14.219673
Secondary	-14.093093
ras	-12.854162
Po	-13.226190
▁central	-12.651687
IPS	-13.702165
pivot	-14.652375
Systems	-14.625113
ena	-12.384800
Creation	-13.208947
CURVE	-14.104529
fy	-13.592739
Pci	-14.000256
▁lfirst	-14.266640
Calendar	-13.210208
Compression	-13.709860
▁heal	-15.183624
Threads	-13.738999
▁assumes	-13.739967
▁PACKED	-15.038860
qui	-12.350712
StringInfo	-13.636145
kbd	-14.148661
Extent	-13.902155
▁EFIAPI	-11.839149
SCK	-14.233416
MIDI	-13.768256
▁populate	-14.161872
▁cpuid	-14.950348
GEMM	-14.159159
▁TASKS	-16.015935
▁recent	-12.525295
msp	-14.328837
SLICE	-14.207337
▁outfile	-15.231339
SHARE	-13.981215
IsA	-13.937230
tst	-14.082271
▁decay	-14.144616
▁functor	-14.199791
▁question	-12.010137
ObjectId	-13.908851
Hal	-13.908063
Continue	-13.393645
but	-12.300123
▁goes	-12.677818
pay	-12.208759
msk	-14.052003
▁optimized	-13.905954
TSEL	-14.668799
▁CURLOPT	-14.017371
Tools	-13.237844
BUFF	-14.205398
▁ecdsa	-16.059340
IEs	-14.254003
Comparison	-13.146039
Cols	-13.967543
IK	-13.493113
▁grib	-14.738901
PSC	-14.272504
vst	-14.463995
▁bfin	-15.022172
▁identical	-13.404002
CONFIGURATION	-14.009846
▁gives	-12.591169
OCSP	-14.234109
placeholder	-14.226634
TreeNode	-14.119673
TypeName	-13.943551
▁WASM	-14.224266
dissect	-15.611403
Sg	-14.219213
▁sctx	-15.590498
▁DATATYPE	-14.949246
Asm	-14.005756
HH	-13.889656
▁XPAR	-14.321307
als	-12.249223
Slider	-13.898216
rA	-13.927852
kernel	-11.744982
CORR	-13.921573
▁METHODS	-14.349090
▁BITFIELD	-15.421196
▁deque	-15.028941
▁FreeBSD	-15.438238
▁dwc	-15.002362
Lambda	-13.713698
▁CGRect	-14.735523
ious	-12.675079
MIB	-14.108070
WGL	-13.921112
▁reports	-12.750446
Tcp	-13.934970
▁CANT	-16.889719
PRESCALER	-14.689325
▁partitions	-14.334741
msc	-14.299706
PROTECT	-13.793394
putc	-13.695049
RANK	-14.051315
▁blockSize	-14.146525
▁pointed	-13.266134
PACKAGE	-13.986425
inject	-13.777442
Updates	-13.641354
rgba	-14.450832
Se	-13.504159
ighbd	-14.904422
▁DMAMUX	-15.378202
▁LWS	-14.366711
measure	-13.870480
▁applies	-13.428205
▁Fint	-18.770949
Diagnostic	-13.844188
JMP	-13.986755
OptionsT	-14.093103
Advance	-14.471536
▁ORTE	-14.290433
Exists	-13.792940
▁implementations	-13.525587
eta	-12.645443
▁concurrent	-14.027987
Cor	-13.963696
▁executing	-13.804620
▁PORTB	-15.096152
La	-12.646246
Prescaler	-14.351391
sai	-13.392421
▁scheduled	-13.267256
Separate	-14.133181
▁arbitrary	-13.525514
BAT	-14.117998
▁PRIMARY	-15.085300
interval	-12.498300
Dispatcher	-13.929723
▁internalformat	-14.648438
TINY	-13.984951
CriticalSection	-13.759226
▁expanded	-13.353921
Detection	-13.813408
getc	-13.741018
▁pOut	-14.781025
SWP	-15.041586
AGC	-14.334428
▁preserve	-13.680068
ule	-13.601315
MQ	-14.085641
FSM	-14.167495
▁mddev	-15.369527
WIDE	-13.992491
▁PHYMOD	-14.304619
GTM	-14.305001
▁unformat	-15.290894
▁nsI	-14.609886
vio	-14.242235
▁relevant	-12.809019
SPIRV	-14.203964
Margin	-13.682369
▁doublereal	-14.468886
DIRECTION	-13.881355
GOOGLE	-14.936146
▁AOM	-14.451749
NW	-13.749036
madd	-13.974346
▁SVN	-14.106536
Most	-14.019281
▁PFNGLVERTEX	-14.215264
▁hostapd	-14.504784
▁ntohl	-14.468601
▁UNPACK	-16.229842
Terminal	-14.070703
Coordinate	-13.955304
AXI	-14.347249
▁algorithms	-13.470944
▁therefore	-12.455954
▁bases	-13.918627
jp	-13.228312
Strategy	-13.396085
▁UIColor	-14.522460
EXECUTE	-14.094668
▁iovec	-14.389606
Curr	-13.691318
zd	-13.659473
▁OMITBAD	-13.196701
DUMMY	-13.962726
▁recommended	-13.274846
STARTED	-14.221648
▁legal	-12.398023
Inf	-13.773433
ination	-13.168803
▁vnode	-14.393995
CYCLE	-13.719568
WN	-14.011431
Rd	-13.893386
SENT	-13.943882
▁symlink	-14.949982
▁NVME	-15.208261
▁HFCORECLKDIV	-17.788711
▁unlocked	-14.466436
▁RXF	-14.993356
ution	-13.580103
attnum	-14.098349
Consumer	-13.877093
INSTRUCTION	-13.852747
▁sdata	-15.723312
provision	-14.886262
RDMA	-14.191638
▁EZRADIO	-14.338422
ifa	-14.071319
PROGRESS	-13.972325
▁expired	-14.013144
▁garbage	-13.904779
trust	-13.771392
Topic	-13.864132
MIXER	-14.232730
▁severity	-14.143025
huge	-14.168902
gv	-14.238963
▁nfc	-15.151140
ific	-13.252241
CLKSOURCE	-14.428571
▁GRPC	-14.162774
sweep	-14.124663
▁Reads	-13.923666
Decimal	-13.926020
▁encap	-15.878128
Duplicate	-13.801916
DSR	-14.749777
▁PyNumber	-14.627756
fullscreen	-14.043524
VALIDATE	-13.732335
▁BTA	-14.401359
marshal	-13.395314
▁BNX	-14.706814
▁DCH	-15.026926
spc	-14.237633
Ne	-13.358915
sphere	-13.374797
INSTALL	-14.025702
▁DAPM	-17.143509
DAG	-14.261435
correction	-14.859595
▁MICR	-15.464006
▁WANT	-14.637949
Uses	-12.930254
▁moving	-12.799835
mds	-14.410358
SizeOf	-14.164335
safety	-14.504432
FIL	-14.296167
vtx	-14.258887
▁WWDG	-15.014789
▁vha	-15.252436
▁BTRFS	-14.525772
DEP	-14.104657
▁RCT	-15.128612
▁completely	-12.731772
tmr	-14.180386
▁iid	-15.626914
ICM	-14.105350
flight	-13.778686
Na	-13.191286
typmod	-14.180812
▁pmap	-14.971850
ANIM	-14.124912
iation	-13.523024
enge	-15.221304
▁derivative	-12.990558
▁typeof	-14.893434
Cube	-13.590059
▁wants	-13.044455
Invalidate	-13.677629
notes	-13.633454
▁CYDEV	-14.355138
▁polling	-13.908467
▁tablet	-14.409686
▁hda	-14.877264
Invert	-14.069055
Notes	-13.957421
BZ	-13.983295
▁intermediate	-13.643060
ali	-12.835830
ZY	-14.130701
▁DBGMCU	-15.656679
uio	-14.232679
ALARM	-14.272762
▁forced	-13.025611
Compact	-13.631810
▁OPAMP	-15.118573
Ac	-13.697009
KL	-13.707227
NAMES	-13.951685
Actual	-13.873878
Router	-13.768204
▁DTPRS	-21.872007
filt	-14.267610
▁arithmetic	-13.875597
▁corresponds	-13.717292
GW	-13.726896
▁PyDoc	-14.137598
▁PAYLOAD	-16.335641
Press	-13.548120
FOCUS	-13.957447
▁sdev	-15.936661
ough	-13.281031
LING	-13.376895
Aggregate	-14.014080
Explicit	-13.949421
ubi	-13.589245
Firmware	-14.018785
ano	-12.534325
namelen	-14.037353
BlockSize	-14.168815
▁causes	-12.977717
Fifo	-14.237147
opr	-14.088628
OTH	-14.472694
▁CheckExact	-87.803404
VGA	-13.996933
Lsp	-15.437952
Sender	-13.902906
▁MODER	-17.996918
DCR	-14.804287
AGG	-13.883168
rela	-13.737254
Expect	-13.932222
kr	-13.303141
TID	-14.092992
▁PQget	-15.169658
Neg	-13.567834
Streaming	-13.902035
blit	-14.211217
Wi	-14.305799
ADI	-14.116301
Ins	-13.278906
NAK	-14.468039
tone	-13.033693
▁shown	-12.304042
Pitch	-13.536011
▁GMP	-16.051586
WebAPI	-14.838994
RISE	-14.322354
CALC	-14.258543
▁gss	-14.777965
pps	-13.824483
▁ffffffe	-23.163333
▁htonl	-14.357699
show	-11.666574
Colour	-13.526317
LIBRARY	-13.828960
Ranges	-13.814679
WORDS	-13.749136
inode	-11.836157
▁kGTLR	-14.281882
duplex	-14.054922
lea	-13.252484
Streams	-14.088551
predict	-13.684481
onical	-13.863428
CATEGORY	-14.098016
SQLite	-13.845833
TRG	-14.469818
BEA	-14.171452
LPM	-14.459888
▁deallocate	-14.480274
IsNull	-13.891937
▁HASHMAP	-17.982556
DevicePath	-14.063718
▁cifs	-14.746782
Internet	-13.895369
feature	-12.098987
ike	-13.466487
discovery	-14.253009
pcap	-14.209692
▁kobj	-15.470428
VECT	-14.589032
▁msec	-15.044109
GEOMETRY	-14.124437
Convolution	-14.035640
WIDGET	-14.041522
▁rmi	-16.467598
Actions	-13.596147
▁relaxed	-14.961163
spot	-13.673868
reporting	-14.768651
lba	-14.134344
RTP	-14.105691
▁EXTIPSEL	-19.251410
Mapped	-13.990912
▁PyModule	-14.224486
▁Eterm	-13.982989
▁SEE	-14.211242
QL	-13.832770
Coeff	-14.277202
retries	-13.985597
mesa	-14.087673
lj	-13.753973
proof	-13.968359
ICS	-13.621301
▁IMXRT	-15.680217
▁kmem	-14.747883
▁PTHREAD	-14.799630
MPC	-14.139917
Fp	-14.046155
Extend	-13.902418
▁llx	-17.743310
▁virtio	-14.545498
▁istream	-16.065010
Maps	-14.140814
Projection	-13.961571
BARRIER	-13.992793
▁interpolation	-14.013817
distinct	-14.395801
Developer	-15.155189
▁models	-12.301782
STARTUP	-14.277036
NSS	-14.095635
GetDevice	-14.181966
▁dso	-15.781987
Reject	-14.033449
Chan	-13.950427
Below	-14.883649
Gate	-14.231984
Flat	-14.108637
▁ossl	-14.775114
IDENTIFIER	-13.977854
dwarf	-14.648920
SEPARATE	-14.258447
PCS	-14.410563
EML	-14.480681
quat	-13.871748
mtk	-14.234434
FALL	-13.289265
▁tsc	-15.508242
MID	-13.489011
FPGA	-14.104714
LG	-13.510438
YA	-13.599070
▁bta	-14.733122
Good	-13.212533
Jo	-13.881008
▁radix	-14.634626
wg	-13.941712
unt	-13.416790
ECDH	-13.835883
▁bitrate	-14.877784
QI	-14.258242
QA	-14.204109
▁nats	-14.034610
▁GetEmptyString	-20.396932
Eb	-13.685933
FIELDS	-13.929222
MARKER	-13.767035
Irp	-13.997582
ida	-12.601364
Spacing	-14.060183
Para	-13.829599
Watchdog	-14.234379
VALUES	-14.095955
▁swapchain	-15.223467
nulls	-14.008730
▁typically	-13.073580
▁intersection	-13.856009
flg	-14.192576
▁automatic	-13.590199
Nothing	-13.996607
BLOCKS	-14.158786
▁BTM	-14.560117
▁btf	-15.390908
Credentials	-14.023150
epsilon	-13.169105
▁magick	-15.440602
▁specifier	-14.495935
▁fgets	-15.115369
glBind	-13.500493
BOLD	-14.455659
Measure	-13.756282
▁ecx	-14.679108
lement	-14.267144
ulation	-13.036111
▁installed	-13.097823
je	-12.140177
▁EOP	-15.421416
▁bli	-14.836515
GetWindow	-14.085712
▁patterns	-13.356523
▁maintain	-13.230928
RPT	-14.515949
ric	-12.652777
▁suitable	-13.313686
HCLK	-14.550475
HOME	-13.706698
FREEZE	-14.980321
CLAMP	-14.088855
▁OMITGOOD	-13.256446
▁Steve	-12.393470
SSID	-14.254542
LOS	-13.844473
tune	-13.596882
Calls	-13.860739
wdt	-14.146745
FileSystem	-13.860987
▁becomes	-12.719124
▁MSVCRT	-14.651025
AlreadyInit	-14.701633
ElementType	-14.065665
Magic	-13.915841
TRANSACTION	-14.051442
FILES	-13.872923
neigh	-14.091694
FCR	-14.610149
HIT	-13.984964
▁PFNGLCOLOR	-14.218894
▁loff	-14.606267
dset	-14.456985
Org	-14.046813
▁plen	-14.547355
▁vprod	-15.257454
ptrs	-14.104106
ADE	-13.885781
deg	-13.924331
▁IMETHOD	-21.230332
▁IFX	-14.304880
POLARITY	-14.595487
weapon	-14.319135
scatter	-14.405240
FZ	-14.815486
▁htab	-14.858364
Login	-13.543220
Logic	-13.614777
Foreign	-13.671623
Ja	-13.817994
▁PrettyPrinte	-20.162971
▁herr	-13.506790
Scaling	-14.144875
Nx	-14.556534
MULTISAMPLE	-14.243544
▁robot	-14.062295
▁SLI	-14.814578
▁fHelp	-14.185404
▁NVIDIA	-14.519049
SERV	-13.916023
▁dout	-15.409254
GPS	-14.113105
▁functional	-13.741582
Cl	-13.123320
Instrument	-13.051028
▁inactive	-14.293947
RpcChannelBuffer	-14.471833
TCR	-14.384793
ORINFO	-14.343630
Periph	-14.418861
ABC	-12.853931
ADT	-14.035322
Xact	-13.789906
▁Liftoff	-14.230092
▁ethtool	-14.579276
tablespace	-14.182447
▁xffffffe	-22.336730
TITLE	-13.750175
Voltage	-14.139232
ire	-12.755310
brk	-14.241055
SUSPEND	-13.883538
Pulse	-13.945283
LIVE	-12.682132
ght	-14.639657
avl	-14.310928
▁cstate	-15.365495
SDR	-14.626470
▁performs	-13.665883
WaitFor	-13.931867
mess	-14.389757
nal	-11.883874
RESTORE	-13.926508
MISS	-13.500705
▁sequences	-13.530613
▁overhead	-13.890181
getopt	-14.112301
mch	-14.085969
SIDL	-14.235269
▁DEXT	-22.693914
▁mtmp	-15.468577
PhysicalDevice	-14.606455
Handles	-13.862724
▁tga	-14.921070
Grab	-14.331297
ification	-12.465410
vh	-13.880560
Boundary	-13.809887
▁MODKEY	-14.647575
Uart	-14.340285
utation	-14.145307
▁xcccccccc	-87.803404
▁DTYPE	-15.129444
clazz	-14.112171
Restart	-13.920837
▁coefficient	-13.810939
ECHO	-13.920749
lint	-13.940691
mech	-14.183327
ETHER	-14.013879
FK	-12.699415
wid	-14.171484
▁memview	-15.633091
Divider	-14.381836
BAUD	-13.965053
Vulkan	-14.014624
DISABLE	-11.796713
▁problems	-12.290090
DCB	-14.432034
▁RedisModule	-14.551538
RDS	-14.439884
▁ShiftMask	-15.249010
Vehicle	-13.478667
Clamp	-14.118258
cad	-14.231991
yo	-12.914397
Checked	-13.896921
Bo	-13.413827
STRIP	-14.299020
▁PERSISTENT	-17.384511
igen	-14.657626
ert	-12.946855
Ho	-13.634847
▁offer	-12.891228
▁prefer	-13.618884
Starting	-14.316261
Colors	-13.574864
parameter	-11.923264
▁ddrc	-18.379957
▁BKP	-15.790391
CDB	-14.192879
degrees	-15.125728
▁storing	-13.842693
Unused	-13.958881
ota	-13.044849
Terminate	-13.859452
▁PORTA	-15.278271
Masternode	-13.948698
▁California	-10.760513
tupdesc	-14.063761
lsb	-14.367880
LX	-13.762212
▁tabs	-14.557772
Allocated	-14.092791
▁frontend	-14.872982
Phi	-13.721010
segment	-12.440015
▁clipboard	-14.474832
Exchange	-13.995454
longlong	-14.434182
NOW	-13.558160
▁stereo	-14.302568
▁manually	-13.646265
▁filtered	-14.345537
IAR	-14.389971
aac	-14.457464
Equals	-13.798501
han	-12.345228
▁MFP	-16.362970
▁remember	-12.886837
ECT	-12.773492
▁NSUInteger	-14.955665
SLOW	-14.142634
Outer	-13.767747
EXCHANGE	-14.144231
▁yyval	-15.364064
▁Semiconductor	-13.786369
Paths	-13.914972
mpl	-13.474576
licon	-16.257777
▁textures	-14.454803
▁vkCmd	-15.280557
cff	-14.367478
▁CALLBACKS	-18.108279
▁infinite	-13.732940
Hide	-13.270739
SetWindow	-14.235372
Characteristic	-14.186260
priority	-12.663736
Vote	-13.438568
▁SLCR	-16.180851
Arch	-13.792833
think	-14.212610
otg	-14.113410
▁NETIF	-14.993700
Checksum	-14.106230
ReceivedHandler	-15.253445
ARY	-13.249942
▁ftnlen	-15.777949
ToJson	-14.855524
SHM	-14.155923
dos	-13.217218
▁synchronous	-14.163796
che	-12.160077
▁GPIOA	-15.305532
ERS	-13.076785
pB	-13.859893
▁formatted	-14.313709
APC	-14.235134
LEX	-13.837349
DY	-13.704044
EFR	-14.751533
Star	-12.848381
Formatter	-14.059348
▁ierr	-14.721713
Sha	-13.646274
▁JNIEXPORT	-13.731749
DISC	-13.145676
CUT	-13.891781
mal	-12.826420
cef	-14.381768
Encoded	-14.094608
mcast	-14.297958
▁twice	-13.020970
aaaa	-15.092113
targ	-14.205228
Plot	-13.830096
▁nvmf	-16.086542
▁NTI	-15.454851
Tbl	-14.229673
ended	-13.463757
▁FromLong	-21.294408
OUR	-14.000954
MATERIAL	-13.796943
redo	-13.690895
Wasm	-14.036753
▁SSC	-15.138804
COS	-14.152682
OG	-13.442410
▁attention	-12.846864
Effects	-13.779362
NACK	-14.166087
▁ECMA	-14.430345
▁libinput	-14.624693
▁residual	-14.166337
▁dapm	-16.777745
▁filtering	-13.914971
OVF	-14.429112
▁prototypes	-13.736771
▁vrf	-15.521927
▁remarks	-14.422958
▁xbfff	-87.803404
▁LFB	-16.907725
GIF	-13.885045
▁truncated	-14.120453
TUNE	-14.332835
IPA	-14.062516
mcu	-14.337625
Needed	-13.908928
Possible	-14.483490
DSL	-14.339859
PREV	-14.181165
PAT	-14.028360
CLSID	-14.401430
▁EPWM	-15.196628
Debugger	-13.901181
▁CBigNum	-14.323709
BLANK	-14.209115
Initialized	-13.800823
▁GxB	-15.062673
ompletionHandler	-14.806488
gcm	-14.400642
▁dequeue	-15.039852
Barrier	-13.856624
lusion	-13.886544
subst	-14.174998
▁aborted	-14.327195
▁GLchar	-14.503941
Hot	-13.738610
fcp	-14.426868
sqr	-14.434099
FAN	-13.884418
ised	-12.751547
TUN	-13.977140
mpu	-14.190285
Acceleration	-14.190928
FIR	-13.841760
Serializer	-13.862430
▁GenericClass	-17.958427
datetime	-14.178001
Testing	-13.976081
PLT	-14.312258
▁evict	-15.638140
BOT	-14.168682
ari	-12.689267
▁GetProcessHeap	-15.509137
Reading	-14.165424
Writes	-14.033908
▁subtree	-14.728798
spacing	-14.274558
▁VkResult	-14.115572
▁cij	-14.300499
erg	-13.912998
GetType	-13.948256
Vertices	-14.156073
▁coded	-14.621696
▁MonoMethod	-14.601149
▁setsockopt	-15.471640
broker	-13.898227
▁sand	-14.079446
Mailbox	-14.423276
MenuItem	-13.970852
hdf	-14.457421
PORTS	-13.957289
▁COMPILING	-16.813913
▁LPCSTR	-14.629240
Wo	-14.036416
NUMERIC	-14.148231
▁kept	-12.845474
mcp	-14.304436
▁efficient	-13.432968
nth	-13.982011
Lex	-14.079309
toc	-13.797218
GLES	-14.028132
▁pNew	-14.605370
▁CHROME	-14.717493
Absolute	-13.745307
▁glCopy	-15.383050
EXTRACT	-14.302516
quo	-14.402018
▁vehicle	-12.870643
mss	-14.383237
esis	-13.967949
BORDER	-14.135800
▁verbatim	-15.755482
Chart	-13.814122
Assembler	-14.023938
Joystick	-14.103433
Ice	-14.020770
▁allocations	-14.074458
▁MCO	-15.644805
▁updating	-13.877018
committed	-14.584481
latch	-14.057267
chart	-13.033759
Geom	-14.180629
While	-14.193495
MAPPING	-14.245076
▁ahd	-15.549184
Mega	-14.626120
▁enables	-13.766710
eNB	-14.655962
FEATURES	-14.104853
wan	-12.986875
WIRE	-14.354310
COMMIT	-13.927532
▁trivial	-14.262771
ASSOC	-13.975361
cart	-13.581622
Resp	-14.235775
DSC	-14.243894
roots	-14.272344
transfer	-12.517018
east	-12.797035
TPC	-14.350277
configUSE	-14.175606
ppi	-14.190635
hat	-12.815677
AADC	-14.701749
Translation	-13.028392
cwd	-14.147378
door	-13.550492
SSA	-14.082024
ECB	-14.380493
▁cpustate	-16.037222
BIP	-14.239801
clusters	-14.555253
Compress	-13.867029
Img	-14.197316
nas	-13.223025
▁INVALC	-25.969819
▁sst	-15.261943
FIN	-13.951823
▁uninitialized	-14.368930
traceback	-14.120288
outbuf	-14.174677
▁EBUSY	-15.600332
LCDC	-15.077136
DISCARD	-14.148447
▁evaluated	-13.672264
▁quantize	-14.878587
lWindowPos	-14.369079
urse	-14.634309
bracket	-13.687007
DON	-13.905525
▁regBuiltin	-87.803404
Decrypt	-14.137600
▁ehci	-15.338693
rewind	-13.879106
Led	-14.362743
RTOS	-13.555300
▁NSDate	-14.634536
▁CMSIS	-14.346855
PROPS	-14.387967
▁QLA	-14.773918
HDC	-14.049027
cqe	-14.554711
PDO	-14.184762
▁ecount	-15.989454
▁kHz	-15.018637
▁vfloat	-15.196973
Loaded	-13.852793
Vpn	-14.666822
modem	-14.647714
▁transfers	-13.661402
ado	-12.905302
sqlite	-12.513556
Health	-13.714074
▁tmpreg	-14.459827
DPI	-14.230770
▁afs	-14.561207
STP	-14.336003
GetNext	-14.140889
ral	-13.266831
▁sParam	-15.547052
▁LPVOID	-14.468940
Marshal	-14.024481
SendMessage	-14.322501
MUTE	-14.537657
WH	-13.744830
▁hadc	-15.214226
uw	-13.812483
chat	-13.281101
▁decision	-12.267566
mdev	-14.227210
MetaData	-14.099542
LBL	-13.872931
ender	-13.075014
▁IWDG	-15.061501
PREF	-13.498101
eral	-13.648720
▁PyMem	-14.261040
jobs	-14.368310
Dimensions	-13.797137
ima	-12.878572
▁xsi	-14.397428
CERTIFICATE	-14.169333
Issue	-13.187322
aps	-13.418998
HISTORY	-13.662104
▁MCA	-14.200044
EQAN	-14.678207
ann	-13.553350
semantics	-13.924033
segs	-14.265801
tmpl	-14.080263
▁UNLIKELY	-17.475416
GRID	-14.180203
▁FLA	-14.692468
fly	-13.667505
udc	-14.234829
▁plaintext	-14.717813
▁Cmm	-15.325124
Encrypt	-14.131235
▁issues	-12.011988
▁saddr	-15.593252
▁callee	-14.710939
▁Anum	-15.313647
Precision	-13.946656
FILT	-14.649727
Indent	-14.025567
mng	-14.380795
▁milvus	-16.893440
FRONT	-13.897918
Ep	-14.106841
carrier	-14.198765
DIALOG	-13.823874
ors	-12.146055
▁bignum	-14.800006
▁retrieved	-13.901379
▁IEnum	-14.332038
PERM	-13.569261
SYNTAX	-14.099154
SGI	-14.204427
lookup	-12.284140
adapt	-12.196278
IU	-14.022067
invocation	-13.990884
▁reasons	-12.710598
fk	-14.211773
▁uip	-14.677075
▁respect	-12.749677
Simp	-14.995500
ART	-12.829708
Wnd	-13.393754
▁TCPIP	-14.858590
Detach	-14.024727
He	-12.335394
QUAL	-14.139416
Js	-14.087620
KF	-13.782529
lldb	-14.097796
atoms	-14.501746
▁iostream	-17.055450
▁opening	-12.705506
VN	-13.955521
Typed	-14.086603
▁colormap	-14.910614
talk	-13.708863
crit	-13.812467
▁DID	-14.780049
Wake	-14.439999
▁XEvent	-15.531574
CSD	-14.480711
MISMATCH	-14.205020
UTC	-13.550289
▁aren	-13.365576
datalen	-14.115235
COMMENT	-14.040433
Dims	-14.316208
za	-12.394495
KM	-13.671196
ilt	-14.331494
trusted	-14.337138
ppendPQExpBuffer	-14.391931
msa	-14.477180
eye	-13.628784
MEDIUM	-14.155892
Coder	-13.741067
NamedFramebuffer	-14.404026
Am	-13.047086
purge	-14.266995
PROCESSOR	-13.946061
FOG	-14.069377
▁asynchronous	-13.980360
▁FALLTHROUGH	-14.689779
SYNTH	-14.859528
▁HFPERCLKDIV	-17.971623
member	-12.223425
Lists	-13.693191
Records	-13.892587
ADJ	-14.178161
putchar	-13.827051
Sun	-13.980588
aliases	-13.981265
Pic	-14.050100
▁libraries	-13.183268
▁newval	-15.027067
Keyword	-14.056416
▁validity	-13.877463
atan	-13.886360
METADATA	-14.212255
LATE	-13.653483
Gx	-14.942293
▁saving	-13.799839
dbl	-14.249353
uttx	-14.112277
DOS	-13.398319
Both	-14.623671
Lit	-13.570802
addrlen	-14.111601
Mean	-14.072972
rex	-14.160550
Evaluate	-14.686725
PARTIAL	-14.183071
▁inplace	-15.793431
MBC	-13.816497
ACM	-14.051326
texture	-11.855539
ASR	-14.490004
denom	-14.168238
▁epu	-19.240874
▁umock	-14.828243
Lazy	-13.969926
▁STDC	-15.419771
Vol	-13.149909
IFY	-14.061843
INE	-13.133758
▁Microchip	-13.837818
▁kmalloc	-14.488733
▁oscillator	-14.195954
Street	-14.408268
les	-11.793905
Removed	-14.036383
report	-11.650346
uch	-13.273014
▁srs	-16.351030
OCTET	-14.316362
▁expires	-14.614190
▁timezone	-14.617503
sapi	-14.172361
▁directive	-14.150214
Parm	-14.271536
conj	-14.383451
attribute	-11.089720
ResultType	-14.168649
reclaim	-14.621799
▁beyond	-12.751987
▁GPIOTE	-14.612375
▁dpm	-16.393891
▁sends	-13.799051
Lane	-14.182321
POSSEL	-15.625183
persist	-13.634320
▁UNAVAILABLE	-17.530532
aries	-12.882231
CONDITION	-13.866742
Specification	-13.894090
▁exported	-14.093179
▁CWallet	-14.276275
▁SPIM	-15.485032
Scratch	-13.841084
hon	-13.475991
Requires	-13.946656
CommandList	-14.221522
Universal	-13.983409
Offsets	-14.201678
ith	-13.809700
▁portion	-13.025766
closureN	-14.701573
Rt	-14.121069
abb	-14.210362
HER	-14.073710
▁shost	-16.068606
▁decide	-13.338361
CopyFrom	-13.850328
▁oldest	-13.500024
gyro	-14.686190
DOCUMENT	-13.971907
NFA	-13.990037
saxpy	-14.531255
▁potential	-12.423701
ZE	-12.663452
Pressed	-14.010351
Generation	-14.185668
▁jclass	-14.427110
rtm	-14.549747
polynomial	-15.017505
EVCTRL	-15.323166
Energy	-14.111932
ewGetProcAddress	-15.095495
▁incx	-15.054816
COMBINE	-14.024982
eid	-14.142139
DIRECTORY	-14.186449
RefCount	-13.611867
XI	-13.029134
PARA	-13.783983
▁PyType	-15.263626
▁VkImage	-14.244862
▁tested	-13.329385
lac	-13.669647
epoll	-14.266167
bearer	-14.171374
▁comes	-12.386025
aggr	-14.542041
include	-8.076928
UIViewController	-13.835039
gene	-12.948662
▁Kevin	-12.822285
▁wparam	-16.163561
SPARSE	-14.200807
▁OAI	-14.162703
Lu	-13.642411
Hand	-13.904755
SRGB	-14.332391
NOTIFICATION	-14.196052
checker	-14.062927
weston	-14.225094
FH	-14.155081
▁SetLastError	-13.890910
Ma	-13.187826
▁succeed	-13.771336
▁litest	-16.007273
▁thrown	-13.510641
▁PROGMEM	-14.355605
CENTER	-14.102860
Gateway	-13.821798
▁attempts	-13.313051
lum	-13.196670
spr	-13.932084
RLC	-14.493297
ImageFilter	-14.024284
Plain	-14.118388
Pen	-13.964386
SAMPLES	-14.241487
Att	-13.754558
▁sessions	-13.679000
aid	-13.743925
▁Gating	-14.028974
GetName	-14.127336
DNA	-13.504925
BaseAddress	-14.249784
often	-15.251389
cutoff	-14.831051
▁superclass	-13.828580
▁PMIC	-15.505189
▁accumulator	-14.330403
▁XCVR	-15.637343
vap	-14.484960
tiff	-14.160787
▁getNum	-14.560479
▁APLOG	-15.472744
IFIED	-13.719297
▁dtls	-14.920247
▁restrictions	-13.297721
Hello	-13.354277
▁reduced	-12.999537
rip	-13.383515
CDR	-14.518444
Reload	-14.096215
▁safely	-13.880545
Pe	-13.757978
▁equation	-13.185084
ancestor	-14.979097
▁ssc	-15.447951
▁glGetProgram	-15.389336
▁newnode	-14.048920
asc	-13.819316
▁rend	-15.240814
▁abuf	-14.493463
Promise	-13.518079
▁endp	-15.349956
HDF	-14.268794
MPS	-14.162976
▁endptr	-15.819272
ung	-12.349998
bz	-14.157905
Parity	-14.343502
▁wgl	-15.340986
hk	-13.984848
▁DOXYGEN	-15.163287
▁PLLSAI	-16.188061
▁sexp	-15.035813
▁logs	-13.966350
▁ahc	-15.569554
▁TCPWM	-16.024489
Al	-12.584964
ByName	-14.194477
volve	-14.155623
▁WPS	-15.461878
glSecondaryColor	-14.421923
▁VISIT	-14.842347
▁singleton	-14.478482
▁wanted	-12.518301
Raster	-14.151657
SDP	-14.248431
Rules	-13.881876
AUD	-14.085768
dcb	-14.451078
DEMO	-14.098014
▁pCur	-15.110243
Gu	-13.777891
tee	-13.783672
lam	-11.989043
▁CInput	-17.332724
Mar	-13.375898
▁regarding	-12.648930
What	-11.916123
hits	-14.507445
Ident	-13.914529
PREP	-14.020305
▁unbox	-16.494833
▁numa	-14.844353
PASSWORD	-14.150510
ein	-13.523909
HARDWARE	-14.308294
▁CAPI	-14.688451
Saved	-13.967614
xen	-14.025731
Visibility	-13.839553
lap	-12.999089
BUFSIZE	-14.137765
▁pParse	-15.380121
▁emsg	-15.177845
▁strtok	-14.578505
▁TXB	-14.964157
▁pointing	-13.763687
Requests	-13.951517
ARCHIVE	-14.035046
▁MXC	-15.209959
ori	-12.531955
▁forIn	-20.821134
Minor	-14.080958
Arrow	-13.566892
BLINK	-14.172649
CLOSED	-14.141462
▁matter	-12.270940
▁ITM	-15.165969
▁bitset	-15.008322
▁whenever	-13.586955
Gfx	-14.242424
Sta	-14.161568
Publish	-13.977193
Neighbor	-13.805933
▁PINCTRL	-17.783661
xmin	-14.209978
▁skel	-16.488983
ents	-12.841961
Manual	-14.567612
DRAM	-14.364700
DFU	-14.320799
▁SmallVector	-14.451038
▁helpers	-14.219560
chi	-12.225999
dce	-14.531023
ClassName	-14.006246
DDI	-14.396097
leg	-12.883278
▁nStates	-16.742864
Globals	-13.979376
stall	-13.859637
SETTING	-14.316872
▁smu	-15.360640
Trait	-14.065067
printing	-15.258905
Subroutine	-14.387117
Pcd	-14.656677
SCENE	-14.181942
pel	-13.566010
▁IMPLEMENT	-14.177938
irectDrawSurface	-14.696115
▁pfree	-16.336076
Escape	-13.540297
Solution	-13.530441
Formats	-13.839042
▁boundaries	-13.449759
PROJECT	-14.464853
tss	-14.541488
zo	-12.660566
▁pNode	-14.801603
▁commandBuffer	-14.606798
Conflict	-13.277968
regexp	-14.431679
▁SPA	-14.614380
Cal	-13.747100
ets	-12.423195
UNUSED	-11.811767
Act	-13.643064
tracks	-13.654735
Temperature	-13.816052
▁primitives	-14.856296
▁CGSize	-15.019848
YG	-13.988109
▁NVMCTRL	-15.534521
Loading	-13.489647
Hidden	-13.627071
Repr	-14.569951
▁CHPRI	-18.040261
AVAIL	-12.785770
cntl	-13.169063
▁socklen	-14.503713
CLKDIV	-14.565970
▁earlier	-12.638659
▁WRONG	-16.089598
ration	-13.000765
thermal	-14.124025
▁nthreads	-14.024765
Dataset	-14.020201
tcl	-14.295443
PRECISION	-14.294610
Priv	-14.059069
synchro	-16.104080
▁iio	-14.824971
slices	-14.591310
▁differ	-14.179233
BRANCH	-14.229470
▁pState	-15.047061
chg	-14.355846
▁ecb	-16.053974
▁InvalidOid	-14.041553
Dyn	-14.266673
scl	-14.360772
▁STRONG	-17.474772
fetch	-12.327080
Zoom	-13.832253
▁outlen	-14.880359
▁CharT	-14.909501
TTL	-14.222995
Develop	-14.588206
INTERP	-14.222042
▁memviewslice	-16.092687
qspi	-14.499460
Yes	-12.573088
EMBER	-14.218643
▁rehashe	-19.552631
contig	-14.748007
Mapper	-13.865814
combo	-14.445132
lli	-13.773696
▁agreement	-12.679513
▁hierarchy	-13.953031
MDI	-14.510544
▁GPIOB	-15.355935
pvt	-14.455546
▁HANDSHAKE	-16.968348
▁bail	-13.259317
rz	-13.682677
COST	-14.306526
SUITE	-14.192455
▁TESS	-15.925379
avi	-13.267843
nni	-14.049029
▁sreg	-16.149277
ALLOCATOR	-14.154495
▁slist	-15.875340
▁IWM	-14.487253
Efi	-13.591391
QUOTE	-14.082016
ZONA	-14.498524
Interlocked	-14.277679
ora	-12.854755
▁GLvoid	-14.612368
OSX	-14.189188
SEP	-14.125949
spline	-14.484945
▁SCE	-14.517612
▁derive	-14.416367
Swift	-14.386517
Dbg	-13.783233
irp	-14.308398
▁backing	-12.713130
▁filp	-15.664316
frozen	-14.327640
Cv	-14.245840
NDR	-14.364669
UNION	-13.843535
FieldNumber	-13.973182
▁endpoints	-14.358226
Drawable	-14.128615
▁FUNCNAME	-15.062552
▁pdw	-15.672469
CONCAT	-14.505912
▁accessing	-13.955769
▁ensures	-13.766049
Vdbe	-14.144747
▁delimiter	-14.140950
Words	-13.517091
DLY	-14.810131
▁fsl	-15.114896
▁mappings	-14.335636
SAME	-14.343696
▁devm	-14.664698
▁bitwise	-14.409386
tro	-12.986460
uration	-12.664365
Mini	-14.241090
through	-13.061103
RESUME	-14.232676
▁PORTC	-15.320542
TRUST	-14.282877
LINES	-14.028173
NH	-13.659910
▁pcre	-14.833823
Tables	-13.700751
Subsystem	-14.633374
ably	-13.244599
Protect	-14.041301
typeid	-14.459104
XN	-14.424383
▁AIF	-16.313635
Indicator	-13.855532
SWREQ	-15.982269
▁describes	-13.259995
▁fiat	-14.568203
Nr	-14.087042
▁bufSize	-14.711518
▁SEXP	-14.639661
HashMap	-14.036915
gal	-13.074543
CCA	-14.068418
Drawing	-14.059162
Confirm	-13.934986
▁PFNGLTEX	-14.416563
remove	-11.429420
LATENCY	-14.508497
▁minimal	-13.614490
gos	-13.691600
Traceback	-14.512779
CIM	-14.234604
lck	-14.339469
kg	-12.222423
Circle	-14.001084
VertexBuffer	-14.271632
MW	-13.715255
▁ioaddr	-15.311421
▁constructed	-13.202120
▁PyMethod	-15.004013
corr	-14.066151
Bone	-14.250705
CONS	-13.814461
▁HDA	-14.884138
GetObject	-14.312999
Subject	-13.196017
Blueprint	-14.033546
ups	-13.019392
▁escaped	-13.948259
binfo	-14.718090
ImageInfo	-14.291717
ump	-14.066927
▁tparam	-19.919697
▁INTRINS	-15.788730
▁DType	-14.598247
▁RDONLY	-18.719026
▁glX	-15.582390
▁RelationGet	-14.647514
BMC	-14.591793
tpl	-14.459595
PublicKey	-14.258814
dae	-13.639643
▁training	-12.326800
Times	-13.791678
▁PERL	-14.323677
plic	-14.220413
lish	-13.363696
pot	-13.144043
▁MspInit	-15.889093
ALGO	-14.371573
ALLOCATION	-14.345258
NOTIMPL	-13.657356
ITK	-14.173953
warp	-14.366036
AGENT	-14.382291
▁peers	-13.955816
SDMA	-14.683788
Ra	-13.617684
yb	-13.993622
IndexType	-14.152682
Design	-14.265482
Recovery	-13.994473
CDEF	-15.406043
STAR	-13.180394
▁brightness	-14.572942
Ser	-13.774775
AFE	-14.408383
▁endverbatim	-87.803404
EK	-13.997727
Ke	-14.095652
GDK	-14.371718
chall	-15.878918
append	-11.628926
▁smi	-14.945231
DESTROY	-14.100957
sanitize	-14.385396
▁complain	-14.189840
▁ethernet	-14.699620
▁Cef	-14.489313
nsp	-14.372455
ain	-12.501035
vu	-13.673773
▁substring	-14.574601
▁spu	-15.103754
▁CHUSEBURST	-18.092597
▁separated	-13.589955
HALT	-14.566514
rol	-13.734778
tpm	-14.418401
▁codegen	-15.283478
▁PFNGLIS	-14.296748
▁pFile	-14.912669
▁NOPULL	-31.461473
▁daos	-15.166136
ArrayType	-14.153935
▁gadget	-15.750615
▁compose	-14.862150
Redirect	-14.148886
itter	-13.489577
▁unreachable	-14.874142
getattr	-14.038028
destroy	-11.387517
▁bootstrap	-14.468608
▁cups	-13.603722
bsp	-14.148335
integration	-14.660111
rsv	-14.206740
▁glGen	-15.094380
BGR	-14.470194
▁efm	-16.075708
ffc	-14.360032
RATIO	-14.570422
▁Portions	-14.320183
PSE	-14.139486
termios	-14.234267
cess	-13.739653
kd	-14.196642
ebp	-14.382348
opus	-13.576733
RENDERER	-14.396518
Rand	-14.229404
runner	-13.524731
▁disconnected	-14.372532
syms	-14.209457
Listen	-14.092350
▁luma	-15.345880
▁svm	-15.269532
cfb	-14.610588
▁LAPACKE	-14.643880
Sv	-13.961038
prune	-14.280015
ELL	-13.963240
PALETTE	-14.294600
bins	-14.199527
▁semantic	-14.269092
▁wpas	-14.930077
▁setzero	-20.576687
GIC	-14.378449
▁btc	-15.159531
▁opcodes	-14.821962
MCI	-14.205069
LIM	-14.094406
▁isspace	-15.609412
setattr	-14.318353
Tls	-14.289158
ett	-12.802860
▁sanity	-14.119905
clnt	-14.402566
yuv	-14.523460
dash	-13.582129
iterator	-11.485776
compare	-12.425103
Unpack	-14.281134
▁opj	-14.781303
VERT	-14.171760
REVERSE	-14.136254
▁pDevice	-15.130231
OEM	-14.038213
CHARACTER	-14.129426
▁JERRY	-14.586336
▁pixs	-15.446098
▁ListCell	-16.544595
KU	-14.024385
mpfr	-14.516345
EventType	-14.081055
▁trampoline	-15.003382
uVar	-14.237780
BLT	-14.500763
rice	-13.536988
Typ	-14.079271
▁LFCLKSEL	-18.257541
LPI	-14.850790
SMT	-14.316008
▁construction	-12.326549
Slots	-14.207779
coder	-13.431359
ARD	-14.115825
MDRV	-14.187950
▁getName	-14.555419
presence	-14.947498
▁coverage	-13.131751
▁ogg	-15.716204
▁MAV	-14.895666
keymap	-14.445007
SAL	-14.319307
Endian	-13.829921
cmnd	-14.465595
Interpreter	-14.072752
dam	-13.495652
▁CyFunction	-21.449762
▁looks	-12.653795
wheel	-13.663081
orth	-14.231399
gas	-13.040930
BOR	-13.618324
PTC	-14.737440
Privilege	-14.170149
▁knl	-16.830792
rtt	-14.228154
KMS	-14.516682
Latency	-14.320752
BEFORE	-14.363732
▁daddr	-15.699918
Rhs	-14.517138
FRM	-14.577559
SRP	-14.251526
▁retVal	-14.348266
▁finally	-12.617265
zp	-14.478928
FunctionType	-14.163914
▁dylib	-17.224207
▁mongo	-14.744076
Jet	-13.559772
ACTIVATE	-14.400138
Beacon	-14.016641
inq	-14.222924
▁country	-11.733553
Misc	-13.828680
Peers	-14.643075
DSO	-14.356621
▁skill	-14.118233
HKEY	-14.168837
Closed	-13.641097
IDENT	-13.351529
unc	-13.596644
GetData	-14.180727
wrk	-14.501146
▁AVERROR	-13.716358
▁fseek	-14.848084
dfa	-14.541388
Prototype	-13.947982
pgm	-14.618660
ygard	-15.045565
▁BSLS	-14.447111
FOLD	-14.077533
EFF	-13.296671
▁MICROCHIP	-14.379723
Grow	-14.060810
LCK	-14.585252
eve	-13.613659
Sci	-14.961756
▁FMOD	-15.256130
vir	-13.239702
ulate	-12.977814
Included	-15.063664
Choose	-14.404232
dres	-14.548422
Nu	-13.957006
Notifications	-14.242082
ROS	-13.881226
RDWR	-14.478449
DIE	-13.512078
▁clicked	-14.649122
▁hsize	-15.018885
Reserve	-14.030884
ADVANCE	-14.176395
CLS	-14.360880
ach	-12.740117
Spl	-14.600944
▁funcname	-15.630145
AFF	-14.036898
Dep	-14.148567
MAIL	-14.077385
▁TCHAR	-14.729845
▁moment	-12.532995
OOB	-14.404505
gin	-13.352686
REMAP	-14.682940
▁particles	-13.803002
ons	-12.454333
LPD	-14.453281
▁LIS	-14.899320
ym	-13.383008
rds	-13.768415
PROPERTIES	-14.284496
▁Bradley	-13.644684
▁continuous	-13.546974
PAGES	-14.350079
▁unpacklo	-19.880606
MSS	-14.416568
Sorted	-14.178533
▁outstanding	-13.769387
eee	-13.669441
era	-12.134601
cade	-13.915108
tie	-13.030997
▁movs	-15.803233
stg	-14.389870
hosts	-14.252786
▁ASSEMBLY	-16.762638
fst	-14.357483
mbs	-14.182936
InputStream	-13.762806
LANE	-14.656713
bra	-13.152033
▁lfs	-15.103613
CNF	-14.828090
▁pObj	-15.022079
▁strlcpy	-15.753877
BYPASS	-14.587759
▁dynamically	-13.915008
▁specialization	-14.044284
tySequence	-14.971049
zl	-13.986260
▁dwError	-14.481511
▁wolfSSL	-14.478484
Motor	-14.266360
▁ibuf	-15.246055
DescriptorProto	-14.441880
ARROW	-14.077570
qq	-14.164175
rocksdb	-14.273621
▁figure	-12.854284
Until	-14.027799
▁TRNG	-15.428240
MIR	-14.516176
Started	-13.872951
▁belongs	-13.598662
▁LDK	-15.432933
▁pZip	-15.949359
▁WREG	-17.433174
realm	-14.496364
wish	-14.921756
Iterate	-14.166628
LAP	-13.822995
LOCALE	-14.214789
▁determines	-13.884098
Conditional	-13.858800
▁tolerance	-14.066874
NIF	-14.255325
▁DTCTRL	-18.941552
ore	-12.308003
Deep	-14.198065
INVERT	-14.407434
▁CREAT	-15.668814
iOS	-14.126013
arith	-14.030465
Pixmap	-14.227914
ACR	-14.769498
▁SMPR	-17.491645
cha	-12.471862
FRAC	-14.637981
pcr	-14.517908
Decrement	-14.152426
Ge	-13.626438
▁subnet	-14.796776
▁objv	-14.817334
mand	-13.827841
MISSION	-13.892022
watcher	-14.319871
Drv	-14.225696
idr	-14.378635
OOO	-15.160903
▁VkCommandBuffer	-14.886882
Surf	-14.054832
▁strtoul	-14.983179
▁nvim	-16.683925
PCB	-14.247905
Utf	-14.239321
▁HFILL	-14.052718
mpeg	-14.283546
RelationId	-14.082349
MAPPED	-14.439758
▁backwards	-13.959375
Edges	-14.261651
WPARAM	-14.463972
RAY	-14.081182
Filters	-14.047031
LoRa	-14.485729
▁ffffffd	-87.803404
▁magma	-14.092900
Classes	-13.532938
RDP	-14.321275
Ascii	-14.251050
Gap	-13.928204
Acl	-14.076796
wy	-13.625355
▁PERIPHERAL	-16.209107
nch	-13.491384
▁ocp	-15.862716
▁affected	-13.203284
▁subquery	-15.031484
Lost	-13.669657
▁convolution	-14.519116
▁describing	-13.625435
road	-13.819467
▁kStatus	-14.244312
emac	-14.309547
Specifier	-14.326937
photo	-13.949176
▁Erts	-14.525100
▁suspended	-13.705468
FileInfo	-14.112262
▁exts	-16.012283
▁transferred	-13.180855
IME	-14.022641
Ev	-13.685303
EEP	-14.712291
UGE	-14.316484
emb	-14.250029
gif	-14.338268
▁say	-11.702129
▁SYSCON	-15.529312
CAUSE	-14.328640
ICBOF	-15.656377
ior	-13.522761
▁MEGA	-14.637957
semi	-13.727837
RasterPos	-14.490411
elambda	-15.116341
▁DWT	-15.504521
Ping	-13.750792
DBUS	-14.412807
▁swizzle	-15.364505
Deferred	-14.202940
reconnect	-14.753342
BUCKET	-14.452658
▁workaround	-14.267848
▁SST	-14.575627
▁keywords	-14.459731
▁mojom	-15.881172
▁EINTR	-14.400768
wrote	-14.802172
Subtract	-14.252797
ura	-12.465663
ACP	-13.799744
ReadOnly	-14.133594
▁jerry	-14.539547
spatial	-14.649760
eep	-13.525163
Sch	-13.850431
blkno	-14.376064
Enumerate	-14.135328
▁cra	-15.223219
▁nread	-14.649057
▁cstring	-15.770268
▁rebuild	-14.375250
acked	-13.370075
▁intro	-14.428057
IIC	-14.639245
▁collector	-14.115165
gfs	-14.377075
ReturnType	-14.291150
▁sigaction	-14.621618
TupleDesc	-14.012823
▁dont	-14.174526
▁Therefore	-12.960755
Locator	-13.848681
▁IFORM	-18.403083
▁recurse	-14.679748
▁accesses	-14.271497
SMI	-14.448331
INDENT	-14.024471
▁UNITY	-14.643735
SFT	-14.672679
▁caddr	-15.584747
fcn	-14.409363
Noise	-14.282363
Ticks	-14.131623
▁indication	-14.137212
dirs	-14.157891
Quote	-13.202865
▁SetNull	-13.860251
▁AUXHFRCO	-16.364614
▁underflow	-14.644623
bsl	-14.067527
Temporary	-13.863150
Rename	-14.061655
synth	-12.755010
Discard	-14.150845
anc	-14.468174
▁Ngap	-15.503071
orient	-13.208291
las	-12.665683
Floating	-13.843333
errstr	-14.279057
eol	-13.888650
▁allowing	-13.184623
Pref	-13.961170
Refer	-15.202112
accuracy	-14.741460
▁receives	-13.704629
Was	-13.911219
LAND	-13.640271
▁domains	-14.051962
sgn	-14.975138
▁sint	-15.666824
bufp	-14.267820
▁pstr	-15.320029
gy	-13.060040
UNSET	-14.245880
Gray	-14.004175
ground	-11.690676
▁xfree	-14.033708
▁FIRMWARE	-15.968927
▁TEGRA	-15.232691
Xid	-14.163982
logged	-13.870559
▁defer	-14.550928
SetError	-14.278252
▁synchronization	-14.088821
benchmark	-14.664324
▁removing	-13.740351
▁ctypedef	-14.367462
succ	-14.170079
▁xattr	-15.716184
pools	-14.595642
READER	-14.248365
STOPPED	-14.472732
▁uncompressed	-14.700120
▁GLEXT	-18.059939
▁idea	-12.420200
collid	-14.666654
ImageType	-14.244183
Structs	-14.055410
Waiting	-14.265041
▁HSMCI	-15.753607
NZ	-13.677528
Fake	-13.807070
Spin	-14.041315
Toolkit	-14.120676
Qu	-14.191724
Pal	-14.163624
Unity	-14.097153
Mc	-14.194439
TexImage	-13.971354
▁ftrace	-14.855759
Rsp	-14.606089
cts	-14.027814
resh	-15.336634
IAL	-13.913783
MERGE	-14.252721
PrivateData	-14.473056
TCA	-14.023751
▁stay	-12.874355
pac	-13.551343
shoulder	-15.883069
▁bytecode	-14.771319
CAS	-14.013083
dlg	-14.436627
acb	-14.651706
▁dispatched	-14.255839
dial	-14.095377
▁VOLTAGE	-16.475700
Adaptive	-14.886942
Users	-13.967764
MBR	-14.289932
GPT	-14.587288
▁LOCKS	-16.272905
Deprecated	-14.034245
▁microseconds	-14.483695
▁mysqlnd	-15.662307
utter	-13.569383
GK	-13.486597
Flip	-13.911351
▁repository	-14.012660
Rad	-14.834324
▁incomplete	-13.884975
Without	-14.034241
▁unchanged	-13.979525
Corrupt	-14.440182
▁CONSTEXPR	-17.464308
▁msix	-16.052890
Dock	-14.097075
▁vxlan	-15.256236
▁DRW	-14.603909
LSI	-14.512795
▁comparator	-14.581756
TypeId	-14.300846
Initializer	-14.146515
bid	-13.389203
Distribution	-14.375307
IOMUXC	-15.011751
InitTypeDef	-14.121129
Needs	-13.946730
▁wxString	-14.308864
FIRE	-13.953821
BATCH	-14.372196
▁pset	-15.360301
NAS	-14.005117
dia	-12.687140
BULK	-14.433304
▁YYDEBUG	-15.240770
▁subframe	-15.301101
▁refptr	-18.579169
Superclass	-14.109340
Qualifier	-13.732552
▁SCRIPTABLE	-21.636388
Submit	-13.952426
TXN	-14.231190
lip	-13.279423
▁PRAGMA	-15.401425
LogError	-14.382202
▁encountered	-13.750868
BRK	-14.807274
▁VTABLE	-15.746315
sons	-13.759844
Sm	-14.099937
▁mpls	-15.840675
TestCase	-13.916259
OOM	-14.454288
▁allocating	-14.341309
sResponse	-14.481880
▁deletion	-14.084923
▁defining	-13.839461
▁intent	-13.383983
Fs	-13.845547
SELECTION	-14.310503
▁COAP	-14.704570
Ta	-13.740236
▁spent	-12.790250
▁AFIO	-15.682354
▁TYPEDEF	-16.244233
lq	-14.212417
▁discussion	-13.224503
INTERNAL	-11.967470
BlockIndex	-14.193498
Replication	-14.198496
Interrupts	-14.193985
GENERATE	-13.608239
▁CRS	-15.925228
slider	-14.545580
fdw	-14.479899
Cu	-13.520429
TST	-14.595341
Pm	-14.714807
DeviceMemory	-14.306816
medium	-14.333839
MOTION	-14.120470
▁dereference	-15.113705
amqp	-14.783917
UX	-13.858352
▁inherited	-13.898416
Iot	-14.517985
AdjustorThunk	-15.385693
Replica	-14.130043
Bg	-14.299228
▁srp	-15.182309
fq	-14.357718
RASTER	-14.388601
▁rbuf	-15.436416
Sheet	-13.597295
Opts	-14.237001
latter	-14.985432
▁PGC	-14.508596
zs	-13.949404
ottle	-14.579955
vacuum	-14.390795
▁convenience	-13.794501
[...]
