<unk>	0.0
<s>	0.0
</s>	0.0
<mask>	0.0
<pad>	0.0
<CLS>	0.0
<SEP>	0.0
<EOD>	0.0
▁▁▁▁▁▁▁▁▁▁▁▁▁▁▁▁▁▁▁▁▁▁▁▁	-1.0
▁▁▁▁▁▁▁▁▁▁▁▁▁▁▁▁▁▁▁▁▁▁▁	-1.0
▁▁▁▁▁▁▁▁▁▁▁▁▁▁▁▁▁▁▁▁▁▁	-1.0
▁▁▁▁▁▁▁▁▁▁▁▁▁▁▁▁▁▁▁▁▁	-1.0
▁▁▁▁▁▁▁▁▁▁▁▁▁▁▁▁▁▁▁▁	-1.0
▁▁▁▁▁▁▁▁▁▁▁▁▁▁▁▁▁▁▁	-1.0
▁▁▁▁▁▁▁▁▁▁▁▁▁▁▁▁▁▁	-1.0
▁▁▁▁▁▁▁▁▁▁▁▁▁▁▁▁▁	-1.0
▁▁▁▁▁▁▁▁▁▁▁▁▁▁▁▁	-1.0
▁▁▁▁▁▁▁▁▁▁▁▁▁▁▁	-1.0
▁▁▁▁▁▁▁▁▁▁▁▁▁▁	-1.0
▁▁▁▁▁▁▁▁▁▁▁▁▁	-1.0
▁▁▁▁▁▁▁▁▁▁▁▁	-1.0
▁▁▁▁▁▁▁▁▁▁▁	-1.0
▁▁▁▁▁▁▁▁▁▁	-1.0
▁▁▁▁▁▁▁▁▁	-1.0
▁▁▁▁▁▁▁▁	-1.0
▁▁▁▁▁▁▁	-1.0
▁▁▁▁▁▁	-1.0
▁▁▁▁▁	-1.0
▁▁▁▁	-1.0
▁▁▁	-1.0
▁▁	-1.0
▁	-1.0

	0.0
<0x00>	0.0
<0x01>	0.0
<0x02>	0.0
<0x03>	0.0
<0x04>	0.0
<0x05>	0.0
<0x06>	0.0
<0x07>	0.0
<0x08>	0.0
<0x09>	0.0
<0x0A>	0.0
<0x0B>	0.0
<0x0C>	0.0
<0x0D>	0.0
<0x0E>	0.0
<0x0F>	0.0
<0x10>	0.0
<0x11>	0.0
<0x12>	0.0
<0x13>	0.0
<0x14>	0.0
<0x15>	0.0
<0x16>	0.0
<0x17>	0.0
<0x18>	0.0
<0x19>	0.0
<0x1A>	0.0
<0x1B>	0.0
<0x1C>	0.0
<0x1D>	0.0
<0x1E>	0.0
<0x1F>	0.0
<0x20>	0.0
<0x21>	0.0
<0x22>	0.0
<0x23>	0.0
<0x24>	0.0
<0x25>	0.0
<0x26>	0.0
<0x27>	0.0
<0x28>	0.0
<0x29>	0.0
<0x2A>	0.0
<0x2B>	0.0
<0x2C>	0.0
<0x2D>	0.0
<0x2E>	0.0
<0x2F>	0.0
<0x30>	0.0
<0x31>	0.0
<0x32>	0.0
<0x33>	0.0
<0x34>	0.0
<0x35>	0.0
<0x36>	0.0
<0x37>	0.0
<0x38>	0.0
<0x39>	0.0
<0x3A>	0.0
<0x3B>	0.0
<0x3C>	0.0
<0x3D>	0.0
<0x3E>	0.0
<0x3F>	0.0
<0x40>	0.0
<0x41>	0.0
<0x42>	0.0
<0x43>	0.0
<0x44>	0.0
<0x45>	0.0
<0x46>	0.0
<0x47>	0.0
<0x48>	0.0
<0x49>	0.0
<0x4A>	0.0
<0x4B>	0.0
<0x4C>	0.0
<0x4D>	0.0
<0x4E>	0.0
<0x4F>	0.0
<0x50>	0.0
<0x51>	0.0
<0x52>	0.0
<0x53>	0.0
<0x54>	0.0
<0x55>	0.0
<0x56>	0.0
<0x57>	0.0
<0x58>	0.0
<0x59>	0.0
<0x5A>	0.0
<0x5B>	0.0
<0x5C>	0.0
<0x5D>	0.0
<0x5E>	0.0
<0x5F>	0.0
<0x60>	0.0
<0x61>	0.0
<0x62>	0.0
<0x63>	0.0
<0x64>	0.0
<0x65>	0.0
<0x66>	0.0
<0x67>	0.0
<0x68>	0.0
<0x69>	0.0
<0x6A>	0.0
<0x6B>	0.0
<0x6C>	0.0
<0x6D>	0.0
<0x6E>	0.0
<0x6F>	0.0
<0x70>	0.0
<0x71>	0.0
<0x72>	0.0
<0x73>	0.0
<0x74>	0.0
<0x75>	0.0
<0x76>	0.0
<0x77>	0.0
<0x78>	0.0
<0x79>	0.0
<0x7A>	0.0
<0x7B>	0.0
<0x7C>	0.0
<0x7D>	0.0
<0x7E>	0.0
<0x7F>	0.0
<0x80>	0.0
<0x81>	0.0
<0x82>	0.0
<0x83>	0.0
<0x84>	0.0
<0x85>	0.0
<0x86>	0.0
<0x87>	0.0
<0x88>	0.0
<0x89>	0.0
<0x8A>	0.0
<0x8B>	0.0
<0x8C>	0.0
<0x8D>	0.0
<0x8E>	0.0
<0x8F>	0.0
<0x90>	0.0
<0x91>	0.0
<0x92>	0.0
<0x93>	0.0
<0x94>	0.0
<0x95>	0.0
<0x96>	0.0
<0x97>	0.0
<0x98>	0.0
<0x99>	0.0
<0x9A>	0.0
<0x9B>	0.0
<0x9C>	0.0
<0x9D>	0.0
<0x9E>	0.0
<0x9F>	0.0
<0xA0>	0.0
<0xA1>	0.0
<0xA2>	0.0
<0xA3>	0.0
<0xA4>	0.0
<0xA5>	0.0
<0xA6>	0.0
<0xA7>	0.0
<0xA8>	0.0
<0xA9>	0.0
<0xAA>	0.0
<0xAB>	0.0
<0xAC>	0.0
<0xAD>	0.0
<0xAE>	0.0
<0xAF>	0.0
<0xB0>	0.0
<0xB1>	0.0
<0xB2>	0.0
<0xB3>	0.0
<0xB4>	0.0
<0xB5>	0.0
<0xB6>	0.0
<0xB7>	0.0
<0xB8>	0.0
<0xB9>	0.0
<0xBA>	0.0
<0xBB>	0.0
<0xBC>	0.0
<0xBD>	0.0
<0xBE>	0.0
<0xBF>	0.0
<0xC0>	0.0
<0xC1>	0.0
<0xC2>	0.0
<0xC3>	0.0
<0xC4>	0.0
<0xC5>	0.0
<0xC6>	0.0
<0xC7>	0.0
<0xC8>	0.0
<0xC9>	0.0
<0xCA>	0.0
<0xCB>	0.0
<0xCC>	0.0
<0xCD>	0.0
<0xCE>	0.0
<0xCF>	0.0
<0xD0>	0.0
<0xD1>	0.0
<0xD2>	0.0
<0xD3>	0.0
<0xD4>	0.0
<0xD5>	0.0
<0xD6>	0.0
<0xD7>	0.0
<0xD8>	0.0
<0xD9>	0.0
<0xDA>	0.0
<0xDB>	0.0
<0xDC>	0.0
<0xDD>	0.0
<0xDE>	0.0
<0xDF>	0.0
<0xE0>	0.0
<0xE1>	0.0
<0xE2>	0.0
<0xE3>	0.0
<0xE4>	0.0
<0xE5>	0.0
<0xE6>	0.0
<0xE7>	0.0
<0xE8>	0.0
<0xE9>	0.0
<0xEA>	0.0
<0xEB>	0.0
<0xEC>	0.0
<0xED>	0.0
<0xEE>	0.0
<0xEF>	0.0
<0xF0>	0.0
<0xF1>	0.0
<0xF2>	0.0
<0xF3>	0.0
<0xF4>	0.0
<0xF5>	0.0
<0xF6>	0.0
<0xF7>	0.0
<0xF8>	0.0
<0xF9>	0.0
<0xFA>	0.0
<0xFB>	0.0
<0xFC>	0.0
<0xFD>	0.0
<0xFE>	0.0
<0xFF>	0.0
0	-5.799906
1	-5.639044
2	-5.918506
▁x	-9.603944
3	-6.458192
4	-6.641664
6	-6.728858
8	-6.696853
5	-6.802981
7	-6.981856
s	-7.145907
▁the	-6.469736
9	-6.560731
▁if	-8.405045
▁t	-10.697955
▁define	-12.969451
▁int	-7.872862
▁const	-8.389972
▁return	-8.258572
▁void	-7.829297
▁a	-7.763625
▁to	-7.152755
▁i	-9.173670
d	-8.493620
▁is	-7.593781
▁of	-6.658070
▁for	-7.657569
▁struct	-8.748142
S	-8.702606
▁n	-10.084775
▁in	-7.012929
▁h	-11.702222
▁c	-10.002158
▁p	-9.821611
D	-8.763313
▁static	-8.008039
▁f	-10.687321
▁NULL	-8.445242
▁uint	-9.482864
r	-9.189228
A	-8.978856
▁char	-8.940840
▁and	-7.041337
▁include	-12.657200
C	-8.724248
▁b	-10.156663
▁get	-9.778008
p	-8.302764
▁m	-9.474270
▁else	-8.572581
▁data	-9.626053
▁size	-9.772756
▁value	-9.425386
X	-9.353675
P	-9.371915
▁this	-8.465614
I	-9.336330
▁case	-9.698880
▁endif	-10.777202
▁set	-9.709296
▁u	-10.618740
R	-9.494434
L	-9.414268
▁unsigned	-9.348963
▁be	-8.481244
▁type	-10.169195
▁v	-10.022433
▁bool	-9.268281
y	-9.216655
▁lean	-9.343063
x	-7.222781
▁std	-9.971186
▁C	-9.618466
n	-8.143602
T	-9.163953
▁e	-10.598421
M	-9.607892
i	-8.449172
e	-9.435882
F	-9.193998
t	-7.867043
▁object	-10.596403
▁T	-9.500451
▁break	-9.734796
▁The	-7.942096
E	-9.310341
f	-8.292327
▁param	-13.943170
▁that	-8.207457
ed	-8.849623
▁This	-9.219779
ID	-9.556190
Type	-9.290300
▁error	-9.885650
V	-9.810851
▁not	-8.710113
B	-9.197642
Get	-9.677425
▁with	-8.288116
▁pyx	-19.197681
▁string	-10.851070
c	-8.597816
▁from	-8.070725
▁class	-8.914646
▁by	-8.187506
▁sizeof	-9.967162
▁name	-10.175456
N	-9.946171
v	-9.149343
▁file	-9.716714
Set	-9.815217
▁or	-8.728872
▁id	-11.591279
name	-8.768553
▁new	-9.665389
id	-8.874441
▁ret	-9.889905
a	-8.982618
G	-9.937753
U	-9.358611
▁it	-8.660495
▁arg	-11.990713
ing	-9.173433
▁long	-9.742213
▁k	-10.448749
▁g	-10.647597
▁F	-10.081752
q	-10.057458
▁state	-10.336486
▁on	-8.292426
o	-9.967477
▁xff	-19.765105
▁index	-10.651138
▁U	-10.408471
▁typedef	-9.107242
W	-9.972069
▁H	-10.531887
▁buffer	-10.506006
l	-9.720145
size	-8.731132
u	-8.967683
Data	-9.694746
type	-8.652330
▁j	-10.736836
▁we	-9.345467
len	-9.325951
▁dev	-12.624402
▁out	-9.533320
▁result	-10.092585
H	-9.030068
▁are	-8.703630
▁float	-10.696515
er	-9.814418
▁key	-10.599291
▁double	-10.428739
▁B	-9.964540
▁function	-9.726201
▁inline	-9.723348
▁as	-8.330932
▁l	-10.605894
list	-9.471691
▁device	-10.795179
▁E	-10.161985
▁free	-10.815741
data	-8.768171
info	-9.382290
▁len	-10.923632
▁status	-10.485743
▁an	-9.123752
▁code	-10.252479
▁defined	-10.127087
▁goto	-10.784582
b	-8.917268
▁xFF	-22.346211
▁use	-9.760281
▁read	-10.847055
▁info	-11.838859
in	-9.007250
buf	-9.484364
or	-9.971723
▁true	-9.614195
▁flags	-11.025987
▁init	-12.117328
▁public	-8.682930
▁node	-10.970319
▁false	-9.605773
▁offset	-11.010331
▁can	-9.289900
▁mode	-10.658386
▁start	-10.860098
K	-10.166093
▁GL	-10.279910
▁virtual	-10.628686
Q	-10.200111
▁extern	-9.732076
▁end	-10.726838
▁ifndef	-13.258274
▁ctx	-12.175623
▁OF	-10.010549
m	-9.004599
O	-10.333799
▁ifdef	-12.497396
▁ptr	-12.788481
▁num	-11.214293
▁at	-8.583343
▁MAX	-12.320869
Info	-9.973313
Z	-10.265603
▁list	-10.215765
▁default	-10.475116
Value	-9.917834
▁next	-10.779786
▁add	-11.098362
▁will	-9.426755
▁buf	-11.489112
▁used	-9.749919
▁has	-9.391251
ptr	-9.458280
▁base	-10.998436
▁err	-10.304354
▁write	-11.199087
▁License	-9.838150
▁context	-11.134770
▁CONFIG	-10.964167
▁typename	-10.865609
Name	-9.860407
Y	-10.528841
String	-9.741498
▁ERROR	-13.328310
▁input	-10.696081
h	-7.852177
Size	-10.114537
▁number	-9.978641
▁bit	-10.859993
▁src	-11.282845
▁brief	-15.343785
▁count	-11.061785
w	-9.758990
set	-8.848615
▁length	-10.910649
In	-10.147822
k	-9.459400
▁DEFAULT	-12.320193
▁current	-10.494907
▁template	-9.937272
API	-9.980799
▁tmp	-11.257061
▁output	-10.758961
▁max	-11.138469
▁w	-11.166152
pos	-10.430623
▁test	-10.686639
▁all	-9.427740
▁OR	-10.184720
List	-9.914886
CTRL	-10.993473
▁entry	-11.244911
CH	-11.204568
str	-9.628699
▁handle	-11.135414
Id	-10.184425
State	-10.056256
▁vector	-11.829987
▁while	-10.192682
▁event	-10.950073
▁GPIO	-11.527100
▁copy	-10.550650
▁IS	-10.992123
▁addr	-12.362295
TYPE	-9.726690
Object	-9.958447
▁property	-12.113239
▁port	-11.445874
▁UL	-16.775385
Mode	-10.543673
▁array	-11.090597
▁block	-10.801566
To	-10.190201
▁If	-9.993883
▁check	-10.806922
EN	-11.008277
▁IN	-10.595251
▁first	-9.757473
▁address	-10.765954
▁namespace	-9.310166
out	-9.504902
▁THE	-10.067977
▁must	-10.100972
▁have	-9.146714
▁NO	-11.645739
▁PyObject	-10.502958
file	-9.666660
▁lock	-12.426371
Index	-10.334258
▁source	-10.505807
Error	-10.158530
▁time	-9.950458
val	-9.557324
Pos	-10.895985
▁INT	-11.804003
Ptr	-10.461663
IO	-10.443407
▁MASK	-13.933719
▁using	-9.918780
▁reg	-11.962529
▁may	-9.677438
▁request	-11.087201
▁register	-10.860113
▁Copyright	-10.406354
▁op	-11.946586
▁str	-11.806710
Buffer	-10.421013
▁user	-10.991360
▁only	-9.878412
▁memory	-10.788614
count	-9.775843
io	-10.087446
▁when	-9.682407
▁msg	-12.205413
Status	-10.234857
▁TYPE	-14.058023
▁last	-10.600887
▁do	-9.795199
▁self	-11.226532
▁ANY	-10.444579
map	-10.080482
▁config	-12.166572
▁mask	-11.640030
MODE	-10.677498
ip	-10.577648
▁any	-9.867955
on	-10.377984
no	-9.857463
▁which	-9.345567
Node	-10.433349
▁val	-11.576599
▁xf	-16.890631
▁private	-9.497310
code	-9.700273
g	-9.717139
state	-9.482333
▁assert	-11.546631
▁obj	-12.198756
▁z	-11.352552
Context	-10.403073
▁res	-11.267084
line	-9.696029
▁hash	-11.534878
▁should	-10.057589
▁dst	-11.727182
▁func	-11.823882
▁bytes	-11.094994
▁enum	-10.148359
▁target	-11.164954
▁Py	-11.399981
▁table	-10.842854
▁message	-10.948201
▁create	-11.070545
▁one	-9.535287
z	-9.833720
File	-10.360575
Key	-10.532858
▁tx	-12.421456
▁cmd	-12.142841
num	-9.821583
key	-9.718958
EXT	-10.494332
to	-9.441380
▁version	-10.563461
▁Pyx	-18.387813
ch	-10.494785
▁field	-10.863313
▁printf	-12.112927
J	-10.673222
▁pointer	-10.789820
IF	-11.014211
▁DMA	-11.549025
db	-10.776322
For	-10.813219
▁UINT	-11.309846
▁glad	-10.474540
▁you	-9.309886
link	-10.619550
▁header	-11.350253
▁SIZE	-15.181560
▁image	-11.255890
able	-10.004340
▁re	-11.583604
Count	-10.555843
Array	-10.517688
▁mm	-13.288958
▁other	-9.771999
Is	-10.696844
▁ADC	-11.694339
▁Lean	-14.931283
▁path	-11.421738
▁format	-11.239881
time	-9.873975
int	-7.988181
▁no	-9.976585
OUT	-10.703828
▁ctor	-17.544529
Create	-10.974926
▁NOT	-11.257112
ly	-10.090361
▁xF	-18.755047
▁operator	-10.883051
▁client	-11.703134
▁so	-9.914488
end	-7.647018
▁update	-11.437098
▁xc	-16.377206
OR	-11.423453
▁override	-10.533001
dev	-9.537325
Handle	-10.547033
▁xa	-17.450210
le	-10.572835
▁xe	-16.801034
▁under	-9.884049
▁switch	-11.485426
▁rc	-11.145159
▁module	-11.273247
▁HAL	-11.215183
▁values	-10.743598
▁but	-9.506025
UI	-10.843819
▁interface	-11.255436
lib	-10.813943
Base	-10.658650
▁iVar	-12.085493
▁frame	-11.567673
▁following	-9.912485
addr	-10.081203
Vector	-10.785425
CR	-11.265566
▁thread	-11.507668
ref	-10.168160
SIZE	-10.093304
▁internal	-11.611418
Event	-10.608420
if	-6.774919
IP	-11.160857
Image	-10.828833
of	-9.907722
dir	-10.689038
▁USE	-11.250544
▁call	-10.886478
ED	-10.315004
log	-10.378455
▁FALSE	-10.810470
▁CMU	-12.266257
sp	-10.907335
▁stream	-11.720742
▁line	-10.916992
es	-10.172888
▁DEBUG	-12.404310
All	-11.263456
mode	-10.227697
Time	-10.737945
Request	-10.775581
Register	-11.521215
▁GET	-13.152354
▁channel	-11.484245
▁sub	-11.647789
▁USB	-11.474898
▁Windows	-11.729402
al	-10.078832
table	-10.135094
Check	-11.208192
▁page	-11.004587
NAME	-10.577333
▁idx	-12.382475
▁ERR	-13.206353
▁BIT	-12.773324
▁software	-10.396454
off	-10.821274
▁REG	-13.021629
▁FOR	-10.788886
SET	-10.444974
▁byte	-11.535479
▁send	-11.674484
▁BOOL	-11.840180
op	-10.032255
▁server	-11.581533
▁callback	-11.458076
▁xb	-18.021020
▁width	-11.615812
IN	-10.097093
fd	-10.442640
▁volatile	-11.752381
▁params	-12.530850
▁CHECK	-11.886192
▁local	-11.173622
▁SHIFT	-17.081699
▁command	-11.156261
▁method	-11.026655
▁level	-11.149631
▁without	-10.261757
DATA	-10.484111
▁gl	-12.115978
ON	-11.165190
▁args	-12.037471
max	-10.168234
▁xd	-15.927543
Int	-10.792037
Map	-10.719337
it	-10.669744
Add	-11.035864
col	-11.039828
INT	-10.353325
▁queue	-12.018797
err	-9.582098
Read	-11.127116
ctx	-9.931157
System	-11.231513
Function	-10.628020
fs	-10.759428
en	-9.321963
▁old	-11.101665
▁auto	-11.409764
path	-10.283770
j	-9.952329
▁conn	-13.036085
▁attribute	-12.318440
▁map	-11.686251
▁hw	-13.507515
me	-11.141171
Init	-10.763345
re	-9.812668
Input	-10.847671
▁null	-11.594576
Result	-10.716137
▁xE	-20.640049
ERR	-10.298063
get	-8.890674
▁enable	-11.946165
▁dec	-14.640407
▁PIN	-13.642196
View	-10.719241
▁TRUE	-10.900436
▁cpu	-12.510078
▁cur	-12.322946
▁http	-11.491186
PROC	-10.888330
cp	-11.003434
is	-9.345206
▁TO	-11.163229
▁packet	-11.791446
▁left	-11.271745
▁rx	-13.165142
st	-9.808108
▁parent	-11.880359
Table	-10.825609
▁AND	-10.726376
DB	-10.984795
▁was	-8.595544
▁retval	-11.909437
▁failed	-10.985366
▁instance	-11.362900
▁text	-11.530128
hdr	-11.159208
▁mutex	-13.548322
▁ASSERT	-13.184921
reg	-10.274539
▁window	-11.453232
▁item	-11.807187
▁bits	-11.629499
▁clear	-11.563948
▁print	-11.714014
▁load	-12.148375
▁SSL	-11.921456
▁priv	-13.751665
ADDR	-11.192753
▁OK	-12.942928
▁work	-10.510574
ac	-11.353488
up	-10.161028
LOC	-12.134092
▁find	-11.082917
▁need	-10.548284
Address	-10.992145
IC	-11.188531
REG	-10.591008
ER	-11.230314
Mask	-11.230798
Stream	-10.950813
Write	-11.221478
▁DATA	-12.728017
▁Software	-10.792389
Device	-10.899481
▁into	-9.870419
Config	-11.025061
On	-11.176591
arg	-9.598348
Block	-11.085898
LOG	-10.483785
index	-9.824704
Free	-10.990991
▁options	-11.654328
▁ref	-12.847069
▁STATUS	-13.508542
NV	-11.098692
obj	-10.244604
▁Msk	-21.809050
OS	-11.273788
INFO	-10.490529
value	-9.340400
VAL	-10.547860
ent	-11.360831
Offset	-11.125507
CLK	-11.465206
word	-11.144531
buffer	-9.886358
an	-10.753541
▁see	-10.761743
No	-10.829362
port	-10.272688
▁yy	-11.272770
▁group	-11.143799
▁tag	-12.074105
▁log	-11.969613
Var	-10.178587
string	-9.194393
pc	-11.069170
▁exit	-11.098777
Item	-10.946119
Message	-10.889360
MS	-11.854444
▁non	-10.848282
▁nonatomic	-12.920948
▁TIM	-12.340552
MAC	-11.240329
▁make	-10.583655
▁temp	-11.860272
▁reserved	-10.865031
▁RX	-13.158900
Class	-10.967586
▁task	-11.797630
SEL	-11.565271
▁xC	-20.676534
▁reset	-11.809555
▁OP	-11.872308
▁XFF	-19.606884
SR	-12.019657
With	-10.917082
▁min	-11.896581
args	-10.546091
▁Returns	-10.844802
▁req	-12.758745
CFG	-11.397459
node	-10.040115
▁handler	-12.142087
▁short	-10.861489
From	-10.893253
▁height	-11.798812
mask	-10.454111
▁LL	-12.269753
cl	-11.088758
STR	-11.005090
▁color	-11.702982
▁SUCCESS	-14.110456
▁mem	-12.924499
▁flag	-11.539431
▁GLenum	-12.276470
us	-10.309924
Source	-11.212269
▁RTC	-12.157716
cs	-10.975813
▁row	-11.867018
▁ENABLED	-14.013316
▁then	-10.154583
▁argv	-12.610260
▁more	-9.818859
box	-10.982144
▁driver	-11.634857
Test	-10.996344
si	-11.143980
▁zero	-11.592193
▁USART	-12.229482
Pointer	-11.092509
▁fprintf	-11.736874
▁zend	-12.595683
▁session	-12.120421
▁VERSION	-15.534210
LEN	-11.208782
lock	-10.141028
▁SOFTWARE	-10.897168
Start	-11.210581
▁open	-11.389825
Number	-11.271324
▁TX	-12.835954
gen	-10.997973
var	-10.281047
▁alloc	-13.417084
Version	-11.344388
PTR	-11.244251
sz	-11.184993
New	-10.816785
▁after	-10.090882
RT	-11.329919
block	-10.472266
▁given	-10.563962
be	-11.002810
▁host	-11.889487
stat	-11.153273
▁found	-10.514865
▁EXPORT	-13.137162
sh	-11.316433
cm	-11.054943
▁system	-10.706534
ex	-10.838636
char	-9.349173
▁RCC	-12.701105
Callback	-11.222233
▁See	-8.527131
▁debug	-12.795103
Length	-11.060947
▁point	-11.073474
▁specific	-10.856323
cb	-10.802933
pp	-11.027161
▁import	-11.204125
Path	-11.009364
net	-10.418376
▁NSString	-11.514427
▁each	-10.578723
vm	-10.996083
Instance	-11.128212
▁element	-11.421282
base	-10.057780
▁continue	-11.427171
▁SET	-13.470532
▁above	-10.649661
Control	-11.454773
spec	-11.347594
▁range	-11.323814
▁CC	-12.883408
Client	-11.009760
▁put	-11.867070
▁child	-11.622263
▁We	-10.330555
min	-10.694765
▁shared	-12.393830
▁LOG	-13.464527
im	-11.268828
Flags	-11.168999
Color	-11.027749
▁stack	-11.777183
▁control	-11.277533
Default	-10.983852
▁called	-10.607762
▁hr	-12.025390
▁var	-11.657453
▁parameter	-11.320568
▁valid	-11.670264
▁attr	-13.038728
res	-10.175535
conf	-11.390486
▁GLuint	-12.289259
mem	-10.254626
▁ZEND	-11.648517
▁functions	-10.898447
proc	-11.259911
DMA	-11.228659
▁right	-11.019831
rel	-11.129449
Update	-11.431725
▁sys	-13.049960
▁process	-11.041796
CS	-11.683002
▁SPI	-12.102401
▁interrupt	-11.398775
▁empty	-11.799909
▁HAVE	-11.058111
Code	-11.094222
ps	-10.782256
lp	-10.895551
▁filter	-12.008276
Ref	-10.868623
▁root	-11.864847
▁position	-11.184745
▁WARRANTIES	-10.999553
CODE	-10.867842
cc	-11.257146
▁conditions	-10.707304
▁cache	-12.043440
▁INVALID	-12.901234
at	-10.686647
ms	-11.047742
down	-11.373294
Matrix	-11.264392
▁match	-11.421905
▁TEST	-12.426940
END	-10.339748
idx	-10.630408
Channel	-11.672083
Format	-11.061688
ING	-10.849034
mod	-11.258130
▁before	-10.391113
▁information	-10.409476
IS	-10.582822
▁BASE	-14.576252
▁returns	-11.188695
Text	-10.962466
OP	-10.650193
array	-10.233004
Frame	-11.193330
Command	-11.255727
cnt	-11.229621
▁connection	-11.613214
ns	-11.021758
bits	-10.916275
▁desc	-13.477421
msg	-10.248110
▁notice	-11.143894
▁done	-10.675691
▁token	-12.179534
SC	-11.734887
▁access	-11.331611
▁rights	-10.604029
▁sc	-12.496453
▁same	-10.496093
▁remove	-11.965025
End	-11.187362
sa	-11.012387
▁query	-12.042283
Global	-11.585619
▁EVENT	-12.080952
▁timer	-12.219995
fn	-11.050361
CTL	-11.526369
li	-10.623587
ST	-11.441083
▁specified	-11.143218
▁push	-12.790455
▁timeout	-12.120850
▁STM	-12.512442
Output	-11.166532
Bit	-11.765078
PC	-11.783934
▁ok	-11.883383
▁nullptr	-11.259295
Model	-11.356188
MASK	-10.515893
▁fd	-12.350968
▁program	-11.050912
▁there	-10.026630
▁iterator	-12.804981
Out	-11.198352
▁dest	-12.541126
rd	-10.902752
Memory	-11.177670
▁its	-9.946912
▁NONE	-14.043466
▁pragma	-13.652972
md	-11.391095
KEY	-10.808886
pt	-11.263588
▁env	-13.117391
ds	-11.152786
▁linux	-15.568198
Point	-11.274952
func	-10.385314
▁PFNGL	-11.330937
▁INCLUDING	-11.830509
▁than	-10.192318
▁xA	-20.475482
▁option	-11.619582
Window	-11.164577
▁un	-12.387418
LINE	-11.404974
Handler	-11.208318
mac	-11.358324
flags	-10.020547
low	-11.671071
ctrl	-11.388216
sym	-11.030954
▁provided	-10.801789
cache	-10.778945
▁irq	-13.252579
▁binary	-11.297102
▁clock	-11.763451
BUFFER	-11.324147
bit	-10.398769
▁cb	-13.103082
clk	-11.557055
ar	-10.804772
▁response	-11.361264
sign	-12.036693
▁org	-13.176209
▁delete	-11.865529
sync	-11.202030
Num	-11.304607
MP	-11.829350
GL	-10.316837
▁copyright	-11.047981
sec	-10.822022
dc	-11.477721
ev	-11.204511
▁memcpy	-12.128193
▁tree	-11.658862
▁global	-11.918484
▁per	-11.490064
▁HRESULT	-11.242004
▁fp	-13.288550
▁skb	-12.793795
ic	-11.115422
▁closed	-12.141394
MAP	-11.266033
LIB	-11.184360
rs	-10.803921
AT	-11.843035
AL	-11.385762
CALL	-11.206675
ab	-11.499209
ring	-11.463274
▁iParam	-12.697779
▁order	-10.862742
▁part	-10.608696
▁operation	-11.217931
▁my	-10.299446
▁tp	-12.882969
gl	-9.870831
▁DWORD	-11.214645
▁AS	-12.665644
LIST	-11.334486
Call	-11.541310
Max	-11.440155
Module	-11.241560
Use	-12.141013
▁FILE	-12.391941
▁parameters	-11.256574
Filter	-11.366928
▁net	-12.100369
space	-11.139672
▁structure	-10.928653
sum	-11.469302
▁distributed	-11.361474
TIME	-11.374366
▁active	-11.885488
dp	-11.319286
▁You	-10.378806
▁MIN	-13.510744
▁required	-11.035730
▁wait	-12.081378
▁filename	-12.733285
cmd	-10.460764
▁total	-11.416580
▁loop	-11.704710
pr	-11.476384
ation	-10.509616
Op	-11.513637
th	-9.482330
▁UART	-12.101865
▁unit	-11.894613
▁VALUE	-12.792425
ALL	-11.693544
Port	-11.552697
▁enabled	-11.730352
sc	-10.890085
▁available	-10.940857
free	-9.436258
CLASS	-11.415018
scale	-11.543291
ul	-10.975797
▁prev	-12.857830
▁READ	-13.917201
▁been	-9.886404
va	-11.161487
Entry	-11.245387
as	-10.417255
ce	-11.357299
DC	-11.549472
▁THIS	-11.406849
▁head	-11.783967
▁exception	-12.264561
class	-9.733907
VM	-11.598206
▁com	-13.651435
Property	-11.257372
▁ENABLE	-14.132816
PS	-11.795161
Log	-11.525094
▁xB	-20.696882
cast	-11.047873
def	-8.555268
ion	-11.058889
▁ARG	-14.928172
▁up	-10.130083
▁signal	-12.129852
▁fields	-11.539427
▁NRF	-11.565905
Expr	-11.523157
▁undef	-13.039183
ARB	-11.602847
CC	-11.257076
FS	-11.465112
tm	-11.680270
▁STATE	-13.882701
▁TIMER	-12.807074
▁move	-12.106122
cap	-11.431757
ts	-10.829499
pass	-11.749521
Position	-11.477490
start	-9.692828
os	-10.679753
▁unlock	-14.070787
▁argument	-11.410532
▁common	-11.622776
▁GLint	-12.283254
▁INFO	-16.674851
▁begin	-12.362581
EX	-11.523986
▁WRITE	-14.501442
VAR	-11.423669
Timer	-11.530648
▁inc	-14.698716
hash	-10.650826
User	-11.485229
▁either	-10.928885
▁resource	-12.225523
STATUS	-10.525623
mb	-11.522972
UL	-10.752610
▁ext	-13.485534
desc	-10.900776
▁close	-11.876321
hi	-11.526691
BLOCK	-11.481547
▁real	-11.527267
▁PRS	-13.414970
Local	-11.401216
stream	-10.367129
▁release	-11.825147
point	-10.854156
Field	-11.348694
Element	-11.299370
ld	-11.222494
▁core	-12.716369
▁Shifted	-12.459043
▁raw	-12.702629
Sub	-11.412290
▁PORT	-13.521776
▁kernel	-12.337477
▁here	-10.435032
Manager	-11.133136
Group	-11.241797
do	-10.371467
▁variable	-11.610167
▁fail	-11.195270
UN	-10.896021
per	-10.810687
▁matrix	-11.739935
▁GLAPI	-11.252778
shift	-11.868189
nr	-11.469511
CMD	-11.090017
▁cast	-12.645831
▁insert	-12.810302
Val	-11.607278
sb	-11.634715
mp	-11.180760
bt	-11.502215
PER	-11.583138
ra	-11.602973
tab	-11.582863
Options	-11.321484
STATE	-10.814742
con	-11.276037
▁pre	-12.127089
xx	-11.720224
test	-10.182917
Core	-11.494462
chan	-11.743240
tree	-10.986528
▁inode	-12.811150
Reg	-11.661239
▁SDL	-12.013659
▁opt	-13.172409
MM	-11.886879
▁does	-10.776319
▁st	-12.603855
av	-11.388985
printf	-10.307034
▁returned	-11.144026
▁rt	-12.829087
▁DEVICE	-14.767834
tag	-10.998381
▁GNU	-11.235725
error	-9.541891
pi	-11.465759
MD	-11.926018
sw	-11.478511
TAG	-11.621862
el	-10.730665
over	-11.006625
▁location	-11.687533
api	-11.397566
back	-10.473212
config	-10.314284
MC	-11.854749
▁license	-11.459724
parse	-11.240017
fc	-11.677504
DE	-11.614509
▁two	-10.060678
DEV	-11.388508
Str	-11.534233
flag	-10.975408
mm	-10.551790
are	-12.235184
PR	-11.953547
▁Foundation	-11.415919
▁cfg	-13.568065
▁xD	-19.228721
Interface	-11.231344
▁disable	-12.166125
ll	-10.752749
Enable	-11.829515
bo	-12.025693
dict	-11.518068
mc	-11.737018
rv	-11.319430
BUF	-11.540781
▁socket	-12.199002
▁www	-13.825334
AC	-11.789995
DIV	-12.147629
CB	-11.771965
NET	-11.320657
regs	-11.728624
Range	-11.487054
iv	-11.593023
SW	-11.577037
IT	-11.692369
▁WTIMER	-13.269471
▁memset	-12.133416
BYTE	-11.544142
Open	-11.654725
▁strcmp	-13.438973
▁CAN	-12.433404
and	-10.577942
▁strlen	-11.951677
▁INLINE	-14.840083
form	-11.615860
▁configuration	-11.397521
Line	-11.342455
bl	-12.227234
▁pg	-12.780961
▁errno	-12.942738
load	-10.649780
not	-11.008909
▁CMD	-13.413507
▁EFI	-11.392207
EV	-12.101075
pd	-11.550032
▁already	-11.051241
▁label	-12.462985
PM	-11.858470
Current	-11.643704
LE	-11.762968
▁FLAG	-15.290082
▁pin	-12.332230
Clear	-11.753230
▁texture	-12.787370
▁integer	-11.814229
▁where	-10.341984
rc	-10.454511
LP	-11.792351
vec	-11.345823
▁pool	-12.517942
Header	-11.432268
▁expected	-11.597228
Thread	-11.349671
req	-10.878366
PRE	-11.756824
▁IMPLIED	-11.416008
fb	-11.858091
Load	-11.466490
LOCK	-11.615378
call	-10.646593
▁STRING	-14.633383
▁APIENTRYP	-16.557900
freq	-12.240908
▁stderr	-13.453839
▁invalid	-11.910249
▁vec	-12.455892
▁elements	-11.672411
▁display	-11.860473
Queue	-11.597332
pid	-11.572660
flow	-11.415824
Obj	-11.650681
PP	-11.849481
tr	-11.023992
Query	-11.284826
ec	-11.443693
▁json	-12.611320
Hash	-11.534226
CF	-11.925610
▁xffff	-46.751000
Flag	-11.838391
our	-12.767576
FB	-11.875417
mi	-11.391129
▁change	-11.192290
PG	-11.522450
spi	-11.703239
Release	-11.306426
▁cursor	-12.598884
sub	-10.404176
COUNT	-11.587498
▁top	-11.455699
▁single	-11.053860
Service	-11.390980
▁KEY	-13.137438
RC	-11.604293
▁wpa	-12.725880
▁constexpr	-11.674047
▁main	-10.863938
▁unique	-12.610272
▁protocol	-12.413084
FORMAT	-11.686784
▁iface	-14.073956
Server	-11.568715
range	-11.188344
▁malloc	-12.674672
▁destroy	-13.666071
PARAM	-11.654519
▁argc	-11.984829
▁FUNCTION	-14.390471
offset	-10.186203
Len	-11.561045
pm	-11.539408
▁stats	-12.893908
NO	-10.129402
SP	-11.721033
▁some	-10.270399
▁once	-10.524677
▁BE	-11.828075
▁OFFSET	-16.511162
FILE	-10.871768
Param	-10.822649
Response	-11.492233
rec	-11.679182
STAT	-11.445074
▁prefix	-12.433553
▁orig	-13.151700
▁SYS	-13.403818
Cache	-11.446510
If	-11.429171
▁column	-11.979307
TX	-11.023913
sm	-11.542393
Lock	-11.429786
▁full	-11.382005
▁END	-12.325918
ad	-11.370352
Process	-11.692021
pack	-11.904649
▁LIMITED	-11.470742
py	-10.087185
Desc	-11.627786
acc	-12.195363
▁LICENSE	-11.902844
▁asn	-12.993699
co	-11.143449
▁success	-11.404146
▁stop	-11.998439
DBG	-11.812280
Char	-11.512813
TABLE	-11.523434
UP	-11.462262
Copy	-11.115841
Tx	-11.748051
▁BUT	-11.484487
OF	-11.298265
level	-10.811854
HW	-11.765842
▁RPC	-13.645678
▁epi	-15.860688
exp	-11.570669
read	-9.955316
GC	-11.656481
all	-10.938319
IR	-12.051658
AD	-11.949661
place	-12.204325
cmp	-10.993411
un	-9.033374
REF	-10.602865
▁Interrupt	-11.771257
▁mp	-12.700729
▁RETURN	-13.748326
frame	-10.753430
▁WITHOUT	-11.384013
term	-11.601379
ca	-11.357974
priv	-10.774404
▁section	-11.695147
▁implementation	-11.469662
▁AF	-12.797562
▁INIT	-14.821401
write	-10.116692
▁phy	-13.790607
▁run	-11.351048
▁action	-11.527519
NODE	-11.597848
▁mono	-12.629210
FC	-10.861355
▁don	-10.901563
▁impl	-13.179223
▁ps	-13.476545
Description	-11.910112
PORT	-11.086599
▁depth	-12.613957
▁app	-12.287214
sort	-11.776524
ob	-11.605416
Level	-11.678183
TS	-11.856327
PHY	-11.871788
sd	-11.658527
And	-11.200892
pf	-11.911462
trans	-11.178841
▁convert	-12.248510
OBJ	-11.787860
TO	-11.083610
AP	-11.835485
TC	-12.058591
▁CPU	-12.199638
▁just	-10.490289
▁service	-11.111261
GEN	-11.851384
▁descriptor	-12.314590
EP	-11.937761
▁pci	-13.173784
▁Bit	-11.632956
Task	-11.633101
▁model	-11.520739
▁chip	-13.066737
rt	-11.104546
opt	-10.992794
PLL	-12.101842
INDEX	-11.741853
▁atomic	-13.871211
loc	-11.730119
enc	-11.868465
Arg	-11.620031
▁MSG	-13.309589
▁record	-11.001720
Exception	-11.277278
Func	-11.629528
ee	-11.641221
Send	-11.557221
▁PURPOSE	-11.372400
▁supported	-11.550365
▁setup	-12.360005
alloc	-10.613956
stack	-11.108807
▁power	-11.369471
RAM	-12.226534
cfg	-11.208456
▁None	-11.293885
Target	-11.518053
CM	-10.924896
▁try	-11.283325
▁reference	-11.573835
▁entries	-12.211073
xml	-11.631015
Texture	-11.616559
SM	-12.343509
Re	-11.601904
AR	-12.046312
▁LIABILITY	-11.768185
▁connect	-13.238954
▁types	-11.615094
▁It	-9.780341
▁sk	-12.948780
▁FIELD	-14.948359
▁HANDLE	-13.886229
Page	-11.501782
FD	-11.501378
▁rhs	-12.130663
host	-10.905474
▁save	-12.059491
init	-9.753313
▁WITH	-12.288213
Of	-11.329657
chain	-12.023448
▁SHA	-13.369654
MT	-11.913013
▁FITNESS	-11.365109
▁parse	-12.270567
▁details	-11.361940
▁parser	-12.845473
add	-10.027285
dt	-11.914262
▁MERCHANTABILITY	-11.346723
▁also	-8.377756
BY	-12.380155
▁TRACE	-13.410522
▁ULONG	-11.611956
keys	-11.958666
pool	-11.285945
▁ss	-13.286062
DT	-11.974946
▁def	-13.720536
pair	-11.974516
▁union	-11.039725
help	-11.809253
▁peer	-12.437792
gc	-11.818769
Attribute	-11.642566
▁multi	-12.413873
▁sqlite	-12.281604
▁gpio	-13.518419
Resource	-11.605167
COMP	-12.036215
▁Elab	-19.143653
fe	-11.437389
tx	-10.624289
▁unlikely	-13.763878
▁General	-10.467941
▁FT	-12.005293
▁append	-13.205557
url	-11.707755
auth	-11.795781
▁because	-10.660262
▁dw	-12.637629
Reset	-11.570420
CL	-11.923908
▁ssize	-12.416732
lv	-12.046816
bb	-11.804174
CON	-11.635101
Return	-11.884121
lo	-11.531651
▁NUM	-13.962340
Debug	-11.508302
DIR	-11.710211
ast	-12.108000
se	-11.172423
FLAG	-11.243322
dd	-11.829966
▁now	-10.568181
de	-10.314543
ret	-9.294929
▁style	-10.911316
▁uParam	-14.089349
fill	-12.033201
▁prop	-13.391551
▁png	-13.016226
▁PARTICULAR	-11.392413
OK	-10.328994
OPT	-11.813220
▁final	-11.163672
FIFO	-12.027371
tc	-11.765109
em	-11.330787
main	-11.276086
BC	-12.066727
▁COLOR	-15.027510
Un	-11.481147
▁MBEDTLS	-12.133948
Internal	-11.846074
▁VK	-12.376987
NS	-10.517991
▁modify	-11.678865
▁PWM	-12.577419
▁ssl	-13.258064
▁PCI	-12.436901
▁content	-11.638267
▁adapter	-12.887786
mat	-11.771095
HTTP	-12.081987
Token	-11.633162
Method	-11.427499
▁view	-11.908535
mul	-11.999373
▁show	-11.335572
▁Public	-10.611792
Bits	-11.754034
▁received	-11.064315
PROTO	-11.358155
BASE	-11.033049
UART	-11.600557
Mem	-11.770589
Delete	-11.515984
▁snd	-12.414471
▁platform	-12.183828
▁store	-11.890032
▁win	-12.215160
▁proto	-13.473533
row	-10.863773
TDMETHODCALLTYPE	-11.665482
blocks	-12.280810
▁bad	-11.649078
▁lua	-12.886124
▁chunk	-12.612587
▁high	-11.142477
▁skip	-12.217399
As	-11.551811
core	-10.947849
SUB	-11.742110
abs	-12.197112
Msg	-11.810719
PB	-12.172242
▁PA	-12.750190
cr	-11.785099
▁events	-10.943186
SRC	-12.011642
▁php	-14.033005
status	-9.967939
script	-11.552480
▁library	-11.518428
▁heap	-12.564966
nd	-10.705196
ear	-13.317123
▁CONST	-13.262046
Float	-11.744052
▁written	-10.804265
▁GB	-12.014325
EM	-12.350516
cell	-11.858340
▁extra	-12.196388
page	-10.813029
Meta	-12.304737
▁usb	-12.672886
DR	-12.337688
AM	-12.335646
act	-11.759631
MOD	-11.867518
pad	-11.706500
▁your	-10.080012
RD	-11.911344
entry	-10.328415
sf	-11.811437
▁XF	-16.074481
Vec	-12.057851
▁WIN	-13.120315
LL	-11.311055
▁whether	-11.163034
MEM	-11.219932
MAX	-10.011157
blk	-11.989588
CHAR	-11.472222
▁otherwise	-11.415528
▁macro	-12.536863
view	-11.026024
pa	-11.382259
ui	-11.126070
Clock	-11.882332
TCP	-11.756852
LOAD	-11.959743
▁stride	-13.134964
vp	-11.975765
▁ngx	-12.143234
ION	-12.214463
ue	-12.203055
cf	-12.131514
round	-12.358015
▁always	-11.309017
pl	-11.670177
▁dma	-13.487686
attr	-11.048684
▁slot	-12.488233
cd	-11.775978
tt	-11.845952
IM	-12.039326
LA	-11.932190
Packet	-11.849646
BITS	-11.967971
▁region	-11.761035
▁Note	-11.332202
▁seq	-13.138603
card	-11.521277
▁tuple	-12.849676
dm	-12.013906
NUM	-11.246047
context	-10.274517
▁spin	-14.016919
▁BEGIN	-12.889004
rows	-11.971876
CI	-12.258586
AN	-11.962046
▁noexcept	-11.917074
▁ui	-13.042052
Params	-11.783971
▁back	-10.988208
▁PIO	-13.388494
Impl	-11.682353
Width	-11.746445
▁KIND	-11.773599
Shift	-12.120895
▁names	-11.420602
▁IRQ	-13.257751
uc	-11.981607
Invalid	-11.708348
CA	-11.978512
▁Return	-11.016879
Buf	-11.889238
ALT	-12.198193
dv	-12.398276
seq	-11.416472
PE	-12.198805
ak	-12.294751
▁ARRAY	-13.485453
▁xFFFF	-21.549731
RX	-11.088554
Rect	-11.865507
asm	-11.650440
▁Aws	-12.040540
▁NS	-12.279111
▁tcp	-13.189283
▁GLsizei	-12.750102
ma	-11.316209
oid	-11.979046
sel	-11.656644
DEFINE	-12.501435
item	-10.770382
field	-10.597556
sl	-11.431244
▁UNUSED	-13.590891
tb	-11.982662
di	-11.491389
▁Enable	-11.595081
types	-11.131292
la	-11.405695
▁USER	-12.891946
▁layer	-12.297396
▁contains	-11.463371
▁settings	-12.052288
ctl	-11.603158
Do	-12.173548
Bool	-11.703632
am	-11.352598
▁ops	-14.863573
format	-10.785531
Not	-11.831787
bin	-11.635525
Iterator	-11.705515
▁since	-10.995931
XML	-12.256221
▁AV	-12.220397
te	-11.352733
bytes	-10.913463
▁runtime	-12.739659
HASH	-11.819243
▁failure	-11.622087
▁counter	-12.220937
Failed	-11.900278
CK	-12.163472
▁readonly	-12.705272
Disable	-11.758456
Access	-11.985063
▁dump	-13.009382
bd	-11.999332
Parser	-11.938427
digit	-12.445583
graph	-12.025728
▁ap	-13.180670
IE	-12.061310
Next	-11.632518
▁ATTR	-15.055060
▁assign	-13.030079
group	-10.433406
fp	-11.023945
▁EINVAL	-13.143031
PATH	-11.727034
▁symbol	-12.395586
▁second	-10.965390
exec	-11.836518
entity	-12.728497
▁files	-11.587272
▁needed	-11.492138
doc	-11.583994
REQ	-12.029219
ia	-11.072311
▁de	-10.378740
▁note	-12.816527
▁between	-10.479873
Tag	-11.792882
▁transaction	-11.908076
bind	-11.993328
PT	-12.048035
Tensor	-12.199428
Print	-12.024367
Addr	-11.972384
Struct	-11.916180
ti	-11.694487
ok	-11.182478
▁except	-11.439067
Action	-11.631110
Store	-11.935631
▁description	-11.519576
CONTROL	-11.991760
queue	-10.766104
▁FUNC	-14.441063
Stack	-11.748970
bf	-11.856641
▁mark	-12.383303
lhs	-12.688990
▁DECL	-13.063744
▁support	-10.936354
pb	-11.919754
AA	-12.444648
px	-11.399834
▁pkt	-13.764957
tmp	-10.350115
NG	-11.819641
▁sequence	-11.951341
▁search	-11.916836
FE	-11.852191
By	-11.700806
ge	-11.451531
result	-9.866721
▁component	-12.234961
Session	-11.777242
go	-11.553837
▁elif	-13.303707
▁ff	-14.570010
FLOAT	-11.914882
▁MEM	-13.633690
da	-11.204437
ct	-11.846901
▁implied	-11.499806
▁generated	-11.717467
Initialize	-11.576482
▁expr	-13.135319
▁arguments	-11.658636
FP	-11.891472
PL	-12.043883
Descriptor	-11.800573
▁lpVtbl	-16.428694
swap	-12.016132
ib	-11.981528
Display	-11.752172
▁NEXT	-14.696760
▁space	-11.429731
nv	-11.874232
▁documentation	-11.560942
Reserved	-11.806271
CONTRACT	-13.106255
▁transfer	-12.036387
Select	-12.329087
▁font	-12.531582
ap	-10.733129
ext	-10.923815
age	-11.550024
▁reply	-12.979372
▁COPYRIGHT	-11.759525
tail	-11.986282
▁allocated	-12.122668
br	-11.596829
App	-11.797554
▁FF	-14.622942
▁surface	-12.395694
lower	-12.449856
Parameter	-11.807804
▁network	-11.718728
▁ROUTE	-16.918174
▁protected	-10.300971
▁pending	-12.709108
Parse	-11.719288
▁shape	-12.631810
direct	-12.208741
ba	-11.181263
event	-10.373359
Connection	-11.672473
less	-11.383572
STRING	-11.074942
dma	-11.365078
OC	-12.187126
▁comp	-13.532964
STACK	-11.872058
CMP	-12.407238
▁xFFFFFFFF	-87.803840
SL	-12.087537
FLAGS	-12.010471
Controller	-11.715303
CORE	-11.892526
speed	-12.200201
▁select	-12.320477
uv	-12.046784
sg	-12.124521
▁character	-11.398180
▁objects	-11.710439
side	-11.617572
ENTRY	-11.104644
▁payload	-12.611953
curr	-12.043536
ie	-11.335624
PD	-12.153710
OFF	-11.880982
SS	-12.087013
assert	-10.319765
▁ARM	-12.958827
▁associated	-11.394741
▁llvm	-12.635082
▁being	-10.627031
Find	-12.414463
TEXTURE	-11.891548
▁application	-11.465806
BIT	-10.814992
date	-11.712382
Byte	-11.885306
check	-10.508714
DS	-11.804510
Tree	-11.767867
ME	-11.928898
initialize	-11.418224
▁directory	-11.842065
▁bp	-13.480957
ES	-11.826893
win	-10.959890
ir	-11.712896
▁terms	-11.251473
Ex	-11.940055
▁remote	-12.378224
▁emit	-12.648908
rep	-12.385821
util	-11.387485
▁bcm	-12.640507
POS	-12.398974
ack	-12.328847
▁disclaimer	-11.663373
so	-11.284872
▁draw	-12.124695
pg	-11.356049
VT	-12.072020
▁container	-12.623797
align	-10.322755
mv	-12.232260
BB	-12.083398
▁storage	-12.296552
ep	-11.367475
bi	-11.495072
board	-11.914851
First	-11.844692
▁want	-11.025115
STREAM	-11.989501
▁vscale	-16.206881
son	-11.473558
▁retain	-12.124097
bar	-11.419145
CE	-12.226659
▁scan	-12.643221
▁got	-11.593205
scan	-11.484304
▁ep	-13.635084
object	-9.947081
eq	-11.572961
▁BLE	-12.832952
thread	-10.624558
▁fmt	-13.042946
Args	-11.927140
▁alpha	-12.760357
DP	-12.137885
scope	-11.989277
ci	-11.724693
mt	-12.026024
gp	-12.125501
np	-11.993378
SPI	-11.389359
▁STATIC	-12.332633
Button	-11.651347
▁about	-9.860672
▁dim	-13.344274
dbg	-12.127717
▁sock	-13.273677
Reference	-11.973289
▁os	-12.362435
rp	-12.056119
Parameters	-11.538472
src	-10.518311
div	-10.738659
▁rate	-12.142685
open	-10.723891
▁sig	-12.871954
LCD	-12.893972
cond	-11.868543
RA	-12.396129
cert	-12.253738
▁LEVEL	-16.926870
TR	-11.955328
▁MPI	-12.843315
WORD	-11.539115
DO	-12.150629
▁optional	-12.412777
▁PHP	-12.077623
▁complete	-11.981044
Host	-11.919916
YTHON	-11.989213
Kind	-11.842784
▁even	-10.851802
▁cleanup	-11.717417
mark	-11.595552
DF	-12.179067
slice	-12.321245
Min	-12.098489
▁sample	-12.301280
▁lookup	-13.055515
arm	-12.157982
▁basic	-12.481060
af	-12.012627
cons	-12.642077
vt	-12.337633
DIS	-11.964180
vector	-10.260785
seg	-12.342640
▁stbi	-12.583515
▁build	-12.019664
bc	-12.042745
▁pixel	-12.824793
width	-10.669570
Configuration	-11.822600
BE	-11.764784
CP	-12.157963
▁shader	-13.222593
▁sent	-11.778123
rule	-12.277414
length	-10.280195
Layout	-11.651096
▁scalar	-12.900214
nc	-12.034280
Bytes	-11.888543
TE	-12.288032
▁rb	-13.063360
Font	-11.902374
ho	-12.591492
▁MODULE	-13.216026
del	-11.747870
CHANNEL	-12.128722
▁iter	-13.491021
mon	-11.681311
CAP	-12.007628
▁these	-10.543514
CD	-11.006114
arr	-12.007891
join	-12.347258
LED	-11.988814
▁licenses	-13.491425
▁domain	-12.551231
▁Redistributions	-11.745011
MB	-12.335196
▁ASN	-13.324220
df	-12.249078
▁cplusplus	-18.582562
Identifier	-11.842188
▁bitmap	-13.106711
▁EXTI	-13.286564
▁LONG	-13.327140
▁bus	-12.544469
diff	-12.233544
ops	-11.244822
Change	-11.947677
text	-10.288895
▁created	-11.165025
▁could	-10.619229
▁changed	-11.723751
rm	-11.497957
▁language	-11.437002
Record	-11.879377
AB	-12.196339
Rx	-12.208237
lc	-11.972386
▁DAMAGES	-11.894803
FORM	-11.909391
Storage	-11.869349
Cmd	-11.991173
CONNECT	-12.671611
dy	-11.592062
uart	-12.071276
▁ADD	-13.774085
▁pthread	-12.434116
GP	-12.418120
AS	-11.289293
sys	-10.637390
▁permission	-11.539377
▁cannot	-11.588264
HEADER	-11.892979
CU	-12.118517
MR	-12.274623
▁decode	-13.371712
Pin	-12.403901
URL	-11.919725
Label	-11.745825
float	-10.212014
EQ	-12.080993
handle	-10.496690
meta	-11.601094
SIG	-11.874469
close	-10.565604
▁HAS	-13.801631
uct	-13.797154
Operation	-12.042399
normal	-12.437613
fl	-12.003260
gt	-12.268953
Layer	-11.954963
hal	-11.900228
RS	-12.195701
lf	-12.788285
byte	-10.980681
▁compiler	-12.432499
HOST	-12.100737
▁NI	-12.967805
rate	-11.416693
▁them	-10.386622
part	-11.504841
▁CRYPTO	-13.331662
SYNC	-12.077539
▁DEF	-13.314075
PROP	-12.238223
▁equal	-12.331941
DEF	-11.446905
TEST	-10.958327
▁they	-9.993188
ity	-11.111926
ARG	-11.022765
▁bfd	-12.407516
MSG	-11.324804
COL	-11.984338
Link	-11.918239
added	-13.254790
button	-12.169041
RNA	-12.710700
ITEM	-12.128437
pages	-12.279993
tile	-11.140724
CONTEXT	-12.105771
▁EVP	-12.645438
▁FROM	-12.240161
▁vertex	-12.951293
▁Inc	-11.356751
est	-11.673472
IMAGE	-12.044030
ai	-12.022273
RGB	-12.111540
Media	-12.059248
Library	-12.119253
▁google	-14.366866
OPEN	-11.812895
CLIENT	-12.114457
▁through	-10.620789
ERROR	-9.882580
▁tv	-13.601764
▁friend	-11.742174
opts	-12.142807
bus	-11.500252
Transform	-12.040804
ml	-11.852516
PAD	-12.373620
▁generic	-12.521602
▁trace	-12.857119
▁RESET	-14.708734
▁LENGTH	-17.110211
▁opcode	-12.880738
▁expression	-11.707541
▁EXPRESS	-11.968346
▁metadata	-12.653949
RF	-12.219754
▁extension	-12.177156
drv	-11.988772
ht	-12.220124
▁allow	-11.881523
Enum	-12.015307
CLOCK	-12.281559
ro	-11.698848
▁AES	-13.473975
▁DECLARE	-12.469347
▁OTHER	-12.228035
Audio	-12.123502
Draw	-12.049961
▁writing	-11.470007
Null	-12.288675
OID	-12.344482
lu	-12.182549
SH	-12.286403
▁based	-10.633019
▁mk	-14.174100
▁drm	-12.555597
COPY	-11.871671
▁controller	-12.271718
FILTER	-12.113602
store	-11.317772
▁START	-13.822561
iter	-11.406087
▁priority	-12.448505
▁pipe	-12.947194
▁INTERFACE	-16.172169
menu	-12.192102
eb	-12.255091
arch	-12.003629
▁td	-14.299064
BR	-12.234863
disk	-12.576581
Decl	-12.117931
Space	-11.901118
vi	-12.073076
PF	-11.652055
▁ARGS	-15.841130
nl	-11.869940
ft	-11.962635
MEMORY	-11.921495
head	-10.693628
FRAME	-12.233405
img	-12.276206
▁codec	-13.468898
▁inst	-14.109245
FREE	-11.887370
▁TLS	-13.072765
FIX	-12.281277
FMT	-12.193495
▁winrt	-13.597438
Template	-11.937654
▁selected	-11.884842
▁setting	-11.892613
▁verify	-12.752422
Match	-12.348169
Idx	-12.250038
TMP	-12.761017
par	-11.716938
▁body	-11.806229
Async	-12.195410
SI	-12.490445
▁member	-11.423079
ix	-11.961918
▁pattern	-12.424842
Last	-11.891873
ni	-11.724444
▁fast	-12.607474
▁distribution	-11.394457
ARRAY	-11.475103
Make	-12.692899
▁limit	-12.306768
ri	-11.723243
▁FLASH	-13.095007
new	-9.901270
▁compare	-12.794039
ACTION	-11.979528
▁passed	-11.693514
▁recv	-13.635876
trigger	-12.642289
Remove	-11.847818
▁LIABLE	-11.937279
▁PROVIDED	-11.995313
prod	-13.405567
print	-10.951690
RES	-12.229667
▁explicit	-12.060081
▁CTX	-15.531469
▁GLfloat	-12.874461
complex	-12.328300
aa	-12.245451
lines	-12.194306
▁SHALL	-11.978191
com	-10.042055
▁netdev	-13.043790
▁instead	-11.529449
▁RE	-12.739612
▁later	-10.891180
RM	-12.615539
▁transform	-12.527270
▁DISABLE	-15.209666
▁wx	-12.590323
At	-11.895350
▁pdev	-14.297820
COM	-11.853682
GROUP	-12.121458
il	-11.806119
▁channels	-12.264859
LOW	-12.318182
▁allocate	-12.287227
RE	-11.433357
Multi	-11.807088
▁errors	-12.087236
▁WHETHER	-11.981469
param	-9.184246
▁BT	-13.041370
like	-11.430884
▁AUTO	-14.449274
HI	-12.442160
wr	-12.194942
fi	-11.757982
Or	-11.787757
STRUCT	-12.092184
▁DECREF	-17.503176
▁maximum	-11.910996
▁such	-10.561051
▁INPUT	-14.214215
DA	-12.171225
tls	-12.027893
▁master	-12.558932
VA	-12.196982
▁FAILURE	-13.184130
▁buff	-14.338787
▁delta	-12.939529
ea	-12.014915
CONF	-12.207710
IL	-12.537338
▁delay	-12.876745
AF	-11.708143
red	-11.638098
FUNC	-11.268361
CSR	-12.503161
▁methods	-11.578142
ature	-13.650428
Container	-11.900508
▁previous	-11.759799
TEXT	-12.069429
▁actual	-11.936711
Protocol	-11.953515
▁ABI	-13.208263
ins	-11.530774
aw	-12.838633
wl	-12.214106
split	-12.073698
SEC	-12.238130
ust	-13.494564
CNT	-12.564549
INIT	-11.148797
▁PYX	-18.705902
qp	-12.492586
Only	-12.419085
GE	-12.069517
▁possible	-11.350259
sv	-12.060522
▁OBJECT	-14.974916
comp	-11.345516
ADDRESS	-12.215037
▁flush	-13.161943
Component	-11.830016
▁timestamp	-12.633743
▁encoding	-12.610885
sig	-11.629267
▁ARISING	-12.143099
▁both	-10.830341
▁Apache	-11.960427
ram	-12.005092
ost	-13.374173
PA	-12.174377
CT	-12.353036
dx	-12.601631
LINK	-12.048000
▁kind	-12.077805
Style	-11.714750
Row	-11.884154
vl	-12.478034
MI	-11.856788
MUX	-12.206751
RB	-12.164537
TIMEOUT	-12.195233
LD	-12.166675
▁METHOD	-15.757222
EXIT	-11.770980
NL	-12.189534
▁sin	-13.607405
▁different	-11.008827
▁step	-12.104070
vars	-12.233812
MA	-12.638707
▁points	-11.557090
▁keep	-11.663887
Settings	-12.001634
▁simple	-12.049960
work	-11.216027
dl	-11.971864
▁too	-11.223631
▁screen	-12.368844
▁uni	-14.561252
Height	-11.958535
VER	-11.932088
US	-11.574403
face	-12.280754
BF	-12.280563
▁FAIL	-12.935083
▁async	-12.924162
▁builtin	-13.688096
Term	-12.398462
▁mapping	-12.683590
adj	-13.076058
manager	-12.239963
EW	-12.492374
GET	-10.644866
▁post	-11.853489
▁segment	-12.608183
JS	-12.016835
CACHE	-12.162047
▁WINAPI	-11.871516
snprintf	-12.353440
sem	-12.171742
by	-10.904189
▁INTERNAL	-15.366521
receive	-12.511222
▁CONTRIBUTORS	-11.997163
ort	-13.508102
proxy	-12.411834
▁safe	-12.521939
▁elem	-13.650441
▁including	-10.902687
▁present	-11.536003
aux	-12.028319
NC	-12.155666
Socket	-12.062149
IV	-12.140240
▁crypto	-12.817330
▁items	-12.355422
▁multiple	-11.436345
Network	-12.125602
ind	-12.205154
RANGE	-12.225924
bio	-12.155220
rea	-13.424388
NR	-12.006703
▁would	-10.166239
RESULT	-11.970260
▁TODO	-12.007559
SA	-12.390370
cycle	-12.703644
▁compute	-12.326651
bot	-12.915581
▁machine	-12.346427
▁area	-11.161479
bucket	-12.477655
Option	-12.080270
▁xFE	-19.104072
rpc	-12.176404
WS	-12.344719
Auto	-12.167808
▁YY	-12.371519
▁apache	-14.650837
way	-12.136726
Close	-11.979331
▁merge	-12.617374
▁layout	-12.532213
▁original	-11.263537
sta	-12.187540
ment	-11.110135
ot	-11.965432
▁edge	-12.378166
▁external	-12.172300
Video	-11.975741
Cell	-11.865188
NT	-12.016963
Box	-11.959243
▁ipv	-13.587921
job	-12.632851
▁ROM	-13.275327
▁caller	-12.193102
▁example	-11.232457
▁warning	-12.354632
ae	-11.836152
fr	-12.227642
Location	-11.923463
ice	-12.209796
▁what	-10.410282
sensor	-12.557331
▁https	-11.996858
▁report	-11.994987
▁execute	-12.296453
fw	-12.036078
limit	-11.454833
copy	-10.767007
sr	-12.083359
▁nb	-13.275005
GR	-12.526298
Compare	-12.190776
tp	-11.078720
wm	-12.196272
▁APP	-12.690946
ii	-11.864382
family	-12.116058
▁factor	-12.230814
▁signed	-13.296738
Pool	-12.036219
WIDTH	-12.221059
profile	-12.280762
▁PyErr	-12.301286
▁database	-12.037537
pe	-11.641739
Double	-12.128172
▁OTHERWISE	-12.187832
▁attributes	-12.232629
Active	-12.053776
WAIT	-12.229764
ARE	-11.617152
Render	-12.046907
▁vtk	-12.160143
dot	-12.028131
ise	-12.771904
▁copies	-11.764871
▁video	-10.948528
▁Tcl	-12.402931
Def	-12.003408
phy	-11.697896
MESSAGE	-12.192398
compress	-12.335516
▁endpoint	-12.584131
▁zval	-13.997467
wp	-11.811018
conv	-12.394988
▁registers	-12.162872
SOURCE	-12.233701
owner	-12.192034
unused	-12.583504
BACK	-12.104491
ids	-11.959082
case	-8.545891
Sync	-12.087310
AND	-11.797114
Real	-12.362781
BN	-12.205426
half	-12.734236
▁stmt	-14.283429
▁cluster	-12.803799
bound	-11.907881
▁until	-11.064900
loop	-11.523007
cu	-12.156662
Counter	-12.087737
▁TORT	-12.148735
POINT	-12.109863
Vk	-11.944594
tk	-12.336228
▁instruction	-12.199261
TH	-12.112372
▁calls	-12.014966
▁DAC	-13.376400
PI	-12.123833
▁custom	-12.591443
next	-10.119880
▁constant	-12.312643
EE	-12.493140
▁APB	-15.061175
eth	-12.092954
▁PAGE	-13.528333
POWER	-12.188771
▁BAD	-14.673874
DD	-12.207757
poll	-12.289990
▁wchar	-13.047136
expr	-11.619621
▁NRFX	-12.046310
▁encode	-13.870934
THREAD	-12.039057
▁during	-10.669466
▁apply	-12.157283
▁SOC	-13.570006
Private	-12.352619
Inst	-12.403922
FR	-12.492367
boolean	-12.031579
▁WARRANTY	-11.945543
axis	-12.692020
▁initial	-12.085542
LT	-12.575612
bm	-12.354185
SYMBOL	-12.089293
JSON	-12.479462
plane	-12.629267
▁rect	-13.449916
▁policy	-12.054567
Variable	-12.102817
▁EXTERN	-12.645044
et	-11.373965
flash	-12.653661
pix	-12.407641
Sample	-12.345724
angle	-12.362835
FN	-11.940180
lt	-12.276871
▁usage	-12.222111
STOP	-12.363097
bool	-9.628844
REGISTER	-12.220428
▁When	-11.149008
▁mbedtls	-12.639157
LOCAL	-12.152550
ept	-14.063434
▁force	-12.135969
▁pixels	-12.760641
grid	-12.603247
zone	-12.371161
Wait	-12.411184
generate	-12.540637
DESC	-12.240575
media	-12.188043
ALIGN	-12.195823
▁running	-11.836115
▁within	-11.091516
NEW	-12.057371
▁ETH	-13.204771
notify	-12.132873
▁sprintf	-12.871967
temp	-11.129895
▁OUTPUT	-14.631646
ADC	-11.774938
edit	-12.516883
hook	-12.502453
▁doesn	-11.657816
▁audio	-12.613983
conn	-10.903180
light	-12.175316
Stmt	-12.075763
Content	-11.978837
▁below	-11.384829
▁engine	-12.645360
lineno	-12.923585
Define	-13.900509
▁track	-11.999854
sock	-11.466210
pw	-12.489920
▁direction	-12.191188
Pre	-12.327639
Region	-12.258723
Interrupt	-12.767400
▁obtain	-11.645748
UTF	-12.275495
▁DIRECT	-12.371803
cv	-12.223858
▁serial	-12.754976
fix	-12.247081
▁fixed	-12.366211
Stop	-12.303074
LONG	-11.352661
ff	-11.045807
EC	-11.819486
▁slave	-12.831198
▁glGet	-13.279199
Run	-12.396720
▁protobuf	-14.317153
Assert	-11.960076
▁TARGET	-13.522292
ISR	-12.596286
world	-12.272377
mu	-11.964610
▁eval	-13.695773
partition	-12.675878
ls	-11.669672
▁best	-11.331864
pic	-12.822505
frames	-12.677778
▁ESP	-12.819433
Build	-12.246654
UInt	-12.299702
CLR	-12.569490
HasBeenSet	-12.429959
PRINT	-12.242372
trace	-11.637270
▁random	-12.432512
cipher	-12.233227
▁results	-10.772961
▁feature	-12.080931
dist	-12.572358
▁take	-11.218589
▁NVIC	-12.768043
▁identifier	-12.527676
▁CRC	-13.170821
▁avoid	-12.011268
rq	-12.417288
Destroy	-11.885427
Enabled	-12.172005
▁WARNING	-13.656691
Has	-12.305430
WR	-12.259235
▁disabled	-12.307031
▁pop	-12.328889
crypt	-11.614389
▁sure	-11.535836
render	-12.163899
disp	-12.520209
mx	-12.590924
FEATURE	-12.308410
▁variables	-11.884501
▁MONO	-12.860440
FA	-12.151539
RO	-12.310730
EB	-12.466774
plan	-12.210279
oc	-11.713574
own	-12.551306
Common	-12.235742
upper	-12.767609
COMMAND	-12.375037
nk	-12.324353
▁nodes	-12.511878
▁insn	-13.439930
vc	-12.302345
▁unknown	-11.958648
ANT	-12.333833
▁throw	-12.458673
RST	-12.763033
▁SQLITE	-12.516167
font	-11.701727
math	-10.794739
socket	-11.471499
Builder	-11.969570
▁QString	-12.465678
▁SPECIAL	-12.272567
Oid	-12.154317
top	-11.116962
cx	-12.408774
▁stored	-12.129317
▁needs	-11.804062
PWR	-12.634686
ABLE	-11.755303
▁APIENTRY	-12.453742
ator	-11.938883
▁none	-12.169019
▁forward	-12.310545
support	-12.233326
ws	-12.169532
ha	-11.810409
▁definition	-12.083914
▁NAMESPACE	-15.067770
Word	-12.346992
▁synthesize	-15.917254
ency	-12.694677
Generic	-12.056991
▁properties	-11.832878
▁permissions	-11.821789
▁interval	-12.968777
▁special	-11.694477
▁sha	-14.054871
bs	-11.753271
▁stdio	-15.059829
Net	-12.002188
DM	-12.396203
CLEAR	-12.349826
hp	-12.130188
probe	-12.486925
boot	-12.242808
BA	-12.489964
▁xfe	-20.982519
Spec	-12.105070
▁fetch	-13.385391
▁buffers	-12.570684
stats	-11.375143
alias	-12.722461
STD	-12.035216
USB	-11.391430
ACTIVE	-12.304479
CREATE	-12.362727
Vertex	-12.150959
Scan	-12.110776
Shader	-12.220610
ance	-12.072201
ACCESS	-12.219811
Graph	-12.104911
root	-11.221235
fa	-12.122266
KERNEL	-12.257374
LABEL	-12.324661
ren	-13.292165
Unit	-12.259960
▁fff	-20.739401
ive	-11.922235
▁native	-12.318188
PK	-12.697071
▁FAR	-13.698466
ENUM	-12.280549
abi	-12.334059
▁DEFINED	-19.486193
▁allowed	-11.939954
title	-11.917079
TI	-12.470253
wrapper	-12.196716
dynamic	-12.535346
▁subject	-11.689064
GPU	-12.243607
▁ACPI	-12.517766
Loc	-12.208797
▁operations	-11.722861
ble	-12.156491
html	-11.544628
Shape	-12.255435
slot	-11.611770
CPU	-11.688811
alt	-12.275606
▁mesh	-13.319416
SUPPORT	-11.481403
HIGH	-12.447490
▁WM	-12.513394
resp	-12.453888
AV	-11.804931
Up	-11.932757
NOT	-10.941453
▁StringCopy	-17.573857
▁transport	-12.335307
CONFIG	-10.184149
tom	-13.652183
Any	-12.628900
CO	-12.548625
MOVE	-12.453412
SB	-12.449359
IMPL	-12.302247
▁threads	-12.679114
ULL	-12.625646
True	-12.268214
drop	-12.386890
sk	-10.924427
Web	-12.036356
tty	-12.261743
nt	-11.885492
ger	-12.531662
▁destination	-12.308118
INDIRECT	-13.899178
▁columns	-12.493566
one	-11.062377
▁allocator	-13.014941
▁stm	-13.223602
Search	-12.235968
▁overflow	-12.441100
Power	-12.514554
tbl	-12.415002
BUS	-12.382685
filter	-11.235510
▁dispatch	-13.271345
ant	-11.763617
▁how	-10.848112
Setup	-12.214352
tor	-11.671240
operand	-12.650919
▁initialized	-12.407681
guard	-13.092210
▁uses	-11.430361
blob	-12.691350
MIN	-11.202088
PARAMETER	-12.261496
▁xffffff	-44.972486
Widget	-11.982504
▁PY	-13.215197
mouse	-12.670315
Mesh	-12.272526
most	-12.654354
▁express	-11.941961
Cluster	-12.289409
IA	-12.359730
ADD	-11.638570
Non	-12.123121
Save	-12.463814
ONLY	-12.129567
BSD	-12.113511
Driver	-12.062022
rb	-11.668189
man	-10.405903
BD	-12.221038
cpp	-12.272017
txt	-12.189224
number	-10.922875
Convert	-12.891638
HP	-12.071449
mf	-12.529796
Surface	-12.223766
SAM	-12.975032
rand	-12.421473
sup	-12.606367
Can	-12.461464
rx	-11.000396
▁headers	-12.676155
ready	-12.442404
▁lambda	-14.790632
Step	-12.342542
sql	-12.349860
Column	-12.135274
imm	-12.582367
Delegate	-12.243838
ole	-13.147953
EA	-12.535243
MF	-12.287198
▁aws	-15.390880
AE	-12.515679
NF	-13.009699
▁backend	-12.918438
gre	-13.270185
▁derived	-12.010120
SYSTEM	-12.327019
Capture	-12.484365
Alloc	-12.319372
weight	-12.056004
Pass	-12.445565
SE	-12.458206
TREE	-12.385014
Err	-11.956797
ver	-11.412426
Proc	-12.245630
CHECK	-11.016419
fmt	-11.715203
pv	-12.025609
▁STRICT	-12.383484
▁soc	-13.777950
Properties	-12.004051
LV	-12.434447
HD	-12.579590
DL	-12.381263
Policy	-12.220248
Lib	-12.055379
Reader	-12.106621
Script	-12.041701
WARN	-11.804769
DEBUG	-10.505692
iod	-13.355852
dr	-11.836628
▁esp	-13.437851
Application	-12.234168
LY	-12.054927
ctxt	-12.373778
long	-10.660101
rank	-12.645295
condition	-12.519491
cost	-12.589816
wc	-12.440902
RET	-12.099207
fifo	-12.507515
vf	-12.640984
IX	-12.437101
CAL	-12.880894
tid	-12.432108
DI	-12.521265
ization	-11.765198
VPROC	-12.388678
▁uuid	-13.882000
Program	-12.175946
Insert	-12.232560
que	-12.104104
hw	-10.958664
▁fini	-15.605392
▁prior	-11.626948
Types	-11.798234
▁completion	-12.533338
indices	-13.030768
▁amount	-11.939602
constr	-12.781939
rr	-12.385338
reader	-12.566601
inner	-12.628787
▁might	-11.325184
Left	-12.207030
UPDATE	-12.378595
Allocator	-12.282622
BT	-11.823000
▁means	-11.555030
ne	-11.374458
Helper	-12.113349
ATTRIBUTE	-12.540393
RSA	-12.436608
▁included	-11.350868
TIMER	-11.860702
dummy	-12.783479
dec	-10.180096
batch	-12.796202
QUEUE	-12.362709
nor	-12.843382
Factory	-12.001961
▁applicable	-11.826042
tuple	-11.664566
run	-11.097814
match	-11.125223
unk	-12.932126
mov	-12.125942
dns	-12.538617
ACC	-12.638749
prop	-11.504748
Date	-12.041879
routine	-13.727915
SG	-12.390641
color	-10.848035
SQL	-12.411924
NUMBER	-12.350609
ig	-12.212890
▁threshold	-12.831448
REQUEST	-12.314722
▁utf	-13.380941
▁XK	-13.332236
return	-7.314113
▁compliance	-12.024668
KHR	-12.568013
FAILED	-12.207247
Used	-12.212128
It	-11.552229
▁uintptr	-13.395178
client	-10.761778
▁contents	-12.541901
▁grpc	-13.253670
Move	-12.550713
▁via	-11.759139
rl	-12.292488
ssl	-11.442358
timer	-11.336827
▁EC	-12.744933
Win	-11.740593
▁ignore	-12.535704
▁strong	-12.079856
typ	-12.568696
▁least	-11.496574
mr	-12.280971
NI	-11.873838
fname	-12.575017
De	-12.098523
PNG	-12.300672
LO	-12.536476
FL	-12.359144
Loop	-12.166909
SOCKET	-12.280040
▁currently	-11.643188
▁ieee	-13.042876
uid	-12.133566
Long	-11.816928
Attributes	-12.208269
decl	-11.862165
VALUE	-11.159320
cookie	-12.780155
CY	-12.517820
▁modification	-11.963193
DEC	-11.165621
Pixel	-12.352235
sets	-12.767133
SERVER	-12.028345
▁sockaddr	-12.479524
Scalar	-12.346414
▁xmm	-13.663117
Values	-12.139899
▁AWS	-12.949135
ize	-11.703335
RATE	-12.385225
play	-12.063147
Trigger	-12.356074
COLOR	-11.279200
center	-10.720609
Begin	-12.151516
aint	-12.946937
RING	-12.318938
params	-10.944033
Src	-12.437477
▁strings	-12.585022
▁Licensed	-12.307472
EVENT	-11.356668
Raw	-12.473481
SF	-11.742007
▁stage	-11.529052
▁isl	-13.282337
crc	-12.642240
▁useful	-11.906204
▁exists	-12.228922
utils	-12.107873
One	-12.024013
▁allocation	-12.327353
selection	-13.028423
▁messages	-12.223112
closure	-12.587703
FW	-11.893121
▁OPENSSL	-12.405140
IB	-12.337847
ACK	-12.504415
version	-10.991846
ENC	-12.706418
Allocate	-12.266380
▁small	-11.434339
▁yych	-16.317297
▁BCM	-12.740294
START	-11.573900
BM	-12.648223
dh	-12.670312
▁features	-11.866508
LEVEL	-11.498222
▁distance	-12.437484
Priority	-12.431815
DONE	-12.580810
OBJECT	-11.423579
Dir	-12.225761
Root	-12.224813
writer	-11.979772
ut	-11.839863
DLL	-12.360432
ck	-12.059525
▁requested	-12.262381
struct	-8.513519
uri	-12.078233
▁jl	-13.751277
AST	-12.333468
▁characters	-11.254665
WAY	-12.394326
ZERO	-12.283474
ve	-11.300168
▁RV	-15.507524
Section	-12.404728
nat	-12.452711
Export	-12.369174
Ext	-12.469328
Extension	-12.171240
sleep	-12.267308
Integer	-11.970737
Profile	-12.257263
Off	-12.603086
left	-10.260314
SELECT	-12.411124
Instruction	-12.092297
player	-12.387724
▁GPL	-13.402970
▁met	-11.432872
DOUBLE	-12.399718
▁UNKNOWN	-16.287399
PH	-12.601289
▁VOID	-11.546114
bp	-11.589191
bh	-12.339746
Native	-12.406223
▁UNICODE	-13.303935
Low	-12.736169
MIT	-11.947108
Information	-12.278619
TOP	-12.506535
▁secp	-13.167000
lx	-12.949707
exc	-12.575468
lex	-12.904629
Const	-12.389584
GLOBAL	-12.312371
hex	-12.385902
▁standard	-11.885607
▁still	-11.045318
Compute	-12.303385
▁did	-10.907407
digest	-12.524083
att	-12.546689
▁hardware	-12.187270
SCAN	-12.491732
ALLOC	-12.358183
route	-12.703058
IDX	-12.638895
NE	-11.897499
clip	-12.585732
project	-12.625075
BL	-12.387971
device	-10.172204
gr	-12.221590
ECC	-12.753168
tables	-12.839702
CG	-11.914740
inc	-10.611424
maj	-14.629478
▁prepare	-13.039555
Tuple	-12.261210
CV	-12.356469
▁materials	-11.796509
▁samples	-12.579737
ND	-12.108638
Proxy	-12.308673
Sequence	-12.303825
SO	-12.421226
ping	-12.286975
NB	-12.614653
strdup	-12.476385
attach	-12.574448
warn	-12.024680
Screen	-12.337388
Transaction	-12.191521
▁algorithm	-12.389537
▁WINED	-12.978612
Parent	-12.227008
▁xffffffff	-22.020181
▁negative	-12.327774
Trace	-12.367240
Expression	-12.140044
▁HOLDERS	-12.234258
▁LOSS	-12.431044
SYS	-11.145096
▁limitations	-11.479013
tensor	-12.618014
MPU	-12.968314
exist	-12.443635
mutable	-12.843934
cos	-12.759711
mux	-12.649770
DIO	-13.102169
target	-10.922943
ting	-11.813079
INTEGER	-12.475831
▁calling	-12.124752
▁PyLong	-13.152073
External	-12.636837
commit	-12.646921
Scale	-12.388793
sn	-11.970132
▁constructor	-12.155191
▁extract	-12.853510
POINTER	-12.448576
expand	-12.840524
Changed	-12.289795
inv	-12.691446
ef	-11.612447
Child	-12.207165
▁IRQn	-14.764817
ty	-11.326995
bg	-12.082147
▁soap	-12.958043
phase	-12.849150
DOWN	-12.433425
Transfer	-12.377133
▁encoder	-13.390536
leaf	-12.732146
▁governing	-11.877654
we	-12.445933
ATOM	-13.471919
▁additional	-11.474702
detail	-12.739617
▁BASIS	-12.305074
tl	-12.235918
PART	-12.481209
big	-12.284149
Valid	-12.264704
TypeDef	-12.040301
▁aligned	-13.784117
HDR	-12.598925
SEQ	-12.763481
None	-11.537646
High	-12.624811
▁RESERVED	-13.184367
Metadata	-12.370995
sched	-12.458996
Scope	-12.290379
ga	-11.952367
Rate	-12.376580
Provider	-12.366876
▁devices	-12.230440
fv	-12.599741
▁large	-11.488716
TT	-12.454822
▁their	-9.962429
schema	-12.675367
MU	-12.935970
▁SYSCTL	-13.015214
▁alignment	-12.612343
TF	-12.565407
Edge	-12.590226
ICAL	-12.551106
Ch	-12.840204
zip	-12.561422
use	-9.881063
EMPTY	-12.426535
TP	-12.158964
Zero	-12.467212
TA	-12.602659
Right	-12.295909
▁CONSEQUENTIAL	-12.345861
▁bounds	-12.909407
Engine	-12.132656
▁restrict	-13.637647
IEN	-13.476202
▁USBD	-13.291321
▁another	-11.122940
wait	-11.296969
PID	-12.669651
Menu	-12.146543
HT	-12.602825
Ret	-12.396442
PRIVATE	-12.527219
na	-11.291886
Report	-12.564897
bv	-12.771443
▁permitted	-11.994589
wrap	-12.419464
acl	-12.599274
▁intel	-13.596157
▁CONDITIONS	-12.209738
cy	-12.094154
FORCE	-12.500517
frag	-12.688130
label	-10.887802
Kernel	-12.406730
EF	-12.265983
RUN	-12.565118
nn	-12.391824
FFF	-11.957996
iov	-12.801408
TEMPLATE	-12.951896
http	-10.819235
opa	-13.239596
▁psz	-13.574938
Standard	-13.147744
▁These	-11.437187
ML	-12.270964
volume	-12.961126
▁hwnd	-13.415848
Attr	-12.581274
VP	-12.284224
RW	-12.522641
Created	-12.389696
▁PyUnicode	-13.098260
▁vacc	-13.820617
ACT	-12.427571
Selection	-12.262406
Slot	-12.496742
Temp	-12.395943
CHIP	-12.649422
Scene	-12.345004
▁relation	-12.776138
scsi	-12.627871
▁INCIDENTAL	-12.368659
TRACE	-11.575938
▁interp	-14.171439
▁kInstruction	-13.060946
comm	-12.620915
EL	-12.490778
Structure	-12.953474
hut	-13.570600
TASK	-12.624318
XXX	-12.373978
▁padding	-12.830423
Timeout	-12.465937
dup	-12.587433
vert	-12.484081
security	-12.754622
▁collection	-12.018324
▁progress	-12.463371
▁CWindows	-23.051395
ng	-11.793642
Main	-12.277316
Cursor	-12.403355
CONN	-12.410036
▁IEEE	-13.136190
Receive	-12.568015
INSTANCE	-12.684114
▁summary	-12.105957
prog	-12.331067
MATRIX	-12.724203
GT	-12.227692
adc	-12.657767
DRIVER	-12.495165
names	-11.859756
▁BIO	-13.464979
image	-10.832624
ag	-12.642580
AUDIO	-12.589795
compile	-12.004690
FULL	-12.595839
READ	-11.201776
PASS	-12.289023
matrix	-11.779784
▁errmsg	-13.062005
▁scene	-12.517851
mgr	-12.663801
dis	-10.590818
▁xdc	-14.927723
▁ioctl	-13.824253
cont	-12.504509
sq	-12.487125
atom	-12.851272
step	-11.957444
▁never	-11.322578
DRV	-12.734743
▁PROFIT	-18.076031
SV	-12.495466
mg	-12.790225
▁saved	-12.643039
▁GTEST	-13.152812
vk	-12.574552
ph	-12.068420
▁forms	-11.927450
band	-12.006862
select	-11.602786
ers	-10.725335
hf	-12.771883
rev	-12.497855
▁changes	-11.596631
▁clang	-12.618614
FUN	-12.501133
Heap	-12.440103
alg	-12.616619
▁wined	-12.951653
▁IDirect	-12.901018
tick	-12.568145
pu	-12.446272
server	-11.008588
SZ	-12.635155
Document	-12.174032
EQUAL	-12.662926
▁commands	-12.481089
GS	-12.560753
js	-11.842998
gpu	-12.539941
EXTPROC	-12.698798
tok	-12.527331
glyph	-12.639091
hold	-13.156464
stride	-11.798726
create	-10.794469
tex	-12.631143
▁SUCH	-11.987960
ter	-11.980409
Static	-12.356510
vb	-12.706844
env	-11.321049
▁removed	-12.080373
cancel	-12.557664
led	-11.695877
tri	-12.890533
GUI	-12.348698
BUTTON	-12.626782
Endpoint	-12.601828
▁SECTION	-14.135959
▁PROTOBUF	-13.760696
ave	-13.259476
DEVICE	-11.344154
pn	-12.694699
rw	-12.543465
comment	-12.745300
attrs	-12.676994
Devices	-12.904729
▁FEAT	-12.194949
▁NON	-14.958216
▁ImGui	-12.754169
Usage	-12.140615
Dynamic	-12.404742
Limit	-12.463180
▁IPV	-14.107157
Constant	-12.421453
pdu	-12.942844
Uint	-12.517420
hs	-12.279231
Part	-12.430587
Append	-12.425852
▁Unless	-12.157159
▁inputs	-12.728604
▁SERVICES	-12.519414
▁WINRT	-13.226500
This	-10.434484
monitor	-12.854800
MULTI	-12.283995
▁ostream	-14.980576
dim	-11.853862
▁shall	-11.806530
LS	-12.560917
Simple	-12.653529
effect	-12.817614
Shared	-12.355966
ONE	-11.792313
MX	-12.312560
▁conversion	-12.443782
patch	-12.215873
ATION	-12.230746
dump	-11.668142
header	-10.806989
▁mrb	-13.140380
OB	-12.174939
eat	-13.714053
ax	-12.729517
PRIORITY	-12.580194
▁apr	-12.864556
SEND	-12.621266
ei	-12.448739
icon	-12.417417
▁xfc	-16.510527
um	-11.509764
Mac	-12.631489
▁reinterpret	-13.334606
Mark	-12.592041
▁NEGLIGENCE	-12.595886
▁POSSIBILITY	-12.174319
▁ADVISED	-12.459862
Order	-12.213120
Mono	-12.166583
▁DAMAGE	-11.973722
▁etc	-12.065619
▁password	-13.157734
Macro	-12.250713
Player	-12.487235
▁DISCLAIME	-12.422724
NA	-12.860754
▁capacity	-12.701978
SK	-12.429904
unit	-11.539953
ASSERT	-10.804706
OT	-12.410327
escape	-13.129005
sample	-11.548026
▁many	-10.825124
Fill	-12.452136
HEAD	-12.323512
Full	-12.616053
VIDEO	-12.500638
rtc	-12.327303
STA	-12.531413
SPACE	-11.660571
magic	-12.566738
Stats	-12.294056
rf	-12.518118
▁NSObject	-12.589264
cpu	-10.969432
▁correct	-12.172656
only	-10.979451
▁agreed	-11.907506
▁statement	-11.986134
Mat	-12.951148
save	-11.323814
web	-12.073459
▁good	-11.173702
border	-12.577039
sid	-12.247848
▁WCHAR	-12.979252
▁tests	-12.299579
▁ecs	-12.785786
caps	-12.715875
HS	-12.511461
▁containing	-12.006293
PRI	-12.609690
Custom	-12.584948
PROPERTY	-12.588776
right	-10.476739
AUTH	-12.406585
VALID	-11.127128
▁again	-11.217218
▁PUBLIC	-14.603498
LC	-12.563285
der	-12.088096
Ctx	-12.534117
CAN	-12.125908
▁packets	-12.867950
Collection	-12.345010
Light	-12.505971
visit	-13.272772
▁Redistribution	-12.352764
double	-10.331544
bn	-12.590414
hd	-12.411231
▁reproduce	-12.321724
MATCH	-12.632138
ub	-12.635299
ALPHA	-12.655029
DSP	-12.766002
Entity	-12.332304
▁resources	-12.147827
Game	-12.534561
zx	-13.313114
cause	-13.654617
action	-11.167010
STORE	-12.675335
▁xaa	-20.524901
▁catch	-12.422864
▁times	-11.579358
SYM	-12.705375
LIMIT	-12.601320
input	-10.605870
CASE	-12.392321
▁corresponding	-12.191018
FF	-10.249433
▁enough	-11.689658
Res	-12.747062
Switch	-12.280114
▁peripheral	-12.601150
rgb	-12.843571
▁mlx	-13.256216
EXP	-11.977196
Form	-12.320164
▁arena	-13.904650
gate	-12.232210
tv	-11.779215
Col	-12.558374
Post	-12.438255
▁HOWEVER	-12.460685
▁seconds	-12.483655
BU	-13.311203
TOKEN	-12.566573
lb	-12.603543
▁Sk	-12.549754
Push	-12.397831
▁framework	-13.089348
GUID	-12.695506
Io	-12.531443
▁PFNGLGET	-12.617797
om	-12.247973
▁ensure	-12.335648
document	-12.200919
words	-12.737014
▁xcb	-13.739299
MODULE	-11.523465
strcpy	-12.487968
SIMD	-12.723032
Symbol	-12.475539
Show	-12.498563
▁ENOMEM	-14.161313
RPC	-11.544012
Body	-12.409802
▁restore	-12.826416
OSC	-13.156271
hard	-12.642157
perf	-12.676692
neg	-12.602918
OFFSET	-11.582129
▁CAUSED	-12.479749
MODEL	-12.729359
PACKET	-12.687353
aff	-13.249558
Mod	-12.889498
inter	-11.325521
Edit	-12.392769
day	-11.856016
nx	-12.790271
▁interrupts	-12.670587
cg	-12.707833
▁modified	-12.401475
▁defines	-12.216567
td	-11.288155
curve	-13.077323
Boolean	-12.369056
▁XDECREF	-20.737951
clean	-11.819189
pow	-13.094330
soft	-12.308892
qual	-12.720325
CFGR	-13.389108
consume	-12.935064
can	-11.549054
Depth	-12.474799
▁matches	-11.977194
fg	-12.691406
DNS	-12.537613
po	-12.183636
▁future	-11.885693
CAST	-12.572526
vlan	-12.846787
REGION	-13.028436
GO	-12.471149
▁know	-10.996545
UC	-12.618662
app	-11.263816
▁BUSINESS	-12.536916
▁SUBSTITUTE	-12.566422
UE	-12.532113
▁existing	-12.172971
MENT	-12.607978
▁yet	-11.738581
grp	-12.586831
My	-11.939476
▁packed	-13.433728
▁nothing	-11.757729
▁processing	-12.247730
PKT	-12.867394
▁contain	-12.421724
LEFT	-12.557442
▁GOODS	-12.568555
nil	-12.759664
lnum	-12.797074
▁NGX	-12.634322
Empty	-12.275842
last	-10.769093
cli	-12.620095
PATCH	-12.601629
WIN	-11.208338
norm	-12.911337
▁extent	-12.791697
▁PROCUREMENT	-12.555900
RESOURCE	-12.611499
RIGHT	-12.497669
Co	-12.381066
Req	-12.748039
linear	-12.965168
Permission	-12.499332
VIEW	-12.601797
NORMAL	-12.595127
WINDOW	-12.142309
▁necessary	-11.886757
export	-12.455260
Material	-12.674622
Normal	-12.647597
inf	-12.355122
SHADER	-12.740619
▁relative	-12.401037
pred	-12.662694
FX	-12.623174
MISC	-12.953550
▁INTERRUPTION	-12.543086
▁along	-11.493779
let	-11.862275
hand	-12.105551
▁offsetof	-13.319713
TK	-12.477937
hr	-11.791347
scroll	-12.773605
eap	-12.773293
▁THEORY	-12.477063
QUERY	-12.587768
Dev	-12.724972
ln	-12.423011
FAST	-12.573134
udp	-12.764550
▁ZVAL	-15.903839
VECTOR	-12.680892
dst	-11.011910
▁validate	-13.029257
ARCH	-12.476017
SN	-12.472130
▁duration	-12.827160
▁stdout	-13.434529
▁dirty	-13.323004
reduce	-13.043121
su	-12.607819
rect	-12.072345
VL	-12.980192
Xaml	-13.617536
gid	-12.861752
▁sctp	-13.352969
▁redistribute	-12.410287
method	-11.179904
score	-12.690727
▁remaining	-12.374726
Binary	-12.497205
▁callbacks	-12.894735
AMD	-12.648451
▁initialization	-12.500352
UV	-12.609192
▁lapack	-13.150034
calloc	-12.968936
cn	-12.693719
const	-8.715892
DX	-12.411392
▁EXEMPLARY	-12.522313
span	-11.707543
minor	-12.820168
VS	-12.304259
Operand	-12.777896
builder	-12.875441
▁successful	-12.034736
Platform	-12.600463
tf	-12.478580
MAKE	-12.683586
▁granted	-12.140764
user	-10.712092
▁pointers	-12.569008
kw	-12.557865
Rec	-12.442604
Success	-12.230712
▁published	-11.134422
BYTES	-12.857412
mount	-12.092700
▁products	-11.810652
▁expect	-12.977786
debug	-11.024503
LAST	-12.608465
verse	-12.767359
▁cached	-13.133803
Sys	-12.391418
FM	-11.938885
Notify	-12.525734
VR	-12.343816
▁PLAT	-14.762626
▁were	-9.764797
Dialog	-12.335381
Json	-12.465886
rial	-14.443055
▁APORT	-14.853623
Remote	-12.542547
eric	-12.556705
SSL	-11.168111
Iter	-12.541992
source	-11.051401
▁requires	-12.270318
TB	-12.787928
▁INET	-14.895669
agg	-12.790729
game	-12.640882
Fixed	-12.540834
▁windows	-13.134380
groups	-12.727755
Tab	-12.475886
Total	-12.520891
Work	-12.717602
order	-11.436391
CIPHER	-12.751088
plus	-11.389127
Pattern	-12.474906
au	-12.063123
Http	-12.504407
cols	-12.588643
pub	-12.451166
Bitmap	-12.603364
Mutex	-12.535174
points	-12.214077
put	-10.902831
▁rdev	-14.895626
dn	-12.686265
▁listener	-13.448460
visible	-13.057738
STATS	-12.637875
Track	-12.615269
hint	-13.092531
▁glUniform	-13.885311
clone	-12.997639
logical	-13.026902
LAB	-12.408696
well	-12.294238
▁rtl	-14.201484
factor	-12.467565
▁xFC	-87.803840
Feature	-12.332312
▁requests	-12.492617
VERIFY	-12.841341
UDP	-12.997425
archive	-12.824522
INTR	-12.757564
Face	-12.721931
▁promote	-12.341750
role	-12.870148
ary	-11.593369
Unknown	-12.279603
▁encoded	-12.940661
tool	-12.708307
sim	-12.450367
old	-10.925032
Dictionary	-12.368905
mit	-11.860508
ORDER	-12.358239
rn	-12.551329
Exit	-12.118063
▁author	-11.671303
known	-12.971927
Support	-12.753407
▁FIXME	-12.742431
▁xFFFE	-87.803840
BS	-11.759989
Import	-12.492752
HANDLE	-11.370300
HCI	-12.728681
widget	-12.667682
▁xef	-24.628322
▁limits	-13.140857
▁AHB	-14.722337
▁every	-11.411427
REAL	-12.610333
pk	-12.693285
▁PyTuple	-13.269337
pcb	-12.931480
buff	-11.854226
▁erase	-13.517076
Comp	-12.845389
▁dpy	-15.137756
▁SERCOM	-14.349832
Fn	-12.869421
Project	-12.708829
▁directly	-11.994013
▁camera	-12.940763
Configure	-12.519003
▁insertion	-13.840441
Security	-12.641852
wd	-12.672069
Graphics	-12.514203
CONST	-11.788660
MV	-12.470798
ANS	-14.221491
fold	-12.866385
▁pname	-13.022895
urb	-12.934025
PIPE	-12.725617
ath	-12.727105
Red	-12.876928
category	-12.907862
▁updated	-12.494458
FT	-12.085305
ru	-12.243826
ident	-12.212507
OPTION	-12.500363
PRESC	-14.183411
Runtime	-12.466464
indent	-12.624462
Member	-12.529812
elem	-11.982664
▁gnu	-14.956616
Camera	-12.439377
▁retry	-12.708953
ating	-12.426989
gui	-12.442750
▁decoder	-13.454957
▁persistent	-13.802442
TEMP	-12.780416
schedule	-12.545799
Single	-12.636054
▁xbf	-22.675395
MARK	-12.666554
CURRENT	-12.789200
FIRST	-12.642001
▁BPF	-13.828913
VC	-12.659169
hid	-12.817015
dims	-12.891954
▁GOTRE	-20.600374
▁nullable	-13.214334
▁mpi	-14.751701
Account	-12.503635
configure	-12.982235
mid	-12.757542
Signature	-12.515677
capture	-13.133877
▁CWE	-13.141871
local	-10.923759
▁vcpu	-14.509246
traits	-12.754705
▁Amazon	-12.561105
mapped	-13.246527
jump	-13.200980
Generator	-12.560927
▁SWIFT	-13.476996
SAMPLE	-12.845134
▁IID	-13.757179
▁svn	-13.125817
▁warranty	-12.277128
▁assignment	-12.656117
VERTEX	-12.716432
PACK	-12.228887
▁slots	-12.612081
publish	-13.416721
NU	-13.225810
ApplicationModel	-13.397264
gap	-12.881543
▁spdk	-13.284012
▁primary	-11.989065
ISO	-12.701031
bss	-12.834174
▁SCTP	-13.477213
nic	-12.764014
Functions	-12.216572
Master	-12.740605
cq	-12.985635
Maximum	-12.613284
std	-9.509152
Back	-12.403867
Argument	-12.533273
sink	-13.081176
Domain	-12.495405
▁rtx	-13.273354
Top	-12.376103
▁HandleTypeDef	-87.803840
▁TCC	-14.549811
malloc	-11.700946
▁SCB	-14.207402
Down	-12.415026
Void	-12.946013
PLAYER	-13.458281
shell	-12.818316
ling	-11.886717
Basic	-12.883459
INC	-11.196519
▁dimension	-12.841431
▁ACMP	-14.405090
▁verbose	-13.398235
▁likely	-12.338347
Tile	-12.873289
ASM	-12.637495
VI	-12.727471
ENT	-11.953215
precision	-13.180777
Job	-12.885243
▁minimum	-12.493633
options	-11.172352
▁distribute	-12.601710
mail	-12.631702
▁kvm	-13.503404
▁starting	-12.195043
bridge	-12.453209
tyObject	-13.684874
clear	-10.801431
▁glVertexAttrib	-13.854872
PU	-12.791921
ify	-11.828316
Gen	-12.436004
bank	-12.646854
pipe	-11.862540
Writer	-12.314653
UNIT	-12.738724
▁ignored	-12.577018
hci	-12.645225
▁outer	-13.186557
poly	-13.016157
gs	-12.154409
WDT	-13.208631
branch	-13.019089
▁LESENSE	-14.356368
▁git	-13.879041
Per	-12.546241
pkt	-11.887864
Relation	-12.360714
fault	-12.904330
vis	-13.049827
address	-11.030952
EVT	-12.953961
ness	-11.630711
nm	-12.955035
fm	-12.634767
▁certificate	-12.932199
SOCK	-12.754445
RR	-12.728014
inet	-12.521355
Segment	-12.726675
Constraint	-12.649309
kind	-11.890349
zero	-11.357548
▁background	-11.706728
FLT	-13.164733
TV	-11.492737
DH	-12.666358
Std	-13.008916
scratch	-13.314328
rk	-12.642216
Optional	-12.580178
DELAY	-12.842519
Interval	-12.677591
▁GLdouble	-13.545619
▁reading	-10.302456
Gr	-12.750124
▁BOOLEAN	-12.294928
▁MHz	-14.223346
bw	-12.962127
diag	-12.954742
hit	-12.988727
guid	-13.019407
FO	-13.455659
▁invoke	-13.266992
ur	-12.230686
intr	-12.726166
Other	-12.797580
ence	-12.481691
▁SUPPORTED	-15.311489
ah	-12.197774
fit	-13.032016
pll	-13.151637
▁dtype	-13.659991
cred	-12.901185
PAGE	-12.034236
SCALE	-12.926433
▁rarg	-19.397584
plugin	-12.669670
dat	-12.818966
IPv	-12.847067
SSE	-12.875268
Generated	-12.638006
Virtual	-12.904643
▁KERN	-14.428446
▁riid	-13.419685
▁execution	-12.533573
bias	-13.174250
▁kfree	-15.523954
▁sfr	-13.414160
▁OTG	-14.557754
LAN	-12.614163
gamma	-12.742224
DEPTH	-12.691509
des	-12.011535
Bus	-12.864403
realloc	-13.000512
IRQ	-11.546434
pat	-12.712459
After	-12.654458
▁GLAD	-13.107230
Direct	-12.792274
Skip	-12.574761
ud	-12.643216
INV	-12.995032
Put	-13.029710
Bar	-12.279974
MAIN	-12.670255
ies	-11.682620
dw	-11.590243
ux	-12.686880
IMGUI	-13.165622
he	-12.342728
▁PyExc	-14.632716
fx	-12.854749
NVPROC	-12.985800
Elements	-12.472127
ov	-11.860231
▁charge	-12.308897
handler	-11.214300
Exp	-12.819562
gfx	-12.800047
Notification	-12.640863
sector	-13.041328
WM	-12.373050
look	-13.414580
▁There	-10.999199
▁actually	-11.839676
cur	-10.914276
▁fragment	-13.461371
MON	-12.869247
Generate	-12.587712
WT	-12.743103
coeff	-13.132403
TRANS	-12.778229
Decode	-12.797965
Plugin	-12.576741
▁macros	-12.760931
pin	-11.636746
ELEMENT	-12.784141
Seq	-12.879100
INPUT	-11.918424
cat	-12.260418
instr	-12.942948
uint	-9.036759
mo	-11.924992
BUSY	-12.454787
Peripheral	-12.861774
▁definitions	-12.353221
▁defgroup	-18.435371
HC	-12.695300
channel	-11.063053
tz	-12.416227
▁endian	-13.789186
gain	-13.372225
ry	-11.618108
Be	-12.741786
POST	-12.644141
▁perform	-12.403198
▁implemented	-12.472960
BIG	-12.450190
SDK	-12.745088
Chunk	-12.809405
▁IFS	-16.876216
lm	-12.796943
shadow	-12.933509
ual	-12.573206
SPEED	-12.712417
cls	-13.045519
Complete	-12.761166
▁classdump	-12.919970
▁Otherwise	-12.638757
codes	-13.115414
bdev	-13.196450
▁INCREF	-18.464792
RAW	-12.822487
vd	-12.869155
gu	-11.990358
front	-12.605983
PARAMS	-12.767335
▁Sets	-12.590150
exit	-10.916547
thr	-12.978860
USE	-11.047751
Verify	-12.643951
Expected	-12.915433
Try	-13.341619
▁PyArray	-13.320993
▁refcount	-13.479214
cam	-12.701486
▁wasm	-13.753926
vx	-13.106072
▁stdcall	-17.425080
INTEL	-12.965921
Operator	-12.538767
dep	-12.680636
EOF	-12.555397
False	-12.509233
▁PKEY	-16.346718
Signal	-12.883028
▁xAA	-26.181735
Delay	-12.671723
▁parallel	-12.838114
DataType	-12.751241
▁So	-11.092623
edge	-12.186940
▁SWIG	-13.129085
▁environment	-12.293699
▁dyld	-16.960806
dens	-13.835619
▁curwin	-13.472392
▁VENDOR	-15.725884
SPEC	-12.327393
▁inside	-12.031369
Clause	-12.600670
ture	-13.366745
Animation	-12.409769
Auth	-12.803306
gb	-12.776753
ber	-12.541006
▁contributors	-12.591965
ATI	-12.960522
▁nfs	-13.275232
▁crtc	-14.691290
Grid	-12.465310
Connect	-12.610594
▁exclusive	-13.352127
chars	-12.746956
sound	-12.864397
▁NSArray	-13.395554
▁partial	-12.815026
Exec	-12.666706
Variant	-12.669484
resume	-13.008687
BOX	-12.453471
▁deal	-12.037675
▁components	-12.464991
SHORT	-12.802207
irq	-11.151225
HANDLER	-12.760899
increment	-12.731731
wide	-12.671447
APPLE	-12.909937
Wrapper	-12.669575
ACL	-12.847483
tg	-12.960594
wallet	-13.496805
beta	-12.593682
rest	-12.653367
Condition	-12.619169
function	-10.703677
Constructor	-12.462961
INCLUDE	-12.252379
CCR	-13.473180
Old	-12.713253
Rel	-12.592281
PROT	-13.461848
Fast	-12.992145
its	-12.204481
ine	-12.058037
tract	-13.673195
RI	-13.021553
FI	-12.721660
▁MAJOR	-17.841108
Abstract	-12.907389
rhs	-12.371991
▁loaded	-12.802153
SIM	-12.911871
TSRML	-13.325083
send	-11.050828
QT	-12.445986
clause	-13.500370
Icon	-12.530187
processor	-12.996767
▁netif	-13.987970
▁GFP	-13.191671
▁deleted	-12.837104
used	-11.624904
VERSION	-10.981023
values	-11.645205
▁allows	-12.282565
IDLE	-12.898419
NULL	-9.849994
srv	-13.044671
▁those	-11.040765
sis	-12.900802
Traits	-12.809767
TIM	-11.806472
arity	-13.571732
fh	-13.120234
wire	-12.946892
▁UIKit	-14.591558
SQ	-12.837094
Direction	-12.644537
now	-12.102287
nf	-12.690549
height	-11.190940
radius	-13.152428
▁ingroup	-19.925544
Datum	-11.947366
Bind	-12.765646
▁offsets	-13.420057
▁NPY	-13.081372
mate	-13.426221
touch	-13.135943
literal	-13.081078
RED	-12.534926
▁endorse	-12.647852
Prop	-12.711107
Slice	-12.825383
▁extended	-12.581696
calc	-12.519664
▁snapshot	-13.240535
SINGLE	-12.961306
fds	-12.940130
▁outputs	-13.145006
binding	-12.764199
wt	-12.902824
Lookup	-12.775048
COUNTER	-13.000793
▁hypre	-13.130527
▁wrong	-12.223466
move	-11.397723
locale	-13.094276
▁geometry	-13.005315
▁isn	-12.304336
▁supports	-12.583010
WRITE	-11.250231
Directory	-12.462226
▁fxp	-13.533240
▁checksum	-13.335175
wi	-12.654218
LF	-12.818588
Enter	-12.755362
nodes	-12.261958
▁restart	-13.036806
ratio	-13.218646
PARSE	-12.772599
ate	-11.769762
begin	-10.794736
SHIFT	-11.119896
UT	-12.703019
od	-12.130187
▁pfn	-13.898359
catalog	-12.992807
tup	-12.871811
vol	-12.570214
▁construct	-13.576032
▁GrB	-12.894134
eg	-12.635994
▁LWIP	-13.004063
Volume	-12.791950
stub	-13.336830
▁ndim	-13.886976
MAGIC	-12.768555
▁memcmp	-14.458407
Speed	-12.882229
BOOT	-12.967594
▁cases	-11.607866
rem	-12.478601
▁pins	-13.272067
rot	-12.795682
▁iteration	-13.240788
▁Corporation	-11.958951
Warning	-12.391166
lang	-12.077473
Alpha	-12.877189
sse	-12.992688
tion	-11.431378
glProgramUniform	-13.150724
fatal	-13.018434
bx	-13.319266
▁RefNanny	-87.803840
IER	-13.165706
Ctrl	-12.848637
coll	-13.004054
backup	-13.303566
token	-11.366024
CERT	-12.937416
ian	-11.580988
▁ssid	-14.247644
ET	-12.632294
▁hope	-12.070715
deprecated	-13.226770
prot	-12.967577
DDR	-13.140965
UUID	-13.004394
▁testing	-12.376872
Py	-9.918065
Force	-13.099491
TD	-12.794459
Describe	-13.228697
hc	-13.067407
▁missing	-11.105956
▁xfd	-18.703599
TIFF	-12.911306
Geometry	-12.752058
from	-10.532389
▁completed	-11.552496
CALLBACK	-12.638041
▁related	-11.863450
▁usr	-16.208800
▁foo	-13.516080
Head	-12.721840
▁renderer	-13.598317
ios	-12.696876
Equal	-12.426811
▁handling	-12.560529
▁generator	-13.346193
ta	-11.720509
PRIO	-12.840432
module	-11.016422
▁constraints	-13.047828
▁lane	-14.475843
FREQ	-13.167077
COMMON	-12.842189
▁logging	-13.134699
for	-9.776741
St	-12.555785
▁WINDOWS	-13.974353
Pack	-12.672907
EDGE	-13.084778
real	-11.629352
ist	-11.625283
NK	-12.471642
live	-12.960691
BAR	-12.758093
▁addresses	-12.757127
prom	-13.228136
elt	-13.044817
BLE	-12.266599
detect	-13.202803
▁licensed	-12.758797
Ty	-13.113049
CRC	-12.794965
RL	-12.860887
BP	-12.673698
members	-13.270996
coord	-13.105721
Fetch	-12.811037
sqrt	-12.381924
FileName	-12.787102
press	-12.770085
PV	-12.142011
FUNCTION	-11.196314
Serial	-12.747472
▁GLboolean	-13.035375
HAL	-11.455737
nb	-12.111125
Flow	-12.650588
mix	-13.167222
share	-13.100071
Swap	-12.759141
▁READWRITE	-12.501248
▁errcode	-14.724808
vr	-12.750251
dom	-12.538050
grad	-12.934705
SESSION	-12.914694
arginfo	-13.255725
▁transmit	-13.294217
Ready	-12.754099
▁delegate	-13.277415
usb	-11.820744
▁PCNT	-14.795099
▁IFC	-16.061626
▁xbd	-19.488354
Title	-12.526675
declaration	-13.823769
fid	-13.112887
Allocation	-12.788182
Pair	-12.759231
sat	-13.109605
▁pull	-13.335791
XC	-13.285805
pixel	-11.863551
▁Also	-12.123294
TION	-13.075882
▁QSPI	-13.708880
metric	-12.797992
Api	-12.716779
sep	-12.632821
▁UnityEngine	-13.833291
VEC	-13.036836
CODEC	-13.021121
ser	-12.152413
reference	-11.909701
PIXEL	-12.898448
▁registered	-12.616102
CRYPT	-12.086649
message	-10.934219
Sort	-12.875189
▁behavior	-12.350932
▁Lesser	-12.432081
Dest	-12.952112
▁constants	-12.941870
▁guint	-13.220743
PCM	-12.924639
avail	-12.564818
OVERRIDE	-12.839136
ENV	-12.844094
VF	-13.017236
cid	-12.941599
▁checks	-12.684755
▁numbers	-12.020642
▁GCC	-13.190407
▁rotation	-13.142023
BSP	-13.095331
Events	-12.602321
▁due	-11.518293
SCRIPT	-12.629282
ENDIAN	-12.764859
ENTER	-12.579024
ENABLE	-10.442203
▁nrf	-13.476387
LDAP	-12.833672
IND	-12.760105
UINT	-10.994192
FAIL	-11.238584
body	-11.499140
▁itself	-11.919277
READY	-12.748029
MK	-12.828770
STORAGE	-13.017996
ctr	-13.113406
classes	-13.279415
Green	-13.262018
▁shim	-17.430524
CRIT	-13.045328
CN	-12.935870
rg	-12.699543
▁matching	-12.762224
Author	-13.541616
suspend	-12.943226
▁appropriate	-12.298959
▁dentry	-13.649752
IVPROC	-12.892596
MSK	-13.399768
Adapter	-12.690032
RG	-12.879143
Monitor	-12.552428
CPP	-12.794642
Case	-12.749982
IOC	-12.990671
▁waiting	-12.610575
▁btrfs	-13.283225
ROW	-12.787397
▁history	-10.472100
▁xbe	-17.856169
▁purpose	-12.233576
BUILD	-12.721447
Batch	-12.842192
white	-11.958160
Now	-13.019896
room	-12.701465
ized	-11.984717
XT	-13.306801
pwm	-13.207546
Card	-12.947901
CTX	-11.918232
bu	-12.772662
▁xfb	-17.427136
Failure	-12.673337
Rule	-12.697239
vo	-12.838636
scheme	-13.464608
MG	-12.969116
▁HYPRE	-13.151959
PUSH	-12.758375
SWAP	-13.053294
AI	-12.928733
change	-11.604632
busy	-13.135304
mz	-13.374065
Env	-12.437950
Unicode	-12.440723
DST	-13.174270
Called	-12.697381
▁indicates	-12.498589
EST	-13.034171
Dump	-12.665134
▁ownership	-12.801496
Definition	-12.384515
INST	-13.028459
▁uLocal	-12.646019
URI	-12.813631
idl	-13.202468
kv	-12.983837
GRP	-13.163926
LB	-12.855720
REL	-12.799554
GPIO	-11.315581
LUA	-12.900477
BLK	-13.151531
lr	-12.637248
▁physical	-12.391267
FLOW	-12.958844
vertices	-13.554988
▁glew	-17.661506
walk	-13.173467
site	-12.764888
GA	-12.781984
▁radio	-11.913438
▁intptr	-13.906459
POOL	-12.907183
ViewController	-12.852976
▁made	-10.761119
search	-11.869121
EG	-12.865504
drive	-12.987021
jit	-12.846228
eed	-13.276861
avg	-13.182585
▁npy	-13.580464
Mouse	-12.737759
Cancel	-12.764676
SAVE	-12.844245
mbuf	-13.047206
BO	-13.066069
inst	-12.073908
▁started	-11.793815
MO	-12.852853
Binding	-12.734313
Outcome	-13.399990
DECL	-11.320223
▁href	-12.660033
▁detach	-13.655153
klass	-13.274317
SMP	-13.120470
▁specify	-12.834757
Blue	-13.116579
broadcast	-13.394487
▁NUL	-12.986308
LIGHT	-12.879431
▁provide	-11.756928
EDIT	-13.214358
Character	-12.650090
▁pData	-13.937927
ASCII	-12.954242
colors	-13.266373
▁secret	-13.120795
Plan	-12.729959
Cast	-12.834298
▁hereby	-12.749998
Bad	-12.988829
Cfg	-13.119220
nu	-12.341735
trap	-12.791486
delay	-11.705627
quote	-13.093603
Results	-12.547660
APP	-12.237902
FONT	-12.948433
REV	-13.165957
PRO	-12.720821
▁calculate	-12.825114
lat	-13.071606
Short	-12.734380
edges	-13.390922
▁cdef	-13.066730
Area	-12.779094
▁finished	-12.347407
▁EMIT	-13.863833
SERVICE	-12.845807
TL	-12.707229
graphic	-12.990195
SLEEP	-13.141107
▁numpy	-14.362256
Forward	-12.976392
blocking	-13.280377
▁curl	-13.324488
STEP	-12.918444
process	-11.544425
HF	-12.679809
▁named	-11.205539
arc	-13.193222
▁notification	-13.086862
SCR	-13.349528
cho	-13.358192
CX	-12.499606
ability	-12.009436
Chain	-12.574160
▁carry	-12.705380
▁xcc	-18.091094
▁ZEPHIR	-14.799232
▁Neither	-12.795275
Allow	-12.829194
▁listen	-13.295053
Flush	-12.726398
para	-12.623888
▁handlers	-13.388553
pte	-13.347281
MEDIA	-12.915778
loader	-12.831019
variant	-13.012664
▁require	-12.310787
▁general	-11.550801
svc	-13.103231
clock	-11.874203
AG	-12.888386
▁strerror	-13.469343
▁Rights	-12.323346
Tick	-12.908882
quad	-12.511150
▁FOUNDATION	-12.938500
RELEASE	-12.915487
seek	-12.965786
▁extensions	-12.976080
Self	-12.886674
Encoding	-12.860915
tot	-13.034613
PRESENT	-13.013559
Public	-13.062670
White	-13.147597
RDY	-13.533101
Listener	-12.647737
▁pipeline	-13.246036
▁representation	-12.478747
ASSIGN	-12.858661
Stat	-13.001171
INS	-12.714396
Kit	-12.065829
▁configured	-12.881219
▁palette	-13.681579
PQ	-12.790282
phi	-12.548953
ull	-13.327016
cursor	-11.643034
ulong	-12.953833
Utils	-12.492818
▁unregister	-14.169529
▁handles	-12.995190
packet	-11.416904
▁xdf	-21.645384
provider	-13.230034
TAB	-13.006016
INTERRUPT	-12.882446
Calculate	-14.353823
kb	-11.974963
▁EXPECT	-13.104326
verifier	-13.482942
▁permit	-12.676152
proto	-11.167887
▁flatbuffers	-13.585720
focus	-12.746079
▁AddRef	-14.333230
amp	-13.036368
▁startup	-13.269854
SEG	-13.186925
model	-11.566206
▁sizes	-13.081760
▁Intel	-12.803088
nid	-13.124244
vid	-12.978398
vals	-13.067686
UNLOCK	-12.690897
POSITION	-13.069858
CHANGE	-12.941486
▁strncmp	-14.825695
OSE	-13.356328
router	-13.343408
kill	-12.791473
▁unexpected	-13.346179
motion	-13.181441
Effect	-12.901014
SPD	-13.349567
ROUND	-13.183337
MIPS	-13.080515
▁protoc	-16.108119
files	-12.329974
▁PERI	-14.950928
region	-11.749105
cal	-11.994577
Complex	-13.186876
DOM	-12.796985
Database	-12.754152
ATTR	-11.630360
Qt	-13.143890
▁docs	-14.461887
TRIGGER	-13.076733
window	-11.374741
IMP	-12.826891
request	-10.815686
ToString	-12.830767
▁includes	-11.804496
▁GNUC	-16.957338
ean	-12.057323
▁restriction	-12.644586
Names	-12.422155
parent	-11.020491
ticks	-12.970547
▁TPM	-13.357574
RESET	-11.899606
kp	-13.295972
Setting	-12.721931
▁person	-11.746209
CNTL	-13.273922
▁NIM	-14.135596
valid	-11.135786
▁actions	-12.582620
Progress	-12.627021
Random	-12.929901
Initial	-12.619863
ASYNC	-13.134808
query	-11.304336
INTER	-13.004440
▁memoryview	-15.328661
HTML	-12.750615
Processor	-12.812033
mmc	-13.175973
▁undefined	-12.905039
▁initWith	-15.053425
Drop	-12.737562
LOOP	-12.981028
▁automatically	-12.566257
Should	-13.702147
ino	-12.378525
TERM	-12.913370
pitch	-13.447660
mach	-12.973175
▁cpi	-14.102768
funcs	-13.152953
▁CLAIM	-12.921073
refresh	-13.188341
layout	-11.731002
MOV	-13.134284
fun	-13.060927
Cy	-13.129857
Black	-12.955423
Named	-12.999792
▁reserve	-13.231335
NAN	-13.500152
Eigen	-13.053687
▁successfully	-12.529014
CLOSE	-12.875388
Cost	-13.223287
Sig	-12.951004
MESH	-13.142112
▁wake	-13.611387
OV	-12.995773
▁firmware	-13.280903
▁unless	-12.536724
ENCODE	-13.065615
▁ereport	-15.368578
▁QueryInterface	-14.870949
resolution	-13.675160
xe	-11.699629
DRAW	-12.779455
rom	-12.780114
domain	-11.974933
▁hresult	-17.100283
INSERT	-13.121353
syntax	-13.393789
Pro	-12.840410
▁checking	-12.767731
ki	-12.194098
ted	-11.975381
erts	-13.031690
extend	-12.804221
▁syscall	-13.469342
Background	-12.767706
Abort	-12.893389
SERIAL	-12.167631
▁rcu	-14.171067
BANK	-13.309536
ICON	-13.020034
bug	-13.209635
descr	-13.080155
▁joaa	-13.228744
▁CURL	-13.274405
Nt	-13.417522
resolve	-12.855862
DES	-13.076941
▁opline	-15.050874
MASTER	-13.077965
▁Don	-11.756052
▁modes	-13.064546
BOOL	-10.674781
urn	-14.612852
Sec	-11.618364
TYPES	-12.559331
MACRO	-13.037340
ks	-12.236412
UNDEF	-12.928784
sion	-13.419778
Flash	-13.386457
▁AUTHORS	-12.854301
▁globals	-14.423606
▁University	-9.630165
Python	-13.502210
VARIANT	-13.065589
heap	-12.003594
▁processed	-12.975679
mesh	-12.298527
ROM	-12.444585
Inc	-13.702781
den	-12.074175
Arguments	-12.283209
ipc	-13.171516
HEX	-13.374784
▁iLocal	-14.506308
SAFE	-12.946441
die	-12.508266
Db	-12.908290
thrift	-13.488690
▁vendor	-13.800311
tw	-13.012159
▁copied	-12.976519
VERB	-13.600256
▁xaf	-22.290470
CHAN	-13.087769
OVER	-12.736789
interface	-10.831806
prim	-12.611740
dq	-13.370833
▁desired	-12.753614
WL	-12.880319
PEN	-13.540569
HL	-12.937971
Product	-12.914426
ical	-12.651197
▁xfa	-19.515693
SLOT	-13.264780
hl	-12.678636
ephir	-13.248673
HEAP	-13.043778
RNG	-13.102613
▁SPH	-14.003432
Partition	-12.864186
Invoke	-13.091559
▁uchar	-14.591031
▁LLU	-19.029276
PIX	-13.154312
mult	-13.213118
AZ	-12.918634
Aux	-13.472803
SU	-13.065068
Transmit	-13.291495
Category	-12.472924
issue	-13.271012
▁fails	-12.776031
lan	-12.239137
Mapping	-12.821937
wb	-13.137662
screen	-12.100090
paths	-13.219528
tra	-12.715573
Opt	-12.989096
install	-13.039283
USER	-11.791099
▁openssl	-15.047342
pol	-13.096070
▁rtw	-14.198955
SGIX	-13.191468
far	-13.201462
Encode	-12.994996
PERF	-13.362706
iso	-12.716187
Assign	-13.036665
OM	-12.705821
▁stdint	-17.369724
MUL	-13.227787
MENU	-12.917878
Pending	-12.973743
▁MemoryView	-19.876693
Language	-13.000786
RGBA	-13.127775
Extra	-12.540968
chunk	-11.898472
TMR	-13.282687
smp	-13.106951
▁FWD	-16.174408
rna	-12.759516
xfer	-13.199911
▁portions	-12.449599
▁connector	-14.118066
▁modules	-13.162690
Cur	-12.807334
rules	-13.348550
PROGRAM	-12.899010
▁NimString	-14.224835
UNI	-12.062327
Dst	-13.171935
Tactic	-14.309232
Uniform	-12.191719
▁sell	-12.704011
Prefix	-12.929424
FFFFFF	-12.020004
▁interfaces	-13.114264
CLI	-13.012487
▁indicate	-12.611386
BI	-13.016438
▁pdata	-14.512703
Validate	-12.644451
TLS	-12.106655
▁TCL	-13.093774
stop	-11.474000
wifi	-13.153999
secure	-13.399220
watch	-12.761905
LM	-12.991910
UR	-13.421930
Con	-12.742858
SENSOR	-13.113249
▁chartInstance	-14.021156
ray	-12.165806
▁pSrc	-13.595951
csr	-13.331548
bundle	-13.464982
▁XE	-15.941124
▁IDS	-13.320533
▁something	-11.443782
▁linked	-12.831178
▁xFD	-31.723540
Com	-13.098971
Factor	-12.951863
▁SND	-13.774250
▁give	-11.772769
Java	-13.402491
fu	-12.920785
wise	-12.550538
DISPLAY	-13.056599
Statement	-12.589607
▁temporary	-12.756722
Payload	-13.024774
OD	-13.290966
▁pubkey	-14.559543
▁determine	-12.361786
ATT	-13.467477
Done	-12.672440
Renderer	-12.878290
dll	-12.968620
lw	-12.781098
fle	-14.892142
fork	-13.356808
GU	-13.867771
▁LEAN	-14.287807
▁DISABLED	-15.377801
fffff	-12.912130
dialog	-13.368957
virt	-13.066098
ssa	-13.346601
MZ	-13.162781
SCSI	-13.065357
cross	-13.056507
▁provides	-12.071382
Doc	-12.705710
FATAL	-13.006718
reload	-13.577158
UND	-15.039638
INTEN	-13.288387
gi	-12.473886
symbols	-13.712766
problem	-14.038089
▁assume	-12.801900
MALLOC	-13.081497
DSI	-13.375235
Keys	-12.835029
buflen	-13.045536
Fields	-12.689561
xy	-12.998303
LastError	-13.145806
Points	-12.917542
▁dimensions	-13.024120
PIC	-13.227356
assoc	-13.266302
▁EXTENSION	-15.406860
ao	-12.559801
RECORD	-13.063375
control	-11.082574
Math	-12.972778
Supported	-12.932618
Go	-12.875318
▁shm	-14.321172
Observer	-12.753486
DU	-13.240146
▁INCLUDED	-14.709210
DELETE	-12.943617
IVE	-13.164660
Each	-13.841737
reloc	-13.042497
▁xfs	-13.541510
puts	-12.815016
▁datatype	-13.849442
gd	-12.920301
RTL	-13.117399
EXPR	-12.849042
yn	-13.022423
COMPARE	-13.053227
▁intern	-15.207199
AUX	-13.175004
Si	-13.381884
topic	-13.285304
Sampler	-13.105416
enum	-10.815560
tlv	-13.335150
scr	-12.978854
▁versions	-12.195592
▁appear	-12.404408
▁boundary	-12.870812
▁handshake	-13.769452
DV	-13.121113
style	-10.981611
BINARY	-12.985700
default	-9.843816
strip	-13.365934
ErrorCode	-12.913842
▁statistics	-11.091742
stmt	-12.046999
▁parsed	-13.322877
counter	-11.924022
maps	-13.118363
gf	-13.274245
agent	-13.300107
▁greater	-12.404617
Asset	-13.100961
▁BKE	-13.587527
▁nVersion	-13.257522
Foundation	-12.020922
TRI	-13.013001
ABI	-12.361498
▁checked	-13.021026
pmd	-13.584359
▁coordinates	-12.940301
NP	-13.020131
child	-11.597911
ified	-12.617865
▁slow	-12.924030
▁blen	-15.081522
Sign	-13.116473
▁serialize	-13.764455
zz	-13.181987
Dec	-13.151328
▁terminated	-13.460792
jpeg	-13.156860
rcv	-13.286488
EXCEPTION	-12.904265
BG	-12.951777
SHA	-11.939686
PUT	-13.107955
micro	-13.206951
SWITCH	-13.150108
Items	-12.777206
ADV	-13.125969
▁happen	-12.508504
LR	-13.081935
Pipeline	-12.922317
Lo	-13.012220
▁semaphore	-13.544034
▁amazon	-17.219230
SIL	-12.995652
Compiler	-13.048971
▁compressed	-13.412736
section	-11.578205
▁TWI	-13.816242
mgmt	-13.353188
BOARD	-12.976750
EGL	-13.205571
dio	-12.451345
▁vectors	-13.086521
Ignore	-12.866485
▁particular	-11.985265
lin	-12.166612
BREAK	-12.622638
▁timing	-13.370933
XA	-13.598645
Semaphore	-13.133224
relid	-13.208081
vif	-13.851573
Must	-14.069864
Atom	-12.992263
sense	-13.463305
CAM	-12.868077
INSN	-13.542503
wk	-13.156171
cloud	-13.041320
RP	-13.117010
▁writel	-17.148541
tcp	-11.891774
▁NONINFRINGEMENT	-12.896174
SETUP	-12.829107
▁arrays	-13.124282
▁NID	-13.403144
▁anon	-14.126041
▁nested	-13.476169
▁ovs	-13.449121
▁detected	-12.937885
GMAC	-14.032799
METHOD	-11.482868
▁generation	-12.556353
PAIR	-13.230457
GF	-13.203541
SHARED	-13.155747
EXEC	-12.893609
▁regular	-12.346934
Schema	-12.824216
Elem	-13.149589
Unlock	-12.771151
du	-12.341629
late	-12.719456
Cnt	-13.099414
▁mmap	-14.146135
Bucket	-13.184302
▁xbb	-18.651008
▁atoi	-13.248877
Desktop	-13.334889
▁FOREACH	-15.350128
shape	-11.820183
▁creation	-12.550854
ol	-12.196071
Apply	-12.955901
Dict	-12.846606
SEQUENCE	-12.996148
▁obtaining	-12.860413
▁whole	-11.994861
Execute	-12.854180
SAI	-13.321900
ACE	-13.031019
▁HWND	-13.411852
little	-13.988626
rad	-13.127624
▁substantial	-12.366589
props	-12.987927
ang	-12.701743
Scroll	-12.959821
pro	-11.733263
▁structures	-11.450374
DEPRECATED	-13.062791
parser	-11.791516
ABORT	-12.962554
tools	-12.863277
▁tasks	-12.911591
Statics	-13.743821
ppc	-13.234744
▁very	-11.048663
Atomic	-13.296139
lcd	-13.213231
▁strcasecmp	-15.212025
imag	-13.427435
Hz	-13.832152
▁xab	-20.217541
▁hidden	-13.325451
GD	-13.243677
▁whom	-12.190684
NATIVE	-13.173826
sess	-13.242036
▁according	-11.997246
IsValid	-12.903489
▁parsing	-13.043183
Worker	-12.903292
Package	-12.820689
▁Authors	-12.524116
▁compatible	-13.351594
▁held	-11.427029
▁critical	-12.791058
Sum	-12.937299
LU	-11.542254
Stub	-12.979449
stuff	-13.901260
ible	-12.392791
PROCESS	-13.001363
▁longer	-12.130666
▁limitation	-12.710151
NETWORK	-13.199197
uni	-11.666183
DOT	-13.309735
Reply	-12.905933
gcc	-13.166058
STS	-13.318289
PERIPH	-13.297327
Route	-12.964786
Example	-13.258507
▁prevent	-12.513151
▁hpp	-16.562036
REGS	-13.314583
RTC	-11.996326
▁executed	-12.606567
▁floating	-13.050491
vfs	-13.243457
ascii	-13.298696
terminal	-13.572685
connect	-11.507905
raw	-11.552359
AK	-12.928719
ROOT	-13.208020
▁ENTITY	-15.499564
▁msgs	-15.533080
python	-13.147281
▁immediately	-12.323614
Proto	-12.820153
ALG	-13.269125
▁PMC	-14.614511
acquire	-13.286039
neighbor	-13.743254
TEX	-13.127868
Alignment	-13.027277
suffix	-13.580965
▁DEALINGS	-12.910371
Split	-12.785657
Windows	-11.227037
RECT	-13.106239
▁MAY	-14.302307
▁finalize	-14.187296
POP	-12.701826
CFE	-13.517296
▁xBF	-24.796530
▁SKIP	-15.312158
▁operands	-13.749664
Decoder	-13.099947
WORK	-13.082485
SSI	-13.555753
▁primitive	-13.451068
Fail	-12.879928
▁txid	-14.867314
▁wine	-13.274313
DUMP	-13.137757
position	-11.485536
output	-10.758380
system	-11.536052
XD	-13.227789
▁unordered	-15.133844
ql	-13.179297
KS	-12.902229
chk	-13.181359
DISP	-13.055103
▁PPU	-16.341169
▁instructions	-12.747277
toggle	-13.471030
PIN	-11.196823
Cert	-13.167211
tim	-12.157899
CUR	-13.084150
Blob	-13.097185
▁WPA	-13.755771
Glyph	-13.203218
▁furnished	-12.826682
Sym	-12.891825
xxx	-13.148854
Services	-12.911409
▁tokens	-13.518189
Distance	-12.783097
▁instances	-12.993128
Transport	-12.952171
Pop	-12.945617
RFC	-13.906865
▁weights	-13.616095
LIT	-14.255973
ioc	-13.104837
Safe	-12.882829
▁anything	-12.022102
panel	-13.176349
Url	-12.818520
ier	-12.568461
▁SYSCFG	-14.341434
Dim	-12.855145
▁performance	-11.456489
SUN	-12.996192
▁fopen	-13.488578
Pad	-12.971887
area	-12.178929
▁persons	-12.517256
▁clients	-12.957948
MOCK	-13.298179
CDC	-13.149459
Wallet	-12.976067
▁utility	-13.234698
draw	-11.750667
Blocks	-13.045805
▁aom	-14.098690
ssh	-13.449897
▁diagnostic	-12.709860
PROFILE	-13.148558
Same	-13.599517
▁pkey	-14.634532
IPROC	-13.152963
MQTT	-13.256338
COMPONENT	-12.845160
mtx	-13.298140
first	-10.879059
Required	-12.860944
LSB	-13.404369
ERTS	-13.217528
BW	-13.349064
qos	-13.479945
▁legacy	-12.640563
Lower	-13.129650
META	-13.158535
▁FMC	-14.162093
misc	-12.931583
Identity	-12.902626
ally	-12.279575
Restore	-12.923682
lit	-12.810973
▁sender	-13.582008
sect	-13.267807
Sink	-12.963082
DIM	-13.507428
Play	-13.015136
MSI	-13.291092
▁RADIO	-13.969036
dsp	-13.316070
EEPROM	-13.908825
▁PED	-17.630367
COMM	-13.283184
▁fclose	-12.922568
Magick	-12.388972
Since	-14.104239
barrier	-13.320229
eh	-12.867021
Bound	-13.022590
ffe	-13.457344
CTR	-13.504787
refs	-13.086065
fence	-13.422906
TICK	-13.425776
Overflow	-13.124175
Disabled	-13.163647
Machine	-13.136941
pq	-13.076129
Pipe	-13.043994
sprite	-13.606816
Cached	-12.930439
Side	-13.108422
the	-10.570702
Blend	-13.097506
▁AUTHOR	-13.304551
GB	-12.106768
xp	-12.880070
sy	-12.065446
Received	-13.136220
cuda	-13.466250
wa	-12.401228
▁CGAL	-13.333899
Focus	-12.859198
▁selmon	-14.488167
this	-9.957929
CHK	-13.332186
FAULT	-12.582644
logic	-13.666547
▁mca	-14.069997
ValueType	-13.125042
ELEM	-13.382682
TOR	-12.762011
DER	-13.169544
HR	-12.836989
Ip	-13.106323
LENGTH	-11.889639
▁cinfo	-14.006283
▁dataset	-13.366319
xl	-13.060283
null	-11.091633
▁xba	-22.802170
Stage	-13.060402
Some	-13.542522
▁PFNGLUNIFORM	-13.407226
WIFI	-13.312420
▁keyword	-13.545292
Ver	-13.055166
PWM	-12.611660
USAGE	-13.173041
Sensor	-13.147521
XL	-13.031817
▁really	-11.628309
World	-12.498087
RN	-13.296179
▁LPTIM	-14.296773
Throw	-12.922041
▁ctype	-14.740121
▁sx	-14.144262
▁counters	-13.626073
Destination	-12.919684
ENGINE	-13.148328
vn	-13.123899
NumberOf	-13.143412
her	-12.615638
ABS	-13.069314
noise	-13.554172
bulk	-13.467827
IMR	-13.975600
ini	-11.797298
Zone	-12.992937
▁freed	-13.083960
TILE	-13.359260
Weight	-12.884244
ens	-12.570960
▁boxed	-15.471658
mtu	-13.413991
KB	-13.023403
TRIG	-13.716911
Objects	-12.918724
▁sptr	-14.266193
Available	-12.829882
translate	-13.408747
ay	-12.473144
▁queues	-13.840961
hm	-12.933795
Snapshot	-13.084667
SHR	-13.217049
Sound	-13.057426
▁routines	-12.919368
▁ImVec	-14.202341
▁assigned	-12.691766
QP	-13.419695
▁dictionary	-13.171679
Contact	-13.244642
▁OPCODE	-14.540269
empty	-11.459176
Center	-13.039654
MANAGER	-13.185158
TW	-12.753820
Trans	-13.275333
nxt	-13.462242
terminate	-13.071992
VE	-12.762236
▁REDIS	-13.386049
ros	-12.339330
Rep	-13.245703
Threshold	-13.149937
MOUSE	-13.177996
UA	-13.017652
solver	-13.133180
roll	-13.000494
tap	-13.347050
▁Creates	-13.051793
clamp	-13.654799
Cannot	-13.489265
gg	-13.183262
emu	-13.283602
perm	-13.260749
▁QSTR	-18.628411
Cb	-13.449383
icmp	-13.437288
POL	-13.675874
lists	-13.300729
FNGLVERTEXATTRIB	-13.197026
book	-12.627184
▁xce	-18.348068
ata	-12.043632
rdp	-13.383157
acp	-14.080000
Retrieve	-13.066399
xor	-13.230954
▁transpose	-13.675392
Align	-13.249036
▁images	-12.571541
▁IOM	-16.328917
track	-11.891798
▁streams	-13.483751
nh	-13.350210
ELF	-13.252240
gm	-13.102925
POLL	-13.077596
seen	-13.557944
Details	-12.458994
rop	-13.860039
dead	-12.650489
PHYS	-13.319112
wakeup	-13.150260
KA	-13.108676
▁IUnknown	-13.440579
▁sublicense	-13.251266
TER	-13.047059
alpha	-11.829823
The	-9.903996
▁PFN	-14.002653
WD	-12.931634
▁SERIALIZE	-16.472520
▁references	-11.960375
DateTime	-13.094407
mip	-13.404940
▁connections	-12.911257
mic	-12.861753
▁capnp	-17.839195
baud	-13.224903
▁endl	-14.524559
▁receiver	-13.181813
MAN	-12.494361
Cloud	-12.797476
accel	-13.364701
advance	-13.374305
NX	-13.123794
▁PyDict	-14.131268
dg	-13.299705
▁transition	-12.916777
▁FreeRTOS	-13.592454
▁getter	-14.536190
▁voltage	-13.440043
chip	-11.804197
VLAN	-13.354789
▁xcd	-18.251170
flip	-13.450930
DEN	-12.970955
ICR	-13.568205
▁MODEM	-14.875869
▁jint	-13.901020
Replace	-13.061130
▁sqInt	-13.032774
▁third	-11.745337
▁latest	-13.101121
IDs	-13.094715
symbol	-12.055332
register	-10.898820
repl	-13.254599
▁strchr	-13.824140
SEM	-13.356556
ofs	-13.283577
element	-11.706472
PRINTF	-13.205139
fail	-11.200382
▁SetString	-15.669246
▁NTSTATUS	-12.172193
ele	-12.986366
Google	-13.459754
▁GLubyte	-14.018545
Util	-12.940639
az	-12.803516
miss	-13.443458
▁usec	-15.127129
AH	-12.744106
unnel	-13.749533
mn	-13.206623
JIT	-13.247695
▁overlap	-13.791553
DN	-13.218028
Files	-12.622225
▁declspec	-18.125984
▁disconnect	-13.891482
Clip	-13.037184
UF	-13.700721
GI	-13.099200
Fault	-13.235897
▁opal	-13.810892
MY	-12.472121
▁positive	-12.354905
pre	-11.110395
Conversion	-13.064274
task	-11.354945
compat	-13.008689
▁DUK	-13.955618
▁HRTIM	-14.479347
Timestamp	-12.988774
ated	-11.846254
▁much	-11.151851
simd	-13.454317
har	-12.730096
DESCRIPTOR	-13.274877
AX	-13.205986
CODING	-13.421041
Join	-13.111812
▁assembly	-13.283934
tic	-12.521389
Angle	-13.134550
CONV	-13.121337
▁starts	-12.791749
ENA	-13.571935
SIGNAL	-13.059381
JPEG	-13.237801
▁inp	-14.805850
Environment	-13.114131
plain	-13.276677
Vtbl	-11.901955
▁STBI	-13.334492
▁records	-11.985981
Linux	-13.666969
mq	-13.050062
KV	-12.892396
car	-12.332497
Derived	-12.955074
▁LFA	-17.681168
DHCP	-13.857681
▁sending	-12.941135
▁handled	-13.000383
erate	-13.829078
filled	-13.948289
▁keyboard	-13.433353
▁redis	-13.613506
▁formats	-13.225687
▁incoming	-13.283547
ever	-13.138122
depth	-11.745815
REC	-13.176635
specs	-13.743985
IW	-12.832466
shuf	-16.031288
▁ERRCODE	-16.419402
Merge	-12.952639
WAKE	-13.475395
▁recovery	-13.062362
REPORT	-13.183155
isc	-13.044102
MOS	-13.184978
latency	-13.723578
INF	-13.166522
filename	-11.513071
Owner	-13.089419
Archive	-13.054246
Bounds	-13.194395
▁GLFW	-13.467549
▁takes	-12.272401
▁ecma	-13.810115
FLUSH	-13.219098
CSS	-13.394111
fall	-12.844712
impl	-11.778641
UG	-14.129955
▁nla	-13.810365
NOTIFY	-13.199621
vg	-13.374483
MCU	-13.379209
MII	-13.472096
DYNAMIC	-13.179764
compatibility	-12.964909
Buffers	-13.143153
WC	-12.953494
▁marked	-12.810261
ecc	-13.609406
Nodes	-13.088227
SIGN	-13.405784
▁writes	-12.991700
▁BLI	-13.687573
MAT	-13.327111
DROP	-13.218742
ute	-12.356882
Ad	-12.951534
rng	-13.559662
▁coordinate	-13.212392
Opcode	-13.237023
Present	-13.264911
fee	-13.865626
Linear	-12.861412
Primitive	-13.191981
mag	-12.889444
▁HFXO	-15.642482
mysql	-13.120444
En	-13.024865
▁xee	-23.036140
ial	-12.665887
▁unlink	-13.812845
command	-11.294865
▁avx	-16.458076
GFX	-13.338760
▁tif	-16.324317
PO	-13.144949
▁curbuf	-13.960315
tell	-13.764020
▁lpfc	-13.924406
▁xFB	-21.196578
COMPLETE	-12.944652
▁xac	-19.924895
iw	-13.242465
active	-11.373503
conflict	-13.850778
suit	-14.740499
▁difference	-12.477511
protect	-12.501918
datum	-13.257930
BIND	-13.255721
Delta	-12.737043
▁xbc	-21.029713
Im	-12.935990
▁strides	-14.473786
▁absolute	-12.910012
hist	-13.243921
UTIL	-13.154638
WP	-13.346749
▁underlying	-12.852559
▁hres	-13.487520
▁PINMUX	-14.883133
iph	-13.555149
Matcher	-13.293701
EVENTS	-13.588883
MATH	-13.214017
▁compiled	-13.227065
Boot	-13.006638
▁lda	-14.038311
msi	-13.198432
▁METH	-13.887196
▁specifies	-13.191369
DAC	-12.764733
DATE	-13.092129
CARD	-12.857094
ips	-12.990552
DAT	-13.579374
▁tstate	-14.004118
pal	-12.757411
Management	-13.472391
▁filters	-13.524386
fol	-14.800961
Literal	-13.251145
▁chunks	-13.596557
Algorithm	-12.973136
Conv	-13.324326
▁separate	-12.458095
MSB	-13.517844
Special	-13.180545
pause	-12.899255
Callable	-13.626042
PDU	-13.479941
LINUX	-13.114526
▁beginning	-12.268184
parm	-13.391386
ZIP	-13.082129
undo	-12.973883
Extract	-13.075332
UB	-13.385462
▁quic	-15.024591
▁PyInt	-14.005596
▁discard	-13.544148
▁LEUART	-14.885069
▁SUCCEEDED	-16.758782
lg	-13.175059
▁duk	-15.129059
▁IGNORE	-15.389265
tu	-12.649261
PDF	-12.878973
▁three	-10.851954
Stride	-13.443167
ALLOW	-12.747826
▁xdd	-19.613090
▁radeon	-13.868067
TY	-12.818896
Syntax	-13.205497
▁Whether	-12.927759
▁xea	-27.381719
pri	-13.060074
▁nbytes	-13.715870
ftp	-13.423767
lua	-11.895030
FIXED	-13.310276
floor	-13.517903
▁krb	-13.704325
jj	-13.465491
ell	-12.391856
▁foreach	-13.765547
▁gets	-12.447428
REMOVE	-13.268115
sol	-13.050473
Duration	-13.067364
switch	-10.483934
RTS	-13.278324
PULLUP	-13.692460
Namespace	-13.054094
ile	-12.722261
Serialize	-13.088665
folder	-13.636145
usart	-13.421665
ARGS	-11.759365
Peer	-13.057949
▁cairo	-13.776049
Construct	-13.044089
Completion	-13.256629
AU	-13.227287
mer	-12.481085
▁MUST	-13.826665
prime	-13.197640
Axis	-13.121551
▁xad	-17.920849
pick	-13.863860
Hook	-12.956769
Wrap	-13.234889
Console	-12.856733
SER	-12.943160
Arena	-13.100790
Curve	-13.214559
SSP	-13.464006
INTERVAL	-13.356347
BITMAP	-13.065387
ih	-13.309737
vtable	-13.582033
▁won	-11.362677
BINDING	-13.292603
display	-11.672023
▁xBB	-22.611952
▁However	-11.563980
collect	-12.742201
ARP	-13.338893
layer	-12.141347
Entries	-13.151724
arp	-13.413143
Break	-12.817359
SourceLocation	-13.039878
▁against	-10.999938
VX	-13.262638
Features	-13.090665
▁OVS	-13.685230
team	-13.064043
▁EIC	-15.384194
OWNER	-13.227011
▁simde	-13.816257
Crypto	-12.955148
▁segments	-13.297772
chr	-13.041132
▁omap	-13.963115
▁xde	-20.094356
▁represents	-12.687358
Sleep	-13.454917
qh	-13.657227
ans	-12.395102
HEIGHT	-13.395257
lab	-12.043571
Prepare	-13.023910
Slave	-13.705956
PLUS	-13.230353
MEMBER	-13.302474
▁MIDL	-14.776182
SCAL	-13.314037
serv	-13.193432
PROGRAMUNIFORM	-13.434555
▁Gets	-12.926855
wq	-13.436975
RESPONSE	-13.314113
PCIE	-13.683537
DOMAIN	-13.358734
▁mavlink	-14.219148
NM	-13.180519
▁IOCTL	-14.499544
echo	-12.919146
hints	-13.519092
decimal	-13.743199
PULSE	-14.293429
Dispatch	-12.989632
written	-12.676090
Visual	-13.378513
Filename	-13.278930
Cpu	-13.341721
sun	-12.992367
cut	-12.965213
▁fib	-14.418944
Lim	-14.793918
PARAMETERS	-13.078558
▁DDevice	-87.803840
unpack	-13.146956
▁scheduler	-13.637513
Period	-13.428187
▁NSNumber	-13.553323
Idle	-13.251572
Updated	-13.132665
DEL	-13.346583
▁SCIP	-13.443134
OPTIONS	-13.273913
Particle	-13.163646
pts	-13.523737
▁uiv	-19.736105
▁attached	-12.833088
Plane	-13.208822
attrib	-13.405868
Tk	-13.273692
▁opened	-11.876932
▁gboolean	-12.383209
▁salt	-13.001588
▁COPYING	-13.465289
Comm	-13.271245
▁UNSIGNED	-16.083345
NN	-13.265895
Disk	-13.004441
Border	-13.165968
mk	-12.158082
qf	-13.751089
frm	-13.604152
▁doing	-11.985649
management	-14.059016
Extended	-13.532288
▁dealloc	-15.147472
ARM	-12.158294
▁RID	-14.572099
enable	-10.853556
ether	-12.872872
GOTO	-13.443249
▁reflection	-14.088253
FU	-13.350344
PARSER	-13.230823
uf	-13.167708
prob	-13.335244
REFERENCE	-13.268302
RESP	-13.494947
quant	-12.912863
Tmp	-13.394622
Comment	-12.702845
WU	-13.834618
loss	-13.420969
ny	-12.333392
Rows	-13.219462
instance	-11.368055
CW	-13.201659
▁mock	-14.017861
▁Includes	-13.570245
▁declare	-12.884754
safe	-12.136501
▁ifp	-15.119334
▁entire	-12.286956
Origin	-13.173230
Certificate	-13.122046
WF	-13.426383
cvt	-13.471309
implicit	-13.980834
minus	-13.486507
PRT	-13.832537
▁iwl	-13.889517
▁rectangle	-13.477821
HY	-13.273722
ze	-12.200575
Xml	-13.140298
qs	-13.276809
Definitions	-12.754696
ICE	-13.057167
omp	-12.910336
▁comparison	-12.839577
▁xEF	-23.570295
LOCATION	-13.266749
Will	-13.352993
▁larger	-12.527063
lim	-12.872603
fully	-13.543894
▁xdb	-19.296997
▁exact	-13.126861
paint	-13.689923
option	-11.373983
▁reuse	-13.354763
procedure	-14.541868
ess	-13.207180
▁xFA	-30.475551
QC	-13.249543
mmu	-13.094071
▁XMC	-14.410757
Note	-12.831340
cpy	-11.962708
sch	-12.698659
Yellow	-14.687427
▁xcf	-19.100085
▁retrieve	-13.191212
History	-12.770987
▁sampler	-13.982841
▁RAC	-14.915466
Download	-13.187868
▁UINTN	-12.864389
Cap	-13.407961
BAND	-13.390743
▁slab	-14.342218
DICT	-13.306984
Encoder	-13.257790
▁ucs	-13.863868
Unique	-13.129188
▁absl	-13.748097
Revision	-13.100634
Finish	-12.988935
Emit	-13.340051
pwr	-13.568605
qc	-13.755565
coords	-13.474994
▁sam	-14.140197
FLD	-13.586998
▁isolate	-13.560726
second	-11.578088
RENDER	-13.383686
syn	-12.894674
▁journal	-13.446006
SOFT	-13.092827
▁xeb	-27.108036
▁uniform	-13.412334
▁xae	-19.201307
BV	-13.316398
▁elog	-15.852139
USED	-12.876799
Malloc	-13.441493
▁attempt	-12.542646
▁metrics	-13.675348
▁MAVLINK	-14.200757
▁vch	-13.983249
▁had	-9.903606
▁tvb	-14.482846
links	-13.150427
abilities	-13.780492
▁BSTR	-13.815079
General	-12.674763
Selected	-12.952334
nonce	-13.538571
alarm	-13.725267
Frequency	-13.223766
done	-11.580679
Constants	-13.085216
tgt	-13.587959
Implementation	-12.706341
▁instancetype	-15.040589
▁objc	-14.263069
▁tensorflow	-14.200704
▁tsk	-14.031896
Folder	-13.201067
▁returning	-12.829861
og	-12.668526
▁Operating	-13.198126
▁mini	-13.684842
▁SDMMC	-14.306700
▁NONNULL	-17.332289
CUDA	-13.551442
Inputs	-13.250662
▁pmix	-13.965883
equal	-11.989695
▁selector	-13.644478
reset	-11.274863
SEEK	-13.379224
▁UCHAR	-13.664786
▁Please	-12.469017
ped	-12.567156
▁workspace	-14.067770
eps	-13.346715
circ	-13.045628
▁CSL	-14.019026
Role	-13.195241
▁indexes	-13.570601
▁outside	-12.102540
ox	-13.362009
duplicate	-13.985552
▁fake	-13.561650
Guid	-13.326186
ism	-11.426656
LARGE	-13.162295
When	-12.767587
CONTENT	-13.463298
▁Enables	-13.452364
BUILTIN	-13.421365
Registry	-13.052471
Marker	-13.282088
xc	-11.559110
▁Cyan	-12.621080
art	-12.572295
TLV	-13.546676
RK	-13.159255
Loader	-13.113952
gemm	-13.808551
zy	-13.413228
▁ZAP	-14.670262
Compile	-13.011044
Selector	-13.165025
Accept	-13.099733
▁USA	-12.185101
STRUCTURE	-13.597273
prov	-13.253259
Purpose	-14.436614
▁framebuffer	-14.212448
STYLE	-13.148048
Reason	-13.015331
Alias	-13.292132
EXPORT	-10.956812
rotate	-13.845936
ez	-12.509492
Fragment	-13.019582
ker	-12.751963
▁sds	-13.841280
ler	-11.788470
Family	-12.589594
▁developers	-13.082489
json	-11.661327
▁controls	-13.115156
▁previously	-12.259142
mont	-13.145369
Password	-12.995565
strncpy	-13.512159
bea	-13.804829
InitStruct	-13.213202
WRAP	-13.390991
CXX	-12.912238
claim	-13.634204
holder	-13.751919
Freq	-13.526742
prio	-13.344490
UM	-13.189018
▁xabababab	-87.803840
vari	-13.851389
▁ppvObject	-15.310652
▁htim	-14.286578
blank	-13.349227
LI	-13.127177
odd	-12.530501
▁deref	-15.555871
Keyboard	-12.967934
vq	-13.701957
obs	-13.773414
▁recursive	-13.762469
SUM	-13.266223
▁IMF	-13.860365
Authentication	-13.475246
▁OBSERVER	-18.405670
BX	-13.482899
BIN	-13.491670
GAIN	-13.752447
dk	-12.841541
▁makes	-12.059503
▁bmc	-16.594099
Editor	-12.947675
Logger	-13.131316
HA	-12.807998
GM	-13.001519
Resize	-13.307952
SX	-13.397372
pan	-12.527371
isr	-13.292629
▁hdc	-14.082313
hz	-13.473942
pda	-14.163377
▁cout	-14.389482
clr	-13.442894
tuples	-13.413867
▁transactions	-13.010434
▁occurred	-12.588897
▁glfw	-14.573541
Numeric	-13.397685
▁xed	-15.553108
lun	-13.475748
HE	-13.435736
▁counts	-13.300238
oo	-12.930271
gw	-13.658981
▁cells	-12.426113
▁better	-11.670430
Two	-13.013604
candidate	-13.568153
HashTable	-13.269370
▁VkDevice	-13.580687
BLEND	-13.286634
oe	-12.873530
▁cJSON	-13.916447
▁going	-11.512727
▁vertical	-13.443075
ALWAYS	-13.370074
▁vout	-14.267065
▁LETIMER	-15.219687
▁gint	-13.331719
HERE	-14.025998
THRESHOLD	-13.528470
steps	-13.779318
▁implement	-12.878135
▁reads	-13.078526
ong	-13.184716
Using	-13.676431
void	-8.442296
▁accompanying	-12.932462
▁YYCURSOR	-15.304111
▁scoped	-13.743519
GTK	-13.479767
qt	-13.449339
▁Magenta	-12.663229
▁delayed	-13.675029
Before	-13.131107
DESCRIPTION	-13.473586
▁revision	-13.579203
COND	-13.457998
▁DECLSPEC	-13.699302
SIMPLE	-13.413918
rnd	-13.596278
▁UCS	-13.927952
ite	-12.578787
▁OSSL	-13.762264
FFFF	-12.141533
▁xnn	-14.447962
▁creating	-12.630597
▁easy	-12.693799
▁addtogroup	-16.988404
smart	-13.325558
Branch	-13.378986
disc	-13.008606
IGSEL	-15.393006
sections	-13.748563
LAT	-13.764854
pj	-13.470253
LN	-13.474081
CAPS	-13.506160
▁invoked	-13.228178
pdf	-13.147375
SCI	-13.365434
Big	-12.521124
registry	-13.725324
layers	-13.591664
POLICY	-13.433788
Shadow	-13.338716
FLASH	-12.479808
Declaration	-12.999703
timeout	-11.596493
actor	-13.562787
IG	-12.990737
XOR	-13.581661
MMU	-13.508787
Paint	-13.210688
tal	-12.619821
EventArgs	-13.705901
CHUNK	-13.485536
▁strcat	-13.775290
SCOPE	-13.356097
bond	-13.698953
ANCE	-13.200220
pulse	-14.016603
nand	-13.524429
▁reached	-12.413255
Framework	-12.964684
LAYER	-13.443972
▁signals	-12.720322
PW	-13.134906
Execution	-13.166450
▁SIZEOF	-14.084929
▁ctrlr	-15.949814
regex	-13.537045
▁rename	-14.151194
Px	-13.688121
▁applied	-12.509032
▁integr	-16.524783
▁xec	-19.867473
rdma	-13.585932
▁contact	-12.544615
▁MLX	-14.221735
browser	-13.533772
SECURITY	-13.364937
▁Microsoft	-12.518563
▁AVAILABLE	-15.564558
oss	-13.396134
▁EXTERNAL	-15.035176
▁detection	-12.989576
LESS	-13.278763
pointer	-11.615813
mnt	-13.614421
▁OPA	-16.133023
▁softc	-17.033592
▁username	-13.682265
wnd	-12.974810
Touch	-13.226264
thing	-13.315542
ivity	-13.961802
▁NSDictionary	-14.054219
LFXO	-14.558148
Sparse	-13.462985
recv	-12.186434
hub	-13.322439
PN	-13.298786
mh	-13.586179
▁addition	-12.107157
spawn	-13.453042
▁converted	-12.950438
vel	-12.978043
▁destructor	-13.460634
TG	-13.124322
prec	-13.267900
prompt	-13.630916
bmp	-13.587696
▁nonnull	-15.923140
strm	-13.421236
▁GTLR	-13.578457
AO	-13.471419
OA	-13.648719
FACE	-13.286589
COMPILE	-12.887326
org	-10.764042
Second	-13.171179
▁mtd	-14.470913
THREADS	-13.003213
prt	-13.737680
Codec	-13.262005
▁animation	-13.022390
▁supplied	-13.134417
iq	-13.193114
▁gdb	-14.094809
▁rettv	-14.362381
▁EIGEN	-13.461454
with	-11.171622
▁Unable	-14.736520
ALIAS	-13.443199
flush	-11.878331
NVM	-13.496333
nz	-13.308726
square	-13.490296
▁ENR	-17.634018
▁sph	-14.064095
▁itk	-13.104383
▁equivalent	-12.695838
my	-11.202762
Hdr	-13.517013
▁governed	-13.150902
sens	-14.321456
Hit	-13.163002
▁avctx	-14.762847
NEG	-13.426645
▁NEED	-15.019477
FILL	-13.540580
assign	-11.908252
SSH	-13.271442
Secure	-13.145701
▁xda	-20.207721
▁gpointer	-13.391978
▁performed	-12.130126
Logical	-13.272726
MUTEX	-13.312175
▁kafka	-16.653235
▁circuit	-13.005391
▁PGUID	-14.905239
ka	-11.573352
TRY	-13.041600
FRC	-14.137509
Bin	-13.589220
parms	-13.632747
Receiver	-13.244844
▁users	-12.593373
Over	-13.069627
II	-11.776398
TAILQ	-13.534317
short	-11.693735
crt	-13.298945
Channels	-13.335750
▁whose	-12.211508
FIELD	-11.445223
▁exponent	-13.765045
HZ	-13.294975
▁CUI	-15.890312
ide	-12.951850
RULE	-12.979451
intf	-13.557994
But	-12.650961
fin	-12.476713
ative	-12.077085
▁notifier	-14.598147
pci	-11.934484
coin	-13.218979
pairs	-14.053620
▁lws	-14.194403
hu	-12.941438
MGMT	-13.544439
▁ASSUME	-16.699152
▁todo	-13.639753
Apple	-13.747382
CTS	-13.681910
XR	-13.506092
pose	-12.785705
Acquire	-13.225412
Conn	-13.023484
▁viewport	-14.147243
star	-12.540665
SVC	-13.788633
lvl	-13.620878
update	-10.933601
eu	-12.915412
fld	-13.569547
HARD	-13.348616
SOL	-13.348337
▁working	-11.767679
defs	-13.175122
Ok	-13.054409
Browser	-12.850438
prev	-11.425363
PROXY	-13.433017
▁contained	-12.785082
▁interpret	-14.301084
YUV	-13.606554
▁Could	-14.084142
Tail	-13.219144
▁PURE	-13.515899
snap	-12.911155
scaling	-14.085895
▁encryption	-13.479643
▁ofproto	-14.350977
INFORMATION	-13.394703
CUSTOM	-13.363635
Coord	-13.505316
BufferSize	-13.319684
OVR	-14.028322
▁invalidate	-13.932865
unmap	-13.191582
XM	-13.239720
Increment	-13.254239
multiply	-14.294912
IVEREF	-13.768112
▁EXPECTED	-15.438882
▁fffffff	-19.360388
▁fout	-14.469407
PSK	-13.582579
FUL	-13.781710
ik	-12.679358
XS	-13.189503
Sp	-13.219603
DIG	-13.735180
FLEX	-13.838751
Final	-13.037283
vuint	-13.864490
authentication	-14.427335
Agent	-13.299002
▁masked	-14.245580
GPR	-13.699720
prefix	-11.933896
grow	-13.627581
▁glm	-14.143420
▁OpenSSL	-13.608204
▁ISC	-14.172875
▁HSE	-14.409239
hole	-13.446741
FUSE	-14.026301
pop	-11.623848
WI	-13.095412
▁drivers	-12.109901
▁illegal	-13.276911
strict	-12.388415
▁computed	-13.289343
thresh	-13.593728
▁abfd	-15.506302
Eq	-13.603560
▁phalcon	-16.104516
xw	-13.788771
▁submit	-13.551653
random	-12.305374
Alarm	-13.748199
▁declarations	-12.953181
qi	-13.334308
▁IPT	-13.824669
FETCH	-13.515282
msr	-13.714032
tun	-13.420002
total	-11.692556
▁DESCR	-13.149038
OpenGL	-13.193209
reach	-13.009663
▁flat	-13.346452
SPROC	-13.329910
inherit	-13.385413
GNSP	-15.012248
tol	-13.432740
▁dobj	-16.266654
▁higher	-12.190424
Eval	-13.407049
▁rval	-13.863472
ldap	-13.545315
▁descriptors	-13.506001
Phase	-13.185441
Workspace	-14.130553
CHAIN	-13.432115
▁bitwidth	-17.246518
ATTRIB	-13.486134
COR	-13.504022
Motion	-13.407943
▁LSM	-13.909189
Ar	-13.454340
SLAVE	-13.605713
▁things	-11.671434
pend	-13.708543
wave	-13.334486
spaces	-13.632008
▁referenced	-13.345809
OL	-13.115242
▁WOLFSSL	-13.550340
geo	-13.330321
click	-12.842130
PENDING	-13.482922
SEARCH	-13.402366
Seg	-13.400142
OE	-13.390488
Perform	-13.172681
fbb	-12.785348
▁UNIX	-14.295971
UID	-13.359118
▁highest	-12.416521
Prev	-13.281531
choose	-14.046426
piece	-13.577925
ccb	-13.950401
▁xdr	-14.440945
Added	-13.148939
Enc	-13.373093
▁OPERAND	-15.856350
▁unistd	-17.694874
▁certain	-12.146037
imp	-13.133968
modifier	-13.543218
▁produce	-12.760406
▁github	-16.617778
▁PMIX	-13.586495
Me	-12.761951
▁anchor	-13.737974
BIAS	-13.901233
ENCLR	-14.444207
▁hri	-14.684281
TU	-13.356782
▁sysbio	-87.803840
dac	-13.475577
▁isset	-16.881124
PAR	-13.215534
STRLEN	-13.665769
eal	-13.408126
fixed	-12.439128
Div	-13.256039
STAMP	-13.494897
usage	-12.268997
▁velocity	-13.519958
▁rather	-12.028841
▁spinlock	-14.411130
▁updates	-13.055971
Backend	-13.336630
NOR	-13.367451
▁loading	-13.365714
Original	-13.335231
Overlay	-13.577627
▁pbuf	-13.906903
▁temperature	-12.814301
Did	-12.867758
hdl	-13.644196
HB	-13.097745
audio	-12.360833
combine	-13.584818
▁quality	-12.549299
kl	-13.467975
Found	-12.961700
▁swift	-13.969868
Sel	-13.380177
▁hWnd	-14.437137
ke	-12.171496
OPERATION	-13.475478
stp	-13.646860
brush	-13.349618
Place	-13.618717
YES	-13.600876
dai	-13.385388
hb	-13.512297
oh	-12.875230
▁xCC	-22.005323
▁occurs	-12.710122
mw	-13.602763
post	-11.737140
printer	-13.749703
BLUE	-13.100845
VB	-13.529625
Need	-13.875661
▁CRYP	-14.201694
▁filesystem	-13.807605
▁Mountain	-12.224320
answer	-13.747830
ko	-12.059335
iff	-13.452678
prof	-13.070906
Look	-13.686570
▁hmac	-15.069033
▁predicate	-13.700533
Patch	-13.254520
▁mex	-16.296704
▁separator	-13.708857
multi	-11.701305
▁please	-12.480523
▁translation	-12.758250
▁APR	-13.505531
Inline	-13.339148
intra	-13.761355
gsl	-13.886171
PJ	-13.436545
FORWARD	-13.400082
Visible	-13.185614
Viewport	-13.537359
hot	-13.517381
▁DCHECK	-13.626588
TOOL	-13.439387
▁Specifies	-13.741709
▁milliseconds	-13.616551
cbmc	-14.392749
Inter	-13.478773
▁xca	-19.980602
▁unable	-13.219787
come	-14.227726
WK	-13.534690
▁btree	-14.277381
jmp	-13.345514
Amount	-13.280194
NIC	-13.437668
PEND	-14.167984
▁pybuffer	-17.456464
Gui	-12.885758
▁consider	-12.512772
xi	-12.894124
COMPRESSED	-13.526720
tran	-13.504464
GH	-13.493926
iz	-12.673850
Clk	-13.769188
admin	-13.242382
▁taken	-11.947970
▁ffd	-20.138002
XY	-13.209628
▁optarg	-14.243485
RUNTIME	-13.263430
ern	-12.874785
break	-8.305498
mbox	-13.321429
▁tcg	-13.844587
▁resolver	-14.916156
Composition	-13.799713
master	-11.975754
Include	-12.815533
ous	-12.127451
Geo	-13.505502
▁various	-11.819479
RHS	-13.642263
lst	-13.484311
inity	-15.343276
SMB	-13.579865
cw	-13.571187
Install	-12.864500
▁vsi	-14.854897
burst	-13.841041
▁inserted	-13.334059
▁FSL	-13.945578
▁owned	-12.663751
GRAPH	-13.448884
▁odp	-14.561323
fwd	-13.580777
Comparator	-13.649318
▁ENET	-14.113689
mpz	-13.858347
Shell	-12.962799
▁rewrite	-13.850118
Qual	-13.360265
Modify	-13.556620
▁SIMDE	-14.094327
▁dtor	-15.601437
Mgr	-13.452706
▁ETM	-15.342458
▁LIBXSMM	-14.124743
estimate	-14.184282
signal	-11.781473
▁hdev	-15.668884
SORT	-13.467092
▁smaller	-12.627428
BK	-13.122624
Cleanup	-13.041372
insert	-11.526267
Pixels	-13.564735
Sprite	-13.336156
▁vdev	-15.114014
Elf	-13.957758
▁glColor	-14.597426
▁sad	-14.410102
FPU	-13.777087
SCL	-13.867535
TARGET	-12.133547
▁BLAZE	-13.836032
▁irqrestore	-17.851158
Quad	-13.347208
Distributed	-14.852587
Drive	-13.601774
Band	-13.393193
Transition	-13.180955
▁srna	-15.914691
HO	-13.376977
Take	-13.436736
Pt	-13.509880
TRANSFORM	-13.538329
Given	-14.322353
alert	-13.550814
Round	-13.430395
access	-11.641299
▁blaze	-13.990104
▁built	-11.781315
Fix	-13.179492
▁posix	-14.083999
grab	-13.771575
▁mdb	-14.432877
▁overlay	-14.049235
▁decoded	-13.806846
▁xEE	-87.803840
push	-11.131342
DDS	-13.504154
▁USING	-14.701690
targets	-13.896285
ffff	-12.451107
lk	-13.240440
▁RELOC	-15.668132
WA	-13.133394
Super	-13.044299
neos	-14.006619
▁horizontal	-13.514738
▁epoch	-13.934560
ATA	-13.341373
Indirect	-13.541119
Override	-11.935360
SCREEN	-13.446192
Ensure	-14.727665
▁initializer	-13.853666
cas	-13.314356
Sz	-13.454041
▁COMPILER	-15.181485
Methods	-13.420972
TLE	-15.051252
Recv	-13.501772
ArrayRef	-13.389723
▁TypeError	-14.950128
Unsigned	-13.337953
▁GLAPIENTRY	-14.169182
▁topology	-13.983175
trim	-13.472939
delta	-12.096600
Digital	-14.111051
▁octet	-14.236751
ark	-13.874542
rss	-13.660289
rid	-12.981955
▁services	-11.486668
▁evaluate	-13.313689
▁ACTIONS	-13.440679
IMG	-13.833526
Drag	-13.257054
▁glVertex	-14.403885
Keep	-13.801263
fine	-14.096596
▁buckets	-14.328343
vv	-13.704716
Minimum	-13.323683
▁SOAP	-14.137780
▁phba	-15.849260
gpr	-13.764882
CLKSEL	-14.164478
ash	-13.115198
GATE	-13.482201
buttons	-13.844846
any	-12.069230
axi	-13.766267
Cut	-13.655099
▁sidl	-13.894696
rst	-13.262892
CURSOR	-12.594545
▁EIO	-15.088485
lic	-12.478662
ick	-13.459048
▁IDC	-13.595902
Tex	-12.829743
▁vget	-14.795378
▁upb	-14.275474
▁dart	-13.419633
▁cleared	-13.333935
ZCL	-13.782538
SAMPLER	-13.500673
fac	-13.519591
sbmc	-14.519649
▁upload	-14.214482
CAT	-13.330150
nav	-12.955620
LW	-13.031065
▁setter	-14.360647
IMPORT	-13.201795
Bank	-13.470958
balance	-13.456455
Bi	-13.235981
▁drvdata	-17.314011
▁adding	-12.826937
▁debugging	-13.288383
meth	-13.493435
sigma	-12.981442
Cycle	-13.135617
cube	-13.356776
strategy	-13.842736
Capacity	-13.380053
▁validation	-13.324657
▁Elias	-13.695299
▁probably	-12.240126
ashcho	-14.531377
Ids	-13.531788
Registers	-13.430131
FRAMEBUFFER	-13.477688
▁SFD	-17.100624
TIMING	-13.901729
structure	-13.138542
▁spl	-14.430758
▁CAmount	-13.501522
xid	-13.317617
▁further	-11.752919
shared	-11.360431
▁StatusTypeDef	-87.803840
grant	-13.717235
SENSE	-13.753066
LJIT	-14.288804
May	-13.083676
tn	-13.336449
Actor	-13.507951
flt	-13.807105
▁protection	-12.725877
▁bVar	-14.310805
ew	-12.578290
Bridge	-13.248607
▁STDMETHOD	-13.648014
Clone	-13.321623
▁TNode	-14.367401
▁leading	-12.383097
▁refer	-11.065436
demo	-13.583636
LVL	-13.922649
▁PPI	-14.079369
HOOK	-13.350283
▁explicitly	-13.112298
▁solution	-12.495163
▁trailing	-13.525015
memory	-11.030965
▁endcode	-17.253803
▁ovld	-22.140776
frac	-11.869767
ITER	-13.550110
ENSET	-14.984705
▁elab	-19.114699
offs	-13.107688
Hint	-13.466012
▁mqtt	-14.488893
▁adds	-13.468549
RQ	-13.721201
oy	-13.091005
▁ptrdiff	-13.968681
Analog	-14.398763
ana	-12.293851
▁VDAC	-15.146851
▁HSI	-14.674792
CLUSTER	-13.621038
Expand	-13.942339
anal	-14.744232
▁sources	-12.101323
Specific	-12.789540
▁THROW	-16.737783
▁SDH	-16.568391
dbus	-13.553595
activate	-13.504813
Arr	-13.561536
Multiple	-13.610686
BER	-13.632563
▁pxd	-18.174752
ard	-12.341823
▁DEVINFO	-15.374460
IFG	-14.346446
Lite	-13.384362
▁Nonnull	-16.118138
panic	-13.395553
Man	-12.588115
Span	-13.303905
GAME	-13.723472
fptr	-13.682080
land	-11.462538
Vars	-13.506714
bk	-13.669006
Rpc	-13.680764
Micro	-13.460115
Small	-13.319999
▁vld	-14.423644
subscribe	-13.871324
Pa	-13.217609
Maybe	-13.595112
▁OPTIONAL	-14.126587
Tool	-12.897075
QM	-13.729343
▁ZSTR	-14.648431
▁HFCLK	-15.643673
Pr	-13.526903
wind	-13.420056
STENCIL	-13.439710
SUPP	-13.218981
mmio	-13.722732
▁cospi	-15.178876
Photo	-13.279570
Panel	-12.891067
margin	-12.431686
DIFF	-13.371484
▁PyCFunction	-15.490745
▁GATT	-15.339446
ANY	-12.373349
xt	-13.280689
▁middle	-12.573910
▁NOTICE	-13.690442
hop	-13.603865
▁PVOID	-13.350057
▁regval	-13.864123
VertexAttrib	-12.308242
▁folly	-13.835780
Hi	-13.293883
Diff	-13.312065
▁party	-11.978766
▁decrypt	-14.566816
▁yyvs	-15.632481
GLX	-13.470966
Intrinsic	-13.718309
km	-11.524222
Board	-13.520504
VO	-13.419938
TBL	-13.602130
Isolate	-13.460279
Unsafe	-14.243861
MIC	-13.111958
stencil	-13.920041
peek	-13.784854
▁regmap	-14.793290
▁capability	-13.671669
gz	-13.533794
mii	-13.724528
fat	-13.711906
stroke	-13.490719
have	-12.762687
napi	-13.795238
fire	-13.027778
Initialization	-13.266047
IDE	-13.380584
pseudo	-14.091504
anim	-13.074029
Attrib	-13.716775
▁indicating	-13.125912
Indices	-13.552077
▁exchange	-13.170698
PHASE	-13.589559
login	-13.375343
▁BORINGSSL	-14.813678
▁vport	-15.074180
Scheme	-13.246438
StringRef	-13.385429
INSTR	-13.744059
items	-12.190466
▁nSize	-13.756053
plt	-13.517728
Collections	-13.544324
Half	-13.618405
session	-11.367449
HeapTuple	-13.005362
▁queued	-13.924729
unlock	-11.029334
▁opensource	-15.895587
MSP	-13.625820
▁CCP	-14.083355
ONCE	-13.718754
▁readl	-14.423077
fuse	-13.605136
define	-7.560206
TRIM	-14.146298
Columns	-13.393832
Visitor	-13.166223
SPC	-13.491232
▁occur	-12.882915
Samples	-13.374484
pkg	-13.333051
PCI	-12.510161
launch	-13.754861
Summary	-13.391455
truncate	-13.378602
WEB	-12.430632
SECOND	-13.372788
mixer	-13.767350
NOP	-13.240494
spell	-13.866078
▁though	-11.814343
oper	-12.885256
▁hyg	-17.538640
mirr	-16.903114
TOK	-13.473710
▁lost	-12.072357
oston	-17.634164
Based	-13.557439
USHORT	-13.312133
bson	-13.505601
LANG	-13.235823
lut	-13.543536
▁SFR	-16.387655
Upper	-13.448072
AXIS	-13.741695
Preview	-13.609422
sib	-14.437607
Demo	-12.855227
▁scaled	-14.075870
OLD	-13.476264
▁jiffies	-14.168781
Fee	-13.468429
▁REQUIRED	-15.525878
▁MagickFalse	-13.731043
algo	-13.557084
TransactionId	-13.371647
nop	-13.267982
▁SPDK	-14.322027
ppp	-13.976955
RND	-14.218366
CRL	-13.855940
▁regulator	-13.974158
▁INPUTSEL	-19.188685
▁across	-11.920921
java	-12.287579
dest	-11.525170
▁ValueError	-14.563464
PCR	-13.452071
Controls	-13.543341
air	-12.813645
▁resulting	-12.709610
theta	-13.083624
▁NEON	-14.897548
geom	-13.597708
Dimension	-13.372484
▁neon	-15.243229
REP	-13.698102
Pg	-13.548455
▁substream	-15.278838
away	-13.280380
▁immediate	-13.212669
Collision	-13.506548
▁matched	-13.540261
Hex	-13.447941
Determine	-15.404823
Ethernet	-13.421937
hh	-13.754420
normalize	-13.851461
csum	-13.779779
DMI	-15.223362
GEO	-13.918775
COLUMN	-13.594523
▁positions	-12.440817
▁YCH	-18.919092
Visit	-13.129419
Mutable	-12.965109
▁XED	-13.901072
EI	-13.147209
▁BITCOIN	-13.177290
KEEP	-13.509700
Cx	-13.652256
▁holding	-12.767708
Routine	-12.942699
TRA	-13.291645
callback	-11.322660
Outputs	-13.465090
sPer	-13.712228
Team	-13.447327
▁average	-12.450052
▁released	-11.597845
PERIOD	-13.820165
▁xCD	-23.316959
▁bnx	-14.210836
MIX	-13.253351
Share	-13.548216
Headers	-13.388437
force	-12.169530
wo	-13.164319
Additional	-14.078951
▁fixup	-14.608654
ISP	-13.786741
UD	-13.024396
fact	-13.853594
▁IXGBE	-14.020687
▁computation	-13.513253
▁SINGLECTRL	-19.388657
Rtl	-13.460914
chrono	-13.489870
IRQHandler	-13.280709
▁FTM	-14.457425
▁holds	-12.757368
▁deep	-12.868198
accum	-13.511635
isa	-12.960739
userdata	-13.617562
MPEG	-13.621963
GCM	-13.825091
eax	-13.769707
▁ROR	-16.522609
VID	-13.674408
▁DOCTEST	-13.800412
MemoryContext	-13.173452
▁gatt	-15.144225
IQ	-13.629051
BLAS	-13.913420
det	-12.953714
libc	-13.529786
▁riscv	-15.467843
▁simply	-12.365537
▁representing	-12.874849
common	-11.302422
Modifier	-13.435229
ObjC	-13.507641
Adjust	-13.429037
Analysis	-13.430168
▁traverse	-14.377191
Variables	-13.121496
NORM	-13.133368
▁fabs	-14.533060
▁packages	-13.895351
SHOW	-13.294558
oa	-13.002100
▁IInspectable	-15.274279
▁inverse	-13.663233
Usb	-13.654978
ug	-13.479632
IPSETTING	-13.894747
▁correctly	-13.008554
Rotation	-13.391976
▁SHIM	-16.721792
▁managed	-12.852404
engine	-12.204478
Disp	-13.628828
▁orientation	-13.519166
ek	-12.706750
subtype	-13.920456
Cpp	-13.336738
▁multiplication	-13.533987
PROBE	-13.616765
Score	-12.964516
rtp	-13.726259
mempool	-13.713890
MN	-13.348361
DK	-13.333242
Modified	-13.341156
▁chroma	-15.081143
WB	-13.466885
Sim	-13.562439
INLINE	-11.412437
▁GENERATED	-13.526546
gather	-13.617209
Always	-14.076988
Site	-13.308704
ODR	-14.177645
ESC	-13.649752
Leave	-13.674927
▁popup	-14.185347
Floor	-14.679296
WE	-12.835407
LEAVE	-13.278211
cmds	-13.591282
FFI	-13.755322
concat	-13.663606
▁CTransaction	-13.566080
PARM	-13.677354
▁EBI	-14.974325
CPL	-13.799891
▁glMultiTexCoord	-14.661406
CLIP	-13.443745
▁GST	-13.958620
TRACK	-13.501702
▁memmove	-14.447221
QUIC	-13.593669
ities	-12.605055
▁adev	-16.028363
ass	-13.093750
▁PCD	-14.860098
▁scanner	-14.125035
letter	-14.148189
Builtin	-13.304982
nw	-13.704062
Par	-13.257764
▁implements	-13.133911
▁nxv	-16.917116
crash	-14.311275
Caps	-13.683293
rho	-12.936313
Mon	-13.551034
Instr	-13.613368
That	-12.610457
▁everything	-12.291368
HINT	-13.699844
▁regions	-12.789673
cxt	-13.642651
canvas	-13.796403
▁stdin	-14.114282
▁prototype	-13.557889
▁exactly	-12.656269
percent	-13.709368
Dis	-13.447508
▁estate	-13.047977
DECODE	-12.847905
▁GLshort	-14.342083
▁having	-11.672364
▁past	-12.127750
Locale	-13.489372
PTE	-13.990355
cent	-13.263776
ITY	-12.563477
try	-11.531103
▁padapter	-16.009527
CONTROLLER	-13.749806
voice	-13.357741
▁dependent	-13.365392
Pull	-13.486618
gst	-13.779940
▁SMU	-14.431001
other	-11.712970
CELL	-13.627075
▁similar	-11.956756
lite	-13.279485
gpio	-11.926088
REMOTE	-13.714326
Raise	-13.405349
cdb	-13.836358
Tr	-13.509194
▁WMI	-14.357827
cdev	-13.689519
▁moved	-12.073012
Spatial	-13.727107
▁individual	-12.200956
▁luaL	-13.920835
make	-11.778641
eval	-12.444753
▁upstream	-14.209084
OW	-13.743818
Once	-13.762755
Poly	-13.151191
EU	-13.636146
Checks	-13.449413
Ro	-13.666769
▁irqsave	-17.382422
cch	-13.803723
OMP	-13.529410
▁ldb	-14.153784
dna	-13.970025
▁depending	-13.059781
▁VMA	-13.851773
Sock	-13.596843
▁libxsmm	-14.367395
rivateFrameworks	-13.837016
▁daemon	-14.075058
rates	-13.520660
▁PyTypeObject	-14.011331
▁xCE	-31.265688
ged	-13.049944
btn	-13.426196
bone	-13.761173
gradient	-14.121156
▁obliv	-19.229649
▁timeval	-13.261040
Holder	-13.301112
LZ	-13.859376
cpus	-13.744690
▁strstr	-14.604547
▁backward	-13.758528
global	-11.462819
TXT	-13.628675
▁consumer	-13.514646
Cond	-13.425461
BaseType	-13.614314
DSA	-13.756871
Protection	-14.089548
▁glVertexAttribI	-14.875678
▁ordered	-12.878805
Mock	-13.136706
▁vint	-15.127771
Orientation	-13.486831
UserData	-13.802431
Hardware	-13.941519
▁reject	-13.762844
DIGEST	-13.706828
▁XCH	-16.898723
▁watchdog	-14.009750
hx	-14.188256
▁unref	-16.148738
drag	-13.828250
rh	-13.586244
▁bandwidth	-14.058854
exe	-13.564890
GetCurrent	-13.422314
GENERAL	-13.723563
▁stopped	-12.936804
WX	-13.513699
▁vlib	-14.172294
EXCEPT	-13.681318
template	-11.114228
slash	-13.527586
▁CCMR	-15.878740
ord	-13.290983
▁DISPID	-14.077943
▁stores	-12.987267
anti	-13.216213
yield	-13.778961
vin	-12.969920
elm	-13.748857
NDRV	-14.035174
preferred	-14.198696
BIOS	-13.580908
AQ	-13.859749
MAG	-13.668909
▁typval	-14.259655
Jump	-13.597011
EXIST	-13.592277
DOG	-14.174241
▁compl	-14.776173
▁sbitmap	-13.313975
Callbacks	-13.505757
▁observer	-14.072520
hv	-13.602995
power	-11.835418
Backup	-13.531504
▁xAB	-25.235882
dsi	-13.951822
Indexed	-13.594479
IBM	-13.700589
▁yes	-13.089934
iot	-13.487835
divide	-13.842724
Parallel	-13.341964
wh	-13.678628
▁checkpoint	-13.854863
SYN	-13.903910
zu	-13.146154
wall	-13.423089
▁MKL	-15.077006
tyEnum	-14.452341
▁ofp	-14.106875
▁secondary	-12.895782
▁REFI	-13.594924
Unexpected	-13.608599
CRT	-13.475562
esc	-13.446964
▁lsm	-14.265952
Chars	-13.704681
▁specification	-13.388181
▁considered	-12.012531
HUB	-13.647923
CTRLA	-14.758586
▁follows	-12.039968
NDIS	-13.663470
Navigation	-13.168786
fft	-13.861050
hide	-13.039562
BasicBlock	-13.507220
▁VTSS	-14.742856
ATTACHMENT	-13.599196
Toggle	-13.543933
Acpi	-13.247307
▁redraw	-13.976286
Spi	-13.635307
arrow	-13.206071
▁blocked	-13.657356
Dummy	-13.534354
▁encrypted	-13.903054
▁bParam	-14.734397
Buff	-13.646561
ERASE	-13.943040
CONT	-12.950935
fan	-13.306034
Bundle	-13.161927
MCS	-13.782835
ward	-12.724164
Anim	-13.797569
visibility	-13.845801
▁OPAL	-13.756402
▁pstate	-15.171216
▁fcntl	-15.251897
hcd	-13.805203
▁enqueue	-14.307245
ERATOR	-13.591631
qu	-13.007616
Xfer	-13.684735
OVERFLOW	-13.619636
▁PRIu	-14.783782
netlink	-13.659338
OO	-14.047249
GetAttr	-14.088831
charset	-13.871972
▁JNIEnv	-15.252423
ten	-12.350511
FAT	-13.712246
PPP	-13.590245
RSP	-13.779529
LITERAL	-13.894966
▁dropped	-13.072822
extra	-11.948048
Interp	-13.741327
CScript	-13.529307
▁jlong	-14.309485
▁qla	-14.482993
Physical	-13.696641
INITIAL	-13.632971
Wire	-13.385860
iterate	-14.426480
▁xBD	-87.803840
ZONE	-13.571171
WHITE	-13.502914
▁DECODER	-16.986730
Returned	-13.190355
Picker	-13.643508
PRODUCT	-13.714291
ory	-13.271541
Ring	-13.676890
true	-11.134794
LAYOUT	-13.748190
▁SYNCBUSY	-16.989391
Signed	-13.552113
ACCEPT	-13.582231
Major	-13.383097
Running	-12.928473
Del	-13.368197
gram	-13.125300
tau	-13.080227
NaN	-14.191915
TCB	-13.746671
got	-12.261784
STMT	-13.604417
▁xBE	-30.930875
PAUSE	-13.601930
▁amdgpu	-14.112544
siz	-13.876590
▁FSMC	-14.548014
TRANSFER	-13.752701
find	-11.435742
▁bitfield	-14.107367
▁upon	-11.708709
column	-11.831098
zlib	-13.661549
Inner	-13.153520
RTT	-13.849165
Then	-13.566702
FAMILY	-13.721136
ries	-12.920400
▁EFM	-14.258167
▁Il	-12.974759
▁stb	-14.115048
Commit	-13.228367
▁ENODEV	-16.140176
CreateInfo	-13.624414
▁LPCWSTR	-13.880941
▁fallback	-13.950254
gx	-13.888571
sci	-13.341402
DAY	-13.268554
bufs	-13.622524
▁executable	-13.738590
▁effects	-12.090915
cstr	-13.775304
▁emlrt	-14.664413
▁normalized	-13.974053
CONVERT	-13.901728
▁processes	-12.782744
ake	-13.159499
Frames	-13.640468
Sup	-14.082204
integer	-12.259816
storage	-12.149008
Automation	-14.202161
Chip	-13.320741
WRAPPER	-13.599529
FRAGMENT	-13.747641
Activity	-12.827989
▁few	-11.623235
MTU	-13.778710
registration	-14.065081
▁rendering	-13.496830
CString	-13.572897
Refresh	-13.383197
Printer	-13.355281
▁nlmsg	-14.766294
▁coap	-14.308988
▁xBC	-18.804497
▁elapsed	-13.883587
gettext	-13.755907
Disconnect	-13.517599
itive	-13.248128
Resources	-13.270682
Help	-13.373679
Tracker	-13.484769
PRSSEL	-14.993756
Pose	-13.846838
MCR	-14.064362
▁NSInteger	-14.480344
Accessor	-13.456752
Suite	-13.352757
Gp	-13.727808
TRANSPORT	-13.761005
PMU	-14.001285
▁RESETVALUE	-87.803840
▁gevent	-17.248792
Gradient	-13.586286
▁nTime	-13.794111
ARN	-13.971642
▁EFAULT	-15.761253
adr	-12.908509
Imm	-13.741547
cgroup	-13.782053
▁serialized	-13.506667
Gain	-13.595430
▁dpif	-14.534103
AMP	-13.477094
LINEAR	-13.564701
DRIVE	-13.768110
VTK	-13.658263
quit	-13.355633
xyz	-13.779270
▁subsystem	-13.989633
Ray	-13.278415
Hub	-13.310283
▁nType	-13.954799
GREEN	-13.677333
CONSTRAINT	-13.695245
boxes	-13.984353
Dist	-13.550977
Cmp	-13.825869
Picture	-13.659772
BIF	-13.890787
▁divider	-14.095769
Closure	-13.298690
ou	-12.953213
Solver	-13.666534
Attachment	-13.591814
▁perror	-14.085486
plot	-13.474239
SIGNATURE	-13.817202
REPLY	-13.700833
▁ompi	-14.316488
▁ticket	-13.996620
Gpu	-13.728810
VERIFIER	-13.747780
cbc	-13.910346
attack	-13.750839
mapping	-12.369057
mpc	-14.154065
VARIABLE	-13.553602
surf	-13.677536
▁HFPERCLK	-17.962394
sur	-12.833074
meter	-13.146746
SRS	-14.150008
▁mongoc	-14.066267
VG	-13.627420
VISIBLE	-13.733357
▁mvm	-15.978062
xact	-13.756573
Contains	-13.485312
▁TOO	-16.745267
sil	-13.539699
BOOST	-13.849581
▁htons	-13.875841
Os	-13.238879
SOF	-13.903944
▁NIMCALL	-87.803840
allocated	-12.554457
▁assertion	-13.939610
▁indic	-15.941508
Shutdown	-13.359404
▁possibly	-13.008669
xa	-11.510622
Day	-13.170905
Declarations	-13.185079
WSA	-13.511021
▁xDD	-21.225935
▁dwFlags	-14.127659
IZE	-12.385568
full	-11.959009
Radio	-13.107046
tbtt	-14.403003
scanf	-13.277426
mass	-13.799826
gray	-13.639946
▁calculation	-13.410577
▁smb	-14.297114
GAP	-13.760077
▁DISALLOW	-13.908600
argv	-11.273096
▁transparent	-13.647163
▁ucp	-14.191851
DataSize	-13.641441
Chat	-13.357099
▁UNSUPPORTED	-16.444713
SURFACE	-13.657878
psk	-13.920515
Payment	-13.461557
XP	-13.230668
BROWSE	-13.829670
FINAL	-13.159293
serial	-11.897456
ldr	-13.937543
OPS	-13.503737
▁decoding	-13.594632
clauses	-14.107561
asoc	-13.879196
MONITOR	-13.731313
nim	-13.660943
IES	-13.109999
Utility	-13.436313
COMPRESS	-13.705063
tar	-12.940199
Tests	-13.235056
TAIL	-13.827680
nan	-12.921381
indx	-13.878005
lh	-13.924778
▁pindex	-14.178675
stl	-13.723954
RECV	-13.688271
optimize	-13.591338
yp	-13.421452
▁described	-10.958230
setup	-11.797387
dpi	-13.835286
CAR	-13.058373
BSS	-13.844610
Printf	-13.742051
▁Indicates	-13.739337
▁comments	-12.561126
false	-11.186789
Errors	-13.317276
JUMP	-13.482526
Android	-13.391537
convert	-12.258034
▁OSPEED	-19.345189
CAPTURE	-13.893914
▁vreinterpret	-14.738094
Arc	-13.582327
Commands	-13.485255
iy	-13.689182
ua	-12.837447
ja	-12.306298
NAT	-13.706673
▁RTCC	-15.103206
▁Phalcon	-15.315166
▁executor	-14.081149
▁asset	-13.774333
GetDatum	-13.747749
Inv	-13.702285
LOOKUP	-13.830189
IFF	-13.851164
Partial	-13.077946
▁SYSCALL	-15.061700
▁functionality	-13.204464
▁operators	-12.959996
Dense	-14.037618
▁matcher	-14.282222
contiguous	-13.675608
Plus	-13.500668
▁expressions	-13.342210
▁represent	-12.841301
Metrics	-13.460916
▁transformation	-13.374443
smooth	-14.176244
BODY	-13.345863
Weak	-13.431269
nmp	-14.081897
▁increase	-12.487854
▁dependency	-13.735212
▁identify	-13.049859
JOIN	-13.954913
HALF	-13.819953
GOT	-12.360621
▁declared	-12.770361
Bottom	-12.732634
service	-11.860469
repr	-13.972335
mission	-12.897330
vect	-13.912062
nam	-13.111237
TXD	-14.118341
LOWER	-13.954657
▁pkcs	-14.765737
GetItem	-13.858091
LK	-13.652397
Joint	-13.653522
Broadcast	-13.030529
▁equals	-14.084196
▁fsm	-14.924937
ISA	-13.570261
DIAG	-13.560726
ris	-12.768169
water	-12.779110
▁helpstring	-19.457715
TAP	-13.830348
Cookie	-13.304044
coef	-13.900531
▁properly	-12.813367
FLG	-14.048458
ushort	-13.819968
FIND	-13.612013
ations	-12.229356
xxxx	-14.832836
▁locals	-14.222600
Erase	-13.726826
Seconds	-13.567224
▁xBA	-26.591055
REASON	-13.712741
▁GenTree	-14.296023
CCU	-14.149522
ARR	-13.926569
Statistics	-13.475076
RH	-13.678858
peak	-14.263157
▁fileName	-14.253484
PRIV	-13.783357
▁CBlockIndex	-13.472368
AIN	-14.206976
RLE	-14.028281
▁pA	-15.889318
▁repeated	-13.292192
▁broken	-12.991437
Capabilities	-13.710011
Parameteriv	-13.845394
CHG	-14.172404
Rectangle	-13.585033
stamp	-12.482941
jo	-12.692518
Predicate	-13.600395
ow	-12.925517
oi	-13.149917
▁BIGNUM	-14.169998
UIView	-14.106701
dsa	-13.448000
▁ndev	-15.952170
PARENT	-13.753744
▁reported	-12.221131
SOUND	-13.553558
Reduce	-13.613253
ttl	-13.764872
ill	-12.821901
States	-13.220943
OFS	-14.111980
Dot	-13.406495
Prim	-13.762910
▁PyList	-14.264120
station	-13.773956
Vi	-13.814791
Networking	-13.836753
polygon	-14.332321
sky	-12.238628
bde	-15.701541
hashtable	-13.744068
pnt	-14.221107
ect	-13.941472
cover	-13.483686
▁resolved	-13.573883
▁applications	-12.497195
ful	-12.474426
IOS	-13.358012
leak	-14.347933
▁dreg	-15.497633
▁xfff	-27.110821
wcs	-13.791748
Subscription	-13.518589
▁sbi	-15.436450
Live	-12.861679
▁MINT	-14.749966
▁significant	-12.323733
▁xAC	-28.040775
phone	-13.213577
mime	-13.447408
▁warnings	-13.434270
SDA	-14.057549
errno	-11.325400
high	-11.923930
ACCEL	-13.796997
Brush	-13.602963
Watch	-13.230384
Mul	-13.724899
DEST	-13.882448
▁IRDA	-14.646788
Representation	-13.232168
DG	-13.343332
vaddr	-13.833529
RAND	-13.713171
ose	-12.399143
COMPAT	-13.508077
▁cdecl	-17.108286
Transpose	-13.677794
QOS	-14.044789
solve	-13.970649
LITE	-13.262512
▁pDst	-14.275254
proj	-13.797897
XB	-14.289249
Timing	-13.618371
Ti	-13.585755
VOL	-13.254631
Caller	-13.588855
alter	-14.174325
glob	-13.427848
Pred	-13.839653
Detail	-13.477866
▁css	-15.139727
Nb	-13.881863
lpc	-13.992162
ace	-13.162442
▁EID	-15.317172
Severity	-13.818013
bios	-13.261267
driver	-11.476391
SETTINGS	-13.697995
sdl	-13.945477
CEC	-14.032232
Extensions	-13.384428
namespace	-11.925828
WAL	-13.628183
ish	-12.260290
▁analog	-13.880305
▁envoy	-14.737910
pending	-12.055641
Pause	-13.528775
▁advertising	-13.140659
▁nghttp	-14.011947
GX	-13.580506
MOUNT	-13.891494
STB	-13.782185
Ind	-13.855090
learn	-14.164044
▁efx	-14.663323
ANGLE	-13.651273
DBL	-13.873352
UAL	-13.940193
scal	-13.969565
SIDE	-13.221658
▁njs	-14.016965
▁predictor	-15.241958
Requested	-13.773090
PLAY	-13.456992
here	-13.221288
▁dpp	-15.444753
▁gchar	-13.625760
Alter	-14.074347
▁lifetime	-13.585241
cor	-13.058515
Future	-13.622844
sdp	-14.004975
eng	-13.393419
Palette	-13.724323
corner	-14.149938
tlb	-13.765533
SCHEMA	-13.793930
▁gasnet	-14.383549
SCH	-13.855213
CSI	-13.491559
▁nothrow	-16.655570
▁lld	-16.718780
FINISH	-13.508353
CHILD	-13.706476
Sent	-13.290876
▁DTLS	-15.592112
ku	-13.070978
▁VEHICLE	-16.319808
foreign	-14.050960
▁iommu	-14.911337
compound	-14.237830
▁CDTI	-18.981999
skip	-11.984940
▁triggers	-13.783803
▁measurement	-13.404530
▁aarch	-15.414927
Quic	-13.437363
VD	-13.702337
Fmt	-13.912455
RECEIVE	-13.848169
▁thus	-12.357092
TAMP	-14.442571
cmap	-13.924146
Sh	-13.675627
sTo	-13.586445
ntDefaultHandler	-13.571233
CANCEL	-13.546694
arb	-13.890577
EH	-13.674593
PLANE	-13.921979
DISK	-13.709662
CONSOLE	-13.624690
merge	-12.660811
▁hyper	-13.673025
delete	-11.480273
izing	-12.722172
Voice	-13.584344
ention	-15.191043
▁acado	-15.297257
dsc	-14.162485
PATTERN	-13.756566
lz	-13.648139
egl	-13.992976
▁glTexCoord	-14.812337
hello	-13.551559
PMD	-13.841538
Defines	-13.549270
▁zeros	-14.049857
MULT	-13.952993
macro	-11.989138
Front	-13.345094
▁MHZ	-17.174480
FALSE	-11.235864
sdk	-13.687163
wal	-13.242337
Reverse	-13.309966
dB	-14.063169
Xt	-13.816527
▁bsize	-14.682969
▁tiles	-14.418875
▁llu	-17.771490
▁sentinel	-14.017003
colour	-14.099618
▁destroyed	-12.977241
trig	-13.796925
feed	-13.802379
▁RADEON	-14.333345
destruct	-13.220762
ning	-12.442088
ndx	-13.943578
PQExpBuffer	-12.987881
Radius	-13.659160
FPROC	-13.671506
ves	-13.186776
▁hstring	-15.216975
▁mismatch	-13.920528
Secret	-13.584604
EO	-13.711712
LUT	-14.056450
basis	-14.346569
▁decompress	-14.564981
▁smartlist	-13.825061
▁xAD	-24.534077
Seek	-13.686384
▁fflush	-13.593341
SCHED	-13.745161
ADAPTER	-13.732775
MESA	-14.015326
Missing	-13.216338
Behavior	-13.195718
circle	-13.884207
Alert	-13.449430
Alternate	-13.532784
▁imx	-14.710145
▁accessor	-14.448091
Ob	-13.562722
LSR	-14.279940
Attempt	-13.654864
gh	-13.317706
ural	-13.951925
zi	-13.065131
itor	-14.740772
even	-13.034578
encode	-11.848841
RANDOM	-13.725213
hip	-13.324971
crl	-14.051509
MODIFY	-13.951196
BTN	-13.887103
Uri	-13.578757
dig	-13.350744
▁ANALOG	-16.084300
Soft	-13.192062
Launch	-13.243462
note	-11.250429
Alt	-13.719591
▁nodiscard	-20.122705
▁INITIALIZER	-18.364617
AES	-12.480250
Bluetooth	-13.564744
TOTAL	-13.797753
▁happens	-12.953140
▁fVar	-14.347395
Framebuffer	-13.268986
▁sectors	-14.051020
Scoped	-13.647669
SECURE	-13.878872
Mux	-14.165984
energy	-13.849741
SysTick	-13.989801
▁clinic	-15.983977
runs	-14.580556
KE	-13.179315
▁UniValue	-14.104221
▁SECP	-15.790119
self	-10.484608
▁xhci	-14.833427
▁sampling	-13.945596
vw	-13.706908
FilePath	-13.608665
tip	-13.641164
ji	-12.460307
Mo	-13.276193
THR	-13.775281
Previous	-13.802874
▁Ltd	-12.606927
WAVE	-13.328001
▁hdma	-14.756516
▁lpsz	-14.368717
series	-13.498914
repo	-13.784638
Popup	-13.842126
Turn	-14.017670
ATOR	-13.423275
MIS	-13.924273
▁MICROPY	-13.722179
PDM	-13.912039
ade	-13.096087
BASIC	-13.526760
mmask	-14.273960
fo	-13.068248
▁NSError	-14.703132
RETURN	-11.220890
ering	-13.707462
▁manage	-13.503286
STUB	-13.775871
DET	-14.272440
▁LFRCO	-15.813215
Velocity	-13.721796
Ali	-13.938672
JOY	-13.785569
eff	-13.679025
ANDROID	-13.649993
highlight	-13.969067
mpt	-14.085105
▁SMARTCARD	-14.667258
Best	-12.700965
▁histogram	-14.098871
VOLUME	-13.791608
HV	-13.721208
▁flb	-13.921126
▁newly	-13.024941
kk	-13.810557
PSR	-14.061393
▁sysctl	-14.667735
▁noop	-15.459884
located	-14.666808
VIRTUAL	-13.732288
▁scb	-15.169527
lay	-12.763742
GG	-13.741605
OU	-14.404219
▁EXTINT	-16.627355
Crypt	-13.462282
incr	-13.706350
Coll	-14.061407
▁alive	-13.736237
TLB	-13.993846
bufsize	-13.763880
JL	-13.896362
▁upgrade	-13.929177
mxArray	-13.884107
Wide	-13.908058
▁msm	-14.493589
▁replaced	-12.604873
DOC	-13.060492
Like	-13.585060
▁wlan	-14.669943
ey	-12.184006
▁proper	-12.747437
PING	-13.629175
droid	-15.878511
locations	-14.021002
motor	-14.073330
▁indexed	-13.977356
istic	-13.095612
▁udev	-15.112810
damage	-14.232798
ina	-12.203372
Padding	-13.680391
ECDSA	-13.936726
▁xAF	-30.052183
ETH	-12.563277
kt	-13.506314
POLY	-13.876288
RIS	-14.002441
Just	-13.404498
raid	-13.850887
▁hashmap	-14.036095
pen	-13.349264
CLOUD	-13.937950
lexer	-13.835812
FFT	-13.973587
ATTRIBUTES	-13.552779
Resolution	-13.269727
IOT	-13.797717
▁triggered	-13.634167
▁GCLK	-15.697222
▁alloca	-14.654754
▁iomem	-17.223819
▁xCF	-23.192469
Leaf	-13.489673
don	-12.196863
surface	-12.152663
▁communication	-12.802464
zoom	-14.082775
▁CLKOUT	-16.978844
Click	-13.200931
▁buffered	-14.252145
NAMED	-13.685402
Canvas	-13.559211
supply	-14.358442
wild	-13.746632
JA	-13.226627
writ	-15.026511
Rank	-13.385677
OUS	-13.661019
STAGE	-13.449302
Unsupported	-13.730128
▁pNext	-14.366766
decode	-11.941643
▁SiS	-15.287494
collation	-13.822919
▁ASF	-14.024737
Smi	-13.847249
▁EVSYS	-14.770831
Contents	-12.700931
sheet	-13.098813
SPLIT	-13.794601
Rotate	-13.731776
JOB	-13.749292
Uni	-13.879029
Macros	-13.504683
▁authors	-12.437130
ics	-13.292495
Registration	-13.411480
emp	-13.647346
Converter	-13.567618
Destructor	-13.341382
Persistent	-13.579786
▁Ipp	-14.670329
ular	-13.459595
▁others	-11.876389
Finished	-13.440137
Translate	-13.620684
record	-11.810718
Connected	-13.459040
▁sas	-15.807469
Recursive	-13.604818
OGR	-14.122528
▁unsafe	-13.944934
MACHINE	-13.847018
▁succeeded	-13.146272
▁bssid	-15.437042
deferred	-14.128047
Printing	-14.466479
▁deinit	-15.452091
▁ddraw	-14.856518
▁ndarray	-15.820187
EXPAND	-13.871424
Legacy	-13.928263
AREA	-13.927741
▁opc	-14.960906
fraction	-14.156840
train	-13.450977
monst	-14.232879
Undefined	-13.585747
COMPUTE	-14.000365
RETRY	-13.858309
HELPER	-13.809574
INI	-13.883792
▁IDA	-14.879837
ned	-12.915639
current	-10.737909
Remaining	-13.391940
Tasks	-13.548196
SPL	-13.931598
Arm	-13.747911
Arn	-14.099483
▁wmi	-14.802930
ADR	-14.010180
KR	-13.422586
SON	-13.394536
Occurred	-13.949617
SGIS	-13.958700
▁NoneT	-15.933802
▁who	-10.089073
▁ecere	-16.717742
LHS	-14.128885
▁views	-12.919883
sRequest	-14.034119
FIT	-13.927484
Under	-13.457307
▁sockets	-14.076075
nbr	-14.019111
Polygon	-13.594803
EACH	-13.191631
mut	-13.595034
REQUIRE	-12.989923
▁overload	-14.188106
DUP	-13.801783
ane	-12.971020
▁digital	-12.744030
RU	-13.657797
FG	-13.384903
▁subset	-13.799881
▁MONS	-14.560866
TZ	-13.690553
Ops	-13.714812
▁ixgbe	-14.302071
BLOB	-13.829740
▁xAE	-87.803840
▁pC	-15.222052
planes	-13.586986
▁GETARG	-16.492754
hy	-13.111796
▁TIMx	-14.285799
▁sysfs	-14.701035
ANA	-13.318304
cdc	-14.102723
Opaque	-13.795678
▁ovsdb	-14.006821
Fire	-13.652921
PAN	-13.924398
DQ	-13.811718
▁cctx	-15.106423
PARITY	-14.014033
Validation	-13.449202
pattern	-12.218226
▁expansion	-12.984252
Dependency	-13.642759
Dlg	-13.583714
▁didn	-12.007289
▁rspamd	-14.393077
▁usually	-12.409639
▁anyway	-13.095448
upd	-13.846888
cst	-13.952582
content	-11.670498
▁SYSCLK	-15.116447
▁DFMT	-19.997059
Functor	-13.710787
Playback	-13.881551
build	-12.043844
Components	-13.320945
Oc	-14.634378
apic	-13.825207
▁drw	-15.178551
pmc	-13.950117
cnfn	-13.995091
STL	-13.605421
gn	-12.813279
Have	-13.411216
AUTO	-12.178655
▁loadu	-17.844414
leader	-13.862941
kh	-13.264654
Pick	-14.232481
▁building	-11.896789
Strings	-13.125026
mos	-13.260538
Tags	-13.520186
vote	-14.236688
Seed	-13.594234
▁dual	-13.647908
▁trying	-12.241494
▁offload	-14.796419
UNDER	-13.692043
bitmap	-12.319710
SHELL	-13.698408
▁testcase	-14.233918
audit	-14.045889
▁exceptions	-13.616929
CLEAN	-13.602241
TypeInfo	-13.567594
Groups	-13.215409
ROT	-13.984116
Home	-13.102495
▁QWidget	-14.066844
Vendor	-13.726260
cil	-13.381084
▁lParam	-14.336018
▁XFS	-14.293725
PCLK	-14.292129
▁ALC	-15.062179
efi	-13.846999
cgi	-13.794391
▁represented	-12.513205
MULTITEXCOORD	-13.928752
▁printLine	-13.534209
▁hwloc	-14.403986
▁followed	-12.347342
qm	-14.092766
Immediate	-13.707544
▁swig	-14.838891
oct	-13.641483
ure	-12.057164
particle	-14.042207
UARTE	-13.941225
Mass	-13.815449
fpu	-14.025941
▁supplicant	-16.935993
Lua	-13.611916
verb	-12.049335
▁TSS	-14.313520
▁PULL	-15.802775
▁depends	-13.201956
▁ALTER	-14.223204
▁bindings	-14.526353
Calc	-13.742527
▁FORCEINLINE	-14.008496
Tri	-13.377438
▁replacement	-12.615184
▁FUNCTIONS	-14.205744
Theme	-13.109799
▁limited	-12.546486
DIGIT	-13.903194
lrd	-14.573805
Processing	-13.449866
BMP	-13.855748
CTRLB	-14.898117
HU	-13.753971
CQ	-13.843078
Wave	-13.667509
deflate	-14.467553
Ui	-13.232951
▁vkGet	-15.130895
multiplier	-14.356570
Schedule	-13.887714
▁PDC	-14.532655
▁drawing	-13.245514
Relative	-13.406158
tiny	-13.803620
Instances	-14.061646
SVG	-13.713385
▁UNEXPECTED	-16.317442
LIN	-13.625203
FLAC	-14.008163
▁HOLDER	-13.765374
PDX	-13.141167
Interaction	-13.847371
Assignment	-13.356523
beg	-13.667042
▁platforms	-13.150203
mar	-12.548774
AW	-13.594194
ObjectType	-13.720194
Let	-13.238794
qd	-13.981331
KEYS	-13.782571
CUBE	-13.759947
STANDARD	-13.552393
VkPhysicalDevice	-13.727050
WG	-13.859312
▁overwrite	-13.976934
ada	-12.466827
▁creates	-13.217269
rwlock	-13.998625
▁jobject	-13.955089
AsyncCaller	-14.913590
▁KEYWORD	-15.724171
▁sli	-15.698629
lease	-14.262513
▁obtained	-12.587012
TUPLE	-14.038455
AFTER	-13.930980
ead	-14.085399
ahead	-13.493906
DCT	-14.007385
▁UNIVERSAL	-15.873750
▁alternative	-12.821371
Br	-13.672089
XV	-13.565737
getenv	-13.897130
AGE	-13.237797
aio	-13.900373
▁ATTRS	-17.433378
Rev	-13.829182
SSD	-14.099654
▁changing	-13.012400
COMPLEX	-13.589564
SEED	-13.986010
Performance	-13.807624
DXGI	-13.584978
Children	-13.101987
Agg	-13.649926
lead	-13.856323
race	-13.644705
▁CGFloat	-14.171956
Resume	-13.611432
DEFAULT	-11.112998
FROM	-12.367610
Declare	-14.698385
▁spirit	-13.735459
▁inflate	-14.205461
Coin	-13.331143
nes	-12.626471
propagate	-14.698294
▁subclass	-14.002908
LIC	-12.426854
▁HSTRING	-14.767137
Conf	-13.431298
Candidate	-13.636145
▁plat	-15.600379
facet	-14.207923
release	-11.336449
EAP	-13.878957
nest	-13.214547
▁xDB	-21.706142
ium	-12.859195
▁newline	-14.076679
▁DTFC	-18.531810
▁TORSO	-18.811392
Fc	-13.368001
MGR	-14.066137
NMI	-14.145955
▁SPIS	-14.325450
Compressed	-13.543150
mis	-13.354194
Steam	-14.169926
Calling	-13.991048
ptp	-14.104294
division	-14.485820
▁relocation	-13.762144
▁ATL	-14.933806
▁PyBytes	-14.533965
▁timed	-14.319046
Histogram	-13.817248
▁OMX	-14.012633
▁sscanf	-14.901435
Smart	-13.846493
mad	-13.644285
VREF	-14.484520
RSTR	-14.766863
▁pst	-14.989645
▁getting	-12.282747
Norm	-13.723989
Bias	-13.844195
Packed	-13.995253
▁crop	-14.202097
ww	-13.976300
▁vval	-18.646304
bor	-13.641476
▁embedded	-13.626295
▁vwsn	-19.711419
credentials	-14.301836
Upload	-13.656105
▁XXH	-14.458689
▁SELF	-16.671256
RUNNING	-13.862265
Primary	-13.631336
▁prefetch	-14.575511
▁xEB	-28.748981
▁PyThreadState	-14.841893
▁online	-12.357861
▁assumed	-13.237179
lru	-14.029197
FTP	-13.633155
STALL	-14.219709
Attach	-13.655928
INTFLAG	-15.078205
▁manual	-13.544538
intrinsic	-14.538775
ival	-13.961113
ending	-13.548111
USR	-13.764564
BPROC	-13.843475
PLUGIN	-13.758428
IPP	-14.280757
Union	-13.431709
vers	-13.473584
ZX	-13.707360
EventHandler	-13.887118
bat	-13.060672
▁mDNS	-14.354610
HELP	-13.742352
IAM	-13.819725
COEF	-14.469018
SCU	-14.443595
qe	-13.930831
Ctor	-14.098372
Metric	-13.668469
El	-12.819506
expose	-15.174256
isnull	-13.621694
ROLE	-13.827800
▁conditional	-13.864971
Credit	-13.373118
▁compilation	-12.583494
▁itemsize	-14.912055
▁purposes	-12.774989
▁feedback	-13.749511
▁ICU	-14.237046
lon	-13.004050
▁IOTHUB	-14.840854
MPL	-13.884530
▁accessed	-13.468041
▁NSURL	-14.535525
tle	-13.423031
▁dnx	-15.108518
osc	-13.869258
Collect	-14.143321
comma	-14.303177
OES	-13.702615
REPLACE	-13.835377
Sector	-14.073224
▁xEC	-25.916188
▁hcryp	-14.775110
▁composite	-13.188404
Lines	-13.520967
RefPtr	-13.895955
each	-11.952181
stddef	-13.210326
ceil	-14.127650
▁projection	-13.772764
dif	-9.989235
▁vpx	-14.671659
ware	-12.733406
Ns	-13.703385
OWN	-13.889478
SAS	-13.690213
FREQUENCY	-14.032650
▁serialization	-13.845753
UTILS	-13.813851
▁dirent	-14.451176
ERRNO	-13.755547
▁integers	-13.652992
raster	-14.223870
▁wParam	-14.444592
▁bitmask	-14.293467
▁ordering	-13.656367
▁dct	-14.451276
ORIG	-14.952083
verts	-13.950359
SRV	-14.017438
strength	-14.213608
occ	-14.045191
▁psa	-14.370236
Clean	-13.947327
Nv	-14.200535
GetValue	-13.902004
▁replication	-13.817691
▁PSM	-14.566994
▁xEA	-25.733968
QS	-13.761566
samp	-14.247539
License	-11.635553
Pi	-13.456428
▁loops	-13.861591
COORD	-13.822837
▁transmission	-13.193016
coding	-13.814346
PTP	-13.990462
GetString	-13.811749
▁email	-12.914199
Logging	-13.622856
Repeat	-13.757623
MH	-13.637511
SDHC	-14.377390
tracing	-14.268855
icroelectronics	-14.143226
TTY	-13.471353
▁outline	-13.888398
sequence	-12.259711
Car	-13.439731
▁XMM	-15.783981
LDO	-14.342619
qr	-13.841155
OTA	-13.914084
▁glIs	-14.808186
INITIALIZE	-13.063922
▁XDMAC	-15.818732
Capability	-13.834837
constant	-12.463588
feat	-13.581378
Acc	-13.907173
▁dependencies	-13.430252
RenderTarget	-14.032691
▁COBJMACROS	-12.909741
▁IHTML	-14.808658
drain	-14.131034
bed	-13.305594
thd	-14.582622
Unary	-13.868353
Walk	-13.836061
Messages	-13.540090
▁incorrect	-13.782548
▁recover	-13.807267
Ms	-12.504398
reorder	-14.403918
Thr	-14.266175
matrices	-15.532285
Ctl	-13.768525
▁ymm	-15.703316
Poll	-13.870485
▁enumeration	-13.772808
PIPELINE	-14.043103
unload	-13.931681
▁debugstr	-14.506037
Executor	-13.603072
Parameterfv	-14.097469
EZ	-13.749554
ctiva	-17.435180
appendStringInfo	-13.781954
▁xDC	-22.601190
▁clib	-14.064513
delim	-13.784283
iu	-13.328129
city	-12.772945
QE	-14.336209
▁altivec	-17.616914
▁glClear	-14.783216
eo	-12.687484
Activation	-13.831262
▁ENOENT	-14.446562
encoding	-12.370983
Ax	-13.795802
▁IMX	-14.896527
Encryption	-13.785211
▁combination	-12.997142
lev	-13.434334
CHANGED	-13.954837
▁nRF	-14.820234
ij	-13.045783
▁coefficients	-13.669243
cpl	-12.577018
BLACK	-13.664933
▁LLC	-13.319637
Dead	-13.909556
DEAD	-13.720360
RCV	-14.037284
▁deserialize	-14.311193
Ack	-13.807002
IDL	-13.650380
▁hapd	-15.628155
rou	-14.159268
▁NSData	-14.521650
MORE	-13.333041
ya	-11.998568
▁xCB	-26.376999
Gtk	-13.532485
Msp	-13.650210
▁wrapped	-13.856833
QUE	-13.809614
▁pinfo	-15.063878
Rendering	-13.879300
VERTEXATTRIBI	-14.085611
more	-12.177260
▁kcontrol	-16.522400
▁subdev	-16.168432
ero	-12.844966
TWO	-13.938175
ask	-13.435370
itr	-13.876529
TableView	-14.038422
Where	-13.200826
▁Does	-12.806688
VDD	-14.418599
▁orx	-14.844239
Sa	-13.198350
▁SWI	-15.300850
▁xFFF	-42.800273
▁stable	-13.392704
▁making	-11.948712
Fun	-13.901963
uck	-13.876616
iscsi	-14.020619
intersect	-14.361184
Gpio	-14.275598
▁outgoing	-14.098326
▁locking	-13.818791
ddr	-13.757979
same	-12.948836
VFS	-13.922367
Resolve	-13.748573
Locked	-13.614986
ASS	-12.263825
SEGMENT	-13.967563
policy	-12.368361
More	-13.487243
depend	-12.667587
FV	-13.661824
▁pure	-13.535871
RSSI	-14.221138
med	-12.823128
▁lgl	-14.723764
Enumerator	-14.304940
Finalize	-13.762229
▁nHeight	-14.115747
▁suppress	-14.158516
enet	-14.001836
Completed	-13.712301
Own	-13.392604
IST	-13.241158
ron	-12.860075
GUARD	-13.655886
ZC	-14.279916
allocate	-12.874064
STK	-14.028365
Dll	-13.794601
hang	-13.404678
▁cython	-16.389098
CENT	-14.031004
COIN	-13.697376
finite	-13.945631
▁calibration	-14.016331
▁kzalloc	-14.229057
DYN	-14.133735
resource	-11.609608
SAT	-13.805928
▁affiliates	-13.337892
▁remap	-14.854556
▁KVM	-14.407392
kc	-14.040467
Polarity	-14.192674
SHADOW	-13.866098
mutex	-11.067530
Suspend	-13.748430
Deriving	-14.944851
CTLR	-14.022365
days	-13.741158
▁glDelete	-14.780571
Annotation	-13.650193
▁Perl	-14.235533
▁affect	-13.328048
▁masks	-13.966982
Pages	-12.948664
▁battery	-13.575549
▁unset	-14.306116
ball	-12.517021
Dma	-14.220628
Scheduler	-13.583185
shr	-14.039932
JP	-13.312467
▁kmp	-14.863998
▁vhost	-14.866034
BOUND	-13.915167
ALIGNMENT	-13.930570
Bitcoin	-14.466082
pkts	-13.991165
▁palloc	-14.305475
ECS	-13.850721
▁pIn	-14.540904
FIAsyncOperation	-14.609360
MST	-14.296444
abc	-13.950240
Strip	-13.596744
aml	-14.177685
Stencil	-13.632119
TOUCH	-13.862108
PixelFormat	-14.095459
video	-12.172204
▁commercial	-12.590889
ili	-13.303052
Phone	-13.291777
Diagnostics	-14.042517
APIC	-14.015567
instantiate	-14.871025
▁numberOf	-14.345823
TRAP	-13.839873
Guide	-14.382317
passwd	-13.840670
Balance	-13.478912
Hold	-14.127587
▁USBC	-15.445442
mpd	-14.191521
Undo	-13.632176
ste	-13.317890
Catalog	-13.480954
▁DCDC	-15.743458
▁unaligned	-14.767591
aj	-13.111275
▁UPB	-14.739904
Physics	-13.835970
Cross	-13.578148
CONTAINER	-13.971259
▁guarantee	-13.619826
▁exceed	-14.209741
Critical	-13.649094
▁LETTER	-14.974155
▁ABCDEF	-18.331473
▁CYCLES	-17.046832
Digest	-13.672058
▁ukernel	-19.027170
▁lcid	-14.558709
UChar	-14.033278
Detect	-13.827642
WiFi	-14.163498
FromString	-13.695672
Here	-13.798539
Admin	-13.569810
tape	-14.193185
Unix	-13.544692
▁IGNORED	-15.919853
▁subsequent	-13.056423
▁MAYBE	-15.198050
ARI	-13.896301
ASH	-14.100621
SAR	-13.888329
und	-12.664351
Measurement	-14.002917
qpair	-14.389362
HOT	-13.604389
Large	-13.664419
ENTRIES	-13.950074
diagonal	-14.515297
DIF	-14.058343
HOLD	-13.993491
▁pCtx	-15.505284
periodic	-14.301201
FEC	-14.201951
uh	-13.523331
DataSource	-13.777701
▁internally	-13.678327
▁exclude	-14.157196
▁TEE	-14.314883
FACTOR	-13.971035
EXCLUSIVE	-13.998640
▁inout	-15.590825
blas	-13.631272
Written	-13.908368
▁MYSQL	-14.371843
▁PCRE	-14.374080
imap	-14.162114
Fence	-13.956035
ifier	-12.513335
▁accepted	-12.910498
▁infoPtr	-15.006179
SIZ	-14.305508
gateway	-14.345091
wn	-13.924580
IMU	-14.978223
▁Ifx	-14.566452
▁ends	-13.165357
ale	-12.959160
wf	-13.999895
NEGSEL	-15.521947
trie	-14.283936
▁gfp	-14.614102
lsn	-14.140987
dz	-13.613297
STRIDE	-14.226049
▁visitor	-14.234675
▁pio	-16.367789
midi	-13.927325
Email	-12.873677
GN	-13.506560
marks	-12.931801
▁calculated	-13.229994
prep	-13.525070
oap	-13.113855
SHUTDOWN	-13.796984
Gt	-14.024673
▁OBJC	-14.837200
Tracking	-13.729248
Guard	-13.677876
USCI	-14.371074
Implicit	-13.834912
Busy	-13.916636
▁assemble	-14.966504
▁They	-11.259474
▁timers	-14.226882
▁SPECIES	-15.694679
INTERFACE	-11.650852
▁ceph	-14.454925
Limited	-14.944357
▁reflect	-13.791152
XYZ	-13.885581
▁OMAP	-14.428355
rain	-13.507326
Lang	-13.684204
JNI	-13.275758
▁why	-11.987743
▁marshall	-16.095636
▁lookahead	-14.707556
dfs	-14.077630
aq	-13.558544
▁expire	-14.528518
Ratio	-13.727636
▁CURLE	-13.606930
▁important	-11.809720
▁Adds	-13.831548
▁TWIS	-14.338671
▁guaranteed	-13.590279
▁lowest	-13.373544
Software	-12.804624
▁wstring	-15.890735
Phy	-13.810063
Cont	-13.870461
ions	-12.482634
vy	-13.482740
▁xdeadbeef	-87.803840
nary	-13.633978
▁kwds	-16.177321
PCH	-14.129392
CST	-14.190420
▁SQR	-16.161123
Abs	-13.735994
▁APIs	-13.545883
Probe	-13.755295
▁xDE	-32.744273
Descr	-14.048056
TexSubImage	-14.249489
BRIDGE	-13.866296
locate	-14.155222
APPLICATION	-13.975082
▁looking	-12.266819
▁tegra	-14.662235
BUFFERS	-13.823481
XFER	-14.170261
SUPER	-13.434653
▁copying	-13.705707
ATE	-13.031825
CAMERA	-13.915232
TRUE	-11.591871
▁UDMA	-14.365566
Vert	-13.716709
▁verification	-13.808860
plug	-14.235523
lot	-13.601570
▁typed	-14.191565
Multiply	-13.762706
▁IWL	-14.860445
▁SMBUS	-15.081754
BURST	-14.060453
▁skipped	-14.006848
▁fts	-14.362175
Sw	-13.821223
SCROLL	-13.912705
▁Initializes	-13.731122
▁usbd	-15.174976
procs	-14.004324
Nested	-13.808509
Mix	-13.849028
private	-10.602729
keylen	-13.973833
UPD	-14.273560
▁architecture	-11.834092
Nav	-13.387183
Ap	-13.519027
▁design	-11.939982
aspect	-14.484683
Assertion	-13.811576
▁pathname	-14.640885
DETECT	-14.042167
▁PyArg	-16.885857
▁aead	-15.246855
nss	-14.123738
tracker	-13.872214
vga	-14.166045
▁goodG	-13.800171
mega	-13.752478
▁EAGAIN	-14.669084
▁PyString	-14.387351
confirm	-13.658594
LOCKED	-14.166651
▁largest	-12.566222
wsi	-14.161125
PROG	-13.925898
▁subs	-14.851776
ALERT	-14.038778
stand	-13.616891
▁xfffffffe	-87.803840
ple	-12.975564
throw	-12.117862
▁QDEC	-14.267309
▁reduction	-13.210176
uring	-13.793389
▁emm	-15.676081
Renderbuffer	-13.931467
desktop	-14.075528
Flex	-13.696643
ZZ	-13.836688
Unregister	-13.765093
faces	-13.831174
▁xaaaaaaaa	-87.803840
RAS	-14.141594
DPLL	-14.382841
Pkt	-14.131095
Fi	-13.264012
CDF	-14.152521
▁lwip	-14.825122
degree	-13.991254
▁several	-11.413953
ITS	-13.781098
iocb	-14.323414
▁outb	-15.701358
AKE	-14.622432
▁fread	-14.744697
REPEAT	-14.072950
property	-10.252814
Managed	-13.678627
uu	-13.254678
EFFECT	-13.850768
quota	-14.280138
▁shouldn	-13.459102
trunc	-14.020050
Triangle	-13.634331
bsd	-13.948798
uk	-12.579163
▁pretty	-12.774115
▁QObject	-14.295254
▁consumed	-13.894620
analyze	-14.462783
▁become	-11.896643
KW	-13.876589
rfc	-14.250197
▁fwrite	-14.671582
HK	-13.462803
IZATION	-13.633849
▁xmlChar	-13.891895
▁treat	-13.605156
QR	-13.562911
UPPER	-14.121023
▁xfffffffd	-87.803840
determined	-15.399358
▁divisor	-13.468045
smc	-14.093143
plist	-14.002075
Retry	-13.877956
▁debugfs	-15.368926
onto	-14.859747
▁requirements	-12.691866
Quantum	-13.718857
MIME	-13.905280
shrink	-14.388797
▁pBuffer	-14.545951
▁OPC	-15.558853
passes	-14.769638
▁receiving	-13.025532
▁quiet	-13.576931
How	-12.741327
▁wps	-15.312661
▁clocks	-14.167623
▁fmadd	-18.794103
Divide	-14.650749
bfa	-14.424385
▁nondet	-14.939063
▁CMedia	-17.487486
▁rxq	-15.697514
cdf	-14.317255
Reflection	-13.618163
▁NSMutable	-14.333535
GetProcAddress	-14.382844
▁blocksize	-14.808625
▁intended	-12.781407
MINI	-14.055122
LJ	-13.807787
▁describe	-13.200688
▁together	-11.902630
workers	-13.904825
▁nonzero	-14.084945
▁addrs	-15.552920
DSS	-14.122509
vmx	-14.163979
limb	-13.828284
puc	-14.199201
▁decltype	-14.691671
ARC	-13.656089
Quaternion	-14.033093
Defaults	-13.719136
▁portal	-13.972576
Di	-13.286074
▁statements	-13.028802
Hw	-14.026116
ARGB	-14.142061
RAD	-14.015374
ROUTE	-13.016329
Attrs	-14.002756
▁Franklin	-12.909033
tan	-12.989702
kit	-12.933254
Cm	-14.134839
▁ALEN	-19.290998
Sql	-13.607762
Le	-12.082420
stk	-14.098439
Quick	-13.855828
IGN	-12.653811
▁stcb	-15.555007
conc	-14.444759
Tf	-14.044470
Blk	-14.153567
PRIMITIVE	-14.084596
rmtol	-14.298418
GRAPHICS	-14.087337
OLE	-13.738879
Changes	-13.696823
▁responsible	-12.724871
stripe	-13.991041
Th	-14.119092
decrement	-14.808708
DIST	-13.690181
▁subtract	-14.527015
▁Fifth	-13.070077
Regs	-14.052953
APPEND	-13.841523
LEGACY	-13.950499
Technology	-15.613138
Cr	-13.934948
mib	-13.992444
iop	-14.003461
▁SDRAM	-14.945230
FinishContext	-13.729643
▁CBlock	-13.505472
ransformFeedback	-14.294670
efree	-13.465328
Tp	-13.929868
▁emplace	-15.789920
ode	-13.096863
Quality	-13.786801
Perf	-14.021990
▁btl	-16.276564
his	-13.610522
agged	-15.016813
▁streaming	-13.695960
mtime	-14.153060
compos	-14.514951
kin	-12.741314
▁huart	-14.628658
secs	-13.779505
auto	-11.319809
zv	-13.666647
▁EMR	-15.368817
▁extents	-14.620761
FRAG	-13.968350
fec	-14.181393
▁slen	-14.373040
▁spa	-14.855438
association	-14.365821
Foo	-13.502688
preview	-14.218700
Gl	-13.954091
Imp	-13.797350
tfm	-14.189562
lval	-14.063029
▁faster	-13.230125
lid	-13.737503
SECTOR	-14.212858
▁ntohs	-14.409274
CONNECTED	-13.669740
▁addReply	-13.756885
▁gmail	-17.511458
shmem	-14.126308
▁breakpoint	-14.494301
ocfs	-14.113940
pressure	-14.269764
▁lengths	-13.967571
AIR	-13.566793
▁JNICALL	-13.733589
Diag	-13.895150
under	-12.591503
Mult	-14.060427
Known	-13.432962
▁FIVector	-87.803840
Cat	-13.419597
▁LDMA	-15.356094
▁bstr	-14.855732
ESS	-13.890618
▁MASKWRITE	-87.803840
FSR	-14.661331
entities	-14.307911
Dirty	-13.596317
OFP	-13.896389
▁usize	-15.617016
vertex	-12.352402
▁LSE	-15.546442
▁terminator	-14.114132
VISION	-13.802817
cdata	-14.130351
ndr	-14.271945
CHANNELS	-14.077850
▁effective	-12.794176
▁adap	-16.372972
▁paddr	-15.106161
Aligned	-13.967414
▁className	-14.248170
Calibration	-14.047295
▁queries	-13.821365
FILENAME	-13.826926
▁fputs	-14.134833
▁getType	-14.711159
▁payment	-13.475247
MMIO	-14.185365
Sep	-14.075074
▁toString	-14.363446
Te	-13.880692
Trust	-14.043590
Activate	-13.850447
▁xCA	-28.528509
▁glsl	-15.373392
HUD	-13.999934
ran	-12.789187
zf	-14.416412
ipp	-14.104816
udata	-14.166970
▁alternate	-13.501950
WEIGHT	-14.040196
olar	-14.939853
HX	-13.664749
rio	-13.174422
▁RESTRICT	-15.236961
Assembly	-13.580141
▁operating	-12.787716
▁ptype	-15.896279
▁wiphy	-15.191637
▁hspi	-14.807744
wqe	-14.360977
▁however	-11.974713
▁OCI	-14.967644
▁chosen	-13.130868
els	-12.910692
▁modifiers	-14.337716
Units	-13.806162
ATH	-14.036106
prm	-14.247766
AML	-13.872532
▁seat	-12.888806
SLOTS	-13.602819
zh	-13.360671
RECOVER	-14.080012
Jit	-13.987294
▁displayed	-13.304959
▁VARARGS	-17.482435
Coins	-13.552040
hack	-13.539613
▁nearest	-12.599307
PPS	-14.033159
Rot	-14.368706
▁prediction	-13.844109
Vertical	-13.582880
LONGLONG	-13.804126
QUAD	-13.889756
▁vnet	-14.835248
Communication	-14.668934
SNMP	-13.957824
▁normally	-13.333707
ECP	-14.070065
Too	-13.775253
life	-12.831972
TYP	-14.249804
OUTPUT	-12.191867
Ni	-13.714735
izer	-12.959265
XO	-13.429963
RESTART	-13.898164
NPC	-13.909789
▁WEAK	-14.675446
▁protocols	-13.815721
PCTL	-14.333599
▁robj	-14.278479
Iteration	-13.839785
consensus	-14.367016
XLog	-13.353559
Fd	-13.922238
mute	-13.857327
lag	-13.400627
Ca	-13.203575
Vm	-14.005874
▁Cortex	-14.272474
Startup	-13.731806
symtab	-14.123235
Defined	-13.889320
roi	-13.986588
▁UNORM	-18.317662
▁closing	-13.427933
entries	-12.149832
hashes	-14.094866
connection	-11.647591
▁maxlen	-14.558121
colon	-13.575460
vic	-13.514882
MINUS	-14.094470
▁scanline	-14.680081
▁MCG	-14.497996
Negative	-13.537796
cop	-13.518730
dvb	-14.190246
PUPDR	-14.969718
shl	-14.236433
▁NSMutableArray	-14.214623
▁CONTINUE	-15.216561
Matches	-12.656864
Bulk	-13.828624
▁globus	-14.008257
KI	-13.572914
ich	-12.983573
complete	-12.044333
HM	-13.459970
VV	-14.108132
fil	-13.425473
independent	-14.169007
guess	-14.664123
▁orte	-15.485300
TN	-13.518744
▁Chromium	-13.862619
▁LPWSTR	-14.122611
printed	-14.546121
Composite	-13.525938
▁darkskin	-19.834923
▁COMPONENTS	-15.404277
Assume	-15.270425
STICK	-14.142080
▁meaning	-12.781146
axes	-13.665753
Redis	-13.700108
locator	-13.458668
Simd	-14.255785
Fl	-13.747461
QU	-14.578020
Are	-13.293624
▁TCG	-14.643254
recur	-13.511997
▁xDA	-30.908720
AWD	-14.714551
Implement	-13.698070
▁Napi	-14.724717
PUB	-13.930001
▁uplo	-14.628022
Constraints	-13.784766
▁bounding	-14.056231
Horizontal	-13.672487
joystick	-14.578217
▁AVR	-15.138240
SHAPE	-13.980818
▁qemu	-14.370306
▁seems	-12.430459
▁consistent	-13.175739
Advanced	-14.262964
ner	-12.050287
Feedback	-13.744486
▁combined	-12.931379
▁xED	-30.800404
shader	-12.318257
▁contexts	-13.995133
▁qed	-14.672087
ByteArray	-13.886909
Cipher	-13.903683
SetupContext	-14.317468
objs	-13.997947
▁strto	-14.339774
SPELL	-14.001349
WORLD	-13.346975
gra	-13.379188
ipaddr	-14.243223
Operations	-14.004920
SharedPtr	-14.020959
KILL	-13.775917
UDB	-14.913068
SIGNED	-13.016685
Allowed	-13.893761
▁DFSDM	-15.097521
Stroke	-13.797684
EAR	-13.955436
kn	-13.706486
Anchor	-13.658662
CEE	-14.065304
Enumeration	-13.990477
shot	-12.616873
los	-13.280122
▁GetArena	-14.626501
▁EXTENDED	-15.999897
▁moves	-13.518264
▁passing	-13.078046
psi	-13.323439
RENDERBUFFER	-13.961226
Codes	-13.977265
▁PROTOTYPES	-15.622889
sts	-13.386169
found	-11.702553
▁evaluation	-13.227673
guide	-14.126494
DELTA	-14.318410
Secondary	-14.086813
ras	-13.073195
Po	-13.529056
▁central	-12.654440
IPS	-13.758601
pivot	-14.653045
Systems	-14.615872
ena	-12.650866
Creation	-13.200186
CURVE	-14.100814
fy	-13.359706
Pci	-13.997411
▁lfirst	-14.265145
Calendar	-13.203807
Compression	-13.706077
▁heal	-15.459112
Threads	-13.731197
▁assumes	-13.731864
▁PACKED	-15.036963
qui	-12.927905
StringInfo	-13.633281
kbd	-14.142299
Extent	-13.894312
▁EFIAPI	-11.839560
SCK	-14.232671
MIDI	-13.761727
▁populate	-14.158819
▁cpuid	-14.947083
GEMM	-14.158092
▁TASKS	-16.008275
▁recent	-12.538599
msp	-14.324413
SLICE	-14.256898
▁outfile	-15.231388
SHARE	-13.973751
IsA	-13.943990
tst	-14.077404
▁decay	-14.335105
▁functor	-14.296443
▁question	-11.997446
ObjectId	-13.907536
Hal	-13.930558
Continue	-13.479362
but	-12.360809
▁goes	-12.661656
pay	-12.219346
msk	-14.055278
▁optimized	-13.898006
TSEL	-14.669529
▁CURLOPT	-14.015281
Tools	-13.225727
BUFF	-14.203330
▁ecdsa	-16.056316
IEs	-14.246275
Comparison	-14.246009
Cols	-13.959084
IK	-13.590143
▁grib	-14.735509
PSC	-14.313665
vst	-14.462588
▁bfin	-15.020762
▁identical	-13.447182
CONFIGURATION	-14.006620
▁gives	-12.576640
OCSP	-14.239571
placeholder	-14.223946
TreeNode	-14.114681
TypeName	-13.942513
▁WASM	-14.223896
dissect	-15.608895
Sg	-14.204948
▁sctx	-15.573209
▁DATATYPE	-14.949238
Asm	-13.988117
HH	-13.964263
▁XPAR	-14.309091
als	-12.482110
Slider	-13.894851
rA	-13.925357
kernel	-11.751443
CORR	-14.195751
▁METHODS	-14.231145
▁BITFIELD	-15.419270
▁deque	-15.023436
▁FreeBSD	-15.433464
▁dwc	-15.001956
Lambda	-13.708233
▁CGRect	-14.733532
ious	-13.611945
MIB	-14.102969
WGL	-13.918988
▁reports	-12.735235
Tcp	-13.935108
▁CANT	-16.900623
PRESCALER	-14.687279
▁partitions	-14.324439
msc	-14.286383
PROTECT	-13.790782
putc	-13.693871
RANK	-14.098246
▁blockSize	-14.146200
▁pointed	-13.252480
PACKAGE	-13.981365
inject	-13.771426
Updates	-13.644345
rgba	-14.449231
Se	-13.581796
ighbd	-14.889900
▁DMAMUX	-15.372441
▁LWS	-14.364181
measure	-13.865879
▁applies	-13.418491
▁Fint	-18.666078
Diagnostic	-13.834574
JMP	-13.988227
OptionsT	-14.087393
Advance	-14.467261
▁ORTE	-14.288107
Exists	-13.789336
▁implementations	-13.516089
eta	-12.758336
▁concurrent	-14.018535
Cor	-13.977381
▁executing	-13.797403
▁PORTB	-15.093968
La	-12.658097
Prescaler	-14.345807
sai	-13.655081
▁scheduled	-13.256083
Separate	-14.158041
▁arbitrary	-13.513316
BAT	-14.262329
▁PRIMARY	-15.080005
interval	-12.494524
Dispatcher	-13.918487
▁internalformat	-14.648541
TINY	-13.981144
CriticalSection	-13.758779
▁expanded	-13.342243
Detection	-13.800946
getc	-13.743177
▁pOut	-14.778562
SWP	-15.028234
AGC	-14.330473
▁preserve	-13.667780
ule	-13.502255
MQ	-14.076733
FSM	-14.162561
▁mddev	-15.361913
WIDE	-13.989712
▁PHYMOD	-14.304294
GTM	-14.287993
▁unformat	-15.290629
▁nsI	-14.607104
vio	-14.251237
▁relevant	-12.798371
SPIRV	-14.200268
Margin	-13.678083
▁doublereal	-14.461704
DIRECTION	-13.874486
GOOGLE	-14.929682
▁AOM	-14.452303
NW	-13.759310
madd	-13.975279
▁SVN	-14.315322
Most	-14.009878
▁PFNGLVERTEX	-14.212034
▁hostapd	-14.502366
▁ntohl	-14.467444
▁UNPACK	-16.225622
Terminal	-14.062750
Coordinate	-13.950083
AXI	-14.337766
▁algorithms	-13.459515
▁therefore	-12.441094
▁bases	-13.900705
jp	-13.210464
Strategy	-13.386509
▁UIColor	-14.515409
EXECUTE	-14.090219
▁iovec	-14.389035
Curr	-13.701517
zd	-13.932997
▁OMITBAD	-13.197132
DUMMY	-13.960782
▁recommended	-13.262318
STARTED	-14.217795
▁legal	-12.448813
Inf	-13.927488
ination	-13.364559
▁vnode	-14.392988
CYCLE	-13.715728
WN	-14.092013
Rd	-14.191095
SENT	-13.942612
▁symlink	-14.945463
▁NVME	-15.202697
▁HFCORECLKDIV	-17.783885
▁unlocked	-14.443586
▁RXF	-14.992878
ution	-14.887845
attnum	-14.095805
Consumer	-13.869242
INSTRUCTION	-13.849024
▁sdata	-15.697807
provision	-14.881747
RDMA	-14.188290
▁EZRADIO	-14.337722
ifa	-14.107451
PROGRESS	-13.965134
▁expired	-14.004692
▁garbage	-13.897813
trust	-13.824050
Topic	-13.855859
MIXER	-14.227611
▁severity	-14.130615
huge	-14.160809
gv	-14.246552
▁nfc	-15.146371
ific	-14.730948
CLKSOURCE	-14.428021
▁GRPC	-14.156998
sweep	-14.121065
▁Reads	-13.909197
Decimal	-13.921059
▁encap	-15.876832
Duplicate	-13.797301
DSR	-14.759059
▁PyNumber	-14.627717
fullscreen	-14.040722
VALIDATE	-13.730612
▁BTA	-14.395758
marshal	-13.397097
▁BNX	-14.705524
▁DCH	-15.027345
spc	-14.230952
Ne	-13.667062
sphere	-13.547336
INSTALL	-14.017422
▁DAPM	-17.137268
DAG	-14.259206
correction	-14.858039
▁MICR	-15.458869
▁WANT	-15.142516
Uses	-14.653191
▁moving	-12.784697
mds	-14.423004
SizeOf	-14.163026
safety	-14.497155
FIL	-14.296458
vtx	-14.257372
▁WWDG	-15.007570
▁vha	-15.251338
▁BTRFS	-14.525383
DEP	-14.126603
▁RCT	-15.101799
▁completely	-12.715597
tmr	-14.175609
▁iid	-15.633162
ICM	-14.748500
flight	-13.763836
Na	-13.345712
typmod	-14.177746
▁pmap	-14.968350
ANIM	-14.413079
iation	-13.602608
enge	-15.329598
▁derivative	-12.984664
▁typeof	-14.890634
Cube	-13.662860
▁wants	-13.031723
Invalidate	-13.674937
notes	-13.709280
▁CYDEV	-14.352722
▁polling	-13.901841
▁tablet	-14.634587
▁hda	-14.872815
Invert	-14.252074
Notes	-13.952730
BZ	-13.980766
▁intermediate	-13.630283
ali	-13.204878
ZY	-14.095262
▁DBGMCU	-15.638274
uio	-14.229926
ALARM	-14.268837
▁forced	-13.007003
Compact	-13.628103
▁OPAMP	-15.112044
Ac	-13.765227
KL	-13.739174
NAMES	-13.942500
Actual	-13.868536
Router	-13.764905
▁DTPRS	-22.645965
filt	-14.339105
▁arithmetic	-13.861260
▁corresponds	-13.707987
GW	-13.728587
▁PyDoc	-14.136254
▁PAYLOAD	-16.331618
Press	-13.539951
FOCUS	-13.951595
▁sdev	-15.917329
ough	-13.380826
LING	-13.743030
Aggregate	-14.009100
Explicit	-13.943685
ubi	-13.676235
Firmware	-14.005521
ano	-12.903640
namelen	-14.037116
BlockSize	-14.166004
▁causes	-12.960049
Fifo	-14.232504
opr	-14.133646
OTH	-15.012190
▁CheckExact	-87.803840
VGA	-13.987333
Lsp	-15.440179
Sender	-13.896567
▁MODER	-17.932394
DCR	-14.807707
AGG	-13.888230
rela	-13.703057
Expect	-13.928053
kr	-13.379984
TID	-14.095165
▁PQget	-15.168873
Neg	-13.556197
Streaming	-13.892467
blit	-14.207411
Wi	-14.369561
ADI	-14.131139
Ins	-13.499403
NAK	-14.486823
tone	-13.386439
▁shown	-12.287800
Pitch	-13.786091
▁GMP	-16.048218
WebAPI	-14.835372
RISE	-14.378291
CALC	-14.257264
▁gss	-14.768896
pps	-14.052501
▁ffffffe	-23.139485
▁htonl	-14.355812
show	-11.673739
Colour	-13.517198
LIBRARY	-13.884992
Ranges	-13.804254
WORDS	-13.744598
inode	-11.833295
▁kGTLR	-14.275076
duplex	-14.050711
lea	-13.535796
Streams	-14.080568
predict	-13.679721
onical	-17.768695
CATEGORY	-14.092568
SQLite	-13.840793
TRG	-14.462278
BEA	-14.132766
LPM	-14.460810
▁deallocate	-14.486367
IsNull	-13.899247
▁HASHMAP	-17.980472
DevicePath	-14.059670
▁cifs	-14.745480
Internet	-13.883684
feature	-12.604460
ike	-13.950289
discovery	-14.261682
pcap	-14.205982
▁kobj	-15.468966
VECT	-14.584254
▁msec	-15.040972
GEOMETRY	-14.122831
Convolution	-14.031769
WIDGET	-14.038038
▁rmi	-16.485546
Actions	-13.586451
▁relaxed	-14.945216
spot	-13.761025
reporting	-14.764482
lba	-14.207630
RTP	-14.121668
▁EXTIPSEL	-19.243004
Mapped	-13.986935
▁PyModule	-14.222278
▁Eterm	-13.980815
▁SEE	-14.157333
QL	-13.919998
Coeff	-14.274927
retries	-13.983688
mesa	-14.123927
lj	-13.832093
proof	-13.968574
ICS	-13.640997
▁IMXRT	-15.679579
▁kmem	-14.746023
▁PTHREAD	-14.798773
MPC	-14.137190
Fp	-14.081441
Extend	-13.894295
▁llx	-17.721201
▁virtio	-14.541127
▁istream	-16.056932
Maps	-14.136886
Projection	-13.954151
BARRIER	-13.990715
▁interpolation	-14.004808
distinct	-14.490584
Developer	-15.157910
▁models	-12.286528
STARTUP	-14.273257
NSS	-14.081747
GetDevice	-14.180237
▁dso	-15.780297
Reject	-14.026022
Chan	-13.916522
Below	-14.879145
Gate	-14.218255
Flat	-14.102328
▁ossl	-14.772579
IDENTIFIER	-13.973860
dwarf	-14.645606
SEPARATE	-14.255801
PCS	-14.390682
EML	-14.471349
quat	-14.154439
mtk	-14.234079
FALL	-13.283898
▁tsc	-15.501573
MID	-13.489828
FPGA	-14.100570
LG	-13.509274
YA	-13.603061
▁bta	-14.727425
Good	-13.204628
Jo	-13.926578
▁radix	-14.631582
wg	-13.959857
unt	-13.981520
ECDH	-13.833703
▁bitrate	-14.875201
QI	-14.237640
QA	-14.193487
▁nats	-14.033990
▁GetEmptyString	-20.397232
Eb	-13.797945
FIELDS	-13.925651
MARKER	-13.763433
Irp	-13.995025
ida	-12.811961
Spacing	-14.057361
Para	-13.852134
Watchdog	-14.228781
VALUES	-14.091797
▁swapchain	-15.221093
nulls	-14.004050
▁typically	-13.055985
▁intersection	-13.845878
flg	-14.184495
▁automatic	-13.575940
Nothing	-13.987543
BLOCKS	-14.157623
▁BTM	-14.556131
▁btf	-15.389280
Credentials	-14.017390
epsilon	-13.165228
▁magick	-15.438634
▁specifier	-14.491548
▁fgets	-15.113763
glBind	-13.500590
BOLD	-14.450290
Measure	-13.749213
▁ecx	-14.669850
lement	-14.783258
ulation	-13.228199
▁installed	-13.085173
je	-12.411641
▁EOP	-15.418685
▁bli	-14.871269
GetWindow	-14.085529
▁patterns	-13.337944
▁maintain	-13.215997
RPT	-14.519811
ric	-12.875246
▁suitable	-13.299816
HCLK	-14.543887
HOME	-13.697296
FREEZE	-14.976703
CLAMP	-14.087138
▁OMITGOOD	-13.256876
▁Steve	-12.373654
SSID	-14.254163
LOS	-13.888795
tune	-13.993390
Calls	-13.850364
wdt	-14.143726
FileSystem	-13.856437
▁becomes	-12.701933
▁MSVCRT	-14.648745
AlreadyInit	-14.675034
ElementType	-14.062843
Magic	-13.915445
TRANSACTION	-14.047713
FILES	-13.865214
neigh	-14.089377
FCR	-14.620834
HIT	-13.973699
▁PFNGLCOLOR	-14.218890
▁loff	-14.991450
dset	-14.471808
Org	-14.027345
▁plen	-14.604559
▁vprod	-15.256045
ptrs	-14.090996
ADE	-14.206859
deg	-13.968570
▁IMETHOD	-21.177237
▁IFX	-14.300722
POLARITY	-14.592233
weapon	-14.310905
scatter	-14.400295
FZ	-14.807944
▁htab	-14.855199
Login	-13.538816
Logic	-13.609955
Foreign	-13.667378
Ja	-14.219322
▁PrettyPrinte	-20.413350
▁herr	-13.638628
Scaling	-14.138557
Nx	-14.558599
MULTISAMPLE	-14.243769
▁robot	-14.052338
▁SLI	-15.277419
▁fHelp	-14.159962
▁NVIDIA	-14.502559
SERV	-13.935567
▁dout	-15.414922
GPS	-14.091055
▁functional	-13.818024
Cl	-13.741028
Instrument	-13.056034
▁inactive	-14.283958
RpcChannelBuffer	-14.472107
TCR	-14.382926
ORINFO	-14.358519
Periph	-14.401114
ABC	-12.845032
ADT	-14.040203
Xact	-13.786090
▁Liftoff	-14.214437
▁ethtool	-14.577807
tablespace	-14.182759
▁xffffffe	-22.336917
TITLE	-13.756009
Voltage	-14.128065
ire	-12.975180
brk	-14.215675
SUSPEND	-13.879239
Pulse	-13.930519
LIVE	-12.672685
ght	-14.678927
avl	-14.313274
▁cstate	-15.359417
SDR	-14.611899
▁performs	-13.654469
WaitFor	-13.930715
mess	-14.571813
nal	-13.188315
RESTORE	-13.924442
MISS	-13.927208
▁sequences	-13.514871
▁overhead	-13.879330
getopt	-14.110012
mch	-14.072414
SIDL	-14.243402
▁DEXT	-22.573309
▁mtmp	-15.463282
PhysicalDevice	-14.606707
Handles	-13.852958
▁tga	-14.919074
Grab	-14.410187
ification	-12.577088
vh	-13.887972
Boundary	-13.800538
▁MODKEY	-14.637318
Uart	-14.336970
utation	-15.488951
▁xcccccccc	-87.803840
▁DTYPE	-15.120909
clazz	-14.111029
Restart	-13.916076
▁coefficient	-13.799227
ECHO	-14.151648
lint	-13.945172
mech	-14.222276
ETHER	-14.068046
FK	-13.676163
wid	-14.162083
▁memview	-15.632712
Divider	-14.370748
BAUD	-13.960597
Vulkan	-14.010496
DISABLE	-11.793952
▁problems	-12.274809
DCB	-14.451847
▁RedisModule	-14.550756
RDS	-14.480862
▁ShiftMask	-15.248875
Vehicle	-13.469458
Clamp	-14.113885
cad	-14.405262
yo	-12.951329
Checked	-13.892010
Bo	-13.572224
STRIP	-14.286872
▁PERSISTENT	-17.379675
igen	-14.680978
ert	-13.215030
Ho	-13.860870
▁offer	-12.870042
▁prefer	-13.752458
Starting	-14.309950
Colors	-13.566773
parameter	-11.920146
▁ddrc	-18.380701
▁BKP	-15.782517
CDB	-14.188767
degrees	-15.120329
▁storing	-13.833522
Unused	-13.956874
ota	-13.205697
Terminate	-13.854088
▁PORTA	-15.281570
Masternode	-13.943564
▁California	-10.744967
tupdesc	-14.062220
lsb	-14.367836
LX	-13.714592
▁tabs	-14.548745
Allocated	-14.088091
▁frontend	-14.868362
Phi	-13.736071
segment	-12.442196
▁clipboard	-14.471007
Exchange	-13.985208
longlong	-14.436395
NOW	-13.544444
▁stereo	-14.572479
▁manually	-13.637790
▁filtered	-14.337833
IAR	-14.359571
aac	-14.456532
Equals	-13.790177
han	-12.686266
▁MFP	-16.367377
▁remember	-12.956910
ECT	-12.762394
▁NSUInteger	-14.954354
SLOW	-14.139053
Outer	-13.751120
EXCHANGE	-14.133695
▁yyval	-15.363691
▁Semiconductor	-13.780257
Paths	-13.911046
mpl	-13.692347
licon	-16.369273
▁textures	-14.445363
▁vkCmd	-15.280739
cff	-14.359910
▁CALLBACKS	-18.102124
▁infinite	-13.720701
Hide	-13.263769
SetWindow	-14.232612
Characteristic	-14.177993
priority	-12.660490
Vote	-13.518417
▁SLCR	-16.158627
Arch	-13.848427
think	-14.521901
otg	-14.111670
▁NETIF	-14.976845
Checksum	-14.104444
ReceivedHandler	-15.248544
ARY	-13.265214
▁ftnlen	-15.776767
ToJson	-14.851819
SHM	-14.170829
dos	-13.329703
▁synchronous	-14.155261
che	-12.308322
▁GPIOA	-15.302954
ERS	-13.179272
pB	-13.871489
▁formatted	-14.304932
APC	-14.230106
LEX	-13.988004
DY	-13.888873
EFR	-14.750496
Star	-12.822861
Formatter	-14.048559
▁ierr	-14.718941
Sha	-13.791346
▁JNIEXPORT	-13.728210
DISC	-13.150076
CUT	-13.901013
mal	-13.099247
cef	-14.355438
Encoded	-14.090130
mcast	-14.302114
▁twice	-13.007478
aaaa	-15.077057
targ	-14.204042
Plot	-13.825877
▁nvmf	-16.077903
▁NTI	-15.423229
Tbl	-14.224558
ended	-13.573880
▁FromLong	-21.293907
OUR	-14.055415
MATERIAL	-14.159724
redo	-13.763687
Wasm	-14.034787
▁SSC	-15.142137
COS	-14.191860
OG	-13.633907
▁attention	-12.829456
Effects	-13.773529
NACK	-14.161747
▁ECMA	-14.614056
▁libinput	-14.615975
▁residual	-14.155599
▁dapm	-16.773978
▁filtering	-13.906310
OVF	-14.431530
▁prototypes	-13.730542
▁vrf	-15.520590
▁remarks	-14.375611
▁xbfff	-87.803840
▁LFB	-16.887976
GIF	-13.873661
▁truncated	-14.114518
TUNE	-14.453954
IPA	-14.054692
mcu	-14.329825
Needed	-13.902751
Possible	-14.479106
DSL	-14.336148
PREV	-14.178595
PAT	-14.012816
CLSID	-14.390980
▁EPWM	-15.192601
Debugger	-13.897396
▁CBigNum	-14.311982
BLANK	-14.215267
Initialized	-13.798387
▁GxB	-15.063861
ompletionHandler	-14.806321
gcm	-14.400070
▁dequeue	-15.035046
Barrier	-13.850173
lusion	-14.186943
subst	-14.286868
▁aborted	-14.321287
▁GLchar	-14.502709
Hot	-13.718590
fcp	-14.424525
sqr	-14.429841
FAN	-13.947285
ised	-12.945921
TUN	-13.963318
mpu	-14.197013
Acceleration	-14.186374
FIR	-14.261661
Serializer	-13.852756
▁GenericClass	-17.959431
datetime	-14.171273
Testing	-13.967905
PLT	-14.308125
▁evict	-15.631925
BOT	-14.115489
ari	-12.865371
▁GetProcessHeap	-15.506906
Reading	-14.158546
Writes	-14.035717
▁subtree	-14.723114
spacing	-14.348394
▁VkResult	-14.113060
▁cij	-14.294167
erg	-14.383054
GetType	-13.945597
Vertices	-14.152041
▁coded	-14.613193
▁MonoMethod	-14.601020
▁setsockopt	-15.462526
broker	-13.938959
▁sand	-14.163217
Mailbox	-14.419198
MenuItem	-13.966776
hdf	-14.451673
PORTS	-13.952023
▁COMPILING	-16.814500
▁LPCSTR	-14.629149
Wo	-14.643478
NUMERIC	-14.143576
▁kept	-12.830039
mcp	-14.305745
▁efficient	-13.419882
nth	-14.187807
Lex	-14.117983
toc	-13.801634
GLES	-14.022439
▁pNew	-14.601242
▁CHROME	-14.714668
Absolute	-13.737321
▁glCopy	-15.382721
EXTRACT	-14.299785
quo	-14.532015
▁vehicle	-12.857626
mss	-14.373657
esis	-14.434562
BORDER	-14.132128
▁verbatim	-15.748353
Chart	-13.806629
Assembler	-14.015551
Joystick	-14.098102
Ice	-14.101432
▁allocations	-14.068173
▁MCO	-16.285040
▁updating	-13.869146
committed	-14.581159
latch	-14.041403
chart	-13.030438
Geom	-14.169776
While	-14.185596
MAPPING	-14.241848
▁ahd	-15.546493
Mega	-14.643677
▁enables	-13.751790
eNB	-14.652055
FEATURES	-14.098984
wan	-13.172545
WIRE	-14.348858
COMMIT	-13.923426
▁trivial	-14.413290
ASSOC	-13.980635
cart	-13.685056
Resp	-14.271085
DSC	-14.248256
roots	-14.266545
transfer	-12.511928
east	-12.968876
TPC	-14.350543
configUSE	-14.174040
ppi	-14.361324
hat	-12.847509
AADC	-14.751930
Translation	-13.315085
cwd	-14.145952
door	-13.580484
SSA	-14.115796
ECB	-14.378034
▁cpustate	-16.035323
BIP	-14.261242
clusters	-14.578069
Compress	-13.881786
Img	-14.188873
nas	-13.479935
▁INVALC	-26.244347
▁sst	-15.249628
FIN	-13.937861
▁uninitialized	-14.365108
traceback	-14.119411
outbuf	-14.173329
▁EBUSY	-15.599652
LCDC	-15.072800
DISCARD	-14.146444
▁evaluated	-13.660222
▁quantize	-15.433940
lWindowPos	-14.368443
urse	-14.882322
bracket	-13.680135
DON	-13.851603
▁regBuiltin	-87.803840
Decrypt	-14.132995
▁ehci	-15.337898
rewind	-13.875265
Led	-14.356277
RTOS	-13.549795
▁NSDate	-14.627136
▁CMSIS	-14.336311
PROPS	-14.379239
▁QLA	-14.771296
HDC	-14.047149
cqe	-14.549421
PDO	-14.172863
▁ecount	-15.985221
▁kHz	-15.016560
▁vfloat	-15.193151
Loaded	-13.846870
Vpn	-14.662913
modem	-14.643033
▁transfers	-13.651866
ado	-13.155337
sqlite	-12.510615
Health	-13.719537
▁tmpreg	-14.455214
DPI	-14.221567
▁afs	-14.559434
STP	-14.340206
GetNext	-14.137455
ral	-13.496423
▁sParam	-15.539548
▁LPVOID	-14.465641
Marshal	-14.019596
SendMessage	-14.320069
MUTE	-14.578031
WH	-13.929704
▁hadc	-15.212842
uw	-13.936392
chat	-13.811267
▁decision	-12.253549
mdev	-14.226645
MetaData	-14.094204
LBL	-13.857481
ender	-13.390028
▁IWDG	-15.052602
PREF	-13.632691
eral	-14.181322
▁PyMem	-14.261154
jobs	-14.363043
Dimensions	-13.790736
ima	-13.107265
▁xsi	-14.394617
CERTIFICATE	-14.162335
Issue	-14.218387
aps	-13.541456
HISTORY	-14.133917
▁MCA	-14.256653
EQAN	-14.680603
ann	-13.748610
semantics	-15.665431
segs	-14.265000
tmpl	-14.079243
▁UNLIKELY	-17.473224
GRID	-14.175994
▁FLA	-14.675212
fly	-13.734643
udc	-14.229101
▁plaintext	-14.715299
▁Cmm	-15.322420
Encrypt	-14.127280
▁issues	-11.997742
▁saddr	-15.580799
▁callee	-14.705106
▁Anum	-15.307844
Precision	-13.940644
FILT	-14.649021
Indent	-14.035800
mng	-14.379674
▁milvus	-16.893835
FRONT	-13.949787
Ep	-14.059854
carrier	-14.200711
DIALOG	-13.821222
ors	-12.432667
▁bignum	-14.792690
▁retrieved	-13.893616
▁IEnum	-14.330824
PERM	-13.641784
SYNTAX	-14.095087
SGI	-14.198442
lookup	-12.281235
adapt	-12.199127
IU	-14.047967
invocation	-15.193942
▁reasons	-12.697503
fk	-14.335428
▁uip	-14.674578
▁respect	-12.797322
Simp	-15.017807
ART	-12.871533
Wnd	-13.391501
▁TCPIP	-14.857191
Detach	-14.021810
He	-12.353786
QUAL	-14.138166
Js	-14.146093
KF	-13.797001
lldb	-14.096084
atoms	-14.513724
▁iostream	-17.050703
▁opening	-12.745263
VN	-14.127676
Typed	-14.076512
▁colormap	-14.908905
talk	-13.837283
crit	-13.854100
▁DID	-15.333439
Wake	-14.437430
▁XEvent	-15.527722
CSD	-14.483309
MISMATCH	-14.202666
UTC	-13.557255
▁aren	-13.343353
datalen	-14.114254
COMMENT	-14.051200
Dims	-14.313469
za	-12.582928
KM	-13.801309
ilt	-14.556385
trusted	-14.339843
ppendPQExpBuffer	-14.414746
msa	-14.468106
eye	-13.762070
MEDIUM	-14.153380
Coder	-13.738226
NamedFramebuffer	-14.404226
Am	-13.190205
purge	-14.271641
PROCESSOR	-13.943604
FOG	-14.064028
▁asynchronous	-13.972152
▁FALLTHROUGH	-14.689039
SYNTH	-14.857341
▁HFPERCLKDIV	-17.971920
member	-12.265506
Lists	-13.683908
Records	-13.887101
ADJ	-14.176147
putchar	-13.826945
Sun	-13.983813
aliases	-14.596552
Pic	-14.109297
▁libraries	-13.174087
▁newval	-15.021583
Keyword	-14.053076
▁validity	-13.866814
atan	-13.879187
METADATA	-14.207908
LATE	-13.713472
Gx	-15.142968
▁saving	-13.787913
dbl	-14.253928
uttx	-14.103712
DOS	-13.394701
Both	-14.619196
Lit	-13.620444
addrlen	-14.109520
Mean	-14.207535
rex	-14.137687
Evaluate	-14.707770
PARTIAL	-14.174971
▁inplace	-15.787565
MBC	-13.811927
ACM	-14.060772
texture	-11.853715
ASR	-14.478906
denom	-14.204476
▁epu	-19.296769
▁umock	-14.820190
Lazy	-13.964510
▁STDC	-15.416405
Vol	-13.186033
IFY	-14.061391
INE	-13.821185
▁Microchip	-13.837544
▁kmalloc	-14.487120
▁oscillator	-14.174712
Street	-14.739415
les	-12.261671
Removed	-14.031307
report	-11.642922
uch	-13.709560
▁srs	-16.315460
OCTET	-14.313301
▁expires	-14.606286
▁timezone	-14.614069
sapi	-14.201835
▁directive	-14.137870
Parm	-14.267436
conj	-14.538742
attribute	-11.086724
ResultType	-14.160642
reclaim	-14.619134
▁beyond	-12.735951
▁GPIOTE	-14.611338
▁dpm	-16.390707
▁sends	-13.785978
Lane	-14.192023
POSSEL	-15.625053
persist	-13.713150
▁UNAVAILABLE	-17.526912
aries	-13.066099
CONDITION	-13.861908
Specification	-13.885504
▁exported	-14.085334
▁CWallet	-14.276272
▁SPIM	-15.482818
Scratch	-13.835100
hon	-13.548114
Requires	-13.938273
CommandList	-14.220254
Universal	-13.972413
Offsets	-14.195615
ith	-14.184599
▁portion	-13.008218
closureN	-14.679690
Rt	-14.121553
abb	-14.417953
HER	-14.138209
▁shost	-16.064441
▁decide	-13.326746
CopyFrom	-13.849196
▁oldest	-13.486265
gyro	-14.815766
DOCUMENT	-14.311906
NFA	-13.986159
saxpy	-14.531442
▁potential	-12.466466
ZE	-12.849475
Pressed	-14.007156
Generation	-14.180452
▁jclass	-14.420207
rtm	-14.543531
polynomial	-15.012699
EVCTRL	-15.321185
Energy	-14.106455
ewGetProcAddress	-15.073762
▁incx	-15.053981
COMBINE	-14.022657
eid	-14.222281
DIRECTORY	-14.182706
RefCount	-13.610873
XI	-13.081259
PARA	-13.774926
▁PyType	-15.262788
▁VkImage	-14.243877
▁tested	-13.317115
lac	-13.876491
epoll	-14.260500
bearer	-14.157076
▁comes	-12.370483
aggr	-14.724953
include	-8.072389
UIViewController	-13.829901
gene	-13.049513
▁Kevin	-12.800433
▁wparam	-16.160732
SPARSE	-14.195782
▁OAI	-14.161132
Lu	-13.891716
Hand	-13.902168
SRGB	-14.331176
NOTIFICATION	-14.193901
checker	-14.055345
weston	-14.222112
FH	-14.257622
▁SetLastError	-13.889040
Ma	-13.369157
▁succeed	-13.763737
▁litest	-15.999734
▁thrown	-13.499530
▁PROGMEM	-14.351931
CENTER	-14.096922
Gateway	-13.810324
▁attempts	-13.295656
lum	-13.467502
spr	-13.934195
RLC	-14.484153
ImageFilter	-14.015854
Plain	-14.119350
Pen	-14.007326
SAMPLES	-14.239995
Att	-13.916653
▁sessions	-13.665893
aid	-13.929565
▁Gating	-14.028491
GetName	-14.138565
DNA	-13.491961
BaseAddress	-14.248194
often	-15.245310
cutoff	-14.825592
▁superclass	-13.828319
▁PMIC	-15.495961
▁accumulator	-14.324321
▁XCVR	-15.633522
vap	-14.529306
tiff	-14.156246
▁getNum	-14.559061
▁APLOG	-15.466457
IFIED	-13.732215
▁dtls	-14.916707
▁restrictions	-13.289529
Hello	-13.346811
▁reduced	-12.981807
rip	-13.703525
CDR	-14.492556
Reload	-14.087216
▁safely	-13.870621
Pe	-13.926637
▁equation	-13.253968
ancestor	-14.974395
▁ssc	-15.413205
▁glGetProgram	-15.389124
▁newnode	-14.049126
asc	-13.967936
▁rend	-15.318489
▁abuf	-14.492463
Promise	-13.512172
▁endp	-15.312502
HDF	-14.277774
MPS	-14.160547
▁endptr	-15.818250
ung	-12.788807
bz	-14.195720
Parity	-14.338322
▁wgl	-15.335741
hk	-14.113585
▁DOXYGEN	-15.161991
▁PLLSAI	-16.179089
▁sexp	-15.054322
▁logs	-13.948293
▁ahc	-15.571025
▁TCPWM	-16.024506
Al	-12.935922
ByName	-14.190347
volve	-14.608808
▁WPS	-15.453170
glSecondaryColor	-14.421902
▁VISIT	-14.835840
▁singleton	-14.472518
▁wanted	-12.504821
Raster	-14.147645
SDP	-14.261988
Rules	-13.874677
AUD	-14.078691
dcb	-14.450605
DEMO	-14.103316
▁pCur	-15.131050
Gu	-13.836394
tee	-13.769842
lam	-13.180648
▁CInput	-17.323611
Mar	-13.480569
▁regarding	-12.635559
What	-11.905874
hits	-14.504031
Ident	-13.909148
PREP	-14.032114
▁unbox	-16.488435
▁numa	-15.377067
PASSWORD	-14.211887
ein	-13.890416
HARDWARE	-14.304362
▁CAPI	-14.669236
Saved	-13.962476
xen	-14.133642
Visibility	-13.831886
lap	-13.233403
BUFSIZE	-14.135776
▁pParse	-15.376010
▁emsg	-15.165597
▁strtok	-14.576950
▁TXB	-14.947333
▁pointing	-13.752795
Requests	-13.943682
ARCHIVE	-14.032679
▁MXC	-15.207028
ori	-12.564720
▁forIn	-20.823189
Minor	-14.085696
Arrow	-13.682631
BLINK	-14.168169
CLOSED	-14.137759
▁matter	-12.285093
▁ITM	-15.164858
▁bitset	-15.004279
▁whenever	-13.575506
Gfx	-14.240129
Sta	-14.180055
Publish	-13.973796
Neighbor	-13.799397
▁PINCTRL	-17.781279
xmin	-14.205748
▁skel	-16.492223
ents	-13.167272
Manual	-14.581183
DRAM	-14.360754
DFU	-14.320624
▁SmallVector	-14.448397
▁helpers	-14.210668
chi	-12.598005
dce	-14.530921
ClassName	-14.008199
DDI	-14.398655
leg	-13.086605
▁nStates	-16.743247
Globals	-13.969885
stall	-13.986872
SETTING	-14.282190
▁smu	-15.460486
Trait	-14.056814
printing	-15.231687
Subroutine	-14.385183
Pcd	-14.654944
SCENE	-14.176358
pel	-13.804838
▁IMPLEMENT	-14.175790
irectDrawSurface	-14.700731
▁pfree	-16.319777
Escape	-13.534039
Solution	-13.524698
Formats	-13.835380
▁boundaries	-13.438739
PROJECT	-14.456705
tss	-14.516999
zo	-12.970393
▁pNode	-14.797441
▁commandBuffer	-14.606397
Conflict	-13.265507
regexp	-14.429387
▁SPA	-14.628573
Cal	-13.800944
ets	-12.739209
UNUSED	-11.806077
Act	-13.722132
tracks	-13.730557
Temperature	-13.807636
▁primitives	-14.846601
▁CGSize	-15.018068
YG	-13.969537
▁NVMCTRL	-15.523937
Loading	-13.484517
Hidden	-13.617229
Repr	-14.552230
▁CHPRI	-18.035885
AVAIL	-12.782498
cntl	-13.168702
▁socklen	-14.502174
CLKDIV	-14.564296
▁earlier	-12.623231
▁WRONG	-16.083464
ration	-13.115118
thermal	-14.246479
▁nthreads	-14.024544
Dataset	-14.016792
tcl	-14.293866
PRECISION	-14.291736
Priv	-14.045045
synchro	-16.716410
▁iio	-14.823107
slices	-14.587964
▁differ	-14.167453
BRANCH	-14.226172
▁pState	-15.040230
chg	-14.375560
▁ecb	-16.023573
▁InvalidOid	-14.039578
Dyn	-14.255478
scl	-14.350789
▁STRONG	-17.466377
fetch	-12.326283
Zoom	-13.826437
▁outlen	-14.878609
▁CharT	-14.908864
TTL	-14.217115
Develop	-14.976842
INTERP	-14.199931
▁memviewslice	-16.092939
qspi	-14.498073
Yes	-12.565734
EMBER	-14.205637
▁rehashe	-19.501183
contig	-14.748808
Mapper	-13.858891
combo	-14.442504
lli	-13.906113
▁agreement	-12.666004
▁hierarchy	-13.940039
MDI	-14.508847
▁GPIOB	-15.352646
pvt	-14.451962
▁HANDSHAKE	-16.963075
▁bail	-13.276070
rz	-13.745428
COST	-14.291003
SUITE	-14.188886
▁TESS	-16.921478
avi	-13.631303
nni	-14.101515
▁sreg	-16.137890
ALLOCATOR	-14.152022
▁slist	-15.857214
▁IWM	-14.495293
Efi	-13.615227
QUOTE	-14.077345
ZONA	-14.496396
Interlocked	-14.269848
ora	-13.025512
▁GLvoid	-14.612550
OSX	-14.314663
SEP	-14.191821
spline	-14.882250
▁SCE	-14.488634
▁derive	-14.407550
Swift	-14.381208
Dbg	-13.778378
irp	-14.326321
▁backing	-12.697121
▁filp	-15.663240
frozen	-14.324042
Cv	-14.239588
NDR	-14.353558
UNION	-14.116151
FieldNumber	-13.970273
▁endpoints	-14.347671
Drawable	-14.124563
▁FUNCNAME	-15.062528
▁pdw	-15.669713
CONCAT	-14.503007
▁accessing	-13.949167
▁ensures	-13.759732
Vdbe	-14.140200
▁delimiter	-14.137443
Words	-13.505138
DLY	-14.798466
▁fsl	-15.110685
▁mappings	-14.327889
SAME	-14.331580
▁devm	-14.664640
▁bitwise	-14.404574
tro	-13.325805
uration	-12.937018
Mini	-14.268341
through	-13.054551
RESUME	-14.227932
▁PORTC	-15.319157
TRUST	-14.274243
LINES	-14.019490
NH	-14.091668
▁pcre	-14.817714
Tables	-13.971146
Subsystem	-14.625994
ably	-13.512376
Protect	-14.029420
typeid	-14.457926
XN	-14.426763
▁AIF	-16.375853
Indicator	-13.848130
SWREQ	-15.981652
▁describes	-13.244593
▁fiat	-14.563751
Nr	-14.272016
▁bufSize	-14.710654
▁SEXP	-14.635619
HashMap	-14.032756
gal	-13.142731
CCA	-14.144359
Drawing	-14.043591
Confirm	-14.091824
▁PFNGLTEX	-14.417142
remove	-11.428653
LATENCY	-14.505443
▁minimal	-13.701714
gos	-13.767278
Traceback	-14.513013
CIM	-14.220927
lck	-14.324665
kg	-12.217764
Circle	-13.985730
VertexBuffer	-14.271357
MW	-13.698215
▁ioaddr	-15.309810
▁constructed	-13.186609
▁PyMethod	-15.003554
corr	-14.067915
Bone	-14.237369
CONS	-13.821735
▁HDA	-15.078341
GetObject	-14.311932
Subject	-13.186215
Blueprint	-14.026687
ups	-13.007092
▁escaped	-13.934440
binfo	-14.721250
ImageInfo	-14.289565
ump	-14.332129
▁tparam	-19.900369
▁INTRINS	-15.786790
▁DType	-14.593481
▁RDONLY	-18.716529
▁glX	-15.579713
▁RelationGet	-14.647427
BMC	-14.653066
tpl	-14.454005
PublicKey	-14.250756
dae	-13.609101
▁training	-12.339908
Times	-13.772428
▁PERL	-14.322686
plic	-14.291121
lish	-14.430999
pot	-13.540892
▁MspInit	-15.888865
ALGO	-14.368077
ALLOCATION	-14.342680
NOTIMPL	-13.657360
ITK	-14.191030
warp	-14.378858
AGENT	-14.380648
▁peers	-13.944849
SDMA	-14.685576
Ra	-13.817318
yb	-14.018183
IndexType	-14.150826
Design	-14.255639
Recovery	-13.989925
CDEF	-15.438437
STAR	-13.274389
▁brightness	-14.562933
Ser	-13.900198
AFE	-14.415259
▁endverbatim	-87.803840
EK	-14.275367
Ke	-14.164278
GDK	-14.368504
chall	-16.077546
append	-11.626061
▁smi	-15.074988
DESTROY	-14.096336
sanitize	-14.381060
▁complain	-14.402829
▁ethernet	-14.694959
▁Cef	-14.478268
nsp	-14.367468
ain	-12.749888
vu	-13.716363
▁substring	-14.593268
▁spu	-15.163222
▁CHUSEBURST	-18.089735
▁separated	-13.574126
HALT	-14.566661
rol	-13.772930
tpm	-14.414457
▁codegen	-15.280298
▁PFNGLIS	-14.295037
▁pFile	-14.912166
▁NOPULL	-31.307185
▁daos	-15.162965
ArrayType	-14.150927
▁gadget	-16.094008
▁compose	-14.847246
Redirect	-14.138640
itter	-13.752894
▁unreachable	-14.869337
getattr	-14.036744
destroy	-11.390415
▁bootstrap	-14.463228
▁cups	-13.577888
bsp	-14.139075
integration	-14.767043
rsv	-14.219797
▁glGen	-15.093860
BGR	-14.462334
▁efm	-16.061698
ffc	-14.347719
RATIO	-14.572960
▁Portions	-14.306982
PSE	-14.186511
termios	-14.232714
cess	-14.241702
kd	-14.200928
ebp	-14.373932
opus	-13.675956
RENDERER	-14.393502
Rand	-14.265757
runner	-13.751176
▁disconnected	-14.366286
syms	-14.204693
Listen	-14.102068
▁luma	-15.341011
▁svm	-15.263065
cfb	-14.610484
▁LAPACKE	-14.641307
Sv	-14.009357
prune	-14.762584
ELL	-14.025437
PALETTE	-14.292149
bins	-14.476914
▁semantic	-14.265988
▁wpas	-14.927140
▁setzero	-20.575670
GIC	-14.352353
▁btc	-15.159532
▁opcodes	-14.816083
MCI	-14.197077
LIM	-14.119486
▁isspace	-15.605674
setattr	-14.317639
Tls	-14.287722
ett	-13.067388
▁sanity	-14.115052
clnt	-14.399236
yuv	-14.518247
dash	-13.630543
iterator	-11.483034
compare	-12.420080
Unpack	-14.282327
▁opj	-14.779844
VERT	-14.176084
REVERSE	-14.288727
▁pDevice	-15.126301
OEM	-14.030599
CHARACTER	-14.123742
▁JERRY	-14.582985
▁pixs	-15.443016
▁ListCell	-16.544997
KU	-14.106856
mpfr	-14.515031
EventType	-14.077897
▁trampoline	-14.996874
uVar	-14.236388
BLT	-14.498555
rice	-14.534107
Typ	-14.066325
▁LFCLKSEL	-18.249751
LPI	-14.866505
SMT	-14.332359
▁construction	-12.310821
Slots	-14.202127
coder	-13.358586
ARD	-14.142915
MDRV	-14.185142
▁getName	-14.554857
presence	-14.943340
▁coverage	-13.119560
▁ogg	-15.544466
▁MAV	-14.891407
keymap	-14.444264
SAL	-14.330257
Endian	-13.826508
cmnd	-14.464284
Interpreter	-14.066045
dam	-14.006519
▁CyFunction	-21.410718
▁looks	-12.639189
wheel	-13.656044
orth	-14.323142
gas	-13.111175
BOR	-13.597909
PTC	-14.740647
Privilege	-14.161044
▁knl	-16.829034
rtt	-14.499461
KMS	-14.512937
Latency	-14.314892
BEFORE	-14.360970
▁daddr	-15.710001
Rhs	-14.512439
FRM	-14.569971
SRP	-14.258230
▁retVal	-14.347391
▁finally	-12.604549
zp	-14.467165
FunctionType	-14.161565
▁dylib	-17.219219
▁mongo	-15.039944
Jet	-13.535454
ACTIVATE	-14.396201
Beacon	-14.010810
inq	-14.226971
▁country	-11.717657
Misc	-13.839016
Peers	-14.631652
DSO	-14.341628
▁skill	-14.102160
HKEY	-14.168954
Closed	-13.634062
IDENT	-13.576247
unc	-13.773192
GetData	-14.181970
wrk	-14.495706
▁AVERROR	-13.714446
▁fseek	-14.846382
dfa	-14.625056
Prototype	-13.943391
pgm	-14.633420
ygard	-15.029022
▁BSLS	-14.444383
FOLD	-14.073819
EFF	-13.317664
▁MICROCHIP	-14.312974
Grow	-14.092260
LCK	-14.568383
eve	-13.578219
Sci	-14.954666
▁FMOD	-15.254440
vir	-13.466337
ulate	-13.202902
Included	-15.058767
Choose	-14.398195
dres	-14.634784
Nu	-13.974625
Notifications	-14.233890
ROS	-13.869682
RDWR	-14.475869
DIE	-13.482888
▁clicked	-14.641406
▁hsize	-15.015610
Reserve	-14.038912
ADVANCE	-14.171210
CLS	-14.352438
ach	-12.944069
Spl	-14.571852
▁funcname	-15.628722
AFF	-14.050211
Dep	-14.201799
MAIL	-14.067309
▁TCHAR	-14.727058
▁moment	-12.576560
OOB	-14.404629
gin	-13.673124
REMAP	-14.679064
▁particles	-13.785918
ons	-12.848413
LPD	-14.475521
▁LIS	-15.142041
ym	-13.499367
rds	-14.237734
PROPERTIES	-14.282492
▁Bradley	-13.632540
▁continuous	-13.531025
PAGES	-14.346261
▁unpacklo	-19.867187
MSS	-14.422713
Sorted	-14.174194
▁outstanding	-13.757512
eee	-13.577975
era	-12.295662
cade	-14.173309
tie	-13.566474
▁movs	-15.778569
stg	-14.385714
hosts	-14.359435
▁ASSEMBLY	-16.750982
fst	-14.324519
mbs	-14.431177
InputStream	-13.758081
LANE	-14.647897
bra	-13.406107
▁lfs	-15.103140
CNF	-14.817845
▁pObj	-15.012729
▁strlcpy	-15.750638
BYPASS	-14.584183
▁dynamically	-13.906942
▁specialization	-14.018254
tySequence	-14.945173
zl	-14.015585
▁dwError	-14.478529
▁wolfSSL	-14.475022
Motor	-14.283639
▁ibuf	-15.243639
DescriptorProto	-14.438779
ARROW	-14.075285
qq	-14.183420
rocksdb	-14.270117
▁figure	-12.835746
Until	-14.021192
▁TRNG	-15.421688
MIR	-14.518848
Started	-13.866799
▁belongs	-13.585890
▁LDK	-15.428276
▁pZip	-15.948195
▁WREG	-17.427279
realm	-14.499674
wish	-14.917014
Iterate	-14.161894
LAP	-14.008332
LOCALE	-14.213098
▁determines	-13.874617
Conditional	-13.854038
▁tolerance	-14.054813
NIF	-14.270966
▁DTCTRL	-18.940659
ore	-12.741716
Deep	-14.199971
INVERT	-14.404427
▁CREAT	-15.655732
iOS	-14.108984
arith	-14.281511
Pixmap	-14.226312
ACR	-14.761053
▁SMPR	-17.493864
cha	-12.776959
FRAC	-14.628551
pcr	-14.507734
Decrement	-14.149000
Ge	-13.672164
▁subnet	-14.790515
▁objv	-14.817472
mand	-13.944508
MISSION	-13.884404
watcher	-14.310436
Drv	-14.222028
idr	-14.354401
OOO	-15.153919
▁VkCommandBuffer	-14.886842
Surf	-14.035824
▁strtoul	-14.977211
▁nvim	-16.677890
PCB	-14.241221
Utf	-14.236692
▁HFILL	-14.051404
mpeg	-14.279163
RelationId	-14.080318
MAPPED	-14.440916
▁backwards	-13.951926
Edges	-14.254719
WPARAM	-14.462686
RAY	-14.123935
Filters	-14.040322
LoRa	-14.477658
▁ffffffd	-87.803840
▁magma	-14.089144
Classes	-13.524992
RDP	-14.353962
Ascii	-14.247906
Gap	-13.912933
Acl	-14.037295
wy	-13.725375
▁PERIPHERAL	-16.207967
nch	-13.819159
▁ocp	-15.859066
▁affected	-13.187509
▁subquery	-15.023959
Lost	-13.662983
▁convolution	-14.511332
▁describing	-13.612354
road	-14.085339
▁kStatus	-14.243052
emac	-14.480561
Specifier	-14.322539
photo	-13.959307
▁Erts	-14.522180
▁suspended	-13.692764
FileInfo	-14.108631
▁exts	-15.992618
▁transferred	-13.166590
IME	-14.204140
Ev	-13.882764
EEP	-14.699805
UGE	-14.628254
emb	-14.636946
gif	-14.326301
▁say	-11.685164
▁SYSCON	-15.526057
CAUSE	-14.610498
ICBOF	-15.637228
ior	-14.001629
▁MEGA	-14.626692
semi	-13.908823
RasterPos	-14.490961
elambda	-15.121997
▁DWT	-15.497390
Ping	-14.101658
DBUS	-14.409790
▁swizzle	-15.360010
Deferred	-14.199127
reconnect	-14.748047
BUCKET	-14.448534
▁workaround	-14.260464
▁SST	-14.873787
▁keywords	-14.452861
▁mojom	-15.879678
▁EINTR	-14.400728
wrote	-14.796060
Subtract	-14.237237
ura	-12.766329
ACP	-13.786224
ReadOnly	-14.130344
▁jerry	-14.536408
spatial	-14.642893
eep	-13.696307
Sch	-14.085446
blkno	-14.374733
Enumerate	-14.131281
▁cra	-15.975631
▁nread	-14.647590
▁cstring	-15.775000
▁rebuild	-14.367927
acked	-13.316390
▁intro	-14.609553
IIC	-14.647549
▁collector	-14.105955
gfs	-14.373853
ReturnType	-14.287298
▁sigaction	-14.619481
TupleDesc	-14.011468
▁dont	-14.163504
▁Therefore	-12.948465
Locator	-13.839243
▁IFORM	-18.367052
▁recurse	-14.676468
▁accesses	-14.266308
SMI	-14.461109
INDENT	-14.023765
▁UNITY	-14.641255
SFT	-14.656814
▁caddr	-15.580129
fcn	-14.407957
Noise	-14.276980
Ticks	-14.127164
▁indication	-14.126096
dirs	-14.151735
Quote	-13.210616
▁SetNull	-13.860573
▁AUXHFRCO	-16.358254
▁underflow	-14.639875
bsl	-14.062533
Temporary	-13.855074
Rename	-14.217872
synth	-12.819336
Discard	-14.148030
anc	-14.537138
▁Ngap	-15.509226
orient	-13.271984
las	-13.045692
Floating	-14.619007
errstr	-14.277922
eol	-13.861189
▁allowing	-13.169171
Pref	-13.964556
Refer	-15.001269
accuracy	-14.738138
▁receives	-13.690006
Was	-13.924439
LAND	-13.637961
▁domains	-14.039808
sgn	-14.949747
▁sint	-15.606821
bufp	-14.264125
▁pstr	-15.317214
gy	-13.243887
UNSET	-14.296298
Gray	-13.996396
ground	-11.673423
▁xfree	-14.032760
▁FIRMWARE	-15.947753
▁TEGRA	-15.226464
Xid	-14.176648
logged	-13.865077
▁defer	-14.580176
SetError	-14.276726
▁synchronization	-14.077048
benchmark	-14.642402
▁removing	-13.726485
▁ctypedef	-14.374773
succ	-14.166265
▁xattr	-16.840965
pools	-14.589113
READER	-14.244409
STOPPED	-14.469639
▁uncompressed	-14.695971
▁GLEXT	-18.002746
▁idea	-12.401916
collid	-14.870738
ImageType	-14.241343
Structs	-14.051255
Waiting	-14.261266
▁HSMCI	-15.747216
NZ	-13.659515
Fake	-13.790128
Spin	-14.114243
Toolkit	-14.115704
Qu	-14.217551
Pal	-14.250277
Unity	-14.094342
Mc	-14.271840
TexImage	-13.970229
▁ftrace	-14.854427
Rsp	-14.619581
cts	-14.096031
resh	-15.367582
IAL	-14.051778
MERGE	-14.238616
PrivateData	-14.471391
TCA	-14.018439
▁stay	-12.859149
pac	-13.688886
shoulder	-15.863016
▁bytecode	-14.768509
CAS	-14.051189
dlg	-14.434695
acb	-14.636595
▁dispatched	-14.247015
dial	-14.168778
▁VOLTAGE	-16.470807
Adaptive	-14.880421
Users	-13.954835
MBR	-14.305181
GPT	-14.604026
▁LOCKS	-17.728714
Deprecated	-14.030147
▁microseconds	-14.473928
▁mysqlnd	-15.660167
utter	-13.934142
GK	-13.477339
Flip	-13.936568
▁repository	-14.001463
Rad	-14.869154
▁incomplete	-13.875487
Without	-14.026728
▁unchanged	-13.973007
Corrupt	-14.434348
▁CONSTEXPR	-17.457579
▁msix	-16.052214
Dock	-14.085117
▁vxlan	-15.254061
▁DRW	-14.651320
LSI	-14.495717
▁comparator	-14.571331
TypeId	-14.298647
Initializer	-14.138694
bid	-13.855980
Distribution	-14.360429
IOMUXC	-15.010220
InitTypeDef	-14.118905
Needs	-14.353644
▁wxString	-14.306629
FIRE	-13.939042
BATCH	-14.370327
▁pset	-15.348751
NAS	-14.050321
dia	-12.830149
BULK	-14.432060
▁YYDEBUG	-15.241138
▁subframe	-15.298312
▁refptr	-18.576282
Superclass	-14.105805
Qualifier	-13.733124
▁SCRIPTABLE	-21.636683
Submit	-13.947802
TXN	-14.227187
lip	-13.632241
▁PRAGMA	-15.399383
LogError	-14.379047
▁encountered	-13.740960
BRK	-14.807564
▁VTABLE	-15.744817
sons	-14.146973
Sm	-14.123235
▁mpls	-15.837246
TestCase	-13.909104
OOM	-14.514751
▁allocating	-14.337535
sResponse	-14.460943
▁deletion	-14.214604
▁defining	-13.889358
▁intent	-13.398764
Fs	-13.835744
SELECTION	-14.302392
▁COAP	-14.699926
Ta	-13.760071
▁spent	-12.774902
▁AFIO	-15.681926
▁TYPEDEF	-16.261780
lq	-14.203365
▁discussion	-13.208529
INTERNAL	-11.963220
BlockIndex	-14.190955
Replication	-14.191836
Interrupts	-14.186535
GENERATE	-13.585611
▁CRS	-15.900301
slider	-14.545088
fdw	-14.479784
Cu	-13.650872
TST	-14.598932
Pm	-14.720913
DeviceMemory	-14.302496
medium	-14.324849
MOTION	-14.106975
▁dereference	-15.111245
amqp	-14.776732
UX	-13.842971
▁inherited	-13.887370
Iot	-14.506922
AdjustorThunk	-15.380349
Replica	-14.124937
Bg	-14.312021
▁srp	-15.165700
fq	-14.361108
RASTER	-14.392216
▁rbuf	-15.456497
Sheet	-13.686223
Opts	-14.232339
latter	-15.328466
▁PGC	-14.601887
zs	-13.955442
ottle	-14.770033
vacuum	-14.386657
▁convenience	-13.785460
[...]
