<unk>	0.0
<s>	0.0
</s>	0.0
<mask>	0.0
<pad>	0.0
<CLS>	0.0
<SEP>	0.0
<EOD>	0.0
▁▁▁▁▁▁▁▁▁▁▁▁▁▁▁▁▁▁▁▁▁▁▁▁	0.0
▁▁▁▁▁▁▁▁▁▁▁▁▁▁▁▁▁▁▁▁▁▁▁	0.0
▁▁▁▁▁▁▁▁▁▁▁▁▁▁▁▁▁▁▁▁▁▁	0.0
▁▁▁▁▁▁▁▁▁▁▁▁▁▁▁▁▁▁▁▁▁	0.0
▁▁▁▁▁▁▁▁▁▁▁▁▁▁▁▁▁▁▁▁	0.0
▁▁▁▁▁▁▁▁▁▁▁▁▁▁▁▁▁▁▁	0.0
▁▁▁▁▁▁▁▁▁▁▁▁▁▁▁▁▁▁	0.0
▁▁▁▁▁▁▁▁▁▁▁▁▁▁▁▁▁	0.0
▁▁▁▁▁▁▁▁▁▁▁▁▁▁▁▁	0.0
▁▁▁▁▁▁▁▁▁▁▁▁▁▁▁	0.0
▁▁▁▁▁▁▁▁▁▁▁▁▁▁	0.0
▁▁▁▁▁▁▁▁▁▁▁▁▁	0.0
▁▁▁▁▁▁▁▁▁▁▁▁	0.0
▁▁▁▁▁▁▁▁▁▁▁	0.0
▁▁▁▁▁▁▁▁▁▁	0.0
▁▁▁▁▁▁▁▁▁	0.0
▁▁▁▁▁▁▁▁	0.0
▁▁▁▁▁▁▁	0.0
▁▁▁▁▁▁	0.0
▁▁▁▁▁	0.0
▁▁▁▁	0.0
▁▁▁	0.0
▁▁	0.0
▁	0.0

	0.0
<0x00>	0.0
<0x01>	0.0
<0x02>	0.0
<0x03>	0.0
<0x04>	0.0
<0x05>	0.0
<0x06>	0.0
<0x07>	0.0
<0x08>	0.0
<0x09>	0.0
<0x0A>	0.0
<0x0B>	0.0
<0x0C>	0.0
<0x0D>	0.0
<0x0E>	0.0
<0x0F>	0.0
<0x10>	0.0
<0x11>	0.0
<0x12>	0.0
<0x13>	0.0
<0x14>	0.0
<0x15>	0.0
<0x16>	0.0
<0x17>	0.0
<0x18>	0.0
<0x19>	0.0
<0x1A>	0.0
<0x1B>	0.0
<0x1C>	0.0
<0x1D>	0.0
<0x1E>	0.0
<0x1F>	0.0
<0x20>	0.0
<0x21>	0.0
<0x22>	0.0
<0x23>	0.0
<0x24>	0.0
<0x25>	0.0
<0x26>	0.0
<0x27>	0.0
<0x28>	0.0
<0x29>	0.0
<0x2A>	0.0
<0x2B>	0.0
<0x2C>	0.0
<0x2D>	0.0
<0x2E>	0.0
<0x2F>	0.0
<0x30>	0.0
<0x31>	0.0
<0x32>	0.0
<0x33>	0.0
<0x34>	0.0
<0x35>	0.0
<0x36>	0.0
<0x37>	0.0
<0x38>	0.0
<0x39>	0.0
<0x3A>	0.0
<0x3B>	0.0
<0x3C>	0.0
<0x3D>	0.0
<0x3E>	0.0
<0x3F>	0.0
<0x40>	0.0
<0x41>	0.0
<0x42>	0.0
<0x43>	0.0
<0x44>	0.0
<0x45>	0.0
<0x46>	0.0
<0x47>	0.0
<0x48>	0.0
<0x49>	0.0
<0x4A>	0.0
<0x4B>	0.0
<0x4C>	0.0
<0x4D>	0.0
<0x4E>	0.0
<0x4F>	0.0
<0x50>	0.0
<0x51>	0.0
<0x52>	0.0
<0x53>	0.0
<0x54>	0.0
<0x55>	0.0
<0x56>	0.0
<0x57>	0.0
<0x58>	0.0
<0x59>	0.0
<0x5A>	0.0
<0x5B>	0.0
<0x5C>	0.0
<0x5D>	0.0
<0x5E>	0.0
<0x5F>	0.0
<0x60>	0.0
<0x61>	0.0
<0x62>	0.0
<0x63>	0.0
<0x64>	0.0
<0x65>	0.0
<0x66>	0.0
<0x67>	0.0
<0x68>	0.0
<0x69>	0.0
<0x6A>	0.0
<0x6B>	0.0
<0x6C>	0.0
<0x6D>	0.0
<0x6E>	0.0
<0x6F>	0.0
<0x70>	0.0
<0x71>	0.0
<0x72>	0.0
<0x73>	0.0
<0x74>	0.0
<0x75>	0.0
<0x76>	0.0
<0x77>	0.0
<0x78>	0.0
<0x79>	0.0
<0x7A>	0.0
<0x7B>	0.0
<0x7C>	0.0
<0x7D>	0.0
<0x7E>	0.0
<0x7F>	0.0
<0x80>	0.0
<0x81>	0.0
<0x82>	0.0
<0x83>	0.0
<0x84>	0.0
<0x85>	0.0
<0x86>	0.0
<0x87>	0.0
<0x88>	0.0
<0x89>	0.0
<0x8A>	0.0
<0x8B>	0.0
<0x8C>	0.0
<0x8D>	0.0
<0x8E>	0.0
<0x8F>	0.0
<0x90>	0.0
<0x91>	0.0
<0x92>	0.0
<0x93>	0.0
<0x94>	0.0
<0x95>	0.0
<0x96>	0.0
<0x97>	0.0
<0x98>	0.0
<0x99>	0.0
<0x9A>	0.0
<0x9B>	0.0
<0x9C>	0.0
<0x9D>	0.0
<0x9E>	0.0
<0x9F>	0.0
<0xA0>	0.0
<0xA1>	0.0
<0xA2>	0.0
<0xA3>	0.0
<0xA4>	0.0
<0xA5>	0.0
<0xA6>	0.0
<0xA7>	0.0
<0xA8>	0.0
<0xA9>	0.0
<0xAA>	0.0
<0xAB>	0.0
<0xAC>	0.0
<0xAD>	0.0
<0xAE>	0.0
<0xAF>	0.0
<0xB0>	0.0
<0xB1>	0.0
<0xB2>	0.0
<0xB3>	0.0
<0xB4>	0.0
<0xB5>	0.0
<0xB6>	0.0
<0xB7>	0.0
<0xB8>	0.0
<0xB9>	0.0
<0xBA>	0.0
<0xBB>	0.0
<0xBC>	0.0
<0xBD>	0.0
<0xBE>	0.0
<0xBF>	0.0
<0xC0>	0.0
<0xC1>	0.0
<0xC2>	0.0
<0xC3>	0.0
<0xC4>	0.0
<0xC5>	0.0
<0xC6>	0.0
<0xC7>	0.0
<0xC8>	0.0
<0xC9>	0.0
<0xCA>	0.0
<0xCB>	0.0
<0xCC>	0.0
<0xCD>	0.0
<0xCE>	0.0
<0xCF>	0.0
<0xD0>	0.0
<0xD1>	0.0
<0xD2>	0.0
<0xD3>	0.0
<0xD4>	0.0
<0xD5>	0.0
<0xD6>	0.0
<0xD7>	0.0
<0xD8>	0.0
<0xD9>	0.0
<0xDA>	0.0
<0xDB>	0.0
<0xDC>	0.0
<0xDD>	0.0
<0xDE>	0.0
<0xDF>	0.0
<0xE0>	0.0
<0xE1>	0.0
<0xE2>	0.0
<0xE3>	0.0
<0xE4>	0.0
<0xE5>	0.0
<0xE6>	0.0
<0xE7>	0.0
<0xE8>	0.0
<0xE9>	0.0
<0xEA>	0.0
<0xEB>	0.0
<0xEC>	0.0
<0xED>	0.0
<0xEE>	0.0
<0xEF>	0.0
<0xF0>	0.0
<0xF1>	0.0
<0xF2>	0.0
<0xF3>	0.0
<0xF4>	0.0
<0xF5>	0.0
<0xF6>	0.0
<0xF7>	0.0
<0xF8>	0.0
<0xF9>	0.0
<0xFA>	0.0
<0xFB>	0.0
<0xFC>	0.0
<0xFD>	0.0
<0xFE>	0.0
<0xFF>	0.0
0	-5.829801
1	-5.671402
2	-5.953049
▁x	-9.620120
3	-6.488258
4	-6.671651
6	-6.757733
s	-6.612061
8	-6.727199
5	-6.833341
7	-7.012093
▁the	-6.521553
9	-6.593362
▁if	-8.482170
▁t	-10.486755
▁define	-10.636502
▁int	-7.897100
▁const	-8.418491
▁return	-8.274373
d	-7.934922
▁void	-7.668101
▁to	-7.214666
▁a	-7.813776
C	-8.461088
S	-8.304942
▁i	-9.174733
▁for	-7.709923
▁is	-7.646448
▁of	-6.728273
e	-8.487862
D	-8.538198
r	-8.725307
▁struct	-8.779871
A	-8.713546
T	-8.872805
▁p	-9.456050
F	-8.848890
▁h	-11.248993
▁in	-7.098783
p	-8.166938
▁c	-9.798699
▁static	-8.022005
▁f	-10.062951
▁NULL	-8.461546
E	-8.871333
▁uint	-9.504010
▁n	-9.961152
B	-8.822220
n	-8.081457
P	-8.736284
▁char	-8.962643
I	-9.116314
X	-9.156390
id	-8.445652
or	-9.411129
▁include	-10.843219
▁and	-7.115620
t	-7.834062
▁get	-9.763774
U	-9.122763
i	-8.325969
R	-9.234796
L	-9.038674
H	-8.850726
l	-8.802511
▁else	-8.145340
x	-7.156620
M	-9.162901
▁b	-9.921977
▁data	-9.652889
▁value	-9.470370
ed	-8.145589
y	-8.520519
▁size	-9.786127
▁this	-8.502837
▁m	-9.432568
▁case	-9.734237
▁endif	-10.779844
c	-8.537947
▁set	-9.779594
f	-8.669740
ing	-8.417934
a	-8.850638
▁unsigned	-9.373278
G	-9.439901
len	-9.075227
▁be	-8.530638
v	-8.647930
▁type	-10.188444
▁bool	-9.299026
▁std	-9.603460
▁lean	-9.343503
▁v	-10.010350
▁u	-10.636487
Type	-9.151334
N	-9.509076
u	-8.678196
w	-9.498615
V	-9.527887
Get	-9.502482
buf	-9.311009
list	-9.425338
er	-8.926566
ID	-9.351947
▁object	-10.617927
▁break	-9.734979
▁The	-7.995941
o	-9.541394
m	-8.820426
name	-8.683948
▁not	-8.752796
▁that	-8.260196
▁param	-13.938371
b	-8.799991
W	-9.663871
val	-9.213139
▁error	-9.912108
▁This	-9.261232
▁with	-8.353297
▁pyx	-18.962329
q	-9.765761
▁string	-10.867562
Set	-9.422139
▁from	-8.148611
▁class	-8.958211
size	-8.723334
z	-9.238137
▁sizeof	-9.990064
K	-9.805143
▁by	-8.263593
in	-8.476120
k	-9.189607
▁new	-9.676691
str	-9.382979
g	-9.216463
type	-8.670082
no	-9.296729
Data	-9.529481
▁ret	-9.887326
TYPE	-9.721391
on	-9.674296
▁long	-9.794952
▁name	-10.254129
▁arg	-12.027714
info	-9.367099
Q	-9.913394
▁xff	-19.991746
data	-8.769228
▁k	-10.323030
▁file	-9.776251
▁index	-10.633883
▁typedef	-9.126823
map	-9.984605
▁state	-10.405269
O	-9.856978
▁buffer	-10.510944
set	-8.725904
Y	-9.967117
port	-9.467890
h	-7.904181
▁we	-9.386169
▁it	-8.733706
line	-9.602720
▁result	-10.117181
▁g	-10.576989
▁j	-10.681507
▁double	-10.449108
▁float	-10.720166
▁function	-9.755271
▁inline	-9.747766
▁dev	-12.482328
Z	-9.939936
▁out	-9.594518
▁key	-10.630934
code	-9.553895
ptr	-9.465984
▁device	-10.832845
▁xFF	-22.595987
▁free	-10.843407
ip	-10.120772
Info	-9.890765
▁status	-10.515967
String	-9.644265
▁defined	-10.157949
▁goto	-9.859909
In	-9.858838
Name	-9.752588
file	-9.537581
▁true	-9.635779
Value	-9.853122
▁read	-10.842280
▁flags	-11.064762
▁err	-10.227263
▁public	-8.572321
un	-8.783812
▁as	-8.435701
Size	-9.993000
▁use	-9.807098
▁can	-9.321184
▁false	-9.620576
io	-9.914032
▁GL	-10.300536
▁start	-10.889610
▁virtual	-10.137996
▁extern	-9.769550
▁ifndef	-13.299463
▁mode	-10.698148
▁on	-8.384814
Id	-9.997168
▁ifdef	-12.584347
▁are	-8.774701
up	-9.515152
CH	-10.685645
▁offset	-11.039769
out	-9.291221
en	-8.617664
▁MAX	-12.338326
j	-9.556518
▁default	-10.449213
▁add	-11.047768
de	-7.826152
▁init	-12.194023
▁next	-10.813397
▁OF	-10.086023
▁will	-9.468541
▁end	-10.875257
▁an	-9.222474
List	-9.820620
ref	-10.104043
▁ctx	-12.211670
▁node	-11.038184
▁has	-9.369714
API	-9.846483
▁info	-11.887853
ent	-9.880915
Object	-9.867856
ch	-9.993612
EN	-10.439278
▁License	-9.841290
▁CONFIG	-11.014474
le	-9.893147
ERR	-10.237569
▁used	-9.802513
▁base	-11.066582
▁num	-11.259335
▁GPIO	-11.194313
▁typename	-10.896001
log	-10.258770
▁write	-11.220258
▁bit	-10.840259
▁ERROR	-13.389512
▁input	-10.722584
st	-9.117686
CTRL	-10.974738
▁context	-11.116755
▁number	-10.012152
▁brief	-13.061008
al	-9.193547
▁length	-10.887279
To	-10.019486
▁src	-11.304292
State	-10.035433
it	-10.200926
DATA	-10.379992
▁DEFAULT	-11.893163
▁template	-9.790094
ly	-9.363491
▁current	-10.337143
IO	-10.010893
to	-8.966109
OUT	-10.396549
▁ptr	-12.791136
pos	-10.176807
ion	-9.946835
▁code	-10.282995
J	-10.192613
SET	-10.377211
Error	-10.053957
▁at	-8.661738
▁count	-11.093233
Buffer	-10.237358
▁output	-10.786189
▁IN	-10.687433
ex	-9.979260
OP	-10.200309
ED	-9.940281
▁test	-10.736986
re	-9.185091
count	-9.729757
▁tmp	-11.272428
▁while	-9.981873
▁entry	-11.279652
lock	-9.935859
IN	-9.665638
▁copy	-10.542048
▁vector	-11.841892
▁property	-11.452611
▁max	-11.131023
int	-7.994378
▁handle	-11.171896
Ptr	-10.368022
fd	-10.289242
num	-9.673896
able	-9.408435
Mode	-10.545280
Index	-10.272959
is	-9.178596
of	-9.831153
an	-9.990967
end	-7.521265
OR	-10.630251
time	-9.656324
addr	-10.046736
es	-9.460131
sp	-10.361203
if	-6.741722
LOG	-10.362101
op	-9.829870
Node	-10.327980
▁event	-11.005604
▁Py	-10.548923
▁array	-11.120441
▁all	-9.489826
state	-9.474807
▁namespace	-9.325812
IF	-10.504135
dev	-9.539346
▁block	-10.797916
Status	-10.202405
min	-10.227975
▁If	-10.029362
Pos	-10.835605
▁have	-9.196514
key	-9.685747
▁check	-10.832239
▁first	-9.807744
cb	-10.647431
▁op	-11.769251
are	-11.035081
▁address	-10.798662
▁user	-10.979515
▁IS	-11.068248
▁THE	-10.110213
File	-10.268702
net	-10.108299
Context	-10.344503
ro	-10.717258
comp	-10.673512
▁source	-10.589742
▁re	-10.890973
db	-10.552434
▁must	-10.111138
▁PyObject	-10.517943
Key	-10.283731
▁OR	-10.299534
CC	-10.164808
▁memory	-10.647121
var	-10.243226
▁using	-9.902591
▁addr	-12.323168
MODE	-10.717707
▁may	-9.717032
▁UL	-16.503759
▁self	-11.272280
▁ANY	-10.452906
▁any	-9.916468
EXT	-10.411921
▁request	-11.089651
RE	-10.430597
▁Copyright	-10.438689
▁when	-9.718162
parse	-10.573029
at	-10.211552
▁dst	-11.337749
sc	-10.530345
▁register	-10.876027
▁NO	-11.730735
▁only	-9.923906
IP	-10.483519
▁MASK	-13.940131
▁config	-12.091408
▁enum	-9.977269
▁private	-9.320815
Array	-10.451466
point	-10.545900
▁last	-10.638441
ic	-10.036809
CR	-10.873608
load	-10.366341
▁which	-9.388430
▁do	-9.841501
▁xf	-16.693891
ER	-10.632519
SIZE	-10.101629
opt	-10.701219
TX	-10.797686
▁assert	-11.475908
Is	-10.553617
cl	-9.423874
lib	-10.347389
▁mask	-11.594114
err	-9.440867
OK	-10.212089
▁create	-11.115232
INFO	-10.523717
LL	-10.777157
as	-9.857256
▁msg	-12.161757
▁should	-10.066109
▁UINT	-10.925253
For	-10.746700
link	-10.588433
tag	-10.592607
mp	-10.660473
▁reg	-11.884405
▁bytes	-11.116801
▁pointer	-10.704047
▁INT	-11.867887
cache	-10.563871
▁target	-11.203669
▁message	-10.977656
▁func	-11.833330
▁obj	-12.148478
Image	-10.496813
▁hash	-11.528372
init	-9.700718
ps	-10.417600
▁time	-10.008200
▁cmd	-12.165646
res	-9.875289
req	-10.714347
Time	-10.589988
Event	-10.528722
per	-10.471747
def	-7.721883
IC	-10.366398
▁other	-9.830125
Create	-10.541923
ext	-10.696442
▁Pyx	-17.955760
Count	-10.448259
alloc	-10.490967
table	-10.079391
▁version	-10.607267
flag	-10.566494
Int	-10.623828
▁update	-11.146615
LINE	-10.692014
▁you	-9.351108
INT	-10.082817
el	-9.013336
▁tx	-12.409058
sk	-10.497066
UI	-10.535954
▁glad	-10.546893
▁lock	-12.165327
reg	-10.222341
max	-10.142346
▁header	-11.373484
▁field	-10.987926
Base	-10.495255
ation	-9.873834
PORT	-10.469504
host	-10.878807
KEY	-10.640943
os	-10.091847
▁image	-11.297894
MP	-10.898898
Handle	-10.512880
▁gl	-11.845886
node	-9.935111
▁sub	-11.106123
Check	-10.441308
row	-10.457366
off	-10.528633
▁table	-10.893413
tree	-10.949521
▁under	-9.895030
ev	-10.908421
▁operator	-10.817082
▁xc	-16.302961
hi	-11.133435
dir	-10.533705
me	-10.584101
ac	-10.560455
▁values	-10.672343
▁Lean	-14.695918
▁pre	-11.501529
END	-10.144820
▁interface	-10.999800
desc	-10.868805
pc	-10.783735
Register	-11.386329
Vector	-10.777933
SPI	-10.973730
▁ctor	-17.630800
range	-11.069431
ctx	-9.942247
▁client	-11.707182
be	-10.328141
▁override	-10.544614
▁format	-11.233418
mac	-11.034673
▁xa	-17.497235
▁DMA	-11.606948
cast	-10.841533
DB	-10.752516
Bit	-10.964831
stack	-11.083755
▁xe	-16.670367
Request	-10.714857
▁switch	-11.505471
▁NOT	-11.243530
▁send	-11.274349
open	-10.750713
mode	-10.233603
▁but	-9.564880
▁printf	-12.210364
path	-10.259862
rt	-10.546123
ON	-10.774740
attr	-10.886188
▁ADC	-11.717943
NAME	-10.565191
OS	-10.681014
▁xF	-18.467884
fe	-10.882188
BASE	-10.992477
rec	-11.438142
Block	-10.712385
▁module	-11.317388
FILE	-10.652749
▁dest	-12.035472
ra	-10.699553
arg	-9.490465
Device	-10.729372
▁one	-9.636146
▁FALSE	-10.666422
▁iVar	-12.086575
fs	-10.629343
▁following	-9.941351
View	-10.485536
▁Windows	-11.775273
▁internal	-11.293638
AS	-10.511290
▁thread	-11.493197
ING	-10.308196
▁item	-11.874458
▁DEBUG	-12.369427
cp	-10.830732
▁USB	-11.469268
Read	-10.635654
ok	-10.636729
▁local	-11.146843
STATE	-10.793296
AL	-10.455165
ap	-10.340665
▁frame	-11.594565
string	-9.215182
back	-10.045309
Add	-10.999351
▁CMU	-12.321918
▁so	-9.963886
All	-11.253094
▁HAL	-11.240530
▁FOR	-10.830866
▁path	-11.424189
▁PIN	-13.645658
▁SIZE	-15.246639
Function	-10.556911
REG	-10.540176
vert	-11.207823
fp	-10.864189
Map	-10.638522
sys	-10.574777
▁callback	-11.253983
us	-9.729947
com	-9.870098
▁GET	-13.107241
▁res	-11.292922
space	-10.754628
▁channel	-11.522791
SR	-11.463260
ST	-10.813714
buffer	-9.899441
TEST	-10.734810
▁yy	-11.038980
vec	-11.043850
▁BIT	-12.793004
IS	-10.267796
value	-9.278715
▁software	-10.412847
obj	-10.223744
zero	-11.346195
Init	-10.725855
▁CHECK	-11.876506
CMD	-11.031207
ment	-10.343051
▁enable	-11.532295
▁auto	-11.046821
UART	-11.145558
▁server	-11.527890
▁rc	-11.171449
▁page	-11.079048
System	-11.275732
Result	-10.701151
get	-8.899211
▁USE	-11.321990
con	-10.638828
Input	-10.851017
core	-10.906385
si	-10.607503
BE	-10.670520
Table	-10.724360
▁mm	-13.450644
Message	-10.717489
AF	-11.160086
▁byte	-11.511095
mask	-10.458458
▁idx	-12.398936
▁mem	-12.904786
▁BOOL	-11.889421
▁width	-11.643295
No	-10.664001
▁volatile	-11.772761
▁command	-11.136236
▁xb	-17.891087
▁call	-10.983270
col	-10.576997
filter	-11.253726
Stream	-10.864953
tp	-10.870597
tion	-11.104991
Write	-10.815330
and	-10.390707
mem	-10.056977
▁hw	-13.467617
AR	-11.164642
▁without	-10.277821
Var	-10.042280
Class	-10.593741
▁params	-12.559081
▁SHIFT	-17.106536
cc	-10.701359
▁cpu	-12.400371
Address	-10.910170
STR	-10.816178
MS	-10.990524
▁level	-11.194588
▁attribute	-11.853880
sec	-10.726784
TIM	-11.367557
▁dec	-14.128064
ARG	-10.941324
msg	-10.231004
put	-10.854197
CLK	-11.390392
index	-9.840189
script	-11.075830
▁TRUE	-10.924814
li	-10.520656
▁instance	-11.159732
▁REG	-12.845108
Code	-10.673031
Re	-10.930366
ld	-10.922025
hr	-11.036385
▁xd	-14.376581
sh	-10.467713
▁method	-11.063817
root	-11.186037
UL	-10.585658
PROC	-10.893451
pg	-11.124413
cs	-10.759844
▁null	-11.601919
part	-11.328576
NS	-10.306124
▁xE	-17.001399
hdr	-11.124167
▁was	-8.658978
ui	-10.821139
▁PFNGL	-11.114167
cfg	-11.155622
▁cur	-12.269199
▁http	-11.533015
pool	-10.985059
debug	-11.023586
RTC	-11.411941
RT	-10.638108
▁stream	-11.787786
match	-11.093341
SEL	-11.479764
Mask	-11.209358
Free	-10.895124
sa	-10.447186
▁mutex	-12.624293
▁queue	-12.066719
timer	-11.018895
view	-10.988028
On	-11.176987
DMA	-11.166723
▁args	-12.065463
main	-11.213259
▁find	-10.960645
form	-10.596564
▁rx	-13.100962
Number	-10.712393
▁packet	-11.818161
ADDR	-11.219285
base	-9.918837
Item	-10.922777
stream	-10.335115
ar	-10.246154
Enable	-11.065117
mm	-10.384343
Not	-11.450205
CS	-11.041317
FLAG	-11.265663
SC	-10.795278
IT	-10.979015
right	-10.410207
▁left	-11.310953
▁failed	-11.022973
▁retval	-11.919759
▁clear	-11.546928
▁conn	-12.938991
ob	-10.947098
LOC	-12.129149
▁need	-10.516048
VAL	-10.588146
GL	-10.256281
position	-11.405124
▁Software	-10.806980
ins	-10.703901
NV	-11.069041
▁parent	-11.857613
Offset	-11.086530
With	-10.855118
head	-10.642387
control	-11.066171
loop	-10.911762
block	-10.458443
Test	-10.557321
gp	-11.236841
char	-9.316130
te	-10.833798
▁priv	-14.059276
gen	-10.688342
am	-9.984308
env	-11.113118
Control	-10.921860
▁window	-11.508183
pp	-10.662842
▁make	-10.612785
Return	-10.619513
mb	-11.059735
▁old	-11.205100
▁reset	-11.478377
MIN	-10.976184
▁text	-11.510577
Pointer	-11.013183
im	-10.066116
AT	-11.186409
ep	-10.969636
▁short	-10.691298
From	-10.876583
▁RX	-13.023131
PS	-10.967579
cm	-10.955811
EVENT	-11.011712
inc	-8.400454
▁print	-11.665820
close	-10.571409
ms	-10.601966
▁SSL	-11.952768
Config	-11.050189
Color	-10.883727
rel	-10.799881
Start	-10.880486
STRING	-11.053785
MAC	-11.241335
ab	-10.864374
args	-10.562636
▁into	-9.936196
ci	-11.000766
Instance	-11.057447
Text	-10.743903
Callback	-11.148614
vm	-11.002233
ice	-10.799816
access	-11.658542
VALUE	-11.016269
UN	-10.311962
▁see	-10.789366
▁Msk	-22.535043
ul	-10.519371
▁exit	-11.057876
▁session	-11.767883
NUM	-11.212269
LEN	-11.207215
▁TO	-11.191761
▁ASSERT	-13.234882
Source	-10.739426
process	-11.434547
mod	-10.937995
▁bits	-11.666388
box	-10.764218
ns	-10.750943
run	-10.870783
▁work	-10.521964
DC	-11.045537
▁options	-11.688122
spec	-10.931977
Command	-10.888139
▁AND	-10.832635
word	-11.009323
▁non	-10.833408
win	-10.853264
gl	-9.866934
Out	-10.908129
mark	-10.787262
Window	-11.052775
New	-10.799705
ts	-10.236183
MEM	-10.879275
all	-10.751105
▁color	-11.645258
▁STATUS	-13.582764
ff	-10.564032
wait	-11.290509
order	-11.299671
bit	-10.314164
PC	-10.845782
types	-11.184888
pt	-10.905890
th	-9.417136
▁group	-11.141445
Path	-10.908393
▁nonatomic	-13.070287
▁argv	-12.057105
proc	-11.173531
▁reserved	-10.822937
token	-11.382535
Default	-10.897476
▁driver	-11.446615
▁task	-11.803335
stat	-11.073174
CFG	-11.437878
NO	-9.917486
▁more	-9.875092
▁EXPORT	-12.344443
▁XFF	-19.759020
AV	-11.081244
▁SUCCESS	-12.779824
MSG	-11.204232
trans	-10.709555
LP	-11.121015
▁xC	-18.069208
▁element	-11.270247
▁Returns	-10.810820
socket	-11.097554
clock	-11.870846
▁handler	-12.174458
PA	-11.266187
rate	-11.185251
dma	-11.247885
store	-11.232248
empty	-11.468359
▁height	-11.788554
rs	-10.293156
▁temp	-11.923195
READ	-11.137232
▁USART	-12.239409
Version	-10.848591
Client	-10.982527
TIMER	-11.584900
Length	-11.028815
sz	-11.007928
pr	-10.638708
▁found	-10.544656
unit	-11.482247
▁GLenum	-12.315818
DEF	-11.214084
seq	-11.445969
▁ENABLED	-14.055188
query	-11.338190
fc	-11.226461
bits	-10.892813
lp	-10.865428
cnt	-11.099982
PRE	-11.338860
Op	-10.985939
Output	-11.052891
▁shared	-11.978749
move	-10.899937
free	-9.433300
▁after	-10.113685
printf	-10.275783
CAN	-11.591432
ce	-10.658773
CODE	-10.885569
▁each	-10.647119
Frame	-11.118370
face	-10.682104
phy	-11.495878
▁then	-10.186221
irq	-11.194042
▁fprintf	-11.773119
▁import	-10.886652
ert	-10.782619
▁zend	-12.629411
dp	-11.196872
▁VERSION	-15.617539
▁SOFTWARE	-10.954893
do	-10.042359
av	-11.124052
sub	-10.323079
PTR	-11.275577
top	-11.034733
WRITE	-11.164391
allocate	-11.635236
call	-10.287634
End	-11.077525
Format	-11.013762
INIT	-11.125086
MASK	-10.554459
▁given	-10.607321
▁specific	-10.865813
▁push	-12.095653
▁See	-8.526234
ot	-11.497801
Memory	-10.957377
lo	-10.877417
▁interrupt	-11.396208
CTL	-11.473616
Flags	-11.169096
Ref	-10.772183
ker	-11.149023
Point	-10.958533
▁RCC	-12.763558
serv	-11.304353
▁parameter	-11.196592
array	-10.255347
Update	-10.992077
CPU	-11.713360
dw	-11.176291
▁NSString	-11.597530
Interrupt	-11.471486
AC	-11.055678
ops	-11.218129
co	-10.662166
idx	-10.651859
real	-11.537795
DIS	-11.176981
rc	-10.392709
FS	-11.129065
▁continue	-10.698825
iv	-11.266457
LIB	-11.086766
sig	-10.712324
▁above	-10.677979
mi	-10.974161
Num	-11.204540
▁child	-11.713783
sym	-10.986556
▁its	-10.041226
func	-10.389624
bl	-11.546989
action	-11.070411
Matrix	-11.227951
Call	-11.070533
▁system	-10.770365
▁We	-10.231495
ll	-10.530283
▁done	-10.602385
sign	-9.689895
SYS	-11.011965
DEVICE	-11.327573
scan	-11.424480
matrix	-11.790172
conf	-11.325452
app	-10.695844
LE	-11.018035
malloc	-11.325641
Entry	-11.097584
PR	-11.189586
DE	-10.577750
pin	-10.866396
▁called	-10.654241
Global	-11.537889
begin	-10.816858
down	-11.191932
MAP	-11.187525
stats	-11.405867
ring	-10.943245
▁INVALID	-12.921076
FUNC	-11.218384
Max	-11.085336
TO	-10.770554
CALL	-11.179441
▁timeout	-11.818633
seg	-11.662198
go	-9.976103
▁GLuint	-12.324580
▁ZEND	-11.676293
la	-10.791509
rd	-10.787499
pi	-10.958726
▁connection	-11.438805
label	-10.905351
not	-10.738448
▁functions	-10.940040
EX	-10.608681
cap	-11.071151
ENABLE	-10.463130
ma	-9.837223
▁same	-10.517191
CF	-11.303179
ES	-10.896543
class	-9.733193
md	-11.307980
FT	-11.237874
Log	-11.105599
Field	-11.120877
CB	-11.468827
▁HAVE	-11.105894
low	-11.263164
dc	-11.372770
iter	-10.789269
offset	-10.188074
ull	-11.986688
tab	-11.220891
▁iterator	-12.169580
▁WARRANTIES	-11.015663
▁remove	-11.611191
fn	-11.047531
bo	-11.165229
dy	-10.929274
▁conditions	-10.723886
ARRAY	-11.364701
pow	-13.093612
over	-10.667990
active	-11.296881
va	-10.865605
prop	-10.388916
ca	-10.732081
hash	-10.615343
Reg	-11.178503
Channel	-11.294630
▁before	-10.403798
ad	-10.637029
▁information	-10.448382
SM	-11.226339
Filter	-11.286367
Handler	-11.226601
Model	-10.890160
sock	-11.263199
AD	-10.953643
MC	-11.028775
structure	-12.986115
one	-10.390577
RPC	-11.394822
▁program	-11.006511
Sub	-11.158866
RM	-11.845978
VM	-11.280397
▁notice	-11.110435
PER	-11.233431
usb	-11.442011
▁rights	-10.618883
Un	-11.155955
Use	-12.051209
ord	-12.695168
LONG	-11.184305
▁my	-10.369168
UP	-11.205484
▁xA	-18.012047
It	-11.497998
BLOCK	-11.376527
▁global	-11.601819
clk	-11.569890
ssl	-11.332200
TH	-11.226127
read	-9.904170
ctrl	-11.401485
▁returns	-11.236442
▁specified	-11.175920
▁there	-10.058328
et	-10.435142
▁STM	-12.306789
bp	-11.459133
sum	-10.884463
COLOR	-11.222817
EC	-11.171374
▁nullptr	-11.280410
OF	-11.194823
Group	-11.144877
▁filename	-12.233900
trace	-11.329860
test	-10.153145
fail	-11.194039
flags	-10.047674
BUFFER	-11.346072
TIME	-11.291122
bus	-11.178178
Element	-11.216030
▁NONE	-14.067894
OFFSET	-11.619093
▁pragma	-13.614083
ret	-9.242924
▁linux	-13.685539
expr	-11.469547
reference	-11.743986
rb	-11.336092
User	-11.166014
▁response	-11.232314
▁INCLUDING	-11.847342
▁than	-10.251552
SW	-11.385623
▁total	-11.242072
tm	-11.525478
BT	-11.482331
▁exception	-11.763622
EP	-11.176597
None	-11.556212
VAR	-11.365130
Thread	-11.158018
support	-12.221264
ABLE	-11.112236
TRACE	-11.445708
sd	-11.381856
ature	-12.037248
sync	-11.097705
▁provided	-10.824684
tuple	-11.435266
scale	-11.458242
ARB	-11.544697
▁binary	-11.313082
slot	-11.622723
WIN	-11.040172
ALL	-11.236105
Range	-11.255807
Core	-11.297373
tmp	-10.333250
IR	-11.260243
mc	-11.592631
Expr	-11.477063
LIST	-11.331626
pass	-11.406723
save	-11.361378
TS	-11.323472
Str	-11.294928
change	-11.474023
DR	-11.549524
MM	-11.521838
▁copyright	-11.052469
▁raw	-12.869215
ust	-12.106794
em	-10.854887
Foundation	-12.094206
▁memcpy	-12.153869
AN	-11.400459
api	-11.256345
Module	-11.276230
inter	-10.099580
rev	-11.720202
PP	-11.489974
▁signal	-11.804034
ping	-11.720284
FUNCTION	-11.197409
sb	-11.214562
▁HRESULT	-11.291909
▁skb	-12.815796
Port	-11.451379
our	-11.485072
CA	-11.302734
▁closed	-12.188303
cmd	-10.480919
integer	-12.277053
cursor	-11.663001
bt	-11.475952
connect	-11.001670
Char	-11.313056
Line	-11.202529
SP	-11.108541
PG	-11.384681
▁common	-11.369813
tx	-10.602690
▁iParam	-12.701551
sample	-11.480021
▁operation	-11.252321
start	-9.695464
font	-11.381495
NET	-11.092913
▁DWORD	-11.245028
CP	-11.432013
CLASS	-11.400878
model	-11.611268
Task	-11.370114
names	-11.689995
Property	-11.263165
BUF	-11.443884
▁here	-10.452990
▁parameters	-11.291292
spi	-11.324249
limit	-11.384509
nd	-10.411679
Local	-11.346898
ec	-11.124395
stop	-11.469705
HANDLE	-11.328581
pl	-11.361965
ADD	-11.506633
impl	-11.434291
▁distributed	-11.379075
Hash	-11.375867
Val	-11.466966
act	-11.027487
flow	-11.312059
▁You	-10.412107
▁required	-10.996602
▁resource	-11.929275
▁THIS	-11.405859
DT	-11.734654
json	-11.676272
STATUS	-10.564286
add	-9.992486
GEN	-11.529256
config	-10.320575
nr	-11.428965
▁release	-11.545057
▁GLint	-12.254739
LEVEL	-11.502354
pkt	-11.650579
EV	-11.799592
error	-9.566649
▁enabled	-11.767708
DF	-11.506640
multi	-11.679297
Open	-11.569850
stride	-11.808269
ber	-11.430219
▁available	-10.983464
CL	-11.141923
Options	-11.316703
RC	-11.343934
write	-10.116446
NI	-11.266222
py	-9.870153
Param	-10.783847
display	-11.696480
amp	-12.034955
▁been	-9.943721
FC	-10.703760
sw	-11.253377
PWM	-11.942538
dump	-11.426392
PM	-11.183547
sm	-11.303105
Manager	-11.077382
MD	-11.456377
Public	-12.824961
Interface	-11.230872
Load	-11.302605
▁NRF	-11.611014
pd	-11.464222
rv	-11.217678
TURN	-11.550475
prefix	-11.953766
CM	-10.705987
▁undef	-13.007029
GC	-11.462442
now	-11.962778
fmt	-11.738450
▁xB	-17.999576
AP	-11.110673
DIV	-12.054759
PI	-11.097200
Lock	-11.234333
▁fields	-11.434967
shift	-11.468340
tr	-10.802728
fb	-11.758489
chan	-11.616063
▁argument	-11.442314
Position	-11.515951
search	-11.860260
CONST	-11.584168
CON	-11.338657
Tx	-11.569723
select	-11.392578
IE	-11.523879
▁texture	-12.288415
place	-11.631462
Timer	-11.567703
SHA	-11.695094
▁either	-10.958724
▁inode	-12.412455
chunk	-11.899377
Obj	-11.628368
IRQ	-11.397711
thr	-12.576316
del	-10.883524
pm	-11.430151
TC	-11.464796
▁PRS	-13.267178
LA	-11.022815
DEV	-11.491070
dd	-11.354512
context	-10.292384
EM	-11.586857
proto	-10.798862
HW	-11.601823
▁SDL	-11.767182
FIELD	-11.375575
ri	-11.149386
TAG	-11.595155
ear	-11.415638
▁Shifted	-12.523803
LOCK	-11.569301
xml	-11.296823
PT	-11.609096
rh	-11.646715
Level	-11.415754
cf	-11.674934
ator	-10.350039
▁variable	-11.522752
ge	-10.623486
acc	-11.826833
▁xD	-16.906231
depth	-11.763413
DECL	-11.144191
▁disable	-12.106981
priv	-10.343808
Release	-10.754600
Of	-11.188579
▁GNU	-11.237797
gh	-12.845005
▁GLAPI	-11.305657
Arg	-11.452677
REF	-10.560244
AM	-11.225465
INTER	-11.457019
dict	-11.475426
Header	-11.411772
heap	-11.583717
crypt	-11.621243
so	-10.823857
Desc	-11.528063
column	-11.853021
MT	-11.605985
Service	-11.335884
MODULE	-11.380471
tcp	-11.677072
▁does	-10.806271
FB	-11.771449
FD	-11.405804
Query	-11.312163
START	-11.515556
IM	-11.196902
ee	-11.059259
pack	-11.452408
OBJECT	-11.393076
COUNT	-11.571909
xx	-11.748875
style	-10.947623
SUB	-11.513764
cmp	-10.984105
▁location	-11.540812
▁returned	-11.183251
Current	-11.054496
▁protocol	-11.963951
BC	-11.424876
RAM	-11.712903
If	-11.430301
Response	-11.451757
da	-10.476632
let	-11.479331
ial	-10.996467
SL	-11.372445
dim	-11.593953
ie	-10.855299
cr	-11.364440
▁license	-11.477618
sl	-11.108252
SS	-11.429568
CK	-11.821096
BYTE	-11.562256
▁don	-10.965092
▁two	-10.101733
di	-10.630393
exp	-11.162500
item	-10.624892
pid	-11.469815
Debug	-11.422573
ti	-11.251406
sort	-11.708751
ir	-10.914037
USER	-11.531790
▁wpa	-12.695879
ak	-11.238891
term	-11.543250
Send	-11.497538
De	-11.248521
▁some	-10.334004
TABLE	-11.497821
DI	-11.547743
FE	-11.450541
▁www	-13.892850
CI	-11.608648
Queue	-11.611452
se	-9.056329
tv	-11.617236
ct	-11.606772
cd	-11.675711
round	-11.956405
PARAM	-11.664759
regs	-11.758026
▁WTIMER	-13.332987
written	-12.416135
▁memset	-12.150617
Cache	-11.427633
Texture	-11.598367
tc	-11.624295
▁strcmp	-13.459980
draw	-11.613240
Exception	-11.185789
shape	-11.814045
region	-11.693269
Page	-11.102936
ME	-11.363358
tra	-11.459982
Len	-11.450070
freq	-12.082486
▁strlen	-11.971706
mul	-11.858787
files	-12.331912
FORMAT	-11.683572
Flag	-11.595830
▁invalid	-11.900191
▁configuration	-11.368275
General	-12.745523
COMP	-11.683804
Clear	-11.285750
BLE	-11.800022
▁EFI	-11.306777
CHAR	-11.314110
CE	-11.425164
ATTR	-11.598374
frame	-10.681827
DO	-11.290445
▁already	-11.088425
dt	-11.590867
OC	-11.729545
ne	-10.487431
elem	-11.666892
▁implementation	-11.399583
PL	-11.370978
event	-10.361855
▁where	-10.353964
ION	-11.187542
ive	-10.798967
DS	-11.304167
lua	-11.675377
hip	-11.683073
▁expected	-11.632924
CD	-10.709139
TR	-11.535298
▁IMPLIED	-11.432413
NODE	-11.458283
▁APIENTRYP	-16.595263
df	-11.710070
▁stderr	-13.475307
▁xffff	-44.424061
Server	-11.434897
symbol	-12.077503
PE	-11.630738
▁elements	-11.598085
step	-11.931728
counter	-11.914103
Token	-11.547337
MAX	-10.006849
loc	-11.327624
▁success	-11.318678
sur	-12.247269
ia	-10.476056
DA	-11.475225
est	-10.688509
AE	-11.996481
As	-11.351994
And	-11.144092
▁single	-11.038171
ter	-10.764321
pair	-11.911465
blk	-11.794190
PLL	-12.128820
bb	-11.284581
▁try	-11.345832
buff	-11.757551
kind	-11.834484
dv	-11.957261
Initialize	-11.338341
▁unique	-12.186019
▁constexpr	-11.701863
▁iface	-13.233827
rp	-11.699915
level	-10.839929
▁argc	-12.012551
Process	-11.335164
▁mono	-12.319025
il	-11.182255
hs	-11.573673
▁once	-10.619428
enc	-11.723289
TE	-11.586987
LOAD	-11.795925
pro	-11.066596
Description	-10.237155
▁orig	-13.167675
INPUT	-11.837894
INDEX	-11.719311
RA	-11.591291
ending	-12.024725
chain	-11.939995
sf	-11.744029
DBG	-11.843974
sequence	-12.219166
▁LIMITED	-11.459071
GP	-10.921043
pa	-10.894418
STAT	-11.425885
▁entries	-12.015939
▁epi	-14.393257
▁LICENSE	-11.920801
▁asn	-13.041688
Attribute	-11.612950
Float	-11.647128
layer	-12.086360
ast	-11.291295
domain	-11.989871
Copy	-11.140471
page	-10.682266
pixel	-11.897505
ls	-11.260324
pf	-11.729425
▁BUT	-11.492842
App	-11.539943
Bits	-11.684867
Resource	-11.571701
▁PCI	-12.433105
second	-11.544263
ue	-10.522060
edge	-12.108344
▁WITHOUT	-11.394280
Inc	-13.305432
Mem	-11.636247
NG	-11.647873
▁platform	-11.973669
Func	-11.638704
mat	-11.564321
factor	-12.069202
pad	-11.435419
ity	-10.369046
▁peer	-12.264511
bin	-11.313650
SI	-11.440313
dm	-11.896711
Meta	-11.864515
bd	-11.781043
Struct	-11.701127
gc	-11.807443
rect	-11.713089
OPT	-11.783923
PHY	-11.902011
Ex	-11.618344
points	-12.178233
AA	-11.956789
▁just	-10.510194
METHOD	-11.448342
▁WITH	-12.401264
field	-10.295395
assign	-11.887647
PAGE	-11.776364
Target	-11.535803
MOD	-11.829682
Min	-11.466715
inst	-11.244087
pipe	-11.570239
▁content	-11.436878
Iterator	-11.630762
tt	-11.495632
Media	-11.831126
build	-12.010613
uc	-11.589042
▁sqlite	-12.044731
OBJ	-11.823349
ni	-11.112379
▁append	-12.387900
fill	-11.532131
▁final	-11.038559
NT	-11.350653
Method	-11.417437
asm	-11.549339
nb	-11.814643
▁ULONG	-11.610764
mk	-11.941676
SH	-11.498342
MI	-11.415214
▁atomic	-12.830176
By	-11.485964
TLS	-11.523897
keys	-11.936081
abs	-11.841238
bc	-11.806235
status	-9.994007
queue	-10.761354
GR	-11.843579
▁PURPOSE	-11.392363
▁supported	-11.590599
Button	-11.534552
age	-10.308220
ATION	-11.268416
RD	-11.747993
HI	-11.810920
▁show	-11.376827
Action	-11.364873
ough	-12.284797
card	-11.394834
RESET	-11.856823
delay	-11.771677
BY	-11.475058
Delete	-11.500069
param	-9.158395
lt	-11.788031
ack	-11.822961
▁LIABILITY	-11.834459
format	-10.740387
Byte	-11.664003
nl	-11.724442
SE	-10.789498
track	-11.714631
lc	-11.786045
BA	-11.447387
bi	-11.024804
EE	-11.787352
byte	-10.964835
alpha	-11.851038
DIR	-11.744614
Access	-11.430123
Next	-11.343991
by	-10.563597
ib	-11.439662
PROTO	-11.392976
Do	-11.759728
Tag	-11.516781
WM	-11.728077
MB	-11.479054
AND	-11.375400
▁modify	-11.647157
lv	-12.000741
vp	-11.930557
▁FITNESS	-11.380815
sel	-11.592089
AB	-11.614263
ALT	-12.211954
▁details	-11.280706
DP	-11.761828
CTX	-11.893453
FAIL	-11.092547
▁MERCHANTABILITY	-11.356046
OFF	-11.793667
▁also	-8.389569
ise	-11.664714
Buf	-11.854740
help	-11.828243
BR	-11.668327
IL	-11.563701
ram	-11.447597
dr	-11.395611
equal	-11.922030
bf	-11.791411
px	-11.368259
Msg	-11.807000
fl	-11.717207
use	-9.808799
▁union	-10.801238
PD	-11.841163
auth	-11.366878
▁Elab	-17.960217
graph	-11.445481
body	-11.417078
▁unlikely	-13.811473
oid	-10.061226
group	-10.457309
RX	-11.067125
▁because	-10.704332
Reset	-11.607277
Descriptor	-11.709418
CMP	-12.126752
ant	-10.966599
entry	-10.348853
XML	-11.533871
▁uParam	-14.092427
ROM	-11.992272
rows	-11.926489
sect	-12.844200
Vec	-12.041309
▁xFFFF	-21.807052
▁PARTICULAR	-11.410865
▁png	-12.552201
▁transfer	-11.770744
▁php	-13.063796
FIFO	-12.062958
float	-10.234648
screen	-12.016537
▁ssize	-12.440819
lu	-8.985905
▁MBEDTLS	-12.183939
son	-10.526035
Internal	-11.559661
ARGS	-11.773874
▁VK	-12.210178
PB	-11.960384
Pre	-11.623618
url	-11.426233
COL	-11.809206
result	-9.850305
nv	-11.742075
br	-11.352181
ho	-11.762187
▁adapter	-12.916585
ctl	-11.585675
HTTP	-11.701192
master	-11.710514
▁your	-10.123753
pb	-11.915700
▁received	-11.104023
digit	-12.286065
eep	-12.960218
complete	-12.001053
▁want	-11.035281
ba	-10.849727
▁snd	-12.442316
check	-10.511374
SA	-11.390915
cell	-11.720789
▁XF	-14.733112
TDMETHODCALLTYPE	-11.706444
ur	-10.562652
▁bad	-11.711705
swap	-11.703505
src	-10.545903
SRC	-12.030754
Rect	-11.865602
Tensor	-12.094580
blocks	-12.302828
Parse	-11.663856
tile	-11.248239
uni	-11.285987
Record	-11.425522
thread	-10.660362
ig	-11.347642
▁library	-11.485228
bind	-11.778411
Invalid	-11.696562
mt	-11.933146
PUT	-11.861766
▁events	-10.980418
▁failure	-11.580576
▁UNUSED	-12.747868
Display	-11.684705
ET	-11.641387
initialize	-11.372477
fi	-10.935480
LENGTH	-11.923251
Store	-11.625959
▁application	-11.505061
CO	-11.524897
APP	-11.674242
flush	-11.598693
Params	-11.813419
ft	-11.550884
CT	-11.530240
doc	-11.485401
nt	-11.341232
force	-12.025959
▁GLsizei	-12.701797
ABI	-12.009926
Stack	-11.625799
▁whether	-11.212248
storage	-12.191088
▁otherwise	-11.447004
TCP	-11.792604
▁PIO	-13.160148
par	-10.997653
Disable	-11.790055
Packet	-11.883355
Clock	-11.889836
▁ngx	-12.162944
bar	-11.107830
▁always	-11.309538
CRC	-12.326298
TEXTURE	-11.829596
ea	-11.427638
recv	-11.983029
WORD	-11.450209
ix	-11.530127
lhs	-12.159879
ward	-11.609612
SIG	-11.789082
direct	-11.659017
Connection	-11.615758
print	-10.719059
uv	-11.835241
Multi	-11.386612
Web	-11.051383
BITS	-12.005688
▁xFFFFFFFF	-87.802829
Pin	-12.341246
Label	-11.611668
tb	-11.991957
CORE	-11.831618
PATH	-11.748174
mov	-11.762069
Parameter	-11.706023
work	-10.727599
▁BEGIN	-12.208543
FP	-11.804971
▁spin	-12.970106
▁emit	-12.455319
MA	-11.168306
area	-12.190066
curr	-10.860418
▁noexcept	-11.957212
EA	-11.720127
RO	-11.634024
US	-11.077860
Draw	-11.180862
fa	-11.245478
layout	-11.768680
LD	-11.766246
Impl	-11.711627
handle	-10.509608
eb	-11.632696
Width	-11.771315
▁KIND	-11.788522
Shift	-12.160912
ai	-11.388816
rm	-11.260765
object	-9.967228
ance	-10.521252
Link	-11.400795
pattern	-12.237175
REQ	-12.060433
LO	-11.813876
Parser	-11.991963
util	-11.383851
Print	-11.584316
Kind	-11.794683
uart	-11.997921
Addr	-11.963955
post	-11.688865
side	-11.341288
date	-10.625348
▁Aws	-12.056223
ml	-11.648156
▁container	-12.223585
▁network	-11.582149
bytes	-10.934571
man	-9.913146
BIT	-10.845172
nodes	-12.250329
text	-10.161674
DEFINE	-11.410163
JS	-11.790372
Change	-11.453433
▁contains	-11.505897
▁settings	-12.087854
Bool	-11.743060
ht	-12.055842
RGB	-11.999891
shade	-12.806487
ate	-10.305067
BB	-11.847708
NAL	-11.681551
▁wx	-12.385277
▁bcm	-12.611519
Decl	-11.892775
▁since	-10.980784
DD	-11.909483
diff	-11.979784
mon	-10.869049
FLAGS	-12.019728
▁runtime	-12.769034
sg	-12.154172
ence	-11.471604
af	-11.328547
new	-9.908385
FLOAT	-11.939815
HASH	-11.842809
conv	-12.008879
Failed	-11.936993
np	-11.744586
mv	-12.219571
▁transaction	-11.936129
▁readonly	-12.789466
FLASH	-12.124227
Select	-11.712618
INTERFACE	-11.686998
bitmap	-12.002442
Storage	-11.883213
RES	-11.894604
▁EINVAL	-13.177323
exec	-11.479133
▁needed	-11.531513
less	-11.110043
▁glGet	-13.010352
dl	-11.751361
ADC	-11.827306
sta	-11.760751
▁between	-10.539231
NOT	-10.867200
MR	-12.055835
lower	-12.439841
pix	-12.201223
GE	-11.744276
entity	-12.412417
Find	-12.391668
▁except	-11.461700
▁description	-11.496092
CONTROL	-12.035991
stmt	-11.989723
CHANNEL	-12.040740
decode	-11.918305
arm	-11.698597
Or	-11.573923
DAC	-12.382563
VT	-11.999796
Session	-11.743288
RS	-11.698378
CU	-11.891749
Tree	-11.560851
Layout	-11.618145
conn	-10.870515
▁ss	-12.461329
cond	-11.809651
ERROR	-9.892885
SEC	-11.519000
um	-10.430608
FORM	-11.799913
CAP	-11.774909
throw	-12.144403
ag	-11.350818
LCD	-12.246224
URL	-11.608252
tch	-12.604900
▁elif	-13.367825
align	-10.113286
gt	-11.958426
▁expression	-11.590198
slice	-12.226281
aa	-12.083386
At	-11.572294
▁implied	-11.505192
STACK	-11.867967
▁generated	-11.747124
eq	-11.589256
old	-10.590848
sens	-12.228029
Controller	-11.754111
▁optional	-12.336287
Null	-11.814557
XXX	-12.295035
vector	-10.320508
▁arguments	-11.687146
safe	-12.154568
tls	-12.015360
case	-8.565414
FROM	-12.409229
▁lpVtbl	-16.465396
tail	-11.551438
delta	-12.122190
▁NEXT	-14.741242
mesh	-12.002565
▁documentation	-11.578591
▁retain	-12.077703
Reserved	-11.824721
CONTRACT	-11.862813
Operation	-11.530770
oc	-11.170804
arr	-11.789711
Remove	-11.715568
▁reply	-12.586287
Reference	-11.564632
▁COPYRIGHT	-11.816964
POS	-11.960688
sr	-11.912224
▁lookup	-12.701688
ENTRY	-11.142454
nc	-11.987708
▁protected	-10.305334
PROP	-12.192188
Space	-11.455177
Protocol	-11.762030
ha	-10.668096
AUTO	-12.125708
▁basic	-12.210323
fixed	-12.385427
hal	-11.682931
prod	-12.994229
Bytes	-11.856095
TP	-11.619353
random	-12.338788
LT	-12.062502
CONNECT	-11.946215
Identifier	-11.822147
VA	-12.001234
Cell	-11.619553
FA	-11.079101
SYNC	-12.048319
USB	-11.353494
assert	-10.347334
Args	-11.922789
rep	-11.549695
Parameters	-11.551200
poll	-11.793867
speed	-12.221731
▁character	-11.387103
Define	-13.193616
▁vtk	-11.997490
Host	-11.671564
▁payload	-12.637705
YTHON	-12.019806
board	-11.532053
▁associated	-11.437653
bound	-11.513484
Font	-11.823612
▁llvm	-12.661018
▁could	-10.659596
Enum	-11.963284
bool	-9.664681
dbg	-12.148034
vt	-12.182425
▁being	-10.668437
FR	-11.962957
▁directory	-11.867772
pop	-11.588409
▁objects	-11.756265
▁terms	-11.283606
▁remote	-12.370266
vi	-11.498403
▁disclaimer	-11.665417
red	-10.928894
Content	-11.373315
HOST	-12.011438
copy	-10.788869
Cmd	-11.983924
First	-11.867627
STREAM	-12.019773
▁compiler	-12.327211
normal	-12.328519
▁vscale	-16.231211
priority	-12.683412
COM	-11.722064
Match	-11.859149
▁sent	-11.719633
FIX	-12.093003
▁opcode	-12.784840
When	-12.815882
Loc	-11.971552
ating	-11.153323
ost	-12.787089
LED	-11.949819
▁allow	-11.926519
FL	-11.755897
scope	-11.449825
cert	-11.951923
cons	-11.926955
Component	-11.696140
FRAME	-12.151707
▁STATIC	-12.350680
TI	-11.830913
▁about	-9.919174
Pool	-11.609866
EL	-11.474752
LINK	-11.928850
join	-12.244019
div	-10.676777
Inst	-12.137660
vl	-12.282264
OPEN	-11.766699
serial	-11.714355
encoding	-12.398759
merge	-12.653117
EQ	-12.038041
Async	-12.189162
CNT	-12.468652
Box	-11.412430
▁PHP	-12.121711
vc	-12.116789
meta	-11.605507
ITEM	-12.098941
ND	-11.698979
STD	-11.939345
length	-10.296526
▁cleanup	-11.771398
width	-10.667267
ANT	-11.848437
ency	-11.751710
Template	-11.934499
Rx	-12.189491
Audio	-11.776992
▁stbi	-12.607061
usage	-12.267393
att	-11.825592
ga	-11.111998
rx	-10.999403
Configuration	-11.861076
Vk	-11.761498
pages	-12.247632
LOW	-12.076211
rule	-12.248562
▁scalar	-12.631660
ting	-10.841574
eval	-12.235373
Active	-11.852208
audio	-12.343382
▁warning	-12.139958
COPY	-11.863022
complex	-12.329772
BACK	-11.776700
▁these	-10.605806
▁EXTI	-13.323940
▁ASN	-12.909251
▁Redistributions	-11.752597
▁licenses	-13.517635
plan	-12.096618
ry	-9.736536
▁cplusplus	-18.594823
Close	-11.514074
▁HAS	-13.272718
CONF	-12.177771
RNA	-11.971253
ve	-11.041688
▁changed	-11.761514
▁created	-11.186233
VER	-11.892407
uct	-13.760336
▁language	-11.145837
wm	-12.168050
Transform	-11.909436
HEADER	-11.938811
wp	-11.843352
Unit	-11.671444
TARGET	-11.961447
▁fast	-12.292746
like	-11.331917
▁DAMAGES	-11.957455
RET	-11.417900
mx	-12.460535
Make	-12.714831
CLOCK	-12.196822
▁pthread	-12.490023
DL	-11.639997
▁permission	-11.549021
BUS	-12.180444
tor	-11.240363
▁cannot	-11.632494
rea	-12.171082
pv	-12.016714
ind	-11.567717
engine	-12.206296
▁YY	-12.314763
ort	-11.164955
rq	-12.300423
STRUCT	-12.090344
Row	-11.636593
ers	-9.784691
Layer	-11.996948
OID	-11.949339
GET	-10.675728
▁DECLARE	-12.514653
img	-12.289414
▁google	-13.482884
NL	-12.089531
fix	-11.694048
MUX	-12.229693
Private	-11.575204
RESULT	-11.833942
▁CRYPTO	-13.358347
▁codec	-13.428208
BF	-12.134127
EW	-12.261603
PAD	-12.444777
FREE	-11.871224
RB	-11.991038
ization	-11.083954
sv	-12.040168
video	-12.132037
Def	-11.850511
arch	-11.596277
button	-12.213595
EB	-12.107570
ger	-11.307997
▁bfd	-12.430522
▁them	-10.441985
added	-13.007915
Video	-11.919733
CONTEXT	-12.145622
▁EVP	-12.662853
pe	-10.948574
Run	-12.265179
ated	-10.743677
ii	-11.636012
CAL	-12.645681
GROUP	-12.105072
Style	-11.654724
PF	-11.593705
TMP	-12.788187
ept	-12.731130
way	-11.355163
LY	-11.721067
USE	-11.018858
Library	-12.190539
constant	-12.522516
WR	-12.148640
next	-10.137042
RF	-11.994104
▁they	-10.052566
led	-11.225860
CLIENT	-12.155046
CSR	-12.360992
temp	-10.662070
receive	-12.388065
ist	-10.842802
▁friend	-11.802033
rpc	-12.152123
POINT	-12.045258
IMAGE	-11.926616
▁generic	-12.549647
▁EXPRESS	-11.971210
plane	-11.925137
od	-11.413756
▁extension	-12.212791
▁metadata	-12.680541
ef	-9.795389
WAIT	-12.183939
nk	-12.058232
ize	-11.329726
ACTION	-12.023136
que	-11.204001
cu	-11.719282
cycle	-11.837003
drv	-12.031310
▁OTHER	-12.315774
opts	-12.074399
edit	-11.858895
Render	-12.014767
▁writing	-11.455598
wr	-12.002874
cv	-12.155675
policy	-12.405608
Container	-11.937797
▁based	-10.616078
ASSERT	-10.788850
PRI	-12.242857
Rec	-11.889300
sem	-12.046170
▁controller	-12.207361
tri	-11.922558
Shader	-12.137460
FILTER	-12.166652
RANGE	-12.173681
▁drm	-12.589259
disk	-12.606225
NF	-12.613666
ut	-11.246793
CACHE	-12.162184
▁both	-10.850445
menu	-12.218037
ole	-11.923234
lines	-11.949191
▁different	-11.061660
gre	-12.375851
dx	-12.302906
LS	-11.679433
MEMORY	-11.956800
lf	-12.452498
HD	-11.983615
tk	-12.107009
nam	-12.736650
Idx	-12.264730
mu	-11.622218
▁netdev	-13.066623
▁winrt	-13.636103
Co	-11.683653
▁selected	-11.831707
▁setting	-11.936793
DM	-11.980759
Term	-12.184965
split	-12.088212
▁verify	-12.735437
adj	-12.455101
FMT	-12.228687
oy	-11.569207
▁distribution	-11.337201
Last	-11.921081
ids	-11.797366
ARE	-11.505821
half	-12.672049
trigger	-12.665272
▁passed	-11.730719
Vertex	-12.037948
▁LIABLE	-12.021729
▁PROVIDED	-12.045684
PK	-12.251148
Location	-11.326860
▁explicit	-12.100883
CY	-12.157008
▁endpoint	-12.507937
wl	-12.132052
▁GLfloat	-12.902176
Wait	-11.868686
Pixel	-12.141699
Net	-11.759588
ng	-11.089707
▁SHALL	-12.051887
ACT	-11.899685
▁instead	-11.573814
▁later	-10.919243
Socket	-12.030566
om	-11.677933
▁pdev	-14.327111
EXIT	-11.806997
▁original	-11.265224
DEBUG	-10.482694
Double	-11.648072
Network	-12.130911
Mono	-12.160455
▁WHETHER	-12.052457
Non	-12.084517
OT	-11.964451
partition	-12.697589
▁channels	-12.302521
▁compute	-12.361076
REGISTER	-12.198669
Auto	-11.656450
▁DECREF	-17.526971
▁maximum	-11.947954
compress	-12.190093
SCAN	-12.466239
Only	-12.411115
Height	-11.955918
▁such	-10.611339
Err	-11.779502
BD	-12.028060
ty	-10.196501
▁ImGui	-12.459286
▁FAILURE	-13.199052
bm	-12.225090
Compare	-12.143026
pic	-12.029488
▁simple	-11.856083
qp	-12.511045
ver	-10.772179
boot	-11.827085
pw	-12.330034
bs	-11.622830
fr	-11.853603
hp	-11.560803
Generic	-12.037942
Up	-11.873564
▁previous	-11.722919
ck	-11.386388
Option	-12.103498
▁actual	-11.972100
TEXT	-12.108622
▁methods	-11.626338
▁errors	-12.131638
LOCAL	-12.081723
FI	-11.774457
cipher	-12.082915
sup	-12.722473
EXP	-11.817259
bg	-11.957206
▁PYX	-18.751345
▁possible	-11.374670
AST	-11.962131
angle	-11.848563
IA	-11.678625
ADDRESS	-12.252470
Counter	-12.064271
▁timestamp	-12.658344
▁ARISING	-12.204724
▁Apache	-11.977007
PH	-11.813507
family	-12.019893
IB	-11.865543
NR	-11.961185
Widget	-11.947856
FN	-11.931888
ol	-11.330563
FEATURE	-12.152393
generate	-12.464228
TIMEOUT	-12.234099
Program	-12.152638
na	-10.630027
NC	-11.853425
mo	-11.015900
ay	-11.653249
▁custom	-12.166581
render	-12.131633
nat	-11.979953
Settings	-12.045174
BSD	-11.944881
▁async	-12.955219
▁sin	-13.503623
most	-12.539599
BU	-12.261775
routine	-12.952323
BM	-12.394004
IV	-11.524804
WS	-12.270528
Ret	-11.993081
vars	-12.217067
▁builtin	-13.720286
SOURCE	-12.268925
Graph	-11.968108
manager	-12.282022
fw	-12.044850
HAL	-11.373822
dot	-11.792755
▁too	-11.246017
COMMAND	-12.312226
▁WINAPI	-11.913621
▁external	-12.194596
snprintf	-12.376978
ub	-11.909222
ws	-11.895632
▁what	-10.427281
zone	-11.960281
▁CONTRIBUTORS	-12.076003
▁identifier	-12.382333
light	-11.621886
Build	-11.874639
proxy	-12.444781
Enabled	-12.121202
Sample	-12.062212
Convert	-11.922726
POWER	-12.214695
▁xFE	-19.227763
▁including	-10.965026
ov	-11.428067
CG	-11.718940
aux	-12.048495
▁multiple	-11.457571
▁apply	-12.196927
Has	-12.324807
SO	-11.603226
▁would	-10.220768
ble	-11.779553
mr	-12.170189
▁TODO	-12.034697
boolean	-12.012459
Word	-11.924439
hci	-12.456107
▁machine	-12.220353
cx	-12.378355
eth	-11.799096
upper	-12.608558
condition	-12.180358
dis	-10.309202
bucket	-12.496391
NEW	-12.000416
own	-12.390820
bio	-12.089514
PRINT	-12.188051
HP	-12.083151
NE	-11.498796
▁apache	-14.628478
▁dispatch	-12.810916
▁BAD	-13.736523
MESSAGE	-12.237925
vf	-12.549172
bot	-11.527658
RST	-12.735540
Save	-11.927774
▁caller	-12.175580
▁xffffff	-42.419784
Real	-12.279318
▁ipv	-13.608724
cpu	-10.983670
SQL	-11.726924
OD	-12.284618
▁QString	-12.422446
▁execute	-12.317009
Scalar	-12.258918
day	-11.403430
PRO	-12.053922
SK	-11.900851
▁https	-12.055017
ud	-11.893265
der	-10.905196
Attr	-12.252651
Pass	-11.830697
WIDTH	-12.264329
▁signed	-11.888777
▁insn	-13.369121
BL	-11.847167
HT	-12.392758
▁PyErr	-12.342768
▁database	-11.868373
Sync	-12.128442
Assert	-11.978003
BN	-12.178884
▁OTHERWISE	-12.244492
Stop	-11.894359
ling	-11.028182
SAM	-12.793573
VI	-11.762252
SYSTEM	-12.241714
▁copies	-11.778379
ae	-11.345859
▁attributes	-12.263111
Move	-12.012581
▁Tcl	-12.439213
Destroy	-11.867083
Spec	-11.867681
SG	-12.219008
Delegate	-12.110244
▁zval	-14.024577
Application	-11.660387
unused	-12.624038
owner	-12.177930
ISR	-12.587997
▁registers	-12.195574
rl	-12.011736
▁until	-11.102355
og	-11.900297
abi	-12.114637
St	-11.918386
pu	-11.846786
▁instruction	-12.217593
ACTIVE	-12.339391
▁TORT	-12.161738
ele	-11.689510
▁AWS	-12.980573
Const	-12.026724
aw	-11.687097
▁APB	-14.299379
▁wchar	-13.066611
Scan	-12.005996
THREAD	-12.073470
▁NRFX	-12.098421
▁calls	-12.056736
SUPPORT	-11.509836
CLR	-12.615275
uid	-12.070826
DESC	-12.275534
we	-11.737407
ies	-10.689647
▁during	-10.731607
CLEAR	-12.284192
fv	-12.466943
comm	-11.779348
▁SOC	-13.609338
Compute	-12.234941
big	-12.179890
tex	-11.929323
Extension	-12.152645
▁WARRANTY	-11.953797
axis	-12.654470
device	-10.197906
color	-10.861195
dist	-11.756356
tbl	-12.362029
LC	-11.963000
Stmt	-12.117569
SYMBOL	-12.111073
▁sha	-13.281328
JSON	-11.931039
Variable	-12.137664
▁xfe	-20.704119
STOP	-12.391931
▁EXTERN	-12.684477
flash	-12.682026
TA	-11.754000
Col	-12.000356
ei	-11.765209
sleep	-12.208529
txt	-12.190434
grid	-12.122876
▁mbedtls	-12.671195
NA	-11.688332
decl	-11.881891
▁pixels	-12.785281
CREATE	-12.330036
mf	-12.252949
Long	-11.790615
RATE	-12.307790
wc	-12.391366
media	-11.947852
ALIGN	-12.210320
▁running	-11.781234
▁special	-11.580859
▁within	-11.151850
probe	-12.482767
notify	-12.162023
hd	-12.353286
gr	-11.813914
rf	-12.195232
hook	-12.149019
he	-11.645431
▁doesn	-11.679567
tick	-12.292585
lineno	-12.924250
alt	-11.965020
LV	-12.313732
VP	-12.221466
ULL	-12.539601
Shape	-12.238137
▁sprintf	-12.894595
▁below	-11.410183
cost	-12.558700
inv	-12.105625
True	-12.233800
▁direction	-12.098394
Region	-12.271837
▁obtain	-11.647995
ren	-11.979378
GPU	-12.247027
UTF	-12.305853
This	-10.469706
▁DIRECT	-12.615499
▁fff	-20.444657
HS	-12.256306
title	-11.856592
struct	-8.536300
▁express	-11.869310
drop	-11.748471
wi	-11.920954
ML	-11.814618
Types	-11.783703
Heap	-12.314270
▁slave	-12.864225
resp	-11.751265
▁protobuf	-14.335288
IX	-11.859453
Alloc	-12.285141
Off	-11.682913
unk	-12.326942
left	-10.275960
UInt	-12.327595
SELECT	-12.275176
▁best	-11.278688
HasBeenSet	-12.462489
FFF	-12.165462
▁ESP	-12.626165
po	-11.321388
SV	-12.104932
frames	-12.697776
cat	-11.721352
Any	-12.467900
▁take	-11.260452
▁avoid	-11.947783
▁NVIC	-12.810661
Allocate	-12.164361
▁allocation	-12.212906
ENUM	-12.278289
Allocator	-12.258729
▁WARNING	-13.730825
play	-11.494601
math	-10.834134
Provider	-12.316521
▁disabled	-12.344029
long	-10.616090
Builder	-11.955647
▁sure	-11.532341
disp	-12.451956
ally	-11.434361
BS	-11.548483
closure	-12.182481
▁MONO	-12.686351
inf	-12.160683
▁PY	-13.418937
tty	-12.021673
ONLY	-12.171643
rand	-12.185412
▁variables	-11.916971
▁SPECIAL	-12.343295
dh	-12.218323
Common	-12.263758
ENT	-11.603144
Ext	-12.290773
cy	-11.771712
▁results	-10.788479
number	-10.918557
sql	-11.898668
ACK	-12.231981
KHR	-12.511493
weight	-11.784900
▁unknown	-11.847015
▁PFNGLGET	-12.406123
▁synthesize	-15.939270
Sequence	-12.219094
NB	-12.459005
▁SQLITE	-12.544451
ped	-11.836217
tom	-11.783068
▁prior	-11.631085
Lib	-12.048016
ACC	-12.459857
Power	-12.451671
cos	-12.126131
operand	-12.243891
Ch	-12.024667
Capture	-12.405566
PWR	-12.679835
▁stored	-12.159713
Cluster	-12.273776
Zero	-12.073724
▁APIENTRY	-12.501796
Begin	-12.155330
rr	-11.926727
Oid	-12.184432
▁algorithm	-12.416212
▁needs	-11.849309
clip	-12.173379
▁NAMESPACE	-15.146090
▁stm	-13.191472
▁none	-11.976285
▁properties	-11.875630
Json	-12.182212
BO	-12.205653
wrap	-11.962827
HIGH	-12.397501
▁overflow	-12.469097
MIT	-11.926031
▁permissions	-11.811319
▁stdio	-15.088938
ENC	-12.588776
lex	-12.676091
ave	-11.948597
eat	-12.285446
SOCKET	-12.221500
mux	-12.576805
batch	-12.774345
rg	-12.395528
alias	-12.771938
Surface	-12.284735
atom	-11.704488
ax	-12.121717
Loop	-12.123329
Properties	-12.012571
Rate	-12.294028
hw	-10.926911
ACCESS	-12.250121
GO	-11.799278
mg	-12.683644
PARAMETER	-12.139713
KERNEL	-12.286800
▁FAR	-13.160978
Macro	-12.066425
LABEL	-12.349076
ALLOC	-12.349765
▁native	-12.314361
iod	-13.319901
▁modification	-11.974063
▁DEFINED	-16.339436
▁allowed	-11.985796
TF	-12.006133
OB	-11.868302
wrapper	-12.239582
▁subject	-11.671799
sq	-12.080055
▁ACPI	-12.544669
Proc	-12.120516
mit	-11.455063
dup	-12.443386
Insert	-12.207978
agg	-12.419446
html	-11.577684
Main	-12.153480
SB	-12.190818
Edge	-12.185103
nn	-11.973910
▁operations	-11.770037
▁how	-10.901593
CV	-12.192622
dns	-12.526402
Reader	-12.122585
▁buffers	-12.606686
SN	-11.903860
▁StringCopy	-17.636113
Bar	-11.832090
gs	-11.611054
PNG	-12.303320
ill	-11.905680
▁transport	-12.127390
Scale	-12.209944
CONFIG	-10.225253
Relation	-12.079020
ONE	-11.627754
Mesh	-12.314101
acl	-12.697996
IMPL	-12.289284
MOVE	-12.494180
Column	-12.166407
ph	-11.151745
ident	-11.874942
Script	-11.997217
▁destination	-12.192623
▁columns	-12.526805
INDIRECT	-12.251563
Policy	-12.008913
Transaction	-12.029135
Part	-12.204860
VPROC	-12.365234
cause	-13.040031
▁allocator	-13.041337
Search	-11.798461
▁fini	-15.753568
CHECK	-11.043311
▁threads	-12.716398
Setup	-12.253181
ness	-11.042601
▁initialized	-12.427830
blob	-12.721430
guard	-12.146792
dec	-10.178666
ta	-10.974434
cpp	-12.330922
Changed	-12.203880
Pro	-11.851192
inner	-11.937108
mouse	-12.700700
client	-10.788285
imm	-12.369394
Factory	-12.054574
Step	-11.976766
fx	-12.412890
GT	-11.974964
Profile	-11.512160
hex	-12.391159
Driver	-12.014489
REQUEST	-12.353548
▁esp	-13.334458
Helper	-12.154136
export	-12.448306
sets	-12.523423
▁relation	-12.821969
Win	-11.712650
ted	-10.935945
SF	-11.588440
frag	-12.110872
▁uses	-11.426551
Trace	-12.182074
Game	-12.362521
▁lambda	-13.934993
Order	-12.071910
MX	-12.115650
ready	-12.463682
ified	-11.751682
Temp	-12.152559
MF	-12.113703
▁BCM	-12.752216
▁aws	-14.227975
▁backend	-12.946889
▁headers	-12.706799
DIO	-12.970078
▁derived	-12.036170
zip	-12.420243
Dir	-12.136560
last	-10.737050
ized	-11.360954
▁IDirect	-12.651314
TREE	-12.372383
ess	-11.666459
Attributes	-12.188597
▁STRICT	-12.454861
Con	-11.861684
tensor	-12.652750
Can	-12.097158
GLOBAL	-12.346117
EF	-11.989174
vk	-12.501780
Mod	-12.110527
RSA	-12.470251
TT	-12.109294
Operand	-12.452662
▁restrict	-13.457146
Values	-12.135278
▁soc	-13.582759
WARN	-11.829234
Priority	-12.478995
tl	-12.050417
uri	-11.819414
rank	-12.088726
Integer	-11.991765
ary	-10.458047
ible	-11.549013
fifo	-12.533686
Gen	-12.182786
MULTI	-12.278805
One	-12.037663
▁extract	-12.747505
ctxt	-12.418088
▁uuid	-13.900409
typ	-12.344316
Root	-12.107005
nx	-12.587137
indices	-13.055724
exc	-12.496778
▁amount	-11.965946
IER	-12.776727
method	-11.184959
reader	-12.575509
▁completion	-12.571305
▁might	-11.357003
ine	-8.209827
DEC	-11.155091
Left	-12.021445
PART	-12.444514
UPDATE	-12.417819
▁means	-11.603212
Slot	-12.286766
ATTRIBUTE	-12.493583
Report	-11.705404
Information	-12.255334
params	-10.976968
Symbol	-12.195033
dummy	-12.279906
Tuple	-12.183809
version	-10.941592
QUEUE	-12.402289
Screen	-12.005333
▁applicable	-11.839096
return	-7.328532
POINTER	-12.480104
Sp	-12.390774
cont	-11.274055
Menu	-12.078389
Trigger	-12.397881
GS	-12.171108
▁XK	-13.107032
detail	-11.886251
fm	-12.492615
NUMBER	-12.388190
▁threshold	-12.785086
band	-11.873292
▁utf	-13.407816
▁Sk	-11.900819
▁compliance	-12.035149
Date	-11.685858
Valid	-12.171111
FAILED	-12.212973
▁grpc	-13.289879
Used	-12.249861
▁uintptr	-13.418835
Metadata	-12.341208
▁contents	-12.428819
WAY	-12.350665
▁via	-11.868575
adc	-12.695967
▁statement	-12.027679
▁ignore	-12.486768
▁included	-11.393819
▁strong	-12.060367
▁least	-11.543862
nic	-12.267837
▁expect	-12.280916
fname	-12.453697
DLL	-12.333302
DOWN	-12.385713
RING	-12.314634
Instruction	-12.000988
Runtime	-12.247296
▁ieee	-13.059177
DRV	-12.602632
▁currently	-11.691113
Structure	-11.765084
Document	-11.994150
neg	-12.020984
cancel	-12.589182
Low	-12.709743
cookie	-12.714377
bh	-12.304802
SERVER	-12.075940
ru	-11.631963
ify	-11.624807
▁sockaddr	-12.495579
Work	-11.655439
lx	-12.922869
au	-11.157795
commit	-12.585264
nor	-12.565533
SSL	-11.172782
center	-10.734901
ki	-11.667899
vb	-12.664290
UT	-12.045549
ICAL	-12.264474
ual	-10.745404
mutable	-12.273239
utils	-12.215451
Transfer	-12.027927
TOP	-12.260705
▁PyLong	-13.106572
▁psz	-13.064777
attach	-12.567666
▁useful	-11.922369
▁yych	-16.348196
Raw	-12.219657
▁stage	-11.490763
writer	-11.945580
Src	-12.453708
▁xmm	-13.684182
▁exists	-12.261610
source	-10.614505
VIEW	-12.387751
▁Licensed	-12.334139
selection	-13.051138
▁OPENSSL	-12.421765
Res	-12.485219
crc	-12.670532
FW	-11.947065
Success	-12.020121
target	-10.949928
▁features	-11.818964
Back	-12.268269
▁small	-11.509805
Equal	-12.065275
PASS	-12.268890
▁met	-11.494002
used	-11.518373
▁messages	-12.262814
MPU	-12.977439
▁distance	-12.190120
Im	-12.586699
constr	-12.902783
DONE	-12.625328
RW	-12.467378
ell	-11.494549
▁requested	-12.294230
rk	-12.096522
Edit	-11.914017
LAN	-12.408938
ZERO	-12.315520
vis	-12.130283
aint	-13.041597
▁characters	-11.300909
Section	-12.441362
escape	-13.115396
▁RV	-15.646611
▁isl	-13.342445
▁extent	-12.690443
Depth	-12.427190
Export	-12.388680
ang	-11.474815
▁jl	-13.381532
▁strings	-12.441496
▁xffffffff	-21.049466
Full	-11.934029
pn	-12.349033
UC	-11.993361
Kernel	-12.396449
player	-12.333215
▁GPL	-13.020508
DOUBLE	-12.433668
iov	-12.762119
▁UNKNOWN	-14.622430
Empty	-12.179870
▁VOID	-11.387081
RUN	-12.536275
Proxy	-12.354873
Native	-12.454719
▁UNICODE	-13.313893
sn	-11.734609
qual	-12.324167
IDX	-12.645129
Post	-12.390702
UNIT	-12.579118
▁conversion	-12.288579
bv	-12.774149
exist	-12.437453
▁standard	-11.850318
▁still	-11.108133
▁secp	-13.196679
for	-9.655465
digest	-12.487773
▁hardware	-12.221053
route	-12.762833
ens	-11.402336
Scope	-12.280026
Expression	-12.184301
Custom	-12.005812
eg	-11.866504
project	-12.655878
monitor	-12.884975
rn	-12.023566
SEQ	-12.781267
Limit	-12.240105
▁prepare	-12.996960
maj	-12.829062
High	-12.549649
tid	-12.407463
Io	-12.342778
▁NON	-15.019472
scroll	-12.692713
▁materials	-11.824324
prog	-12.184429
▁samples	-12.624817
STA	-12.406469
cq	-12.772281
strdup	-12.498995
▁progress	-12.417368
VS	-12.178184
▁ensure	-12.146505
Cursor	-12.396251
cn	-12.482395
create	-10.775179
warn	-12.068427
ARCH	-12.437571
tf	-12.120751
INTEGER	-12.311827
ake	-11.936505
Parent	-12.172507
▁WINED	-13.005762
ECC	-12.795917
INTR	-12.416797
▁negative	-12.220889
▁HOLDERS	-12.289842
tables	-12.787668
Normal	-12.273645
▁LOSS	-12.504864
ture	-11.720500
▁limitations	-11.482315
dn	-12.254642
▁perform	-12.210531
▁did	-10.912144
FULL	-12.516666
External	-12.673821
▁calling	-12.164618
Tab	-12.198486
PID	-12.594990
CONN	-12.550824
▁constructor	-12.182581
verse	-12.178972
expand	-12.869952
http	-10.849983
UE	-12.293579
SPEC	-12.277754
Child	-11.883404
urb	-12.488881
▁encoder	-13.419433
▁IRQn	-14.764290
double	-10.359651
rom	-12.466095
ORDER	-12.222140
MON	-12.122699
LI	-11.592494
▁soap	-12.990489
phase	-12.882124
Switch	-12.170860
gap	-12.778100
leaf	-12.360925
▁governing	-11.865772
FX	-12.322947
ATOM	-12.573741
Per	-12.144509
ath	-12.042026
▁additional	-11.501239
hut	-12.988365
Shared	-12.316353
▁BASIS	-12.318152
SZ	-12.606738
TypeDef	-12.083343
reduce	-13.037814
VR	-12.214777
IEN	-13.408569
▁aligned	-13.039496
lm	-12.438461
Binary	-12.428599
MENT	-11.696403
Mat	-12.752650
▁RESERVED	-13.201332
HDR	-12.635035
alg	-12.541176
Mac	-12.496150
▁glVertexAttrib	-13.698153
sched	-12.459573
Collection	-11.936932
▁large	-11.502675
MO	-11.891929
schema	-12.686493
RL	-12.307642
▁SYSCTL	-13.059924
▁their	-10.034686
▁alignment	-12.643926
Constraint	-12.432520
EMPTY	-12.453443
RR	-12.488382
wd	-12.452109
Entity	-12.328631
lb	-12.322571
TRANS	-12.528390
FM	-11.525078
▁USBD	-13.324464
Right	-11.956788
schedule	-12.468989
gate	-12.042718
RDY	-13.486817
▁CONSEQUENTIAL	-12.409615
▁good	-11.176111
compile	-11.796948
su	-11.536910
Engine	-12.132581
▁another	-11.170291
can	-11.205950
▁bounds	-12.940128
PU	-12.240109
PRIVATE	-12.577786
▁permitted	-12.005721
CAST	-12.406509
▁devices	-12.284636
LIMIT	-12.466600
▁CONDITIONS	-12.216331
FORCE	-12.560909
curve	-12.981422
Uint	-12.507472
score	-12.471376
cg	-12.797863
js	-11.746603
SU	-10.572747
Domain	-12.421966
▁intel	-13.552948
TEMPLATE	-12.875571
▁peripheral	-12.534648
gb	-12.598642
Be	-11.799933
HCI	-12.653720
NORMAL	-12.508558
Ctx	-12.461229
rtc	-12.342314
CFGR	-13.422478
Standard	-13.186722
HE	-12.564088
▁These	-11.464381
mgr	-12.707541
Player	-11.763094
volume	-12.993613
▁hwnd	-13.442677
comment	-12.564897
AG	-12.075411
SYM	-12.654495
▁PyUnicode	-13.127629
dep	-12.763913
Selection	-12.305519
▁vacc	-13.803456
opa	-12.221599
Constant	-12.410540
Created	-12.417847
Scene	-12.351755
CHIP	-12.697119
scsi	-12.661528
▁INCIDENTAL	-12.439164
only	-11.048310
vx	-13.093994
TL	-12.228837
▁kInstruction	-13.079700
NULL	-9.869709
ux	-10.838244
Fill	-12.406429
CASE	-12.318044
RESOURCE	-12.528390
▁restore	-12.860802
OSC	-13.095853
My	-11.909011
SIMD	-12.700186
INC	-11.231001
Comp	-11.613034
TASK	-12.562869
MATRIX	-12.760384
VL	-12.899680
Rel	-12.389168
▁padding	-12.556315
tic	-11.386941
Timeout	-12.452321
AMD	-12.585545
Member	-11.837759
security	-12.755285
DNS	-12.490485
▁collection	-12.079139
MU	-12.375499
FAST	-12.483720
Security	-12.645928
▁CWindows	-23.452274
user	-10.688557
Mark	-12.577142
look	-11.919277
Support	-12.014859
▁interp	-14.097958
Exp	-12.240228
ISO	-12.286408
▁mrb	-13.153005
hc	-12.791115
Receive	-12.607985
TK	-12.336009
▁shall	-11.820502
▁IEEE	-13.169440
INSTANCE	-12.722614
server	-11.012892
Endpoint	-12.652356
VALID	-11.152349
▁summary	-11.763711
ANS	-12.769388
image	-10.813365
pdu	-12.965555
Static	-12.388378
SPACE	-11.695356
Dev	-12.360944
EQUAL	-12.670322
Track	-12.458323
▁xdc	-14.961590
HEAD	-12.343498
DRIVER	-12.541298
AUDIO	-12.631118
▁BIO	-12.984638
Body	-12.185708
rw	-12.484231
MV	-12.364406
GI	-12.031206
SAMPLE	-12.681337
▁scene	-12.539574
▁errmsg	-13.084921
GUID	-12.574636
▁ioctl	-13.851477
▁changes	-11.654069
Operator	-12.282404
hf	-12.764637
TD	-12.265528
TION	-11.727946
▁never	-11.361583
Permission	-12.399140
fit	-12.226813
▁PROFIT	-12.562358
nil	-12.529897
▁saved	-12.636193
sim	-11.671191
▁GTEST	-13.090024
Sys	-12.299353
clean	-11.825548
▁clang	-12.666617
configure	-12.889627
GUI	-12.331370
IOC	-12.493674
▁wined	-12.995902
FUN	-12.550276
web	-12.105271
mount	-12.079923
document	-12.188425
hard	-12.230732
gui	-12.137280
processor	-12.305894
Gr	-12.402091
EXTPROC	-12.759158
Push	-12.356517
ah	-11.569077
▁forms	-11.895570
seek	-12.816256
Dec	-12.519512
tg	-12.809325
▁glew	-15.504626
magic	-12.622819
WT	-12.631180
perf	-12.631389
ROW	-12.253088
glyph	-12.659889
uint	-9.052849
hold	-12.612284
ical	-11.359792
soft	-12.175173
▁SUCH	-12.026508
▁commands	-12.517166
gpu	-12.585260
caps	-12.685841
Env	-12.342257
const	-8.747912
▁removed	-12.120329
nf	-12.450015
BUTTON	-12.675175
Pair	-12.442189
Import	-12.358924
VECTOR	-12.694335
▁SECTION	-14.179330
▁PROTOBUF	-13.800755
nm	-12.775012
Remote	-12.591305
guid	-12.922750
attrs	-12.603093
▁FEAT	-12.222760
Devices	-12.946539
Iter	-12.479925
gu	-11.316183
Fixed	-12.473597
Usage	-12.164088
Dynamic	-12.341672
header	-10.830750
Show	-12.440261
▁IPV	-14.132569
▁ostream	-14.986118
MODEL	-12.781951
▁Unless	-12.163165
calc	-12.317987
Append	-12.448030
▁WINRT	-13.294028
▁SERVICES	-12.570851
Th	-12.240031
▁validate	-12.931438
FO	-12.610280
effect	-12.784468
Bus	-12.687718
widget	-12.371467
Simple	-12.251912
grp	-12.596030
patch	-12.070894
bn	-12.491792
AUTH	-12.407437
Form	-12.007387
Prop	-12.418729
PRIORITY	-12.633669
increment	-12.448892
Account	-12.340925
▁xfc	-16.573043
icon	-12.082598
Light	-12.448960
Tick	-12.693996
▁know	-11.074881
▁apr	-12.855930
▁inputs	-12.761866
TRA	-12.334488
options	-11.197707
tok	-12.517006
SEND	-12.614584
▁reinterpret	-13.361620
▁NEGLIGENCE	-12.660544
▁POSSIBILITY	-12.227868
▁ADVISED	-12.551507
▁DAMAGE	-12.007787
▁password	-12.809183
▁PUBLIC	-13.749020
Dialog	-12.276142
arc	-12.328203
Http	-12.372921
inet	-12.613686
RI	-11.964797
BUSY	-12.442107
▁DISCLAIME	-12.486178
hit	-12.734562
▁fragment	-12.959442
▁capacity	-12.564763
NK	-12.149567
Argument	-12.380064
▁etc	-12.124330
▁many	-10.878633
VIDEO	-12.536735
variant	-12.864552
ALPHA	-12.702146
rgb	-12.856536
Stats	-12.336012
▁NSObject	-12.701735
▁correct	-12.079325
zx	-13.279948
DX	-12.281712
▁agreed	-11.926607
▁WCHAR	-13.000605
▁xaa	-20.789209
udp	-12.791972
HC	-12.421579
▁containing	-12.083623
Top	-12.088843
PROPERTY	-12.651035
Generator	-12.502905
border	-12.598192
game	-12.492611
VERTEX	-12.649268
▁ecs	-12.794990
▁again	-11.245908
▁construct	-13.283499
▁Redistribution	-12.358104
words	-12.585883
visit	-12.902000
MISC	-12.920925
Notification	-12.539821
ian	-10.511263
Bind	-12.734622
▁reproduce	-12.291445
UV	-12.654043
MATCH	-12.669423
Pattern	-12.500140
QUERY	-12.631422
▁packets	-12.906318
RIGHT	-12.445931
▁tests	-12.346575
▁catch	-12.064893
▁resources	-12.200295
RP	-12.285212
STORE	-12.707176
input	-10.633051
cur	-10.577982
▁corresponding	-12.218664
▁enough	-11.737146
▁foo	-12.994897
kill	-12.210505
▁arena	-13.773445
lnum	-12.824953
▁mlx	-13.278282
capture	-13.094468
Mutex	-12.517310
Graphics	-12.561139
Virtual	-12.338389
pub	-11.084568
▁APORT	-14.882423
coll	-12.603646
▁HOWEVER	-12.545922
Inter	-12.275553
▁seconds	-12.522321
gid	-12.717538
TOKEN	-12.604545
bu	-11.562235
▁purpose	-12.250382
UDP	-12.757246
RG	-12.604761
▁framework	-13.046638
aff	-12.321416
VF	-12.819321
eap	-12.745752
▁sfr	-13.447726
Bitmap	-12.598544
DSP	-12.785721
her	-11.817809
ser	-11.635618
strcpy	-12.510213
Decode	-12.651721
▁ENOMEM	-14.185761
▁times	-11.520425
parent	-11.000587
▁dimension	-12.726591
▁CAUSED	-12.566121
issue	-12.929384
plugin	-12.677587
cli	-12.564820
vd	-12.740022
eric	-12.445630
PACKET	-12.720541
▁modified	-12.438244
INTEN	-13.207394
Delay	-12.545633
intr	-12.704914
Boolean	-12.261047
▁XDECREF	-20.759539
rial	-14.005746
arity	-12.516431
ITY	-11.922125
Down	-11.938693
SHADER	-12.782777
consume	-12.970551
vol	-11.530238
Elements	-12.503680
▁interrupts	-12.706049
tool	-12.132134
role	-12.817103
UR	-12.378448
▁matches	-12.026086
▁future	-11.876947
ash	-12.256100
vlan	-12.876869
REGION	-13.059492
lr	-12.543806
span	-11.688370
des	-11.217299
▁BUSINESS	-12.610751
▁SUBSTITUTE	-12.606657
LAB	-12.381804
▁existing	-12.216826
OM	-12.171579
▁yet	-11.765636
MAKE	-12.652801
▁contain	-12.308682
▁packed	-13.472202
Com	-12.366236
▁nothing	-11.773129
▁processing	-12.222544
Segment	-12.624182
TRI	-12.536054
▁GOODS	-12.606763
▁xFFFE	-87.802829
ASM	-12.609474
PKT	-12.902964
VC	-12.302315
LEFT	-12.601313
Single	-11.920096
LAST	-12.608029
Red	-12.791791
▁NGX	-12.649720
PATCH	-12.606437
indent	-12.547838
▁PROCUREMENT	-12.592443
▁SWIG	-12.992491
TB	-12.589282
branch	-13.026405
norm	-12.624985
PARSE	-12.608184
CALLBACK	-12.674073
CRYPT	-12.038314
linear	-12.866722
▁xcb	-13.776996
Auth	-12.466390
WINDOW	-12.184751
▁necessary	-11.930561
Material	-12.262633
Unknown	-12.073259
DDR	-13.046505
Mouse	-12.528414
Req	-12.788748
local	-10.929591
kw	-12.398262
▁relative	-12.349169
vr	-12.641378
REL	-12.366773
▁INTERRUPTION	-12.618695
▁along	-11.529265
fg	-12.645484
▁offsetof	-13.356294
▁THEORY	-12.547812
UM	-12.007965
ln	-12.287761
UNI	-11.756333
▁So	-10.947688
▁ZVAL	-15.935386
hand	-11.833490
cred	-12.403583
▁duration	-12.864858
▁stdout	-13.457619
▁dirty	-13.361290
Tile	-12.882331
ATE	-12.443162
pk	-12.639502
ray	-11.670111
Tool	-12.534451
Xaml	-13.653494
Effect	-12.485259
PIXEL	-12.711156
▁redistribute	-12.421307
▁sctp	-13.376646
NX	-12.764627
▁remaining	-12.418452
▁initialization	-12.528933
▁lapack	-13.174402
mapped	-13.174251
▁EXEMPLARY	-12.580941
SPD	-12.622422
Ad	-12.331365
builder	-12.470752
MARK	-12.666293
pred	-12.674816
▁every	-11.466229
▁successful	-12.076649
Platform	-12.171336
TV	-11.357371
▁granted	-12.166185
▁callbacks	-12.930053
minor	-12.854112
▁published	-11.185687
BYTES	-12.895301
▁products	-11.843722
gn	-12.037961
▁were	-9.825912
MAN	-12.080083
Connect	-12.359060
fold	-12.580225
▁cached	-13.159486
Notify	-12.557537
touch	-12.966240
sid	-12.014167
poly	-13.007000
▁PLAT	-13.975197
▁GLAD	-13.145026
SSE	-12.859646
▁pointers	-12.599911
NN	-12.685527
Variant	-12.344871
▁requires	-12.318690
▁INET	-13.976560
from	-10.561361
Total	-12.555356
CIPHER	-12.780779
Rule	-12.218959
Sig	-12.565872
bx	-13.145275
ability	-11.410668
Sort	-12.341886
plus	-11.149759
Signal	-12.390537
dims	-12.834202
logical	-12.243617
REAL	-12.604500
groups	-12.729081
STATS	-12.676843
AI	-12.005040
BOX	-12.313526
▁windows	-12.901615
▁listener	-13.253365
eed	-12.453617
visible	-12.885291
Trans	-11.869417
Swap	-12.617693
▁rdev	-14.906899
SOCK	-12.708329
calloc	-13.003430
▁glUniform	-13.933568
Serial	-12.518893
OVER	-12.203346
clone	-12.577573
hl	-12.146056
cols	-12.481221
Magick	-12.177076
Names	-12.385453
DELAY	-12.807552
Camera	-12.485817
Datum	-11.921363
Functions	-12.255584
hint	-13.136911
Feature	-12.263436
VERIFY	-12.868799
▁xFC	-87.802829
archive	-12.793159
pll	-13.129431
well	-11.766173
▁encoded	-12.970450
▁promote	-12.297538
Face	-12.419578
▁UIKit	-14.649340
▁author	-11.482244
Chain	-12.501119
pend	-12.152267
FONT	-12.787339
Dictionary	-12.239527
arp	-13.035489
ENTER	-12.428434
BAR	-12.706846
HA	-11.860418
▁xef	-25.592800
Exit	-12.155114
▁FIXME	-12.766474
known	-12.057072
▁endian	-13.612195
detect	-12.989731
bridge	-12.074300
▁requests	-12.529322
▁xbf	-21.911056
▁AHB	-14.769841
Interval	-12.698607
literal	-13.092656
▁limits	-13.194782
▁rtl	-13.774352
wallet	-12.749296
▁PyTuple	-13.275982
Monitor	-12.363735
▁erase	-13.365692
PIC	-12.870571
ular	-12.078914
IVE	-12.717453
TER	-12.089093
▁SERCOM	-14.379648
NU	-13.076608
▁dpy	-15.169588
Project	-12.670978
Allocation	-12.667763
▁directly	-12.040808
kb	-11.910171
▁camera	-12.795306
▁insertion	-13.880884
ock	-12.312189
Configure	-12.545848
VEC	-12.992268
READY	-12.768687
BG	-12.836947
share	-11.495561
PIPE	-12.752526
category	-12.927875
DEPTH	-12.728518
Optional	-12.565525
OPTION	-12.542591
Seq	-12.758577
diag	-12.855806
Dest	-12.829704
▁partial	-12.856549
DH	-12.598117
PRESC	-14.229953
▁updated	-12.453583
Basic	-12.333182
art	-11.864483
▁GOTRE	-21.001125
Writer	-12.323924
▁decoder	-13.484523
CN	-12.477512
▁retry	-12.740021
▁persistent	-13.801791
TEMP	-12.733982
▁gnu	-15.002354
IW	-12.683339
CURRENT	-12.771269
suspend	-12.957821
FIRST	-12.691643
metric	-12.488772
Direct	-12.059770
PO	-12.464859
vo	-9.824719
▁BPF	-13.855820
▁mpi	-13.992607
▁pname	-13.075450
gm	-11.967640
ATT	-12.734695
▁nullable	-13.321090
oo	-11.776475
sat	-12.882634
Signature	-12.551505
▁CWE	-13.181464
▁vcpu	-14.528476
traits	-12.764054
DIM	-12.956308
ATI	-12.941066
▁Amazon	-12.579162
jump	-13.190909
▁deal	-12.074395
▁SWIFT	-13.342306
Fast	-12.942333
rain	-12.364324
▁warranty	-12.279519
pcb	-12.967490
coin	-12.791403
▁svn	-13.145020
▁assignment	-12.506910
cho	-12.208229
mid	-12.550047
white	-11.926124
ELEMENT	-12.751962
PROGRAM	-12.761402
publish	-12.430012
bss	-12.834940
▁slots	-12.614061
IND	-12.539235
lang	-10.953886
▁IID	-13.804933
ApplicationModel	-13.441083
Cy	-12.962558
▁spdk	-13.305255
▁primary	-11.934101
▁exclusive	-13.401230
▁SCTP	-13.514799
▁transmit	-13.275964
Master	-12.681999
sis	-12.323980
sink	-13.065563
erts	-12.942480
Maximum	-12.649247
▁lane	-14.503016
rad	-12.524744
▁HandleTypeDef	-87.802829
ute	-10.723049
cam	-12.202966
▁rtx	-13.288288
IMP	-12.855719
SQ	-12.875767
binding	-12.715123
PLAYER	-13.500813
Void	-12.987654
drive	-11.578724
FLOW	-12.790806
▁charge	-12.356452
ctr	-12.960177
shell	-12.318855
PACK	-12.313369
Abstract	-12.103846
▁SCB	-13.986863
▁TCC	-14.630318
SIM	-12.890667
▁verbose	-13.418273
XC	-12.905612
▁likely	-12.397437
PCM	-12.832634
▁ACMP	-14.435674
Job	-12.507447
du	-11.580283
precision	-13.201132
RED	-12.294006
▁distribute	-12.630163
▁minimum	-12.532687
tyObject	-13.775737
Kit	-11.904133
▁kvm	-13.531844
clear	-10.815474
bank	-12.117801
address	-11.057003
mail	-11.895803
Fn	-12.911420
channel	-11.082061
LR	-12.717229
site	-12.554089
▁starting	-12.239033
WDT	-13.238806
▁ignored	-12.622582
Failure	-12.612857
DES	-12.766337
BP	-12.537740
tim	-12.026306
EDIT	-12.288740
▁LESENSE	-14.406337
pol	-12.554272
live	-12.407107
XT	-13.008997
▁outer	-12.965170
fault	-12.890572
EVT	-12.996664
▁git	-14.255556
IDLE	-12.935424
Generated	-12.668534
▁restriction	-12.653938
ratio	-13.182908
dat	-12.767004
Unicode	-12.352318
null	-11.074150
▁certificate	-12.766946
▁specify	-12.655147
Serialize	-12.585267
Ver	-12.449275
▁background	-11.711477
DELETE	-12.693352
Describe	-13.108947
Std	-12.933525
FLT	-13.190229
coord	-12.693116
▁nrf	-13.349805
▁give	-11.769351
▁ndim	-13.782834
scratch	-13.333408
sector	-13.011033
SMP	-13.131273
Initial	-12.478070
Generate	-12.621999
▁GLdouble	-13.568236
▁notification	-12.834245
ick	-11.966435
▁assume	-12.519977
▁BOOLEAN	-12.307735
GA	-12.005481
Cur	-12.192421
▁MHz	-14.238609
EST	-12.473932
codes	-12.393382
hid	-12.364124
wise	-12.376324
▁invoke	-13.296761
Other	-12.809745
▁reading	-10.289273
mult	-13.124847
CLOSE	-12.603902
▁SUPPORTED	-15.348055
After	-12.689229
FFFFFF	-11.832308
collect	-12.350665
lat	-12.121618
Encode	-12.758219
▁rarg	-18.874380
Scroll	-12.651217
Qt	-12.660745
▁require	-12.208913
BIG	-12.443814
handler	-11.247830
▁KERN	-14.477422
SCALE	-12.976279
▁defines	-12.222611
bw	-12.974360
IPv	-12.872663
▁execution	-12.497395
▁riid	-13.435576
Plan	-12.613729
LAT	-12.458987
bias	-13.002978
DV	-12.971907
▁kfree	-15.553292
MAGIC	-12.692032
window	-11.223589
▁OTG	-14.585606
gamma	-12.770509
Zone	-12.359083
ips	-12.643557
SDK	-12.794128
walk	-12.171531
jit	-12.771256
INV	-12.451524
Put	-13.033200
Skip	-12.604903
▁macros	-12.791445
FU	-12.740335
realloc	-12.976059
SHIFT	-11.168386
mate	-13.033297
NVPROC	-13.036049
Head	-12.569441
Exec	-12.537847
MAIN	-12.721360
IMGUI	-13.207457
▁attempt	-12.597538
SAFE	-12.813841
▁PyExc	-14.668256
COUNTER	-12.976992
members	-13.177054
avail	-12.244246
rest	-12.083673
▁actually	-11.883369
gfx	-12.834215
ffe	-13.019912
▁There	-10.990130
coeff	-13.150614
DRAW	-12.747596
OV	-12.776815
Enter	-12.404113
Plugin	-12.626020
exit	-10.940140
Man	-12.304909
pat	-12.465334
▁dtype	-13.678981
BI	-12.365788
Clause	-12.638444
▁definitions	-12.391556
sse	-12.749442
Stat	-12.583075
Outcome	-13.226432
▁general	-11.360714
PRINTF	-12.881224
quote	-12.987049
fu	-12.088120
problem	-14.077205
ful	-11.472426
▁xAA	-26.989451
▁listen	-13.332685
Peripheral	-12.899098
▁defgroup	-18.625008
wt	-12.877698
WA	-12.419685
MSK	-13.353527
bdev	-13.198527
Db	-12.557814
IG	-12.336906
rem	-11.488426
Grid	-12.458319
AK	-12.727485
ous	-11.189848
CX	-12.427777
Progress	-12.469200
▁implemented	-12.509576
BOOT	-12.836144
urn	-14.227189
Chunk	-12.839290
POST	-12.685884
GU	-12.855052
shadow	-12.600682
dens	-13.627794
cid	-12.712477
instr	-12.830016
IST	-12.422699
Complete	-12.306422
gain	-13.168960
SPEED	-12.752986
IZE	-12.056373
▁Otherwise	-12.664153
▁separate	-12.477086
▁classdump	-12.917268
DataType	-12.773428
zz	-12.669898
▁INCREF	-18.481829
lin	-10.558780
front	-12.464118
Api	-12.716572
RAW	-12.860246
PARAMS	-12.796956
function	-10.685922
Verify	-12.672215
Expected	-12.950313
▁produce	-12.822608
▁PyArray	-13.354914
▁refcount	-13.496808
▁wasm	-13.778407
Try	-13.363537
SIL	-12.643983
▁stdcall	-17.479038
▁IFS	-15.654141
Adapter	-12.700789
EOF	-12.561970
INTEL	-13.026599
Rep	-12.965973
classes	-13.185093
den	-11.316558
False	-12.535464
SCRIPT	-12.671127
Dis	-12.593176
Proto	-12.661449
prot	-12.954878
▁parallel	-12.679948
▁PKEY	-16.398973
ow	-12.049088
quad	-12.454767
Author	-12.984305
Cancel	-12.526542
ACL	-12.845490
▁environment	-12.266117
sqrt	-12.368252
▁dyld	-16.987598
cls	-12.899699
Binding	-12.644623
▁curwin	-13.485558
▁VENDOR	-15.771871
lit	-12.366575
CUR	-12.549104
ong	-11.354123
tz	-11.983770
▁inside	-12.049580
Green	-13.216980
fds	-12.977630
Animation	-12.454013
gd	-12.656640
DN	-12.818092
Flow	-12.603030
▁contributors	-12.611722
▁detach	-13.689449
▁components	-12.518094
PV	-12.078710
ESS	-10.848002
▁crtc	-14.719705
message	-10.964498
HANDLER	-12.797595
loader	-12.757949
watch	-12.634770
▁nfs	-13.303105
sound	-12.874558
REV	-13.041351
▁NSArray	-13.470877
Bad	-12.995145
vals	-12.954217
focus	-12.753120
WORK	-12.629024
mix	-12.409073
Results	-12.274029
BOARD	-12.821293
wide	-12.639213
Old	-12.713673
ane	-11.768466
Card	-12.364721
INST	-12.992059
gi	-11.613782
▁Sets	-12.622336
VERSION	-11.001357
Ready	-12.781392
resume	-12.976840
SHORT	-12.843840
APPLE	-12.852086
EG	-11.874514
INTERRUPT	-12.914745
Random	-12.515840
RNG	-13.069491
Wrapper	-12.715492
GRP	-13.181783
vid	-12.525378
Slice	-12.856571
PROT	-13.509926
▁determine	-12.214393
Condition	-12.523786
Forward	-12.425401
beta	-12.625866
INCLUDE	-12.139273
Constructor	-12.493287
▁IFC	-15.251565
TIFF	-12.937742
NP	-12.666160
▁deleted	-12.864937
Pack	-12.586608
▁MAJOR	-15.737100
Place	-12.884744
Icon	-12.572425
iz	-11.937830
Alpha	-12.547058
QT	-12.521222
TSRML	-13.341449
▁loaded	-12.836828
DOM	-12.611220
clause	-13.555194
▁physical	-12.416877
CCR	-13.516269
CPP	-12.845586
ivity	-13.137608
▁netif	-14.002793
CARD	-12.760037
▁GFP	-13.225434
▁TWI	-13.630475
ios	-12.495956
▁those	-11.103212
Traits	-12.848853
elt	-12.901319
▁allows	-12.336129
Direction	-12.598365
LM	-12.606056
tw	-12.297765
radius	-13.176805
wire	-12.607401
tract	-12.374817
output	-10.781336
▁ingroup	-19.938399
height	-11.205765
▁NPY	-13.124595
wo	-11.989381
tup	-12.587915
srv	-13.098209
LOOP	-12.862340
press	-12.016378
BUILD	-12.694529
▁indicate	-12.657274
ile	-11.134322
▁endorse	-12.652639
WU	-13.617387
TEX	-12.645225
PRIO	-12.905145
sion	-11.412057
▁extended	-12.637088
▁snapshot	-13.265097
SINGLE	-12.876436
fh	-13.110250
HL	-12.566666
room	-12.271374
Opt	-12.698468
Short	-11.855373
Lookup	-12.813508
▁hypre	-13.163767
▁wrong	-12.197463
▁geometry	-13.066243
Over	-12.701866
module	-11.056453
lic	-10.633379
Directory	-12.503573
register	-10.918866
▁CURL	-13.053730
ENV	-12.833732
QU	-12.461428
▁fxp	-13.545143
idl	-13.166144
▁supports	-12.637850
LF	-12.458324
▁person	-11.790060
▁appear	-12.424623
▁checksum	-13.358312
HTML	-12.196503
EDGE	-13.096349
Definition	-12.404059
TOR	-12.416748
Encoding	-12.872630
nu	-11.966101
▁restart	-12.985666
Drop	-12.610506
FFFF	-12.015379
▁isn	-12.345460
En	-12.298054
isc	-12.749942
lg	-12.813561
reloc	-12.904940
ten	-11.380304
locale	-12.799285
Dim	-12.682990
catalog	-13.060898
POLL	-12.884932
▁pfn	-13.930517
▁GrB	-12.907488
▁LWIP	-13.040955
Volume	-12.309839
stub	-12.842371
▁outputs	-13.180167
▁offsets	-13.455973
late	-11.086413
ROUND	-12.611216
Named	-12.747403
▁memcmp	-14.478788
Speed	-12.403009
unpack	-12.927309
MUL	-13.135316
▁Corporation	-12.013841
▁iteration	-12.931295
Warning	-12.417804
Play	-12.634193
▁pins	-13.308091
Pa	-12.495604
UNLOCK	-12.711480
▁primitive	-13.286899
CLI	-12.934595
glProgramUniform	-13.174692
Cloud	-12.372142
fatal	-13.041690
CERT	-12.929851
▁RefNanny	-87.802829
ulation	-12.281667
MEDIA	-12.845052
Ctrl	-12.882521
ning	-11.746727
POOL	-12.948797
GD	-12.906610
backup	-13.332282
ach	-12.079928
deprecated	-12.885711
The	-9.870627
UUID	-13.037258
activate	-13.266922
▁hope	-12.054092
Java	-13.108903
Force	-13.027535
blas	-13.107511
ities	-11.624900
▁ssid	-14.266950
POL	-13.001843
▁testing	-12.426261
▁missing	-11.090025
Listener	-12.525387
Geometry	-12.794501
▁completed	-11.595509
▁related	-11.923219
▁renderer	-13.628309
▁handling	-12.562214
wifi	-13.025009
TRIGGER	-13.095258
▁usr	-15.024777
▁generator	-13.191723
quant	-12.657160
▁constraints	-13.081673
COMMON	-12.891364
▁logging	-13.161859
Ty	-13.087868
prim	-12.146696
FREQ	-13.202954
▁xbd	-19.672805
PRESENT	-12.914337
bug	-12.229559
Machine	-12.332431
▁WINDOWS	-14.025685
FileName	-12.806236
ulate	-12.538236
pwm	-13.219048
resolve	-12.636912
▁addresses	-12.796299
EXEC	-12.872902
mmc	-13.131976
BOOL	-10.725044
CODEC	-13.061335
Dump	-12.699007
mer	-11.621096
▁licensed	-12.777764
Events	-12.621330
Sym	-12.431418
Fetch	-12.850058
▁cdef	-13.108078
ey	-11.477822
fffff	-12.499022
SCSI	-12.936585
White	-13.058918
▁sds	-13.254857
▁GLboolean	-13.087381
fle	-13.776221
graphic	-12.567157
trap	-12.694933
Ro	-12.052862
MASTER	-12.925172
▁READWRITE	-12.524534
chars	-12.800153
COMM	-13.013068
SESSION	-12.916213
▁PCNT	-14.837492
▁delegate	-13.040516
▁errcode	-14.748533
declaration	-13.858018
Title	-12.084867
arginfo	-13.323806
▁serialize	-13.583193
grad	-12.406011
dom	-12.366003
WL	-12.748956
Case	-12.206064
▁xbe	-18.511772
EventArgs	-13.365982
Conv	-12.800646
▁Also	-12.109083
tot	-12.340889
SER	-12.720631
UND	-14.014799
ory	-11.316191
▁QSPI	-13.747327
TERM	-12.696341
▁UnityEngine	-13.862521
▁initWith	-15.083454
az	-11.921378
▁xfd	-18.880680
▁pull	-13.065523
lim	-12.356898
▁behavior	-12.327931
▁Lesser	-12.418628
▁constants	-12.973394
pte	-13.110958
▁registered	-12.655779
▁guint	-13.236875
OVERRIDE	-12.873808
Sign	-12.343302
system	-11.504149
▁rotation	-13.046988
svc	-13.085432
ENDIAN	-12.818776
para	-12.208779
Peer	-12.891909
▁according	-12.057876
LDAP	-12.867436
Transmit	-13.134539
BSP	-13.138365
▁xcc	-18.228885
ke	-11.350947
▁itself	-11.970852
▁due	-11.548301
las	-12.133086
TICK	-13.174404
HF	-12.572228
IVPROC	-12.709103
STORAGE	-13.062436
plain	-12.806286
▁GCC	-13.246628
HR	-12.485547
SERIAL	-12.173640
▁shim	-15.733350
FAULT	-11.141374
CRIT	-12.760726
Processor	-12.797121
URI	-12.778123
▁cases	-11.668064
QP	-13.170838
packet	-11.444142
MOV	-13.120338
Utils	-12.529287
QE	-13.442130
▁xfb	-17.448534
▁appropriate	-12.225881
MK	-12.839231
▁matching	-12.798174
task	-11.366817
sess	-11.958852
▁dentry	-13.668202
dio	-11.376428
▁checks	-12.720442
command	-11.317045
▁waiting	-12.650956
OES	-13.164498
▁btrfs	-13.301184
▁happen	-12.537246
SCR	-12.970326
izer	-12.429499
fid	-12.961651
REC	-12.839421
▁history	-10.560904
Schema	-12.753565
jo	-11.665411
tell	-13.184502
gf	-13.128892
Batch	-12.893997
▁numbers	-12.081326
MG	-12.589655
STEP	-12.946699
dead	-12.623529
WD	-12.735795
Now	-13.052554
motion	-12.889336
AX	-12.601152
Flush	-12.730881
scheme	-13.481484
rot	-12.375825
VE	-12.333825
MACRO	-13.005190
▁HYPRE	-13.177262
PUSH	-12.787205
ioc	-12.917415
busy	-13.160530
ICON	-13.031652
SWAP	-13.084771
Called	-12.728422
ViewController	-12.886292
Elem	-13.069813
Background	-10.585178
USED	-11.753836
▁disconnect	-13.413707
edges	-13.379707
THR	-12.492431
Each	-13.425249
sep	-12.828146
INS	-12.542528
▁ownership	-12.835795
▁uLocal	-12.645180
▁indicates	-12.538321
fun	-13.082067
acquire	-13.320236
II	-11.580134
LUA	-12.912831
▁timing	-13.311665
▁keyword	-13.287820
STS	-13.246519
BLK	-13.187088
ever	-12.238281
▁vch	-13.573012
dsp	-13.344632
vertices	-13.578601
blocking	-13.260630
Safe	-12.753880
▁radio	-11.826127
Asset	-12.940445
DSI	-13.435082
FLEX	-13.529434
ACE	-12.787434
▁made	-10.833283
kv	-13.003699
Validate	-12.673953
roll	-12.192064
Construct	-12.768902
Sink	-12.836467
WI	-12.513586
SAVE	-12.877017
▁npy	-13.390469
avg	-13.205466
Contact	-12.635629
prec	-13.020313
OSE	-12.663935
ka	-11.114277
Owner	-12.669402
wk	-13.012008
▁intptr	-13.924228
▁provide	-11.809950
klass	-13.179588
LIGHT	-12.777187
broadcast	-13.383959
Blue	-13.082841
Character	-12.061615
▁started	-11.849753
CAM	-12.780759
▁NUL	-13.000485
▁pData	-13.961142
ug	-12.145785
LU	-11.735466
ASCII	-12.985797
▁secret	-12.740414
▁EMIT	-13.890785
ny	-11.291234
▁hereby	-12.761149
ks	-11.422675
Cfg	-13.157333
Factor	-12.634942
Cast	-12.803157
▁href	-12.705401
▁curl	-13.146951
▁calculate	-12.858957
mz	-13.388370
TAB	-13.002159
Vi	-12.537881
▁finished	-12.306186
SERVICE	-12.901912
cal	-11.673431
Area	-12.789380
advance	-13.395660
inherit	-13.411895
scr	-12.823566
SLEEP	-13.183427
DST	-13.236725
Arena	-12.931274
Doc	-12.508657
▁numpy	-14.401551
Unlock	-12.644800
Weight	-12.588548
colors	-13.286818
La	-12.115156
▁prevent	-12.390821
▁carry	-12.744148
PERF	-13.039075
LB	-12.618432
▁ZEPHIR	-14.822392
Pop	-12.697346
▁Neither	-12.838224
Allow	-12.856757
dll	-12.980336
vg	-13.123147
NAN	-13.228814
▁sell	-12.597312
disc	-12.654011
mbuf	-13.067460
iso	-12.473340
BIN	-13.065509
Stub	-12.737317
▁strerror	-13.525260
ose	-11.961984
cut	-12.415568
▁FOUNDATION	-13.086736
RELEASE	-12.915354
SUN	-12.817747
▁Rights	-12.360052
▁XE	-14.635305
ASSIGN	-12.878879
DU	-12.717002
PAR	-12.825370
Self	-12.927818
wa	-11.697410
▁handlers	-13.422468
oss	-11.885589
▁extensions	-13.012524
ulong	-12.977805
EXCEPTION	-12.891708
PQ	-12.662379
▁pipeline	-13.190182
micro	-13.225635
▁representation	-12.355887
AZ	-12.518942
ide	-12.387981
▁xdf	-21.624064
Example	-12.045667
imag	-13.331811
Uniform	-12.229520
COMPLETE	-12.959608
MALLOC	-12.999035
▁palette	-13.710117
▁configured	-12.914157
▁Don	-11.687251
ifier	-12.206998
translate	-13.344127
Dispatch	-12.909622
▁unregister	-14.203567
provider	-13.263805
Calculate	-14.368518
▁permit	-12.526197
MIPS	-13.102716
▁EXPECT	-13.142013
▁named	-11.280449
verifier	-13.500737
strip	-13.357561
▁flatbuffers	-13.626384
sol	-12.291144
syn	-12.712775
▁AddRef	-14.347955
ToString	-12.851684
▁startup	-13.239787
request	-10.845741
▁retrieve	-13.219688
ification	-11.845092
POSITION	-13.115461
▁Intel	-12.667965
CHANGE	-12.985087
HY	-12.776330
▁strncmp	-14.843600
router	-12.980918
Extra	-12.532322
die	-12.157522
▁unexpected	-13.250653
erate	-13.331929
KB	-12.912338
pq	-12.978343
mip	-13.262575
▁PERI	-14.990029
SEG	-13.020749
▁protoc	-16.147868
ner	-11.147304
book	-12.133806
Database	-12.275575
Complex	-13.215040
▁TPM	-13.372585
OL	-12.201553
CHAN	-13.114320
gram	-12.439075
▁docs	-14.499445
▁SPH	-13.946041
EGL	-13.244047
descr	-13.083258
kp	-13.240422
Statics	-13.662701
SUM	-12.715844
ASYNC	-13.169390
car	-11.962684
come	-13.372452
Assign	-12.933497
▁handles	-13.042055
LATE	-13.141457
Setting	-12.755217
▁GNUC	-17.001473
CNTL	-13.314701
▁NIM	-13.698843
ze	-11.510187
Me	-12.274998
ticks	-12.933721
RK	-12.876275
phi	-12.250649
▁memoryview	-15.373171
▁actions	-12.635323
modifier	-12.970364
chk	-12.985808
▁undefined	-12.925620
ICE	-12.095600
▁automatically	-12.604854
Should	-13.699076
Wrap	-12.981500
pitch	-13.504860
Thr	-13.332836
WP	-13.026151
PROCESS	-12.929622
UF	-13.399258
DEN	-12.849957
▁CLAIM	-12.944045
refresh	-13.206927
Cnt	-13.005033
▁nVersion	-13.234673
cor	-12.214390
CAT	-13.148524
Black	-12.992063
▁reserve	-13.275311
POP	-12.631546
▁cpi	-14.136586
Eigen	-13.097377
▁successfully	-12.575125
har	-11.937975
CONV	-13.095669
MESH	-13.187532
▁wake	-13.338987
▁firmware	-13.309913
▁BLI	-13.481222
Cost	-12.658367
▁transition	-12.675640
PROFILE	-13.045036
ENCODE	-13.110567
▁unless	-12.580632
Nt	-12.842593
▁ereport	-15.375492
hb	-13.407249
▁QueryInterface	-14.881830
resolution	-13.699004
mach	-12.180078
ark	-12.736968
paths	-12.721559
UNDEF	-12.881079
Blob	-13.018734
INSERT	-13.151101
syntax	-13.425973
▁hresult	-17.118203
repl	-12.353834
hist	-12.503868
dq	-13.285346
▁xaf	-22.589722
GF	-12.995330
duplicate	-13.914465
VX	-13.170401
Split	-12.733181
Mapping	-12.864422
Sensor	-13.053320
LANG	-12.820101
TYPES	-12.589030
▁syscall	-13.508864
▁checking	-12.800897
▁LFA	-16.244304
Abort	-12.837124
Arguments	-12.291102
maps	-13.036539
▁rcu	-14.203007
BANK	-13.350719
implicit	-13.990213
▁joaa	-13.262526
Payload	-13.056125
ative	-11.297230
Cap	-12.533302
Wallet	-12.810984
Prev	-13.127215
Ar	-12.610820
misc	-12.813157
▁discard	-13.202926
Must	-13.771157
Flash	-13.416043
▁opline	-15.063494
▁AUTHORS	-12.905870
funcs	-13.203660
▁University	-9.695727
Python	-12.574539
ini	-11.529785
VARIANT	-13.095969
default	-9.853801
▁AUTHOR	-13.367746
MOS	-13.039044
lw	-12.690325
▁processed	-13.006585
EO	-13.029949
stuff	-13.872598
Identity	-12.879633
WE	-12.503919
▁rtw	-14.230658
HEX	-13.397631
▁iLocal	-14.511261
thrift	-13.456129
▁vendor	-13.613148
▁globals	-14.457068
▁copied	-12.999813
QC	-13.110536
pick	-13.589899
SEM	-13.065205
wb	-13.137621
DATE	-12.954747
ao	-11.982855
extend	-12.840339
LIT	-12.870585
MAT	-13.040684
VERB	-13.026761
▁desired	-12.794090
PIX	-13.159343
Product	-12.437977
TOOL	-12.951912
ries	-11.229339
SLOT	-13.243855
HEAP	-13.072856
Sec	-11.683428
ephir	-13.271941
MSI	-13.289827
ew	-12.031105
Partition	-12.898573
Invoke	-13.125826
Some	-13.303796
▁xfa	-19.545445
▁uchar	-14.010426
rna	-12.583582
Fields	-12.712500
ain	-11.912140
mic	-12.219792
VO	-12.533471
▁LLU	-18.945836
Category	-12.524940
baud	-13.154194
tal	-11.436881
smp	-13.154355
▁HFXO	-15.662910
Focus	-12.793166
Keys	-12.836528
unnel	-13.545766
▁fails	-12.814590
ure	-10.860085
itive	-11.996548
attrib	-11.217182
install	-12.933313
Si	-12.627116
▁openssl	-15.075870
Literal	-13.000593
SGIX	-13.236658
Services	-12.968216
lab	-11.893767
RGBA	-13.159853
AUX	-13.223476
ite	-11.540344
Pipeline	-12.792733
MENU	-12.958583
▁MemoryView	-19.614202
Lo	-12.618938
▁stdint	-17.340619
TMR	-13.330778
MII	-13.399092
Language	-11.961689
meter	-12.661959
▁portions	-12.463348
Dimension	-12.851713
▁FWD	-16.230699
Alias	-13.054125
Math	-13.076692
ipc	-13.225755
▁modes	-13.121065
Pending	-13.017856
nid	-13.080925
Xml	-12.970985
dg	-12.785568
Points	-12.484269
▁connector	-13.969788
▁xFD	-32.003521
▁overlap	-13.492248
xfer	-13.228432
▁NimString	-14.244471
Tactic	-14.027389
Derived	-12.884586
Clip	-12.640868
dialog	-13.408904
rules	-13.358624
far	-12.970957
CDC	-13.122874
ABS	-12.976464
▁intern	-15.782230
ErrorCode	-12.943064
▁xab	-20.309826
Objects	-12.828895
TW	-12.617068
Prefix	-12.956072
Destination	-12.873615
Big	-12.470912
ata	-11.459595
OW	-12.699890
Sampler	-13.163545
NumberOf	-13.063898
▁TCL	-12.995915
Semaphore	-13.171625
Overflow	-13.147730
secure	-13.303842
TY	-12.708351
Tex	-12.666421
SENSOR	-13.157876
FNGLVERTEXATTRIB	-12.959683
csr	-13.370928
▁modules	-13.209722
▁chartInstance	-14.040297
cpy	-11.949485
Replace	-12.816501
▁pSrc	-13.616569
bundle	-13.474438
PHYS	-13.273479
▁something	-11.487420
Dst	-13.203589
▁linked	-12.881390
ino	-11.576563
mq	-12.966318
▁refer	-11.095932
pause	-12.775763
▁interfaces	-13.152461
ssa	-12.767183
▁pdata	-14.556030
ANCE	-12.581467
qui	-11.552283
▁SND	-13.817050
dk	-12.691815
TG	-12.823600
DISPLAY	-13.101739
Aux	-13.162908
▁temporary	-12.796872
virt	-11.183485
Comm	-12.811151
Statement	-12.635703
▁DISABLED	-15.423807
lan	-11.410205
▁pubkey	-14.595175
ATOR	-13.045139
Renderer	-12.921525
ox	-12.494396
CW	-12.816436
▁shm	-14.367542
▁LEAN	-14.346454
cross	-12.725539
ssh	-13.113294
GFX	-13.265364
mysql	-13.141428
▁IDS	-13.244509
KS	-12.738560
FATAL	-13.028102
flip	-13.441982
▁provides	-12.126334
Done	-12.647012
FILL	-13.109765
Primitive	-13.097067
▁GTLR	-13.324941
fall	-12.648723
MZ	-13.175523
TRIG	-13.747242
EXPR	-12.802857
PEN	-13.594286
symbols	-13.746324
LastError	-13.057965
assoc	-13.021482
▁EXTENSION	-15.456008
HU	-12.911160
fork	-12.924086
RECORD	-13.109709
JIT	-13.199042
Supported	-12.974662
Observer	-12.803452
Execute	-12.719769
▁dimensions	-13.062132
▁GLFW	-13.464952
▁INCLUDED	-14.770707
Route	-12.989402
Restore	-12.956025
DER	-12.853681
COMPARE	-13.086805
Details	-12.477657
topic	-12.756091
buflen	-13.059331
XA	-13.390033
▁sx	-14.255997
tlv	-13.364827
Special	-13.041683
▁boundary	-12.910223
▁handshake	-13.799288
Merge	-12.867500
puts	-12.633695
Coord	-12.941167
Sound	-12.948365
BINARY	-13.034893
ler	-11.122967
miss	-12.327094
▁statistics	-11.124400
Mon	-13.011552
candidate	-13.596240
rcv	-13.308368
Atomic	-13.349650
▁greater	-12.450207
Ip	-13.049588
pmd	-13.620113
ecc	-13.329239
▁BKE	-13.631448
Items	-12.807269
RTL	-13.173096
DDS	-13.376676
ABORT	-12.993385
RECT	-13.059787
▁PFN	-13.891025
agent	-13.231094
▁vertical	-13.029265
▁datatype	-13.866562
▁coordinates	-12.983369
▁fib	-14.000742
▁parsed	-13.344746
▁evaluate	-13.355985
reach	-12.635514
▁terminated	-13.490746
jpeg	-13.195661
▁checked	-13.055527
ARP	-13.200136
air	-11.978001
ADV	-13.151115
Util	-12.644333
SWITCH	-13.191634
▁versions	-12.235235
click	-12.795276
▁semaphore	-13.571316
hot	-13.090427
▁amazon	-17.303698
▁slow	-12.860540
UB	-13.064147
Compiler	-13.097305
mgmt	-13.381375
▁compressed	-13.444830
tun	-13.128950
Ignore	-12.898627
▁particular	-12.035630
▁usec	-15.092539
BREAK	-12.618468
cuda	-13.174232
TILE	-13.274101
ier	-11.776984
pan	-11.976552
perm	-13.119297
tu	-11.410207
ations	-11.251901
Break	-12.410882
SOL	-12.913073
OE	-13.018462
suit	-12.969287
square	-13.243007
▁xbb	-18.856835
▁xfs	-13.572687
ention	-13.985638
PDU	-13.405470
INSN	-13.569890
cloud	-12.773754
PAIR	-13.280062
▁NONINFRINGEMENT	-12.940290
SETUP	-12.852119
relid	-13.251050
WK	-13.360009
▁nested	-13.515847
▁generation	-12.597483
▁detected	-12.983489
child	-11.327764
▁writel	-17.249519
▁SKIP	-14.406839
NETWORK	-13.240846
SHARED	-13.197227
GMAC	-14.054287
gg	-12.498613
Atom	-12.960557
▁regular	-12.319752
XP	-12.920207
▁NID	-13.451052
▁anon	-13.476575
Cb	-13.432294
sense	-13.508222
Bucket	-13.214605
▁blen	-15.056005
Present	-12.255682
▁atoi	-13.272801
Desktop	-13.372471
▁FOREACH	-15.397649
▁STBI	-13.273155
▁creation	-12.596162
Modifier	-13.164382
▁ovs	-13.492167
Dict	-12.856386
Apply	-12.921845
SEQUENCE	-12.989588
▁obtaining	-12.875636
▁whole	-12.021450
▁recursive	-13.403392
PN	-12.919910
SAI	-13.296115
▁HWND	-13.433872
little	-13.948004
tn	-12.931255
Completion	-13.198703
nz	-12.688679
▁substantial	-12.378172
ql	-13.255970
▁mmap	-14.170505
switch	-10.492620
▁vectors	-13.127571
Lower	-13.162309
IDE	-12.930269
▁redis	-13.203053
DEPRECATED	-13.108098
Stride	-13.349787
▁structures	-11.519902
Include	-12.490731
CHK	-13.380471
smart	-13.161739
chr	-12.734796
Buffers	-13.102197
Certificate	-13.046535
tools	-12.923006
clamp	-13.650253
▁very	-11.080778
▁strcasecmp	-15.251091
truncate	-13.064193
▁hidden	-13.118549
NATIVE	-13.206250
▁whom	-12.231927
vfs	-13.266565
props	-12.832449
IsValid	-12.923224
Need	-13.445521
▁parsing	-13.071835
lcd	-13.258788
Package	-12.864176
vel	-12.553040
▁compatible	-13.392756
▁ofp	-13.368207
Worker	-12.957788
▁critical	-12.710055
▁arrays	-13.168372
▁held	-11.460313
vif	-13.824702
Rpc	-13.138821
▁Authors	-12.549913
▁limitation	-12.722097
Fault	-13.171644
ja	-11.536877
▁xBF	-24.462500
Reply	-12.941307
▁Could	-13.608394
Sum	-12.770494
PERIPH	-13.337773
ppc	-13.276694
▁hpp	-16.506584
imp	-11.672017
▁tasks	-12.956647
DOT	-13.343393
COR	-12.962722
terminal	-13.611969
ascii	-13.138355
Delta	-12.666000
▁executed	-12.645515
UA	-12.955948
▁ENTITY	-15.544017
gcc	-13.199986
ROOT	-13.201600
WC	-12.864419
rdp	-13.422395
SSI	-13.560750
▁longer	-12.183215
accel	-13.109724
vn	-13.027110
python	-13.181633
▁immediately	-12.372577
conflict	-13.863760
Pad	-12.647129
pose	-12.443174
eps	-13.189819
GH	-12.573601
neighbor	-13.771064
REGS	-13.354981
Alignment	-13.061671
sil	-12.991722
ELEM	-13.364218
Qu	-12.889703
▁floating	-13.091322
suffix	-13.594796
▁DEALINGS	-12.975379
rng	-13.408381
emu	-13.167357
ish	-11.317429
▁MAY	-14.049543
▁PMC	-14.295515
Crypto	-12.896909
RN	-12.535774
Timestamp	-13.032531
hy	-12.016479
▁entire	-12.341247
Blocks	-13.051743
ALG	-13.229387
▁decrypt	-13.893989
CAPS	-13.388668
PULLUP	-13.724648
▁finalize	-14.009683
Decoder	-13.141428
▁PPU	-16.368957
oa	-12.304540
▁operands	-13.777644
OO	-12.917197
CFE	-13.558750
▁WPA	-13.610166
prom	-13.133578
Compile	-12.926791
SON	-12.647348
DUMP	-13.166926
eu	-12.378175
▁unordered	-15.162446
compat	-12.608705
Fail	-12.925347
RFC	-13.929742
ism	-10.798205
SCAL	-13.111240
thing	-12.520646
toggle	-13.501377
▁txid	-14.903027
Glyph	-13.242549
▁furnished	-12.834459
wind	-12.365751
xxx	-13.170703
▁wine	-12.993991
Distance	-12.823886
▁instructions	-12.789939
▁MLX	-13.985119
unmap	-13.087173
race	-12.772862
Transport	-12.899629
▁msgs	-15.586353
strict	-12.114021
▁tokens	-13.554836
UTIL	-13.092940
Quad	-13.083855
simd	-13.518451
▁anything	-12.063794
panel	-13.216523
Hz	-13.793050
BV	-13.287058
▁weights	-13.657489
ail	-11.997278
▁SYSCFG	-14.379727
▁interpret	-13.258970
ValueType	-13.135858
▁performance	-11.547724
ez	-11.892430
cent	-10.061002
first	-10.903187
MOCK	-13.334405
rnd	-13.540053
▁persons	-12.543137
sch	-12.003168
▁utility	-13.291375
CTR	-13.534282
mar	-11.471660
▁implement	-12.913504
Url	-12.867226
mn	-12.555657
▁diagnostic	-12.680405
Extract	-13.037530
Unique	-13.038535
▁aom	-14.122264
▁instances	-13.038773
Same	-12.994261
Boot	-12.770020
pot	-12.630373
MQTT	-13.305518
COMPONENT	-12.900647
META	-13.200201
BW	-13.305373
LSB	-13.448895
▁fopen	-13.506673
ging	-12.393949
▁legacy	-12.676213
Required	-12.896147
▁ImVec	-14.210005
▁pkey	-14.659344
Sleep	-13.271720
MY	-12.329800
reload	-13.109366
Accept	-12.882385
IPROC	-13.201133
DISP	-13.180322
▁sender	-13.621032
Coin	-13.116341
Fix	-12.807946
▁RADIO	-14.031962
▁FMC	-13.999996
EEPROM	-13.285044
mtx	-13.353424
BAND	-13.373897
Guid	-12.951045
qos	-13.516082
Bound	-12.752713
Since	-14.158332
fee	-13.738198
barrier	-13.329215
Cont	-13.527239
Final	-12.909794
holder	-12.876650
Watch	-12.477889
INF	-12.838952
ect	-11.949629
Go	-12.328754
▁xba	-22.905352
sprite	-13.200938
Pipe	-13.057044
hu	-12.141002
▁quic	-15.042421
Disabled	-13.211425
▁fclose	-12.929954
ERTS	-13.254955
Side	-13.105665
Require	-12.919586
▁mca	-14.123522
▁prototype	-13.035860
RTS	-13.037123
▁sam	-13.495648
logic	-12.585286
Cached	-12.757030
Blend	-13.058363
fence	-13.372225
▁CGAL	-13.375889
▁PED	-16.208539
Received	-13.171975
▁selmon	-14.499150
ade	-12.351844
solver	-13.109550
fin	-10.896977
mag	-12.551151
bk	-13.394533
▁clients	-13.011792
REFERENCE	-13.184778
GM	-12.614853
tap	-12.955315
hdl	-13.435570
ftp	-13.330816
iw	-13.149818
▁dataset	-13.248945
blank	-13.316203
nh	-12.978718
ENA	-13.487168
Cert	-13.108157
land	-10.697518
xy	-12.928532
refs	-13.094694
IMR	-14.017950
DAT	-13.433015
Visual	-12.548060
Stage	-13.088266
▁PFNGLUNIFORM	-13.412272
WIFI	-13.347952
USAGE	-13.209577
▁really	-11.675406
World	-12.536216
▁NEED	-14.169162
▁records	-12.030760
▁reuse	-13.276852
ENGINE	-13.157620
Before	-13.032949
▁LPTIM	-14.334493
ros	-11.881744
eh	-12.408986
Throw	-12.973835
▁counters	-13.668318
DROP	-13.070517
bulk	-13.493363
Ti	-12.961230
XL	-12.964682
NAT	-13.359581
ron	-11.417207
mtu	-13.458174
DICT	-13.167689
▁cinfo	-14.042963
▁boxed	-15.505707
noise	-13.585025
Available	-12.867902
Snapshot	-13.121104
Found	-12.531854
Conversion	-13.105535
▁IOM	-16.175316
▁assigned	-12.729738
▁glVertex	-14.282814
▁dictionary	-13.206758
HZ	-13.288896
Tri	-12.866932
▁OPCODE	-14.568511
▁REDIS	-13.411684
shuf	-15.370891
Center	-13.075000
OUR	-12.949947
▁routines	-12.955702
MANAGER	-13.240261
▁freed	-13.115080
RIS	-13.366453
▁ctype	-14.769219
terminate	-13.028000
FETCH	-13.305996
HO	-12.615864
VB	-12.987600
SHR	-13.236468
Threshold	-13.193678
InitStruct	-13.072386
MOUSE	-13.219127
Cannot	-13.268909
▁uiv	-19.758389
Drag	-13.090978
LFXO	-14.590586
▁QSTR	-18.730073
IES	-12.549207
BLEND	-13.325515
Eval	-13.111069
Retrieve	-13.089464
▁transpose	-13.698170
Align	-13.278052
Disk	-12.962426
Unsafe	-13.982567
▁queues	-13.879779
DateTime	-13.127093
PW	-13.043187
fully	-12.176894
WEB	-12.374760
xl	-13.011815
actor	-13.176547
qh	-13.655185
Override	-11.869875
cvt	-13.493126
wakeup	-13.179835
▁sublicense	-13.281954
▁IUnknown	-13.469669
Px	-13.697741
filled	-13.900543
ICR	-13.599630
Files	-12.690029
▁SERIALIZE	-16.478679
PRT	-13.816269
icmp	-13.459805
▁capnp	-17.828603
Secure	-13.161043
FLUSH	-13.246758
▁xFB	-21.328789
▁receiver	-13.020757
seen	-13.485050
▁PyDict	-14.148307
LOCATION	-13.324250
Perform	-12.754905
ARY	-12.557227
▁FreeRTOS	-13.618696
GAIN	-12.996477
▁Creates	-13.088141
Revision	-13.017214
▁references	-11.982748
Geo	-13.456571
▁voltage	-13.427377
LW	-12.944535
▁lda	-13.778701
ELF	-13.166059
pri	-12.927428
▁getter	-14.252381
Hint	-13.143696
VLAN	-13.390103
inity	-13.072828
SCI	-13.206971
▁xce	-18.891400
▁connections	-12.957162
▁MODEM	-14.914937
MEMBER	-13.289192
▁sqInt	-13.072828
▁third	-11.736739
VID	-13.153758
▁jint	-13.937380
▁latest	-13.031481
pj	-13.442632
▁images	-12.505403
▁endl	-14.573268
▁strchr	-13.835570
loss	-12.940503
Qual	-12.909078
▁SetString	-15.617540
▁sptr	-14.320735
▁xcd	-18.366271
vers	-11.985988
▁THROW	-14.998337
Inf	-13.078496
▁NTSTATUS	-12.184915
Div	-12.876839
vq	-13.619540
NOR	-13.195910
Google	-13.395500
ass	-12.006903
▁GLubyte	-14.050581
ich	-12.104173
OA	-13.114760
ural	-12.338034
▁streams	-13.542242
Plane	-13.258955
▁declspec	-18.158886
ans	-11.649819
▁positive	-12.342958
nxt	-13.472432
Phase	-12.783870
AKE	-13.073967
▁DUK	-13.981914
ATA	-12.859388
▁much	-11.205968
▁opal	-13.851334
▁backward	-13.219672
DESCRIPTOR	-13.309322
CODING	-13.284069
Join	-12.807982
aging	-12.650192
▁assembly	-13.341962
Angle	-13.134278
SIGNAL	-13.098279
JPEG	-13.273549
Environment	-12.507855
RENDER	-13.427418
Vtbl	-11.939191
▁HRTIM	-14.502913
CSS	-12.821782
Linux	-13.717970
NM	-13.156819
ean	-11.887050
Clk	-13.573888
ATTRIB	-13.316630
DHCP	-13.287838
ned	-11.002378
tuples	-13.267936
esc	-13.325717
▁keyboard	-13.165962
oe	-12.145866
rop	-13.223061
ERATOR	-13.164086
estimate	-13.933035
▁incoming	-13.321739
TBL	-13.654115
▁fffffff	-18.465727
Detect	-13.222715
▁ERRCODE	-16.463972
Sh	-12.282078
WAKE	-13.521128
▁recovery	-13.114797
prov	-12.799835
latency	-13.748974
REPORT	-13.225263
ipp	-13.212797
▁handled	-13.035991
vari	-12.043845
Archive	-12.339017
fuse	-13.491150
mut	-12.565352
▁ecma	-13.832225
▁nla	-13.841521
Bounds	-13.231809
MCU	-13.413270
Syntax	-13.241607
FPU	-13.676952
▁takes	-12.329190
KV	-12.888409
NOTIFY	-13.239731
DYNAMIC	-13.213888
compatibility	-12.997950
TypeInfo	-13.303125
BITMAP	-13.099600
COMPRESSED	-13.429775
▁sending	-12.983802
▁marked	-12.835669
▁coordinate	-13.150993
OMP	-13.395676
OpenGL	-13.225244
SIGN	-13.196640
Opcode	-13.261370
specs	-13.486422
▁xbc	-21.215411
Linear	-12.898450
ITER	-13.307400
ij	-12.623753
▁unlink	-13.837021
Nodes	-13.122043
hm	-12.210274
▁formats	-13.275094
▁avx	-16.518861
BIND	-13.289516
EVENTS	-13.632419
▁lpfc	-13.954554
iph	-13.455446
SCHED	-13.259798
▁xee	-23.594092
bat	-12.500990
protect	-12.394226
DEL	-13.159846
▁curbuf	-13.975711
▁difference	-12.520445
grow	-12.716401
datum	-13.290963
circ	-12.823411
▁absolute	-12.944990
IMPORT	-13.123122
▁xdd	-19.931393
CONT	-12.655440
▁underlying	-12.895548
▁inp	-14.832798
▁PINMUX	-14.918026
divide	-13.773250
Matcher	-13.327699
tran	-13.149783
▁strides	-14.505985
CAR	-12.833839
RESP	-13.485467
▁compiled	-13.263525
Cpp	-13.380289
GATE	-13.184890
MMU	-13.427682
MATH	-13.264379
DIFF	-13.389705
MSB	-13.549968
undo	-12.886510
▁METH	-13.929303
▁hres	-13.500586
▁specifies	-13.219222
▁chunks	-13.629291
arrow	-12.547234
Management	-13.532542
ght	-14.294821
zy	-12.692550
Algorithm	-13.018814
Execution	-13.077399
Soft	-12.883598
▁tif	-16.506058
Micro	-13.522682
fol	-13.027583
FRC	-14.138637
Callable	-13.683046
LINUX	-13.158419
▁beginning	-12.313743
gemm	-13.858508
abc	-13.398368
▁exponent	-13.667253
▁filters	-13.569160
ZIP	-13.090463
UAL	-13.266435
mission	-11.938755
▁xac	-19.797485
▁LEUART	-14.933094
▁SUCCEEDED	-16.776293
▁PyInt	-14.036131
ARI	-13.257529
▁tstate	-14.016561
▁IGNORE	-15.425819
NEG	-13.364847
▁duk	-14.532971
coords	-13.450286
SOFT	-13.146694
▁three	-10.902792
Namespace	-13.084815
ALLOW	-12.803310
▁radeon	-13.895663
AIN	-13.606146
Half	-13.423093
▁Whether	-12.968506
▁writes	-13.044798
Bin	-13.529864
▁nbytes	-13.733421
FIXED	-13.341784
msi	-13.298009
▁xea	-26.653392
floor	-13.528343
▁foreach	-13.797543
Increment	-13.113090
fine	-8.432032
REMOVE	-13.306327
qt	-13.439546
Stencil	-13.438531
peak	-12.390389
Duration	-13.109353
▁krb	-13.726234
Anim	-12.818915
pts	-13.324950
Rows	-13.247776
jj	-13.417266
uf	-12.234213
istic	-12.050729
sun	-12.944283
Tk	-13.326180
hop	-12.808970
▁starts	-12.844332
folder	-13.661619
Shell	-12.882913
usart	-13.450152
parm	-13.444164
vtable	-13.609009
▁cairo	-13.807082
▁xBB	-22.113776
▁MUST	-13.671396
Resolve	-13.160841
Hook	-12.942113
StringRef	-13.242562
▁segments	-13.338438
Console	-12.893593
Axis	-13.157377
LESS	-13.177745
FUL	-13.691943
Curve	-13.261238
Dist	-13.270597
oh	-12.438575
▁contact	-12.443955
INTERVAL	-13.407104
geo	-13.310393
prime	-13.221009
▁itk	-13.140904
Filename	-13.288487
mont	-12.288420
BINDING	-13.332348
xact	-13.015448
Sparse	-13.379483
bea	-13.273582
▁However	-11.625978
jmp	-13.345065
Entries	-13.183755
SourceLocation	-13.098037
But	-12.589831
▁against	-11.071691
Adjust	-13.156720
LZ	-13.546936
wq	-13.465905
OWNER	-13.299153
▁OVS	-13.729960
▁EIC	-15.011464
▁simde	-13.841489
Features	-13.134448
Round	-13.288145
▁won	-11.379112
▁xad	-18.044189
Emit	-13.097042
▁declare	-12.781863
▁mini	-13.464174
hz	-13.572995
java	-12.256595
hub	-12.372517
▁MIDL	-14.784742
pal	-12.226325
SSP	-13.476794
▁represents	-12.734680
HEIGHT	-13.441134
PLUS	-13.274495
Slave	-13.144007
Prepare	-13.038865
▁had	-9.971216
team	-13.013737
PROGRAMUNIFORM	-13.438760
nan	-12.330741
▁omap	-14.000157
RESPONSE	-13.360603
DOMAIN	-13.400159
▁mavlink	-14.238099
CXX	-12.924999
prob	-12.575307
▁IOCTL	-14.537116
decimal	-13.511889
ential	-12.678857
PULSE	-14.336536
XM	-13.177121
HERE	-13.391970
echo	-12.904385
▁spl	-13.665555
hints	-13.222157
PCIE	-13.728011
▁DDevice	-87.802829
Lim	-14.715070
▁xeb	-27.282505
oi	-12.453691
Idle	-13.293811
▁NSNumber	-13.648597
Cpu	-13.390228
▁scheduler	-13.673342
dac	-13.422579
Hi	-12.785336
PARAMETERS	-13.109849
OPTIONS	-13.250820
prt	-13.825363
Particle	-13.202937
ASH	-12.944683
WRAP	-13.444496
▁SCIP	-13.503098
▁attached	-12.881603
Period	-12.813376
Updated	-13.157038
Fee	-13.406637
HB	-12.937272
▁dealloc	-14.802978
ih	-13.005567
optimize	-13.632362
Determine	-15.384250
▁gboolean	-12.391076
▁COPYING	-13.487828
sPer	-13.537221
▁UNSIGNED	-16.106526
frm	-13.654784
▁opened	-11.920746
iq	-13.081705
wave	-13.260498
Uni	-13.707098
management	-14.048706
▁salt	-12.853223
zi	-12.202729
Extended	-13.583129
Span	-12.993185
ether	-12.746050
PARSER	-13.278706
▁reflection	-13.917398
▁doing	-12.033718
WF	-13.122133
Comment	-12.597885
CRL	-13.702638
PDF	-12.919733
▁RID	-14.172978
qu	-11.891243
▁xEF	-23.680777
▁iwl	-13.913429
Origin	-12.112749
EXIST	-13.293255
Declaration	-13.034992
qf	-13.707134
balance	-13.316785
Browser	-12.890786
▁HSI	-14.573129
▁mock	-13.881037
Fragment	-13.058958
Definitions	-12.783936
UID	-13.297934
minus	-13.477489
▁sampler	-14.001563
▁Includes	-13.609161
Mix	-12.453813
SPROC	-13.271807
▁rectangle	-13.511895
equ	-13.037081
▁xcf	-19.171269
Border	-12.739205
▁comparison	-12.700773
omp	-12.843981
Eq	-13.329223
Will	-13.263504
Conn	-12.718917
qc	-13.765904
Tmp	-13.441351
fo	-12.115622
stp	-13.597649
▁larger	-12.581513
▁RAC	-14.975516
▁exact	-13.025292
procedure	-14.583481
▁xFA	-27.204735
Acquire	-13.204184
Networking	-13.640169
km	-11.533362
lies	-12.264233
Composition	-13.789947
Yellow	-14.742609
quit	-12.613866
JA	-12.729267
▁XMC	-14.457266
History	-12.820171
Download	-12.868794
ECT	-12.266877
ROT	-13.315009
GOTO	-13.471009
lk	-12.502565
mmu	-13.068100
SAMPLER	-13.390108
▁UINTN	-12.877483
Attrib	-12.777756
frac	-11.831773
Encoder	-13.303731
Finish	-13.025651
scanf	-13.200918
▁slab	-14.352266
Nav	-12.951209
▁absl	-13.779993
▁become	-11.964941
NORM	-13.077349
ris	-11.842738
▁isolate	-13.499678
Diff	-13.127833
▁tvb	-14.498433
▁journal	-13.272306
sections	-13.593220
▁uniform	-13.247961
sib	-14.045741
Selected	-11.624451
SCREEN	-13.354348
ofs	-13.313039
▁MAVLINK	-14.230424
FLD	-13.603021
ik	-11.951145
PEND	-13.905591
abilities	-13.268471
DIG	-13.685931
nonce	-13.554270
▁BSTR	-13.851418
▁metrics	-13.716527
alarm	-13.744769
Frequency	-13.262311
▁ucs	-13.895540
▁xae	-19.563903
TCB	-13.633885
anal	-14.571371
Implementation	-12.735168
▁reject	-13.557875
▁instancetype	-15.078287
▁vsi	-14.819063
▁tensorflow	-14.206585
Folder	-13.241961
paint	-13.057976
▁Operating	-13.232716
▁UCHAR	-13.687317
▁objc	-14.289052
Disp	-13.406448
▁SDMMC	-14.341849
▁NONNULL	-17.373020
CUDA	-13.292925
Constants	-13.123843
▁pmix	-13.991567
SEEK	-13.393813
Ax	-13.213188
pda	-14.151261
▁Please	-12.420726
degree	-13.777737
▁workspace	-14.091839
▁selector	-13.525362
fact	-13.230423
QUIC	-13.299125
Ind	-13.003943
pwr	-13.538543
▁elog	-15.893094
trim	-13.323354
Role	-12.579079
Did	-12.780357
▁outside	-12.143752
xp	-12.905794
▁fake	-13.597693
▁DESCR	-13.174004
Unsigned	-13.373969
▁indexes	-13.605839
tgt	-13.626401
TLV	-13.580215
Inv	-13.280740
QS	-13.443022
CONTENT	-13.290476
LARGE	-13.196418
▁USA	-12.223808
BUILTIN	-13.470789
Registry	-13.095802
▁Cyan	-12.608900
Marker	-13.326419
▁CSL	-13.960556
XOR	-13.598085
particle	-13.267081
Branch	-13.374012
Malloc	-13.475689
WAL	-13.210402
NIC	-13.145391
Loader	-13.101385
STRUCTURE	-13.644613
Selector	-13.196692
▁ZAP	-14.594527
Purpose	-12.699533
links	-13.159275
SVC	-13.305862
anti	-12.620001
ffff	-12.285275
▁framebuffer	-14.239063
STYLE	-13.201039
▁Enables	-13.497430
prio	-13.382408
TRY	-12.955222
Reason	-12.965241
GLX	-13.472723
FINAL	-13.071334
Agent	-12.947083
Family	-12.706686
iate	-13.343736
▁developers	-13.122081
rotate	-13.867854
Password	-13.032312
▁sph	-14.030578
▁previously	-12.315797
strncpy	-13.539929
LVL	-13.755859
DOG	-13.625917
claim	-12.841751
Ob	-13.183010
Inputs	-13.281365
Poly	-13.017477
▁controls	-13.172952
▁xabababab	-87.802829
izing	-12.261156
Caps	-13.431712
ArrayRef	-13.426080
HeapTuple	-12.897584
▁ppvObject	-15.351599
▁htim	-14.326469
PAN	-13.026192
Keyboard	-12.792489
Sprite	-13.378859
Oc	-12.647948
Smart	-13.575091
▁deref	-15.348128
Bridge	-13.152668
▁VkDevice	-13.595021
▁UCS	-13.724181
▁occur	-12.814775
Authentication	-13.519635
▁OBSERVER	-18.469041
TRIM	-14.189254
Gui	-12.623084
▁IMF	-13.594708
▁GATT	-14.696838
Logger	-13.173148
BER	-13.241741
Editor	-12.365478
▁bmc	-16.557517
odd	-12.441618
▁occurred	-12.632597
wh	-11.257791
ged	-12.413882
▁expire	-13.937746
orth	-13.875077
▁glfw	-14.605789
▁hdc	-14.109996
Numeric	-13.222979
Resize	-13.354559
inject	-13.624763
subscribe	-13.480358
COORD	-13.360913
adapt	-11.949445
eal	-12.839841
▁vout	-14.297379
emp	-13.216472
fire	-12.838246
▁better	-11.714485
Callbacks	-13.337023
HashTable	-13.296508
cha	-11.957979
Freq	-13.581665
USR	-13.625184
qi	-13.213037
▁EXTERNAL	-15.087007
Two	-13.056177
▁cJSON	-13.947693
ALWAYS	-13.278647
▁transactions	-13.050853
▁tsk	-14.066057
Commit	-13.114992
glBind	-13.443643
mime	-13.425251
▁cout	-14.426385
▁LETIMER	-15.269180
▁going	-11.533896
THRESHOLD	-13.583006
Using	-13.723483
▁cells	-12.516529
ard	-11.345219
▁accompanying	-12.970214
NVM	-13.517313
▁YYCURSOR	-15.370935
▁makes	-12.122789
▁Magenta	-12.662911
GTK	-13.519130
▁scoped	-13.779551
▁gint	-13.351416
TLE	-13.182697
isa	-12.532546
DESCRIPTION	-12.834103
▁revision	-13.457341
▁delayed	-13.718672
▁xnn	-14.497046
▁DECLSPEC	-13.764718
COND	-13.471226
SIMPLE	-13.454434
steps	-13.650267
FINISH	-13.263771
▁OSSL	-13.789695
▁gatt	-14.999049
▁creating	-12.684590
▁easy	-12.763999
▁addtogroup	-17.009669
Receiver	-13.288781
FFI	-13.597531
ware	-12.281010
Par	-12.576323
ari	-11.859848
▁invoked	-13.255313
SUPP	-13.154876
WSA	-13.178284
registry	-13.767079
POLICY	-13.480322
lement	-12.489820
Shadow	-12.790785
mnt	-13.649514
rtp	-13.670287
launch	-13.496570
pdf	-13.191757
▁integr	-15.345841
clr	-13.534089
SSH	-13.280749
STENCIL	-13.471336
CHUNK	-13.517473
▁strcat	-13.794723
SCOPE	-13.392111
bond	-13.715344
und	-11.920111
pulse	-13.303791
arb	-13.356835
Framework	-13.025867
▁design	-11.953799
strm	-13.456667
▁reached	-12.466404
LAYER	-13.489389
▁ISC	-14.353789
GOT	-12.387036
▁accessor	-13.933620
▁OPA	-15.346919
▁SIZEOF	-14.126407
▁Ipp	-14.440510
IGSEL	-15.394737
layers	-13.584674
▁applied	-12.562391
regex	-13.596859
defs	-13.213188
sci	-13.167599
rela	-12.810841
browser	-13.606313
Hit	-12.946884
SECURITY	-13.410666
▁Microsoft	-12.566929
▁ctrlr	-15.974448
Keep	-13.631765
▁TNode	-14.410398
▁AVAILABLE	-15.637353
Dlg	-13.536128
confirm	-13.578611
CTS	-13.409086
▁detection	-13.051151
▁xec	-20.038456
eff	-13.487573
nand	-13.338260
wnd	-13.096105
BufferSize	-13.313861
rdma	-13.617635
▁softc	-17.077600
Touch	-12.881763
▁signals	-12.750197
▁username	-13.704537
corner	-14.175474
▁STDMETHOD	-13.699323
Overlay	-13.625615
ifies	-13.090320
CreateInfo	-13.517518
▁NSDictionary	-14.109189
▁converted	-12.993697
▁addition	-12.095418
Pixels	-13.588855
lun	-13.443160
rib	-13.407925
gst	-13.645633
Bi	-12.895555
▁gdb	-14.120675
spawn	-13.326819
▁destructor	-13.482349
nal	-11.089575
prompt	-13.607910
▁affect	-13.363794
▁rename	-14.192727
▁invalidate	-13.864544
▁nonnull	-15.979022
Enc	-13.475564
COMPILE	-12.749725
Second	-13.211411
ste	-12.349032
FACE	-13.322910
alter	-12.748466
rates	-12.994744
Sim	-13.076002
▁mtd	-14.507236
▁animation	-12.946308
wcs	-13.614060
▁supplied	-13.175486
PERIOD	-13.664665
▁EIGEN	-13.512207
fft	-13.755247
▁ifp	-15.181506
ALIAS	-13.484183
▁rettv	-14.369255
▁Unable	-14.780914
Codec	-13.242580
Prim	-13.460562
Interp	-13.418045
▁describe	-13.252205
▁equivalent	-12.712318
libc	-13.231140
THREADS	-13.074628
▁governed	-13.169632
▁lws	-14.237306
anim	-12.508763
MIX	-13.175631
▁xda	-20.506746
Hdr	-13.546371
▁avctx	-14.781290
Logical	-13.310078
mos	-12.709649
▁gpointer	-13.399834
▁ENR	-17.941554
MUTEX	-13.366929
▁kafka	-16.680552
▁performed	-12.190976
▁circuit	-12.826535
Instr	-13.508767
▁PGUID	-14.919119
uck	-12.402846
TAILQ	-13.556166
xi	-12.330588
gz	-13.366880
parms	-13.656609
mh	-13.503781
▁CUI	-16.005491
Paint	-12.909242
BLAS	-13.781951
▁whose	-12.279523
ek	-11.571084
RULE	-13.006966
LEAVE	-13.182084
▁notifier	-14.624503
snap	-12.947234
isr	-13.337481
MGMT	-13.578324
▁todo	-13.686741
▁ASSUME	-16.775318
Alt	-13.233111
HARD	-13.363135
colon	-12.625258
ubi	-13.327179
Channels	-13.370562
SDHC	-14.054931
Viewport	-13.572761
OU	-12.743068
admin	-12.816436
Click	-12.123437
REP	-13.426912
▁viewport	-14.169460
OLD	-13.437689
▁descriptors	-13.537612
TRACK	-13.384608
PubKey	-13.639915
lvl	-13.653730
OLE	-13.483153
pairs	-13.937697
YUV	-13.641068
fld	-13.609942
PROXY	-13.474589
ko	-11.555398
▁contained	-12.835717
cas	-12.705510
▁PURE	-13.474849
▁encryption	-13.516394
scaling	-13.314340
Ok	-12.914675
Fc	-13.296361
▁working	-11.823734
INFORMATION	-13.336819
Tail	-13.225772
PSK	-13.616783
damage	-14.131876
CUSTOM	-13.410229
AMP	-12.894317
Apple	-13.801899
OUS	-13.370771
uring	-12.864846
▁IPT	-13.837596
Share	-12.444722
multiply	-14.316381
IVEREF	-13.643829
▁EXPECTED	-15.474406
iot	-13.247569
mw	-13.509804
Attach	-13.321272
crt	-13.346268
FALL	-13.254529
authentication	-14.454161
▁ofproto	-14.385696
REQUIRE	-12.937268
vuint	-13.883238
INSTR	-13.744482
OVR	-14.077166
▁OpenSSL	-13.631058
nest	-12.878635
GPR	-13.732106
bmp	-13.627881
▁HSE	-14.446829
BK	-13.175167
BOUND	-13.497611
▁illegal	-13.243733
thresh	-12.733369
▁phalcon	-16.150631
tle	-12.256523
▁abfd	-15.528195
Alarm	-13.795820
▁submit	-13.438321
kt	-12.987639
Added	-13.186985
▁computed	-13.325302
▁fout	-14.492921
▁declarations	-12.991328
Ali	-13.767348
▁masked	-14.286121
▁glm	-14.168337
hole	-12.792208
spaces	-13.448995
msr	-13.772796
Payment	-13.308289
stamp	-12.396863
▁flat	-12.899434
▁higher	-12.250138
oper	-11.249974
GNSP	-14.943299
SMB	-13.549481
fbb	-12.605926
gw	-13.531445
star	-12.430772
CHAIN	-13.469261
Workspace	-14.165928
ldap	-13.582021
▁bitwidth	-17.263514
Motion	-13.451134
▁horizontal	-13.259058
SLAVE	-13.647572
Buff	-13.354227
▁dobj	-16.209914
▁LSM	-13.826122
▁things	-11.711369
crash	-14.345706
CLKSEL	-14.195060
▁WOLFSSL	-13.591402
▁drivers	-12.178709
▁referenced	-13.376397
Wake	-13.816449
PENDING	-13.514115
Sel	-13.455326
Major	-13.238631
mirr	-14.046162
SEARCH	-13.395553
▁highest	-12.457917
▁UNIX	-14.320582
choose	-14.066501
piece	-13.338512
▁sysbio	-87.802829
Seg	-13.337840
prof	-12.979553
slash	-13.183486
Analysis	-12.404804
▁treat	-13.207496
▁OPERAND	-15.883643
▁unistd	-17.709476
▁certain	-12.170699
xyz	-13.752649
MIC	-12.832303
Weak	-13.284768
▁github	-15.167379
glob	-11.612220
▁PMIX	-13.629234
SIZ	-13.696705
▁anchor	-13.387640
BIAS	-13.947048
▁ENET	-14.149666
Sha	-12.987522
▁rval	-13.874699
hide	-12.712315
nav	-12.779109
cw	-13.567966
Phy	-12.935648
STRLEN	-13.692541
MCR	-14.004539
▁hri	-14.373702
apic	-13.764137
unc	-13.082367
ssociate	-14.182715
STAMP	-13.432616
▁velocity	-13.569488
▁rather	-12.091544
Ja	-13.081842
▁spinlock	-14.432694
Backend	-13.370151
Calc	-13.014056
▁temperature	-12.872126
ua	-12.036162
combine	-13.600412
▁loading	-13.246660
Original	-13.387773
▁quality	-12.511673
▁hWnd	-14.463273
▁swift	-13.890007
YES	-13.541054
OPERATION	-13.517401
ero	-11.921480
GetCurrent	-13.451554
FUSE	-14.062415
▁xdr	-14.467848
Coins	-13.111977
brush	-13.262431
Framebuffer	-13.310646
▁glTexCoord	-14.659203
Collect	-14.306285
Hub	-12.987371
BLUE	-13.104409
▁CRYP	-14.237454
▁occurs	-12.758981
LUT	-13.718958
▁filesystem	-13.826054
▁Mountain	-12.287406
ering	-12.806558
answer	-13.705132
RQ	-13.516173
▁isset	-16.947818
hv	-13.613288
Look	-13.611661
▁identify	-13.101818
Raise	-13.380204
Vars	-13.568062
Maybe	-13.636379
▁predicate	-13.678584
Patch	-13.298705
▁separator	-13.736763
break	-8.303552
fraction	-13.149302
▁translation	-12.568230
DIGIT	-13.533924
▁please	-12.501136
printer	-13.681493
Inline	-13.347895
dai	-13.146515
intf	-13.596004
▁xCC	-22.942171
FORWARD	-13.464699
Visible	-13.221470
▁milliseconds	-13.643752
▁Specifies	-13.771877
Demo	-12.629748
▁DCHECK	-13.653186
cbmc	-14.396239
lite	-12.801957
▁APR	-13.436905
GAP	-13.726231
Acpi	-13.303758
concat	-13.243772
iation	-12.829505
▁unable	-13.274737
Photo	-12.136393
Amount	-13.317688
CLIP	-13.446232
▁hmac	-15.088755
ili	-12.081982
RTT	-13.811831
▁pybuffer	-17.439337
lut	-13.465972
▁consider	-12.432821
Spi	-13.201740
Wire	-13.321312
Accessor	-13.267656
eter	-12.166594
▁increase	-12.548528
▁sad	-13.695204
STL	-13.450987
RUNTIME	-13.308574
▁optarg	-14.259419
▁taken	-12.007622
▁mex	-15.364887
▁tcg	-13.856230
gsl	-13.942175
Wi	-13.074492
▁resolver	-14.959762
▁btree	-14.310837
▁various	-11.873016
▁services	-11.513616
RHS	-13.674949
Indirect	-13.522732
Parameteriv	-13.694779
▁inserted	-13.367639
fwd	-13.638825
VARIABLE	-13.435575
mbox	-13.347681
AGE	-12.364568
Install	-12.902850
TTY	-13.460188
burst	-13.262926
PJ	-13.432255
Book	-13.065385
▁owned	-12.725554
ination	-12.757328
Comparator	-13.695311
GRAPH	-13.340338
SORT	-13.472879
▁FSL	-14.020063
▁ffd	-17.574320
Modify	-13.596407
SPC	-13.638378
▁SIMDE	-14.104924
▁LIBXSMM	-14.157105
Suite	-13.173387
CRT	-13.540855
▁rewrite	-13.886266
▁odp	-14.600114
QM	-13.679784
Cleanup	-13.074696
Elf	-13.351033
▁smaller	-12.647271
ccb	-13.948450
ByteArray	-13.597643
Mgr	-13.505600
destruct	-13.230396
▁glColor	-14.647157
VertexAttrib	-12.295957
▁BLAZE	-13.626209
▁irqrestore	-17.850977
▁exceed	-13.647070
ushort	-13.690357
▁dtor	-15.626604
Distributed	-13.169529
Drive	-13.684611
Transition	-13.174727
▁mdb	-14.446261
Upper	-13.485289
RSP	-13.655515
Na	-12.379911
SDA	-13.841411
Given	-14.369248
▁vdev	-15.136109
Automation	-14.015343
▁srna	-15.953573
▁built	-11.688531
▁hdev	-15.695498
Sup	-13.110570
▁blaze	-13.996008
▁ETM	-15.396816
▁posix	-14.108367
Bundle	-13.085332
TRANSFORM	-13.623397
Take	-13.406796
XY	-13.168588
grab	-13.759514
▁decoded	-13.832515
▁overlay	-14.082165
▁USING	-14.752670
intra	-13.744042
alert	-13.585482
vv	-13.714830
LEX	-13.460015
Band	-13.158280
▁lld	-15.898056
chrono	-13.314450
▁RELOC	-15.691007
Super	-13.027838
demo	-12.971808
neos	-13.998027
▁epoch	-13.970612
Ensure	-13.369618
GetItem	-13.845615
▁COMPILER	-15.214982
IMG	-13.545208
CScript	-13.479288
monst	-14.108968
▁initializer	-13.891007
▁xEE	-87.802829
▁GLAPIENTRY	-14.167688
Completed	-13.582043
▁topology	-14.049345
TAMP	-14.541686
Recv	-13.541608
Digital	-14.167188
▁octet	-14.253282
NOP	-13.152481
meth	-13.281978
▁TypeError	-14.974705
geom	-13.596795
▁ACTIONS	-13.461822
mpz	-13.881318
ENCE	-13.287428
PCR	-13.250617
Launch	-12.990064
ENCLR	-14.473279
sigma	-13.003564
Minimum	-13.361385
▁SOAP	-14.048578
SCL	-13.860641
▁phba	-15.869055
lst	-13.466101
▁buckets	-14.357318
Methods	-13.468055
xt	-13.189155
CURSOR	-12.628322
DBL	-13.854848
Cut	-13.627482
▁vget	-14.838472
DMI	-15.082015
Indexed	-13.660621
ZCL	-13.842463
▁xCD	-23.592100
▁sidl	-13.926890
▁EIO	-15.124918
BasicBlock	-13.540891
▁glTex	-14.826305
▁upb	-14.209606
sbmc	-14.522034
iff	-13.028027
buttons	-13.265946
Bank	-13.328304
▁upload	-13.461920
▁dart	-13.334444
kl	-13.187877
▁drvdata	-17.337976
agged	-13.430246
VIS	-13.139468
deliver	-14.185537
▁debugging	-13.320660
lh	-13.786230
cube	-13.321546
▁cleared	-13.372254
fac	-13.144565
tol	-13.179829
▁setter	-14.424788
Cycle	-13.167725
Pt	-13.460639
strategy	-13.872981
▁validation	-13.360358
Capacity	-13.417803
conc	-13.837212
drag	-13.135538
▁Elias	-13.708871
▁probably	-12.293684
▁drw	-14.732958
▁AUXHFRCO	-16.222639
FACTOR	-13.537579
CONVERT	-13.763611
DETECT	-13.660079
ashcho	-14.532791
Pg	-13.549447
TIMING	-13.939740
quo	-13.995041
▁CAmount	-13.543188
SENSE	-13.681048
▁further	-11.803003
ESC	-13.525422
▁StatusTypeDef	-87.802829
grant	-13.410624
lot	-12.808646
▁SFD	-17.174773
May	-12.966338
▁adding	-12.877337
stl	-13.720869
▁SDH	-16.265291
Actor	-13.494578
▁protection	-12.682625
Builtin	-13.065479
NAMED	-13.439615
▁similar	-12.023388
Clone	-13.366229
lz	-13.403088
▁bVar	-14.317888
PARM	-13.715568
FRAMEBUFFER	-13.116019
depend	-12.228188
▁leading	-12.453441
targets	-13.927118
axi	-13.648284
plug	-13.555806
HOOK	-13.387344
▁explicitly	-13.147677
LJIT	-14.344933
fptr	-13.661740
▁solution	-12.473879
ran	-11.506869
▁trailing	-13.564554
Persistent	-13.561381
Front	-13.336126
gpr	-13.820686
PAT	-13.790624
▁ovld	-22.394896
▁MYSQL	-14.169161
▁PPI	-14.145133
Pred	-13.475406
INSTRUCTION	-13.630100
Imm	-13.267773
▁elab	-17.548471
eta	-12.456129
▁mqtt	-14.523671
Ring	-13.536434
Cx	-13.673158
▁vld	-14.419513
IFG	-14.368955
Analog	-13.502054
▁ptrdiff	-13.987941
CLUSTER	-13.663828
Credential	-13.623820
Expand	-13.722267
▁endcode	-17.318662
gray	-13.611818
▁VDAC	-15.204596
Specific	-12.805973
Multiple	-13.667413
▁subtract	-13.871231
vin	-12.210983
HOT	-13.287266
Own	-13.161115
ject	-12.623872
ISP	-13.629613
Del	-13.197602
▁DEVINFO	-15.411581
hcd	-13.876707
▁Nonnull	-16.143203
panic	-13.437258
GAME	-13.267226
GUARD	-13.571036
Lite	-13.271798
▁pxd	-18.145855
Arr	-13.351264
Small	-13.363822
lusion	-13.219351
▁OPTIONAL	-14.164717
▁nsI	-14.311965
ask	-13.251945
▁ZSTR	-14.669703
▁HFCLK	-15.671203
▁decompress	-14.099930
mmio	-13.748601
IPS	-13.410151
▁cospi	-15.185913
Panel	-12.945511
RECEIVE	-13.704696
Ray	-13.279502
Schedule	-11.629915
margin	-12.437787
▁PyCFunction	-15.527114
▁bnx	-14.269467
Requested	-13.704464
▁middle	-12.496239
ECDH	-13.822764
▁NOTICE	-13.749715
flt	-13.882663
▁PVOID	-13.371080
dbus	-13.574458
▁folly	-13.865069
Locale	-13.353736
BOR	-13.350210
▁yyvs	-15.697348
▁party	-12.038884
Intrinsic	-13.745454
ana	-11.194087
JOIN	-13.332323
Board	-13.565716
Car	-12.671637
Bluetooth	-13.614478
Isolate	-13.422313
napi	-13.822909
stencil	-13.656622
TAP	-13.705720
peek	-13.523487
▁capability	-13.718918
▁regval	-13.887838
stroke	-12.826186
Pi	-12.718294
mii	-13.742839
▁regmap	-14.810799
Initialization	-13.301479
DXGI	-13.637521
pseudo	-14.131115
▁indicating	-13.168577
Jump	-13.616858
Indices	-13.587173
PHASE	-13.632061
login	-13.413877
▁exchange	-12.851005
Radio	-13.154328
ou	-12.054056
Gtk	-13.373859
ium	-11.747754
▁SFR	-15.419504
▁BORINGSSL	-14.863679
Scheme	-13.294444
▁CCP	-13.918857
VOL	-12.881742
cbc	-13.931408
▁repeated	-13.342777
putc	-13.372290
▁hdma	-14.770815
▁opensource	-15.908119
exe	-13.541094
OOM	-13.767084
Collections	-12.863766
Visitor	-13.092748
Under	-13.183182
ANGLE	-13.693435
Summary	-11.910470
Columns	-13.421872
spell	-13.352078
SECOND	-13.069984
Alter	-13.265575
mixer	-13.535790
▁though	-11.875538
fat	-13.081985
pkg	-13.383251
▁hyg	-15.958819
▁MKL	-15.165612
rst	-12.924537
▁nSize	-13.780272
oke	-12.504769
Coll	-13.191269
▁queued	-13.951641
USHORT	-13.334926
oston	-15.297848
Samples	-13.403548
Neg	-13.322632
▁lost	-12.093543
nop	-13.207981
Pci	-13.671115
▁marshall	-16.138304
▁xfff	-26.270781
Acc	-12.905168
Preview	-13.654544
AXIS	-13.790347
elm	-13.733054
DEP	-13.575110
ONCE	-13.643827
▁packages	-13.960347
▁jiffies	-14.203620
OTA	-13.553351
Validation	-13.326691
▁readl	-14.435535
▁MagickFalse	-13.757920
▁REQUIRED	-15.560624
TransactionId	-13.414632
▁SPDK	-14.355572
▁regulator	-13.804076
▁INPUTSEL	-19.260342
▁scaled	-14.112312
bson	-13.359115
mega	-12.837422
▁across	-11.983255
plt	-13.554764
MCS	-13.765910
XLog	-13.245603
Based	-13.615375
▁ValueError	-14.602887
FIT	-13.972045
▁xBD	-87.802829
writ	-13.860552
PSR	-14.017901
RND	-14.303043
▁NEON	-14.928256
▁vport	-15.076597
▁neon	-15.012170
nim	-13.594666
Printf	-13.711796
ObjectType	-13.686688
▁PSM	-14.035553
CENT	-13.624487
PUB	-12.429124
hh	-13.634739
Phone	-13.267084
▁immediate	-13.263835
MSP	-13.650715
▁substream	-15.297103
Collision	-13.555895
IPP	-13.813991
Matches	-12.586614
▁daemon	-14.105967
theta	-13.104229
▁XMM	-15.118878
Ethernet	-13.458747
away	-12.955485
CSI	-13.346732
csum	-13.794765
▁matched	-13.571959
PRIV	-13.463717
COLUMN	-13.486729
normalize	-13.535530
Visit	-13.045130
ASS	-12.785276
Mutable	-13.005741
RAD	-13.499456
KEEP	-13.573403
measure	-13.730997
▁BITCOIN	-13.234005
▁resulting	-12.768425
Routine	-13.048062
▁holding	-12.724534
Team	-13.317968
SYN	-13.592735
▁YCH	-19.007089
▁average	-12.446721
PTE	-14.013236
tan	-12.057274
Additional	-14.133392
ppp	-13.914754
▁represent	-12.888528
▁XCH	-16.820529
dsc	-14.130666
BIF	-13.815243
▁released	-11.622851
CHILD	-13.540801
▁fixup	-14.630795
▁XED	-13.936508
Hex	-13.385982
▁imx	-14.494941
▁IXGBE	-14.062208
BSS	-13.810643
▁computation	-13.347582
Rtl	-13.512413
TXT	-13.629463
ith	-12.819521
▁SINGLECTRL	-19.457852
▁FTM	-14.497286
IRQHandler	-13.342605
accum	-13.535410
▁combination	-12.797056
Extent	-13.501170
esis	-12.766838
MPEG	-13.664745
algo	-12.702343
userdata	-13.644643
▁holds	-12.806508
▁correspond	-14.152910
▁DOCTEST	-13.870968
MemoryContext	-13.232335
DUP	-13.482789
▁fabs	-14.559702
sdl	-13.934325
▁simply	-12.419807
▁riscv	-15.500942
tar	-12.388247
▁representing	-12.923217
Headers	-13.421588
▁traverse	-14.146589
MAG	-13.434098
rice	-12.562094
Walk	-13.311741
SHOW	-12.967785
Conf	-13.076507
▁IInspectable	-15.295982
▁deep	-12.750423
Metrics	-13.501522
IPSETTING	-13.899540
▁ROR	-15.585678
Usb	-13.683814
▁inverse	-13.672739
▁correctly	-13.047518
Xfer	-13.713367
Rotation	-13.427570
▁SHIM	-16.673506
▁managed	-12.910492
eax	-13.461681
GEO	-13.601680
Variables	-13.148946
▁orientation	-13.566461
Keyword	-13.521265
PROBE	-13.657625
IQ	-13.611825
MULT	-13.974281
CPL	-13.801611
GCM	-13.882152
Subscription	-13.588976
▁multiplication	-13.569093
Fire	-13.457884
COMPAT	-13.361288
▁chroma	-14.315312
Modified	-13.378961
mempool	-13.752889
titude	-13.679210
ARR	-13.509671
ace	-11.800361
tip	-12.860331
TOK	-13.455579
▁GENERATED	-13.728415
gather	-13.651506
surf	-13.593902
Always	-14.117159
Let	-13.155384
ODR	-14.190517
▁msec	-14.511980
Leave	-13.595348
▁popup	-14.211243
Site	-13.337817
med	-12.241000
FTP	-13.484998
▁emlrt	-14.679075
Floor	-14.721196
▁EBI	-14.899885
tlb	-13.807969
▁PCD	-14.527360
prep	-12.521157
ObjC	-13.552978
▁CTransaction	-13.586903
PLAY	-13.443378
Agg	-13.353922
▁glMultiTexCoord	-14.559002
Activity	-12.848573
Mul	-13.824383
▁memmove	-14.476069
▁scanner	-14.161844
dif	-9.390599
SRV	-13.879359
▁IHTML	-14.622548
letter	-13.515158
MIS	-13.736149
DET	-14.162157
subtype	-13.927548
dig	-12.995489
▁nxv	-16.917041
That	-12.604736
▁everything	-12.339075
BIOS	-13.588201
▁implements	-13.181794
▁GST	-13.762347
coding	-13.161050
canvas	-13.825496
▁regions	-12.848601
WGL	-13.768611
▁exactly	-12.696684
Quantum	-13.595310
percent	-13.752123
Ratio	-13.570384
DECODE	-12.905455
▁GLshort	-14.363715
▁having	-11.736385
▁past	-12.105187
▁padapter	-16.040556
CONTROLLER	-13.795384
voice	-13.213957
STAGE	-13.456290
DAY	-12.733801
▁dependent	-13.415695
▁estate	-12.989491
SURFACE	-13.711634
▁adev	-16.068339
TURE	-13.346007
REMOTE	-13.750896
wild	-13.718293
Barrier	-13.495126
▁stdin	-14.143908
trust	-12.748834
▁SMU	-14.494787
dna	-13.848224
CELL	-13.659630
▁individual	-12.238917
Spatial	-13.779018
▁luaL	-13.941539
Diag	-13.285866
Once	-13.805193
▁upstream	-14.261023
▁moved	-12.132603
▁irqsave	-17.398281
HINT	-13.729392
wal	-13.011144
▁hyper	-13.266176
▁depending	-13.102315
tau	-13.066377
Pull	-13.473526
cxt	-13.679958
▁libxsmm	-14.404866
rivateFrameworks	-13.917210
▁PyTypeObject	-14.038646
cdb	-13.884190
Score	-12.818341
gradient	-14.137852
▁obliv	-16.121073
OTH	-13.604397
Coordinate	-13.532393
▁exclude	-14.007662
▁WMI	-14.385025
btn	-13.459240
nw	-13.650522
dsi	-14.016824
▁ldb	-14.172802
PROTECT	-13.254098
Holder	-13.293797
yp	-12.911389
vy	-12.846553
adr	-12.778026
rho	-12.949967
▁consumer	-13.564518
cmds	-13.518867
det	-12.970058
Protection	-14.135683
▁VMA	-13.888608
BUFFERS	-13.656554
cover	-12.681842
Triangle	-13.458483
BaseType	-13.652917
▁strstr	-14.620183
UserData	-13.833643
DSA	-13.801494
▁glVertexAttribI	-14.934604
Curr	-12.952211
Orientation	-13.530405
▁ordered	-12.935488
ww	-13.884445
Resources	-13.287937
Ca	-12.505547
CTRLA	-14.795489
wall	-13.067976
Hardware	-13.238150
kin	-12.132791
Cond	-13.431256
DIGEST	-13.735788
Live	-12.856981
▁watchdog	-14.053497
Act	-13.630042
▁timeval	-13.290050
▁bandwidth	-14.098765
GENERAL	-13.641466
▁overload	-13.873767
▁stopped	-12.992276
EXCEPT	-13.723477
repo	-13.310597
ETHER	-13.574211
▁CCMR	-15.904995
▁DISPID	-14.130110
han	-11.899974
yield	-13.806684
▁unref	-16.235160
Mock	-13.164009
preferred	-14.232701
Poll	-13.729209
cdev	-13.720197
ADJ	-13.761413
▁typval	-14.265239
▁vlib	-14.190659
Sock	-13.446716
hx	-14.190137
▁vint	-15.197653
▁checkpoint	-13.846102
▁observer	-13.745489
Backup	-13.565517
NDRV	-13.892094
▁redraw	-14.005315
▁SQR	-15.902739
IBM	-13.750086
Parallel	-13.398845
lease	-11.500885
Crypt	-13.373174
tyEnum	-14.540500
▁secondary	-12.949711
Unexpected	-13.633101
▁REFI	-13.608160
Protect	-13.469273
▁considered	-12.075242
HUB	-13.732508
ji	-11.663494
bios	-13.299707
▁follows	-12.082232
▁lsm	-14.298680
▁specification	-13.141947
Navigation	-13.213738
Ctl	-13.741417
itr	-13.299332
▁VTSS	-14.777052
Playback	-13.809731
ATTACHMENT	-13.645881
bone	-12.830971
ann	-12.126450
Toggle	-13.590615
PPP	-13.623339
▁yes	-12.906361
Dummy	-13.568524
▁encrypted	-13.941386
ERASE	-13.985350
▁bParam	-14.745622
visibility	-13.903438
▁fcntl	-15.267613
▁OPAL	-13.804270
cpus	-13.764084
OVERFLOW	-13.651502
▁enqueue	-14.333863
GetAttr	-14.113953
netlink	-13.716731
▁PRIu	-14.814207
▁JNIEnv	-15.284754
ARN	-13.871296
Rev	-13.525239
lli	-13.139104
TXD	-14.134785
analyze	-14.113011
INITIALIZE	-13.083669
▁blocked	-13.705762
▁sbitmap	-13.314256
LITERAL	-13.935949
▁dropped	-13.124530
UNDER	-13.560513
▁jlong	-14.343670
MINI	-13.721918
▁strto	-14.177674
▁qla	-14.511348
Press	-13.317120
ZONE	-13.588910
zu	-12.608169
WHITE	-13.553997
▁derivative	-12.720052
IFF	-13.814003
▁DECODER	-17.016856
INITIAL	-13.683095
NDIS	-13.778992
PRODUCT	-13.618404
Picker	-13.592783
Wave	-13.052840
▁ALTER	-14.242025
▁SYNCBUSY	-17.039464
LAYOUT	-13.792567
ACCEPT	-13.626349
▁pstate	-15.215748
Signed	-13.595364
Running	-12.972959
Physical	-13.749005
occ	-13.172169
USCI	-14.173721
charset	-13.535215
Quant	-13.220695
Returned	-13.197681
tone	-12.902078
NaN	-13.594361
▁FSMC	-14.592623
anner	-13.943979
▁amdgpu	-14.133173
crl	-13.930774
▁nlmsg	-14.740565
TRANSFER	-13.793770
Help	-12.865229
iterate	-13.523703
olar	-14.363144
▁bitfield	-14.080651
DPLL	-14.409872
Inner	-13.196844
zlib	-13.688359
FAMILY	-13.758882
PRSSEL	-15.045800
RefCount	-13.422018
DataSize	-13.640901
STMT	-13.642421
▁ENODEV	-16.162026
▁EFM	-14.290380
ali	-12.113185
▁LPCWSTR	-13.908775
▁fallback	-13.982160
Nb	-13.731414
▁upon	-11.764525
BURST	-14.101324
OFS	-14.040038
▁executable	-13.765084
bor	-12.675765
▁belong	-13.854357
PAUSE	-13.665836
finite	-13.484043
IKE	-13.252968
▁MFP	-16.402562
▁normalized	-13.845451
▁processes	-12.848948
▁effects	-12.158066
WRAPPER	-13.653995
Disconnect	-13.533389
FRAGMENT	-13.788071
ZZ	-13.272663
registration	-14.104093
gettext	-13.784712
Refresh	-13.426709
Masternode	-13.554817
▁rendering	-13.540535
Printer	-13.405254
▁elapsed	-13.910067
▁coap	-14.350123
Nv	-14.002811
WAVE	-13.369430
MTU	-13.831313
▁few	-11.681187
Tracker	-13.533546
▁NSInteger	-14.576878
Hold	-14.005222
VTK	-13.705346
LINEAR	-13.614440
TRANSPORT	-13.810009
cgroup	-13.802684
locations	-13.917122
FAT	-13.724756
▁RESETVALUE	-87.802829
Gradient	-13.635472
xor	-13.213864
pen	-12.455317
ISA	-13.411374
SVG	-13.710686
siz	-13.874430
▁vwsn	-19.764216
▁gevent	-17.313700
▁EFAULT	-15.803958
Gain	-13.608547
Chip	-13.321003
UPD	-14.334738
gx	-13.867131
Sat	-13.632402
▁effective	-12.856454
▁dpif	-14.553222
DRIVE	-13.812390
▁serialized	-13.529452
▁subsystem	-14.029684
false	-11.212176
▁preserve	-13.539466
dsa	-13.497286
GREEN	-13.566965
CONSTRAINT	-13.739156
boxes	-13.409327
verb	-11.933074
Picture	-13.619521
sumption	-13.632621
oap	-13.071333
Closure	-13.327099
Solver	-13.711833
Attachment	-13.642134
▁divider	-14.133590
cstr	-13.766741
▁TOO	-15.773761
SIGNATURE	-13.854150
REPLY	-13.738230
▁ticket	-13.836147
▁ompi	-14.368095
VERIFIER	-13.767245
attack	-13.696602
OFP	-13.848953
▁assertion	-13.760364
Gpu	-13.770926
vh	-13.944932
▁perror	-14.111714
▁HFPERCLK	-18.005076
QUAL	-13.809760
Contains	-13.525583
▁mongoc	-14.115988
▁mvm	-15.998456
VISIBLE	-13.782204
Extensions	-13.405353
BOOST	-13.895476
▁htons	-13.892907
tbtt	-14.413804
VERT	-13.251589
Then	-13.611385
▁NIMCALL	-87.802829
TAIL	-13.898152
Shutdown	-13.387275
▁possibly	-13.068334
interest	-13.815841
▁indic	-14.545699
stand	-12.399718
▁dwFlags	-14.148323
Vpn	-14.749793
QUE	-13.148961
PMU	-14.048803
nary	-13.296165
Declarations	-13.285530
plot	-12.711887
mass	-13.626749
▁calculation	-13.451125
trunc	-13.633585
Day	-13.141886
SRS	-14.206717
aj	-12.441722
kh	-12.664239
▁DISALLOW	-13.937411
▁transparent	-13.680599
CONNECTED	-13.683919
urse	-14.115627
▁UNSUPPORTED	-16.484659
Chat	-13.187435
ttl	-13.664303
Connected	-13.501543
fan	-12.694603
Pose	-13.831526
LBL	-13.927700
BROWSE	-13.885528
Xt	-13.855825
raster	-13.753088
▁decoding	-13.631313
MONITOR	-13.769547
asoc	-13.899013
Utility	-13.486073
COMPRESS	-13.742010
Activate	-13.540690
▁SWI	-15.182649
clauses	-13.646508
▁ucp	-14.238173
POLY	-13.489080
Foo	-13.148473
huge	-14.007459
indx	-13.896950
mpc	-14.181108
hor	-12.168872
located	-13.707633
▁described	-11.006545
▁asset	-13.810655
▁Indicates	-13.773028
▁RTCC	-15.091021
JUMP	-13.511450
CCU	-14.123821
ult	-12.853786
Android	-13.445360
▁OSPEED	-19.397199
CAPTURE	-13.932945
oct	-13.160547
SOF	-13.921812
▁vreinterpret	-14.755124
RECV	-13.709880
▁comments	-12.543267
vect	-13.952644
▁pindex	-14.222732
ina	-11.301787
cst	-13.627964
DIAG	-13.520078
INE	-12.758264
▁Phalcon	-15.350763
▁executor	-14.100946
ECS	-13.428834
GetDatum	-13.810371
LOOKUP	-13.865747
▁transformation	-13.205164
Partial	-13.128789
▁stb	-14.168581
▁SYSCALL	-15.097206
▁functionality	-13.247743
sky	-12.037206
Dense	-13.729865
ATH	-13.627143
▁matcher	-14.324884
contiguous	-13.701700
QUAD	-13.846821
compos	-13.148913
cch	-13.564616
smooth	-14.186950
BODY	-13.355254
Plus	-13.095679
SAS	-13.701331
mot	-13.453326
Arc	-13.493326
glDraw	-13.959557
▁dependency	-13.772850
▁declared	-12.817473
ppendPQExpBuffer	-13.622391
Bottom	-12.758098
repr	-13.792721
▁fsm	-14.957023
▁Ifx	-14.539092
ific	-12.547945
Finalize	-13.655252
▁pkcs	-14.803026
Trust	-13.520651
▁succeed	-13.260616
Broadcast	-13.026698
Joint	-13.715100
FLG	-14.083038
FIND	-13.658126
iy	-13.262362
Clean	-13.988043
coef	-13.802872
leak	-14.290216
ibility	-12.904653
▁equals	-14.124422
water	-12.390570
bid	-12.548889
▁recent	-12.572228
▁helpstring	-19.492333
Cookie	-13.357709
Rectangle	-13.612608
Hal	-13.808669
▁properly	-12.859695
LOWER	-13.823144
WiFi	-13.803775
Statistics	-13.514063
Erase	-13.741490
xxxx	-14.526131
▁corrupt	-13.919100
REASON	-13.781766
▁GenTree	-14.318368
▁PCRE	-14.399038
ode	-12.378466
Seconds	-13.612939
Polygon	-13.643286
▁CBlockIndex	-13.502613
slide	-13.637496
dpi	-13.860744
Steam	-14.169669
otg	-14.143605
▁fileName	-14.274794
▁broken	-13.049840
Capabilities	-13.748077
PARENT	-13.745250
Predicate	-13.637485
▁maintain	-12.989966
▁reported	-12.283843
▁BIGNUM	-14.183496
cgi	-13.876688
PROGRESS	-13.672709
UIView	-13.527197
psk	-13.962054
CHG	-14.212442
SOUND	-13.512452
Reduce	-13.535893
uction	-13.756883
station	-13.604426
▁PyList	-14.274618
LING	-13.205629
polygon	-14.355018
Publish	-13.546487
▁MINT	-14.771328
hashtable	-13.779725
RLE	-14.059791
ire	-12.260244
IDENT	-13.124578
QOS	-14.070366
HALF	-13.866319
▁resolved	-13.615443
Admin	-13.475810
▁agreement	-12.388587
▁ndev	-15.974546
Balance	-13.442626
▁significant	-12.385732
ump	-13.093928
REQSTATUS	-15.627849
ACCEL	-13.847306
kit	-12.818743
Brush	-13.652433
abb	-13.485975
▁replica	-14.128736
▁IRDA	-14.685995
Representation	-13.276888
▁alloca	-14.155043
bfa	-14.423908
▁LFRCO	-15.853507
Ni	-12.893399
RAND	-13.438813
Smi	-13.843556
Transpose	-13.705712
PDM	-13.929785
phone	-12.485980
bde	-15.567119
solve	-13.834057
▁cdecl	-17.154113
▁pDst	-14.301831
Timing	-13.661927
PMD	-13.853581
eng	-12.561073
proj	-13.757406
VALIDATE	-13.754719
Encrypt	-13.754635
REPLACE	-13.778251
DEST	-13.952540
Dot	-13.441451
xw	-13.819386
▁dreg	-15.528819
Detail	-13.201010
Severity	-13.840628
chg	-13.924878
lpc	-14.004661
Home	-13.107418
Caller	-13.594628
SETTINGS	-13.749360
▁analog	-13.768889
▁envoy	-14.784469
scal	-12.227776
nmp	-13.847438
vaddr	-13.857719
SIDE	-13.143746
OGR	-13.987508
▁advertising	-13.208637
▁nghttp	-14.073573
Large	-13.661763
MOUNT	-13.908380
learn	-13.836309
▁ATL	-14.334544
Pause	-13.560965
phrase	-12.993426
▁SECP	-15.579167
▁njs	-14.035427
▁predictor	-14.935741
LITE	-13.515696
▁efx	-14.710084
pnt	-14.187791
▁lifetime	-13.616038
VDD	-14.547091
Future	-12.479769
Palette	-13.763494
▁gchar	-13.645104
SCHEMA	-13.841407
▁gasnet	-14.415505
▁remap	-14.811086
▁nothrow	-16.707972
PLANE	-13.732156
foreign	-14.087873
▁VEHICLE	-16.378834
periodic	-13.562927
▁iommu	-14.930493
▁dpp	-15.473037
compound	-14.271839
▁CDTI	-19.072306
▁subclass	-13.780454
Mass	-13.600692
DISK	-13.741748
▁measurement	-13.463944
lev	-13.124070
Quic	-13.487258
Appointment	-14.168019
▁aarch	-15.453524
CANCEL	-13.583337
▁thus	-12.384395
tune	-13.441211
ntDefaultHandler	-13.591146
cil	-13.094805
METRIC	-13.849686
▁DTLS	-14.518143
LAP	-13.668496
izable	-13.308942
Implement	-13.238122
CONSOLE	-13.659920
STB	-13.853207
▁triggers	-13.817823
Fmt	-13.950888
▁meaning	-12.684853
Voice	-12.751700
▁acado	-15.312271
PATTERN	-13.803331
ransformFeedback	-14.189914
Prototype	-13.352338
Bitcoin	-14.496973
▁MHZ	-17.200718
▁destroyed	-13.026052
hello	-13.528103
Reverse	-13.351842
Strategy	-13.232269
CEC	-14.082854
▁sentinel	-14.044082
colour	-13.935097
▁recover	-13.535709
▁RADEON	-14.369482
Radius	-13.699374
lap	-12.556432
FilePath	-13.624909
▁mismatch	-13.951751
Secret	-13.448447
basis	-14.389683
MESA	-14.038595
▁smartlist	-13.848683
JL	-13.885015
Seek	-13.693752
LCK	-14.491057
Combine	-13.668083
▁llu	-18.164307
ADAPTER	-13.775889
CriticalSection	-13.436764
Missing	-13.256840
Behavior	-13.131406
Alert	-13.502280
circle	-13.863912
▁lpsz	-14.399558
ndx	-13.973085
Alternate	-13.570615
Disc	-12.294987
▁Does	-12.695010
Attempt	-13.523773
▁hstring	-15.236297
FPROC	-13.703147
erg	-13.002556
PQExpBuffer	-13.152596
trig	-13.690671
ighbd	-15.054341
sdk	-13.649488
▁fflush	-13.651457
feed	-13.290970
rsv	-14.044337
DDI	-14.203726
RANDOM	-13.765833
Renderbuffer	-13.974640
MODIFY	-13.995190
aml	-13.882328
ival	-13.302424
nbr	-13.980310
BPROC	-14.125362
▁ANALOG	-16.143550
ball	-11.814478
pB	-13.685577
conj	-14.142419
▁nodiscard	-20.200420
▁INITIALIZER	-18.418563
TOTAL	-13.854723
▁bsize	-14.721941
SECURE	-13.925307
raft	-13.316362
energy	-13.892967
Efi	-13.560366
▁clinic	-15.131322
SysTick	-14.023896
egl	-13.967617
▁glIs	-14.751982
▁concurrent	-13.614049
BTN	-13.924828
Scoped	-13.686122
Processing	-13.478481
Uri	-13.597816
▁sectors	-14.094927
▁UniValue	-14.124097
Mux	-14.232375
▁sampling	-14.045651
▁happens	-12.991990
▁Ltd	-12.689598
ANIM	-13.704261
Previous	-13.844112
lop	-13.449571
lish	-13.097254
Popup	-13.878544
Restrict	-13.629733
▁MICROPY	-13.769194
series	-13.455717
Turn	-13.929338
IZATION	-13.688196
BASIC	-13.570946
bufsize	-13.769299
▁NSError	-14.746245
▁manage	-13.119837
Reflection	-13.526716
STUB	-13.820905
ung	-11.816328
JOY	-13.710031
Velocity	-13.766954
ANDROID	-13.685406
highlight	-13.983781
▁SMARTCARD	-14.704537
VOLUME	-13.836861
▁histogram	-14.132162
▁SDRAM	-14.647387
CORR	-13.799890
Invalidate	-13.711630
▁sysctl	-14.691059
▁deinit	-15.372607
mmask	-14.277681
VIRTUAL	-13.770156
▁flb	-13.960017
IFIED	-13.737444
▁EXTINT	-16.680586
LSR	-14.340676
hang	-12.813471
▁upgrade	-13.779457
mxArray	-13.905440
▁newly	-13.077599
▁alive	-13.576060
▁noop	-15.502426
ution	-12.429380
▁replaced	-12.664629
Wide	-13.817330
Best	-12.749905
LIN	-13.574520
Like	-13.629371
▁wlan	-14.705699
LOCKED	-14.095096
▁NSURL	-14.575472
▁encap	-15.925203
Mar	-12.468278
ead	-13.271857
▁msm	-14.534993
motor	-14.124132
Padding	-13.622073
ECDSA	-13.970643
SPL	-13.744694
onical	-13.359044
▁proper	-12.796696
FFT	-14.000581
uk	-11.908969
CLOUD	-14.020634
incr	-13.771876
Just	-13.321450
asc	-13.700472
Resolution	-13.308202
ATTRIBUTES	-13.580400
▁udev	-15.183481
▁triggered	-13.675465
▁authors	-12.471364
zoom	-14.102729
independent	-14.213587
Leaf	-13.370563
mbus	-13.760933
▁hashmap	-14.043551
▁opc	-14.986734
JOB	-13.781506
▁iomem	-17.249634
▁communication	-12.821918
COEF	-14.413818
▁AVR	-14.643600
Rank	-13.270467
lexer	-13.877343
▁GCLK	-15.740743
supply	-14.351648
Canvas	-13.596476
raid	-13.773167
▁CLKOUT	-17.016053
cmap	-13.947593
▁BNX	-14.548128
ADR	-13.974827
ude	-8.839128
Unsupported	-13.765226
FromString	-13.563369
collation	-13.858200
▁pNext	-14.373858
▁EVSYS	-14.818657
SPLIT	-13.826135
sheet	-12.755805
Rotate	-13.771069
Registration	-13.452991
plic	-12.915241
Destructor	-13.360295
PING	-13.751474
vw	-13.751959
Converter	-13.607591
Finished	-13.468355
Translate	-13.463983
SGIS	-14.017104
ADA	-13.619271
Recursive	-13.645477
XYZ	-13.944304
▁ASF	-14.043152
MACHINE	-13.570750
▁LFB	-16.704292
▁unsafe	-13.977798
▁succeeded	-13.192043
DOC	-13.035279
▁bssid	-15.458609
beg	-13.543085
deferred	-13.676657
VISION	-13.629078
ANA	-12.917460
▁glDelete	-14.846414
▁ndarray	-15.844793
Encryption	-13.827485
EXPAND	-13.911084
Printing	-13.957397
Legacy	-13.979207
Undefined	-13.617451
COMPUTE	-13.873752
RETRY	-13.897183
HELPER	-13.855246
Remaining	-13.411774
LHS	-14.160450
Occurred	-13.992583
scatter	-14.421517
▁ecere	-16.736182
▁who	-10.150007
TLB	-14.044329
SSD	-14.085466
▁SiS	-15.339808
EACH	-13.167260
Flat	-13.505987
▁wmi	-14.826011
dissect	-14.301777
▁SYSCLK	-15.143889
TexImage	-13.975913
▁NoneT	-15.940037
▁ddraw	-14.886730
BLOB	-13.859332
▁ixgbe	-14.328098
▁digital	-12.696353
▁MONS	-14.638821
▁TIMx	-14.311701
▁sysfs	-14.726977
Arn	-13.810012
▁subset	-13.701915
▁GETARG	-16.504154
AREA	-13.982169
PARITY	-14.073492
DIST	-13.306505
Opaque	-13.839116
Arm	-13.530177
Needed	-13.630954
▁ovsdb	-14.028879
▁expansion	-12.975250
Dependency	-13.683286
▁rspamd	-14.418787
▁usually	-12.479003
▁anyway	-13.135767
ura	-11.888938
▁directive	-13.826343
▁didn	-12.056000
▁vkGet	-15.146560
Functor	-13.743785
▁DFMT	-20.143742
MULTITEXCOORD	-13.980358
▁loadu	-17.863171
madd	-14.060345
cnfn	-14.009352
Parm	-13.801957
xid	-13.347912
leader	-13.641618
Have	-13.422990
Parameterfv	-13.987889
▁cctx	-15.135172
kk	-13.272459
▁KEYWORD	-15.552913
▁building	-11.976356
Seed	-13.647508
Pick	-13.937265
bble	-14.428561
tiny	-13.148686
SHELL	-13.713905
audit	-14.054261
▁offload	-14.778962
fpu	-14.020606
ART	-12.529687
▁testcase	-14.279462
▁trying	-12.295382
CLEAN	-13.405152
ada	-11.992168
Managed	-13.729022
Vendor	-13.763445
▁QWidget	-14.089042
▁dual	-13.677130
Provide	-14.663782
vote	-14.244778
▁unset	-14.183989
▁lParam	-14.366328
INI	-13.891560
▁represented	-12.555723
▁printLine	-13.540502
▁glClear	-14.849063
▁followed	-12.410806
▁hwloc	-14.445474
droid	-15.996334
▁swig	-14.870664
Immediate	-13.747581
efi	-13.649782
Rad	-13.882299
Lua	-13.666534
▁TSS	-14.087420
▁supplicant	-16.989697
bed	-12.413759
ku	-12.353164
ike	-12.708049
SUSPEND	-13.893961
▁PULL	-15.832668
▁FORCEINLINE	-14.029290
▁XFS	-14.318702
▁replacement	-12.670418
uff	-12.499354
▁FUNCTIONS	-14.242570
WaitFor	-13.817571
▁depends	-13.243618
feat	-12.224888
Theme	-13.103231
▁limited	-12.552296
▁bindings	-14.567352
deflate	-13.881105
CONDITION	-13.862959
RDS	-14.173642
multiplier	-13.875640
▁vkCmd	-15.033426
Exchange	-13.646907
Relative	-13.432626
huff	-13.994746
lrd	-14.600383
▁CWallet	-13.943962
gra	-12.284111
HOLD	-13.972303
▁UNEXPECTED	-16.343964
RTOS	-13.395657
Exc	-12.305169
FLAC	-14.056973
▁drawing	-13.118494
kg	-12.178063
▁HOLDER	-13.848009
EAP	-13.736925
Assignment	-13.385321
Interaction	-13.474842
Declare	-13.407044
STANDARD	-13.605250
VkPhysicalDevice	-13.772089
Fun	-12.754108
▁overwrite	-13.999667
CUBE	-13.808268
cdc	-14.110081
Dead	-13.782729
rwlock	-14.032041
mad	-13.011418
▁jobject	-13.981506
AsyncCaller	-14.988008
SSID	-14.003474
fil	-13.154398
TUPLE	-14.028527
AFTER	-13.718992
CHANGED	-14.000064
▁obtained	-12.642787
▁plat	-15.209904
▁UNIVERSAL	-15.917098
▁alternative	-12.635219
Para	-13.475665
SEED	-13.931373
COMPLEX	-13.627504
▁changing	-13.059652
▁ATTRS	-17.470569
Performance	-13.843501
lead	-13.642887
FOLD	-13.750049
PROG	-13.962827
Children	-13.136066
▁newline	-14.085519
wg	-13.886852
Resume	-13.646286
▁CGFloat	-14.277603
iu	-13.173280
▁spirit	-13.372578
▁inflate	-14.090715
recur	-13.119435
BLINK	-14.075117
propagate	-14.714660
Candidate	-12.708344
Trail	-13.842526
MGR	-14.102773
Actual	-13.815693
▁TORSO	-18.847221
▁kGTLR	-14.032525
Correct	-13.970179
rou	-13.663395
Compressed	-13.605024
shot	-12.472138
PCLK	-14.347362
▁HSTRING	-14.800589
mute	-11.352839
License	-11.669193
division	-13.633296
Strip	-13.433307
▁PyBytes	-14.579798
Ack	-13.700447
Histogram	-13.863976
▁RESTRICT	-15.317352
▁PDC	-14.288852
Norm	-13.612357
Calling	-13.536794
TableView	-13.749750
OOO	-15.201352
getenv	-13.919291
▁OMX	-14.039785
▁relocation	-13.799243
semi	-13.799455
STALL	-14.255006
Packed	-14.038529
Upload	-13.693717
Bias	-13.887207
credentials	-14.346629
Known	-13.485421
▁sscanf	-14.923160
EventHandler	-13.929499
▁getting	-12.336382
▁XXH	-14.489343
VREF	-14.518311
▁embedded	-13.674451
cess	-13.294639
SendMessage	-14.123456
▁crop	-14.085872
▁DTFC	-18.622518
RUNNING	-13.895369
▁prefetch	-14.609691
Primary	-13.671376
▁PyThreadState	-14.871321
delim	-13.634201
INTFLAG	-15.103673
lru	-14.065139
ves	-12.158663
NMI	-14.186207
▁manual	-13.488918
PLUGIN	-13.810469
ime	-12.603737
intrinsic	-14.584799
▁assumed	-13.283576
ahead	-13.517426
qm	-14.138955
▁asynchronous	-13.676568
marshal	-13.217203
Union	-13.480677
HELP	-13.650017
▁mDNS	-14.382265
pmc	-14.005718
▁dnx	-15.166825
Metric	-13.715680
isnull	-13.635283
PTP	-14.032622
ality	-12.769513
expose	-15.274755
ROLE	-13.875346
ottle	-13.651527
Credit	-13.356262
▁SELF	-15.609338
▁compilation	-12.634613
msc	-14.392003
IAM	-13.266731
▁feedback	-13.637554
▁IOTHUB	-14.881371
RCV	-14.033837
osc	-13.657133
▁dirent	-14.455325
FRAG	-14.002490
TRG	-14.517791
▁itemsize	-14.920265
▁accessed	-13.504827
istr	-13.995476
Ctor	-14.131065
Sector	-14.118600
▁hcryp	-14.788558
hdf	-14.205190
▁composite	-13.120360
city	-12.087225
RefPtr	-13.939707
train	-13.110031
persist	-12.903702
▁projection	-13.637922
▁vpx	-14.693040
▁subdev	-16.167735
RDP	-13.923063
aba	-12.812180
FREQUENCY	-14.092419
▁MICR	-15.611977
ERRNO	-13.790098
▁serialization	-13.865795
UTILS	-13.872781
▁wParam	-14.495351
Chan	-13.678404
ORIG	-13.800143
▁bitmask	-14.315990
strength	-14.257902
ceil	-14.164076
▁ordering	-13.703223
OWN	-12.218470
EVER	-13.029392
Merkle	-13.816596
▁ICU	-14.281124
▁replication	-13.860920
▁conditional	-13.906149
▁XDMAC	-15.846316
stddef	-13.377262
▁transmission	-13.161282
comma	-13.680521
PROCESSOR	-13.960664
▁email	-12.704951
Repeat	-13.273204
Logging	-13.663965
tracing	-14.302418
icroelectronics	-14.151177
Scaling	-14.015684
Ink	-14.369758
AGG	-13.867397
facet	-13.968356
▁dct	-14.484946
anc	-13.371289
uh	-13.316130
Capability	-13.880593
▁dependencies	-13.484880
RenderTarget	-14.058317
▁COBJMACROS	-12.918950
MARKER	-13.822583
▁incorrect	-13.536978
Unary	-13.913782
matrices	-15.563224
Sql	-13.625383
VertexArray	-13.837371
vmx	-14.108906
▁enumeration	-13.801434
embed	-13.724626
PIPELINE	-14.080614
ELL	-12.936540
Executor	-13.645124
Endian	-13.853653
▁ymm	-15.303522
appendStringInfo	-13.792205
▁credit	-13.119275
drain	-14.152198
▁debugstr	-14.521900
▁altivec	-17.642798
Activation	-13.887813
▁ENOENT	-14.487467
aio	-13.985426
unload	-13.682960
getc	-13.750276
▁PyModule	-14.258327
▁nRF	-14.848392
DEAD	-13.768043
▁coefficients	-13.711706
BLACK	-13.422707
VERTEXATTRIBI	-14.075619
▁IMX	-14.934736
▁deserialize	-14.341867
ROUTINE	-13.881013
LDO	-14.398787
itter	-13.167778
MORE	-13.391286
▁hapd	-15.669524
▁NSData	-14.569071
▁addReply	-13.784908
▁wrapped	-13.903962
▁bail	-13.150737
Periph	-14.344795
▁LDMA	-15.402314
TWO	-13.643000
Where	-13.236690
Rendering	-13.924756
notes	-13.611170
DYN	-14.042785
▁IMETHOD	-21.551729
▁making	-12.018208
RESTART	-13.913901
midi	-13.936212
Gpio	-14.314419
iscsi	-14.049176
cpl	-13.275537
intersect	-14.131812
▁outgoing	-14.137001
▁kcontrol	-16.564063
▁KVM	-14.310537
More	-13.527330
Arch	-13.429178
SEGMENT	-14.008397
STK	-14.078124
Locked	-13.652649
PixelFormat	-14.119747
Mult	-14.071065
RSSI	-14.261012
Enumerator	-14.350556
avi	-12.575151
▁suppress	-13.932418
▁nHeight	-14.134183
VFS	-13.953967
Undo	-13.679556
▁lgl	-14.758726
▁cython	-16.452153
▁pure	-13.618313
▁calibration	-14.061246
▁kzalloc	-14.245332
▁affiliates	-13.370877
Suspend	-13.786737
Polarity	-14.234975
SHADOW	-13.918038
Good	-13.180397
tape	-13.781344
MST	-14.293218
BGR	-14.395154
Deriving	-14.996137
LIM	-14.158224
Annotation	-13.693918
COIN	-13.748272
▁battery	-13.642782
Optimize	-13.791929
▁Perl	-14.044885
▁OBJC	-14.946777
mess	-14.328406
ALIGNMENT	-13.974502
Scheduler	-13.619446
FIAsyncOperation	-14.660685
▁kmp	-14.894731
CTLR	-14.045055
TOUCH	-13.907786
Blueprint	-13.898865
▁commercial	-12.576355
UChar	-14.049523
instantiate	-13.859607
Diagnostics	-13.941083
▁numberOf	-14.397903
ptp	-14.136921
passwd	-13.859821
▁DCDC	-15.774709
COMBINE	-14.041883
▁pCtx	-15.505439
Catalog	-13.521796
DataSource	-13.834188
TRAP	-13.967148
▁unaligned	-14.801434
Digit	-13.712265
▁guarantee	-13.337426
Physics	-13.884529
CONTAINER	-14.013344
Cross	-13.499765
bz	-13.926759
Critical	-13.654913
▁LETTER	-14.711526
▁ukernel	-18.956553
▁ABCDEF	-18.093406
▁CYCLES	-17.083920
Digest	-13.698931
Guide	-14.469228
VGA	-13.842660
▁vhost	-14.888293
Unix	-13.586955
▁subsequent	-13.112861
▁MAYBE	-15.261134
▁IGNORED	-15.937969
Measurement	-14.075561
IENT	-13.494651
ENTRIES	-13.986722
diagonal	-14.545662
▁lcid	-14.641481
leg	-11.876577
▁CHROME	-14.481809
msk	-14.060531
Here	-13.845540
qpair	-14.405239
EXCLUSIVE	-14.042499
uch	-12.523503
▁UPB	-14.769389
EFF	-13.480474
Written	-13.943733
▁internally	-13.715830
Xact	-13.821548
Email	-12.916223
▁accepted	-12.968539
gateway	-14.401887
PARA	-13.351627
Slider	-13.936337
NEGSEL	-15.544352
▁PyMethod	-14.400472
STRIDE	-14.262916
▁visitor	-14.049517
SHUTDOWN	-13.824538
▁calculated	-13.276626
GetWindow	-14.064277
Fence	-13.721879
Guard	-13.593209
Implicit	-13.868053
TexSubImage	-14.334180
▁palloc	-14.336731
Tracking	-13.787962
TPC	-14.422541
cwd	-13.956204
Speech	-13.506516
▁assemble	-14.137246
reorder	-13.933762
▁ceph	-14.499252
▁SPECIES	-15.747396
Busy	-13.956183
▁reflect	-13.322576
volve	-14.246161
Limited	-15.009281
▁OMAP	-14.473631
▁gfp	-14.637135
uration	-12.591079
WIRE	-13.948182
JNI	-13.324700
▁why	-12.017585
▁lookahead	-14.718932
urg	-13.130356
▁important	-11.834969
▁lowest	-13.409782
▁TEE	-14.127676
▁guaranteed	-13.622850
▁CURLE	-13.637395
lsn	-14.200706
▁TWIS	-14.388646
▁xdeadbeef	-87.802829
Lang	-13.747788
RAS	-14.089114
TRUNC	-14.012263
▁kwds	-16.214887
▁wstring	-15.918487
PHONE	-14.013133
BRIDGE	-13.908835
APPLICATION	-13.931007
▁UDMA	-14.406721
▁looking	-12.294445
▁tegra	-14.472138
Abs	-13.614082
SUPER	-13.047968
XFER	-14.196815
Life	-13.165914
CAMERA	-13.965818
Probe	-13.804614
SCROLL	-13.954684
▁verification	-13.845121
Multiply	-13.798533
▁SMBUS	-15.115774
▁skipped	-14.037235
▁IWL	-14.891445
Raster	-13.950662
Nested	-13.850820
DIRECTION	-13.896429
vga	-14.175314
▁architecture	-11.914247
aspect	-14.517397
Assertion	-13.844420
▁PyArg	-16.924414
quota	-14.348766
kc	-13.955433
▁aead	-15.264687
▁goodG	-13.804960
How	-12.741678
▁EAGAIN	-14.711196
NPC	-13.888942
ALERT	-14.085814
DIALOG	-13.849989
▁largest	-12.627135
tracker	-13.920172
GetProcAddress	-14.414679
▁PyString	-14.433316
▁consistent	-13.228533
▁xfffffffe	-87.802829
iocb	-14.317014
▁reduction	-13.173655
desktop	-14.117143
Unregister	-13.811714
RASTER	-14.047181
▁xaaaaaaaa	-87.802829
▁lwip	-14.862407
Pkt	-14.161932
quat	-13.648627
enge	-13.656735
MIME	-13.940241
▁several	-11.485062
tech	-12.779147
SPIN	-13.927926
▁pathname	-14.660225
REPEAT	-14.113194
▁QDEC	-14.325730
EFFECT	-13.893955
Flex	-13.582589
HDC	-13.915726
▁pretty	-12.828739
▁requirements	-12.747309
ilt	-12.373317
▁xmlChar	-13.914579
Retry	-13.908954
passes	-14.669503
psi	-13.039969
▁consumed	-13.930474
▁divisor	-13.478119
▁fread	-14.767633
UPPER	-14.158865
▁debugfs	-15.393133
▁xfffffffd	-87.802829
▁emm	-14.973118
AVAIL	-12.817342
cdf	-14.361081
▁outb	-15.705314
puc	-14.233890
shrink	-14.394176
keylen	-13.986955
LAND	-13.518360
▁fwrite	-14.690845
determined	-15.194273
▁receiving	-13.076151
▁quiet	-13.602267
Divide	-14.660048
▁fmadd	-18.843615
▁nondet	-14.942252
▁intended	-12.835958
▁shouldn	-13.493664
▁NSMutable	-14.381816
▁portal	-14.031398
ASSOC	-14.016562
onto	-14.361089
iga	-12.642756
workers	-13.866137
▁together	-11.958604
INJ	-14.261750
▁nonzero	-14.110396
Quaternion	-14.072714
▁decltype	-14.737590
▁blocksize	-14.826165
Vert	-13.741849
Mapped	-14.020035
▁Franklin	-12.931286
limb	-13.450238
locate	-13.878634
IGN	-12.681637
Quick	-13.175278
rmtol	-14.334976
PRIMITIVE	-14.131996
GRAPHICS	-14.136170
▁responsible	-12.787446
decrement	-13.894942
▁stcb	-15.582487
Blk	-14.195352
zh	-12.864896
▁Fifth	-13.071140
hack	-13.275729
APPEND	-13.868787
Confirm	-13.682167
LEGACY	-13.997368
Technology	-15.659287
FinishContext	-13.847568
▁adap	-16.262145
Priv	-13.802655
Compact	-13.576047
▁emplace	-15.827023
Quality	-13.833013
shmem	-14.179755
mib	-14.003183
week	-13.424953
Perf	-13.981780
ease	-12.610545
association	-14.395856
▁outfile	-15.129354
SECTOR	-14.240137
▁btl	-16.322955
preview	-14.248823
▁ntohs	-14.426229
Utf	-14.265554
LISTEN	-13.919696
ocfs	-14.148046
▁gmail	-16.125478
▁faster	-13.277953
efree	-13.492164
pressure	-14.314259
▁JNICALL	-13.765464
▁FIVector	-87.802829
ious	-12.072769
▁EMR	-15.422221
Dirty	-13.628899
Subscribe	-13.534126
FILENAME	-13.859410
stripe	-13.922634
▁terminator	-14.128152
▁MASKWRITE	-87.802829
Piece	-13.513559
tfm	-14.210175
Calibration	-14.095682
▁queries	-13.858438
Aligned	-14.000428
▁fputs	-14.146827
MMIO	-14.225453
▁payment	-13.403970
entities	-14.327789
aries	-11.855328
ano	-12.185126
Redis	-13.624382
HUD	-14.025586
▁glsl	-15.422810
WEIGHT	-14.084205
▁alternate	-13.500512
RDMA	-14.149095
wqe	-14.375118
Assembly	-13.625339
▁operating	-12.844568
▁LSE	-15.116861
▁wiphy	-15.214019
Jit	-13.985806
▁however	-12.039539
▁chosen	-13.182757
SLOTS	-13.613236
RECOVER	-14.118764
▁VARARGS	-17.487692
▁displayed	-13.353735
▁nearest	-12.619678
Vertical	-13.625430
▁prediction	-13.609077
Communication	-14.713944
SNMP	-13.997118
symtab	-14.152904
▁normally	-13.383882
▁OCI	-14.528165
WATCH	-13.811213
vst	-14.458716
▁WEAK	-14.750621
consensus	-14.417044
▁scanline	-14.696559
life	-12.749079
Hand	-13.275125
Iteration	-13.886342
▁Cortex	-14.318992
PROJECT	-13.638760
▁UNORM	-18.350290
▁closing	-13.477933
CpltCallback	-14.194595
Startup	-13.764774
MINUS	-14.127316
FOG	-14.131155
getattr	-14.058779
udata	-14.160109
Negative	-13.580802
TYP	-14.284637
hashes	-14.120409
PUPDR	-15.006032
▁CONTINUE	-15.279881
▁robj	-14.305285
SMART	-13.668280
▁NSMutableArray	-14.270755
Bulk	-13.869168
▁globus	-14.043101
uu	-13.220974
AWD	-14.747973
guess	-14.657855
axes	-13.589530
▁respond	-13.216003
prm	-14.318321
▁Chromium	-13.871247
▁LPWSTR	-14.148844
▁TCG	-14.326849
Composite	-13.574195
▁darkskin	-19.823927
▁MCG	-14.517376
MIDI	-13.776618
▁COMPONENTS	-15.472590
Assume	-15.298635
SHAPE	-14.034984
fec	-14.142026
cdata	-14.147935
STICK	-14.156230
Simd	-14.308410
blit	-14.171581
fuzz	-13.876170
▁uplo	-14.645894
Normalize	-13.898225
▁Napi	-14.406747
Horizontal	-13.717320
joystick	-14.030066
▁seems	-12.488029
Neighbor	-13.845336
SERV	-13.789289
▁qemu	-14.403716
▁bounding	-14.109856
Advanced	-14.315070
printed	-14.076697
OCSP	-14.252573
▁decide	-13.371771
▁combined	-12.987132
Analyze	-14.009999
ipaddr	-14.279964
Cipher	-13.941263
SetupContext	-14.397424
▁reports	-12.802419
SPELL	-14.052308
COMMIT	-13.918782
WORLD	-13.414454
IoT	-13.690252
SharedPtr	-14.062385
KILL	-13.785271
▁DFSDM	-15.137754
Stroke	-13.843388
Allowed	-13.934745
Anchor	-13.563369
MISS	-13.531412
cop	-13.116308
Enumeration	-14.035848
▁EXTENDED	-16.058407
▁GetArena	-14.685607
▁PROTOTYPES	-15.635651
olo	-12.983706
RENDERBUFFER	-14.004658
▁evaluation	-13.188246
mtime	-14.224336
DELTA	-14.260651
GEMM	-14.227940
ROLL	-13.776939
Secondary	-14.136417
▁passing	-13.130181
▁central	-12.569740
pivot	-14.661629
viol	-14.218477
Creation	-13.243685
CURVE	-14.144989
▁orte	-14.802941
▁lfirst	-14.285587
Calendar	-13.245015
Compression	-13.740942
locator	-13.573461
LIVE	-12.509392
Fatal	-13.634744
▁PACKED	-15.068447
▁heal	-14.977772
▁populate	-14.188945
pay	-12.084245
▁EFIAPI	-11.838711
NOW	-13.332147
▁inspect	-14.142119
SLICE	-14.237518
▁TASKS	-16.041228
▁decay	-14.187585
▁deque	-15.051532
▁question	-11.959088
▁functor	-14.222503
Rot	-14.353137
Continue	-13.408848
SHARE	-14.009157
▁identical	-13.441276
▁CURLOPT	-14.049354
▁goes	-12.706025
▁bfin	-15.062826
▁optimized	-13.938280
▁ecdsa	-16.076054
Comparison	-13.186938
▁grib	-14.764347
Vdbe	-14.170485
CONFIGURATION	-14.046358
SIGNED	-13.051789
TreeNode	-14.142872
placeholder	-13.718199
▁WASM	-14.243544
AGENT	-14.271214
▁breakpoint	-14.494478
IMU	-14.362703
cade	-13.355352
▁BITFIELD	-15.443294
Less	-13.252601
▁XPAR	-14.406189
▁FreeBSD	-14.896906
Lambda	-13.744663
Square	-13.935873
▁CGRect	-14.783600
▁authentic	-13.816182
PRESCALER	-14.720498
Notes	-13.976876
bsp	-13.929442
ompletionHandler	-14.733829
Sheet	-13.476168
rgba	-14.090390
RANK	-14.086136
PACKAGE	-13.794984
▁DMAMUX	-15.418197
Dispatcher	-13.958759
Diagnostic	-13.884318
Exists	-13.816706
▁applies	-13.463842
Advance	-14.503972
Prescaler	-14.384039
▁executing	-13.829696
▁accumulate	-14.583228
JMP	-14.001539
▁ORTE	-14.330464
Separate	-13.949503
▁arbitrary	-13.556527
msp	-14.424392
▁LWS	-14.415640
▁PRIMARY	-15.136179
TINY	-13.886293
morph	-13.009571
▁internalformat	-14.686015
▁kmem	-14.701294
Detection	-13.867247
▁expanded	-13.391772
Budget	-13.851738
▁PHYMOD	-14.339255
Feedback	-13.781767
▁mddev	-15.384293
▁AOM	-14.483560
▁unformat	-15.218401
ett	-12.340328
WIDE	-14.026103
▁relevant	-12.845031
SPIRV	-14.232091
Margin	-13.724034
erman	-13.239176
GOOGLE	-13.957353
▁ntohl	-14.485590
▁hostapd	-14.530431
▁UNPACK	-16.257206
▁PFNGLVERTEX	-13.956560
Terminal	-14.102887
AXI	-14.308693
STARTED	-14.260989
▁doublereal	-14.478982
▁therefore	-12.499051
Most	-14.082932
EXECUTE	-14.126290
▁UIColor	-14.599536
▁OMITBAD	-13.196136
GTM	-14.364112
▁SVN	-14.125183
DUMMY	-13.996547
▁recommended	-13.313743
▁iovec	-14.406327
▁symlink	-14.965741
CYCLE	-13.756941
gv	-13.508768
▁HFCORECLKDIV	-17.827255
▁legal	-12.372329
SizeOf	-14.179243
attnum	-14.135683
Consumer	-13.912606
INVERT	-14.198632
cart	-13.539904
provision	-14.918038
TENSOR	-14.298167
▁NVME	-15.239121
▁EZRADIO	-14.398499
▁garbage	-13.934588
jp	-13.223826
Topic	-13.613255
▁severity	-14.181594
▁expired	-14.044034
MIXER	-14.271552
safety	-14.537270
sweep	-13.994197
Decimal	-13.958736
Duplicate	-13.838418
fullscreen	-14.067656
▁PyNumber	-14.659898
ado	-12.475997
sphere	-13.265147
Simp	-14.292808
CLKSOURCE	-14.461392
INSTALL	-14.063053
correction	-14.848502
▁DAPM	-17.167974
▁WANT	-14.690633
▁WWDG	-15.052135
▁BTRFS	-14.551278
▁revoke	-14.952705
▁PFNGLTEXCOORD	-14.243293
Music	-12.728377
▁moving	-12.843003
▁completely	-12.777978
typmod	-14.194776
flight	-13.565143
utation	-13.268210
Typ	-13.691011
RISC	-14.115277
Cube	-13.620515
Serialization	-13.993842
▁CYDEV	-14.406124
Coding	-13.823201
▁intermediate	-13.679347
▁DBGMCU	-15.706722
▁polling	-13.935524
utter	-13.060528
ALARM	-14.316240
▁INTRINS	-15.824270
▁OPAMP	-15.146119
vtx	-14.270678
▁arithmetic	-13.906175
▁PyDoc	-14.157817
Router	-13.801196
▁PAYLOAD	-16.370921
Aggregate	-14.050265
Explicit	-13.982730
FOCUS	-14.001025
Firmware	-14.049221
filt	-14.169610
Fifo	-14.269604
▁deallocate	-14.311597
▁CheckExact	-87.802829
vacuum	-14.263560
▁acknowledge	-13.622510
Expect	-13.677870
▁PFNGLBIND	-14.137301
fcp	-14.367765
▁glGen	-15.162762
InputStream	-13.790551
voc	-13.736671
Sense	-13.822531
▁PQget	-15.201635
Pitch	-13.494139
Compress	-13.912354
Adapt	-13.179180
WebAPI	-14.898188
▁ffffffe	-22.742965
▁htonl	-14.376707
Colour	-13.548829
DevicePath	-14.087931
LIBRARY	-13.890000
▁shown	-12.349998
duplex	-14.087664
ISH	-13.368363
NAK	-14.267391
Internet	-13.930738
CATEGORY	-14.137094
SQLite	-13.870950
predict	-13.503342
▁HASHMAP	-18.048054
IsNull	-13.907732
▁moment	-12.556503
lba	-13.900585
Coeff	-14.197076
▁cifs	-14.776627
reporting	-14.809113
discovery	-14.260224
▁DTPRS	-21.879154
Convolution	-14.094421
GEOMETRY	-14.178232
▁relaxed	-15.009012
WIDGET	-14.087278
SIDL	-14.206325
▁kobj	-15.512743
▁ecx	-14.718103
Automatic	-14.250771
▁EXTIPSEL	-19.283441
hat	-12.519869
▁PTHREAD	-14.857711
retries	-14.006809
Below	-14.920016
mesa	-14.100615
▁delimiter	-14.155769
▁IMXRT	-15.730483
FPGA	-14.138842
▁virtio	-14.573841
proof	-13.927699
Projection	-14.005261
BARRIER	-14.029307
▁interpolation	-14.051094
distinct	-14.410704
Developer	-15.216232
vadd	-14.659876
STARTUP	-14.306084
Reject	-13.995771
Hard	-14.066713
IDENTIFIER	-14.031200
dwarf	-14.692484
Follow	-14.098179
tem	-13.150970
▁llx	-17.877401
mtk	-14.272317
SEPARATE	-14.302027
Extend	-13.925197
▁radix	-14.656447
▁glCopy	-15.494177
▁GetEmptyString	-20.407748
Produce	-13.315572
Spacing	-14.095086
FileSystem	-13.893456
▁conform	-13.771448
Watchdog	-14.268002
Percent	-13.736670
▁swapchain	-15.251506
▁typically	-13.121925
▁automatic	-13.633048
Nothing	-14.021690
▁intersection	-13.098346
epsilon	-13.185685
Synth	-13.390406
▁specifier	-14.514606
▁magick	-15.477722
▁fgets	-15.137002
Measure	-13.572106
resh	-14.596437
▁btf	-15.407412
▁installed	-13.136911
BOLD	-14.492772
▁Steve	-12.457947
HOME	-13.491081
▁suitable	-13.356210
TUNE	-14.374294
FREEZE	-15.010557
Overlap	-14.158180
CLAMP	-14.121656
Magic	-13.954094
▁OMITGOOD	-13.255956
neigh	-14.117737
▁MSVCRT	-14.692902
atan	-13.848736
RESTORE	-13.954298
AlreadyInit	-14.744851
TRANSACTION	-14.088377
Swift	-14.431053
flg	-14.217299
Baud	-14.282307
▁PFNGLCOLOR	-14.231016
suggest	-14.778790
POLARITY	-14.643672
RISE	-14.349786
weapon	-14.350022
aaaa	-14.271291
Logic	-13.654921
Foreign	-13.719807
Reserve	-14.089607
▁characteristic	-13.915603
▁PrettyPrinte	-19.740538
▁prefer	-13.428548
ENSION	-12.935054
MULTISAMPLE	-14.281218
▁fHelp	-14.202501
▁NVIDIA	-14.448108
▁robot	-13.756902
Instrument	-12.648207
PhysicalDevice	-14.624656
Login	-13.578656
RpcChannelBuffer	-14.474128
Org	-14.121878
tablespace	-14.202759
ancy	-12.971358
▁bta	-14.785282
▁Liftoff	-13.960478
▁ethtool	-14.607163
Dyn	-13.675904
Voltage	-14.181317
TITLE	-13.784804
getopt	-14.163497
Pulse	-13.986630
ECHO	-13.944433
clusters	-14.574700
arith	-14.055597
BAUD	-13.987194
ToJson	-14.840845
▁overhead	-13.923930
Grab	-13.863483
Boundary	-13.847394
bsl	-14.142497
▁coefficient	-13.844970
▁xcccccccc	-87.802829
▁MODKEY	-14.668353
clazz	-14.138239
Uart	-14.376344
crit	-13.190047
Restart	-13.951530
▁BKP	-15.823073
brk	-14.314789
Vulkan	-14.046387
Divider	-14.419193
▁ddrc	-18.251576
▁RedisModule	-14.569518
▁respect	-12.616022
▁ShiftMask	-15.249095
Vehicle	-13.240211
Clamp	-14.148991
▁PERSISTENT	-17.436606
STRIP	-14.136788
▁quirk	-15.043136
▁discover	-13.654094
▁inactive	-14.331709
▁storing	-13.872768
Unused	-13.985477
Terminate	-13.878175
▁California	-10.809620
tupdesc	-14.095379
succ	-12.510626
▁frontend	-14.902690
▁clipboard	-14.500679
Stake	-13.935700
▁stereo	-14.278563
▁manually	-13.677814
longlong	-14.439530
CIRC	-13.466835
▁NSUInteger	-15.036681
Locator	-13.908325
▁remember	-12.866422
EXCHANGE	-14.176631
▁Semiconductor	-13.833694
CONFLICT	-14.481674
Hide	-13.322387
▁infinite	-13.706182
Characteristic	-14.230168
think	-14.166126
Checksum	-14.127293
▁SLCR	-16.221798
Vote	-13.418642
Indicator	-13.899146
ReceivedHandler	-15.317625
▁NETIF	-15.023667
▁ftnlen	-15.782206
Star	-12.651987
vic	-13.202110
▁synchronous	-14.298803
Resp	-13.327749
SENS	-14.412887
▁formatted	-14.176399
ATTACH	-14.162898
▁JNIEXPORT	-13.758058
Formatter	-14.098194
▁VISIT	-14.887190
▁twice	-13.060884
▁nvmf	-16.111545
ota	-12.589999
hel	-12.842742
MATERIAL	-13.875029
Recovery	-14.048497
▁attention	-12.895007
▁ECMA	-14.454174
▁remarks	-14.467895
▁libinput	-14.643839
Plot	-13.871979
▁residual	-14.200821
▁dapm	-16.798127
NACK	-14.200086
Possible	-13.453761
CLSID	-14.431905
Debugger	-13.933201
▁GxB	-15.117682
▁CBigNum	-14.336669
BLANK	-14.251971
▁FromLong	-21.322062
▁aborted	-14.354160
▁dequeue	-15.072131
aac	-14.391337
jobs	-14.377654
MenuItem	-13.992617
▁GLchar	-14.535559
Acceleration	-14.225517
▁improve	-13.044947
datetime	-13.846320
▁GenericClass	-17.903748
synth	-12.460507
▁evict	-14.729911
▁GetProcessHeap	-15.552154
cef	-14.449434
GLES	-14.054905
mcu	-14.425134
spacing	-14.302815
▁VkResult	-14.145110
duino	-14.158031
Vertices	-14.180051
Mailbox	-14.466214
▁MonoMethod	-14.608855
targ	-14.217071
▁setsockopt	-15.503382
broker	-13.815414
▁cij	-14.317340
▁COMPILING	-16.880682
▁LPCSTR	-14.660907
▁xbfff	-87.802829
Prior	-14.612339
NUMERIC	-14.173530
▁efficient	-13.472188
OutputStream	-13.947402
Absolute	-13.676398
EXTRACT	-14.341341
▁vehicle	-12.916496
MAPPING	-14.282238
Vol	-13.138885
Assembler	-13.722838
▁verbatim	-15.781933
configUSE	-14.159502
Geom	-14.199156
Joystick	-14.140283
mcast	-14.318910
Inherit	-13.833322
▁updating	-13.905680
committed	-14.611147
While	-14.238092
ruby	-13.811415
Mega	-14.641170
latch	-14.086348
▁trivial	-14.292534
Parameteri	-14.293839
Person	-13.152783
Translation	-13.055297
▁INVALC	-25.257459
▁cpustate	-16.049681
▁uninitialized	-14.392225
traceback	-14.139789
DISCARD	-14.185190
lWindowPos	-14.392398
Chart	-12.363828
bracket	-13.443745
Solution	-13.219926
▁regBuiltin	-87.802829
Decrypt	-14.165937
▁ImDraw	-14.763292
▁NSDate	-14.698520
rewind	-13.898474
▁CMSIS	-14.370610
▁rehashe	-18.282878
▁kHz	-15.027923
gcm	-14.426679
lig	-13.078208
FILT	-14.665949
Health	-13.767722
▁PyMem	-14.275677
▁LPVOID	-14.496673
▁tmpreg	-14.477690
Marshal	-13.899940
chat	-13.294482
▁decision	-12.312125
MUTE	-14.554395
DEFINITION	-13.947884
▁quantize	-14.920216
▁IWDG	-15.083079
▁approximat	-16.590584
covered	-14.048026
CERTIFICATE	-14.205496
Issue	-12.900444
HISTORY	-13.705922
DETAIL	-14.049935
▁UNLIKELY	-17.510924
licon	-15.951783
triple	-14.594919
▁CREAT	-15.285033
semantics	-13.959933
▁plaintext	-14.744617
▁callee	-14.737285
Precision	-13.979658
synchro	-15.747217
Indent	-14.049564
▁milvus	-16.892428
FRONT	-13.947485
carrier	-14.219086
▁bignum	-14.808920
udc	-14.257524
SYNTAX	-14.122656
MISSION	-13.930357
mng	-14.450468
modem	-14.180878
invocation	-14.023550
▁recognize	-13.630896
▁reasons	-12.748770
▁TCPIP	-14.897116
PLAIN	-14.142603
Detach	-13.829478
advertise	-14.947784
NamedFramebuffer	-14.478578
▁iostream	-17.075525
MISMATCH	-14.230904
COMMENT	-13.818295
subst	-13.839626
COLLECT	-13.961688
LOADER	-14.292654
trusted	-14.172360
SPECIFIC	-14.271427
adb	-14.399033
MEDIUM	-14.206514
purge	-13.963284
ReadOnly	-14.103501
▁FALLTHROUGH	-14.697173
SYNTH	-14.899446
▁HFPERCLKDIV	-18.018622
putchar	-13.834939
▁libraries	-13.210592
▁validity	-13.910896
Both	-14.660805
aliases	-14.003821
METADATA	-14.248690
▁saving	-13.496007
Mean	-14.092898
uttx	-14.433968
mdev	-14.242390
PARTIAL	-14.206602
Evaluate	-14.722149
▁VkImage	-14.278686
denom	-14.139758
Lazy	-14.007599
▁umock	-14.867081
▁Microchip	-13.861785
▁oscillator	-14.231418
Street	-14.428838
ifa	-13.611516
ALLOCATE	-14.207341
Pressed	-14.040336
FRCORDY	-15.054534
AtIndex	-14.267902
▁timezone	-14.644839
fj	-14.363292
OCTET	-14.345154
EQAN	-14.720953
saxpy	-14.593187
Unpack	-14.304046
▁beyond	-12.797780
reclaim	-14.056027
▁UNAVAILABLE	-17.571766
POSSEL	-15.647034
Specification	-13.038692
Scratch	-13.867425
ABILITY	-13.704651
Universal	-14.073701
RESOLVE	-14.250866
CopyFrom	-13.864026
gyro	-14.291596
▁oldest	-13.544871
TEAM	-13.569096
DOCUMENT	-14.003813
▁potential	-12.476719
Generation	-14.221627
polynomial	-15.030519
Energy	-14.155805
DIRECTORY	-14.221515
spective	-14.638246
chart	-13.072765
bearer	-14.184201
UIViewController	-13.912551
▁Kevin	-12.802298
▁OAI	-14.192952
MAPPED	-14.479958
weston	-14.259495
▁wparam	-16.256989
NOTIFICATION	-14.239742
▁SetLastError	-13.941098
▁PROGMEM	-14.401493
▁litest	-16.049965
Gateway	-13.868827
SETTING	-14.351700
Plain	-14.107342
▁PMIC	-15.523721
Miss	-13.514366
cutoff	-14.243109
▁superclass	-13.963069
tiff	-14.192449
▁accumulator	-14.349991
▁XCVR	-15.693936
thunk	-14.496997
Hello	-13.378335
▁APLOG	-15.474299
▁safely	-13.917684
ancestor	-14.941451
▁glGetProgram	-15.455517
▁equation	-13.231165
Promise	-13.548925
▁intercept	-14.324003
Reload	-14.118752
▁DOXYGEN	-15.244231
▁PLLSAI	-16.209439
ORINFO	-14.429218
checker	-14.093773
▁TCPWM	-16.038201
glSecondaryColor	-14.504538
▁singleton	-14.496529
often	-15.288508
Roll	-13.877471
▁regarding	-12.687886
What	-11.943583
ewGetProcAddress	-15.116674
REACH	-12.976850
PASSWORD	-14.187899
HARDWARE	-14.348286
Yield	-13.898097
qua	-12.242918
▁mappings	-14.361245
Visibility	-13.873168
BUFSIZE	-14.171211
stall	-13.716019
Scanner	-14.206159
ARCHIVE	-14.052083
WINDOWPOS	-14.364724
▁strtok	-14.581399
irectDrawSurface	-14.273653
toc	-13.708943
▁matter	-12.310009
Arrow	-13.601017
▁whenever	-13.623478
talk	-13.835601
▁nStates	-16.753128
Manual	-14.621835
▁SmallVector	-14.487496
▁helpers	-14.236970
Trait	-14.100057
SCENE	-14.231579
Subroutine	-14.421143
Accel	-13.770769
▁IMPLEMENT	-13.940590
Escape	-13.570236
▁boundaries	-13.480335
Conflict	-12.956840
loom	-14.192840
Temperature	-13.853975
regexp	-14.085378
CLKDIV	-14.602849
▁NVMCTRL	-15.568546
▁CGSize	-15.072968
Hidden	-13.665526
AADC	-14.405736
▁CHPRI	-18.080055
▁WRONG	-16.123986
▁earlier	-12.684006
thermal	-13.566110
▁nthreads	-14.044310
Prob	-13.465490
PRECISION	-14.320571
authorize	-14.044287
BRANCH	-14.263191
▁InvalidOid	-14.057159
Zoom	-13.868321
▁STRONG	-16.243944
COST	-14.314176
Develop	-14.336730
▁memviewslice	-16.122636
contig	-14.777427
DEMO	-14.096000
EMBER	-14.273234
▁hierarchy	-13.987733
▁HANDSHAKE	-17.003022
Mapper	-13.903793
SUITE	-14.236906
ALLOCATOR	-14.188796
Interlocked	-14.065725
MERGE	-14.243149
QUOTE	-14.111592
▁GLvoid	-14.626780
ZONA	-14.534141
▁derive	-14.074077
RATIO	-14.296897
unt	-12.703889
opus	-13.514653
frozen	-14.356918
Alternative	-14.921199
▁filp	-15.703568
UNION	-13.870579
RESERVE	-13.257136
CONCAT	-14.540404
▁ParseTuple	-19.886052
▁bitwise	-14.438398
Design	-13.955883
RESUME	-14.274812
TRUST	-14.318271
Subsystem	-14.657912
hem	-13.200230
SWREQ	-16.019818
▁fiat	-14.575481
LATENCY	-14.562853
▁minimal	-13.637865
Traceback	-14.548359
Circle	-14.036154
ool	-13.412784
Subject	-13.056203
LongLong	-14.291598
▁RDONLY	-18.757753
negotiate	-14.328977
TexCoord	-12.977183
▁training	-12.376459
▁complain	-13.906274
ALLOCATION	-14.373478
▁MspInit	-15.952411
NOTIMPL	-13.667908
GDK	-14.398829
lck	-14.420039
▁brightness	-14.611166
▁endverbatim	-87.802829
DESTROY	-14.138760
sanitize	-14.426284
▁initialise	-14.411813
▁ethernet	-14.723738
▁CHUSEBURST	-18.139261
Submit	-13.684194
▁NOPULL	-36.930711
▁daos	-15.189587
▁gadget	-15.281638
▁unreachable	-14.896178
ALGO	-14.029503
Redirect	-14.046304
▁cups	-13.650034
▁bootstrap	-14.499185
integration	-14.702921
Strict	-14.027114
▁Portions	-14.360549
termios	-14.279834
RENDERER	-14.462902
reconnect	-14.202418
▁luma	-15.389164
runner	-12.981129
▁LAPACKE	-14.657887
▁semantic	-14.300559
▁PFNGLIS	-14.323321
PALETTE	-14.332793
▁glCompressed	-15.722520
▁sanity	-14.135790
prune	-14.307687
REVERSE	-14.172645
mpfr	-14.541844
CHARACTER	-14.177494
▁JERRY	-14.617089
▁trampoline	-15.026076
▁LFCLKSEL	-18.294130
aught	-13.339995
▁PFNGLTEX	-14.204048
▁construction	-12.370457
presence	-14.985167
▁coverage	-13.173260
▁CyFunction	-21.612105
Interpreter	-14.115235
wheel	-13.206337
Privilege	-14.208301
▁ogg	-15.873911
BEFORE	-14.150700
Latency	-14.353968
▁mongo	-14.295197
FRAC	-14.681544
ACTIVATE	-14.448815
Beacon	-14.050802
reeze	-14.421359
▁AVERROR	-13.762103
ygard	-15.044625
▁BSLS	-14.538697
▁MICROCHIP	-14.464346
▁GASNET	-14.623053
RDWR	-14.504064
Choose	-14.398326
Exclusive	-13.619649
wrk	-14.541938
setattr	-14.341245
Mobile	-14.124218
ADVANCE	-14.208639
Quote	-13.190310
MAIL	-13.785429
IBILITY	-14.216403
PROPERTIES	-14.321916
▁Bradley	-13.652185
▁continuous	-13.593426
▁unpacklo	-19.923854
▁outstanding	-13.808046
▁SYSCON	-15.570764
▁ASSEMBLY	-16.813665
ARROW	-14.031255
Frag	-14.128721
▁strlcpy	-15.783110
BYPASS	-14.626543
tySequence	-15.041351
▁dynamically	-13.945026
▁specialization	-14.063444
▁wolfSSL	-14.514734
Motor	-14.246238
DescriptorProto	-14.467218
rocksdb	-14.319275
▁figure	-12.623600
Until	-14.067847
▁pZip	-15.982578
realm	-14.525389
Persist	-14.121719
instrument	-13.725644
Iterate	-14.193636
▁tolerance	-14.108748
PARAMETERFV	-14.392607
Pixmap	-14.272086
iness	-13.260383
▁compose	-14.903384
Decrement	-14.184781
MemPool	-14.183067
▁VkCommandBuffer	-14.949484
Surf	-14.101395
▁nvim	-16.703911
mpeg	-13.674483
LoRa	-14.513570
Ascii	-14.279506
▁magma	-14.113759
▁ffffffd	-87.802829
▁PERIPHERAL	-16.253689
▁convolution	-14.554198
▁describing	-13.661920
photo	-13.848152
Specifier	-14.362689
CAUSE	-14.403444
▁Erts	-14.565969
▁subquery	-15.055707
▁transferred	-13.224074
ICBOF	-15.704967
elambda	-15.137012
RasterPos	-14.541966
Every	-13.674766
igen	-14.485380
Deferred	-14.237838
▁swizzle	-15.401840
BUCKET	-14.482433
▁mojom	-15.890319
▁workaround	-14.298880
fusion	-13.424601
wrote	-14.836912
Subtract	-14.271367
spatial	-14.683403
▁jerry	-14.562572
Enumerate	-14.079271
▁recurse	-14.698781
TupleDesc	-14.038741
▁Therefore	-12.999642
▁MEGA	-14.714267
INDENT	-14.039008
▁indication	-13.951169
Temporary	-13.900099
orient	-13.119690
Discard	-14.175377
accuracy	-14.765801
logged	-13.896070
▁FIRMWARE	-16.006009
▁TEGRA	-15.275877
▁strtoul	-15.004926
▁synchronization	-14.116980
benchmark	-14.691713
▁removing	-13.781496
READER	-14.292078
▁ctypedef	-14.371841
STOPPED	-14.502643
▁uncompressed	-14.721887
Conditional	-13.914034
▁HSMCI	-15.792628
Toolkit	-14.172844
gif	-14.233619
bounce	-14.393075
shoulder	-15.766185
Accum	-13.782184
▁VOLTAGE	-16.542335
Adaptive	-14.486280
Deprecated	-14.058485
▁microseconds	-14.502822
▁mysqlnd	-15.685564
abbrev	-14.004977
hood	-12.630752
ension	-12.277456
▁repository	-14.052920
Corrupt	-14.032874
▁unchanged	-14.001156
Trim	-13.908605
▁CONSTEXPR	-17.517604
▁permute	-15.598262
▁vxlan	-15.283945
Serv	-13.520400
▁msix	-16.075394
▁subframe	-15.317221
▁comparator	-14.610117
binfo	-14.715600
Distribution	-14.416867
IOMUXC	-15.042665
InitTypeDef	-14.166871
BATCH	-14.405707
Superclass	-14.153866
BULK	-14.463050
▁YYDEBUG	-15.231035
Qualifier	-13.751220
▁SCRIPTABLE	-21.675834
▁PRAGMA	-15.446484
▁encountered	-13.784520
directional	-14.098617
TestCase	-13.953132
▁deletion	-14.111651
▁defining	-13.872572
SELECTION	-14.348941
▁COAP	-14.735045
▁discussion	-13.267575
GENERATE	-13.729044
Replication	-14.235769
MOTION	-14.071652
medium	-14.369495
amqp	-14.836074
AdjustorThunk	-15.413238
Replica	-14.167185
Semantic	-14.135915
Sphere	-14.095187
▁convenience	-13.823767
latter	-14.765662
▁CHREQMASK	-18.016124
Goal	-13.460331
▁regardless	-13.646131
Contract	-13.438758
▁picoquic	-14.971508
▁NOLINT	-14.516846
▁SDValue	-14.958048
GENERATOR	-14.005710
oooooooooooooooo	-19.338245
▁ALLOWED	-15.996351
ypedEventHandler	-15.628468
▁DCMI	-15.243086
▁ofpact	-15.014047
Unload	-14.145215
Estimate	-14.005006
asprintf	-14.654043
PLACE	-14.199659
▁AWSEC	-14.405030
introduce	-15.350979
budget	-14.668676
TRIANGLE	-14.376489
DIRTY	-14.445630
Wrong	-14.401646
▁glFramebuffer	-15.532631
▁termination	-13.810744
TBTT	-14.748176
orphan	-13.967346
thumb	-14.091151
Grant	-14.097693
mom	-14.394020
MIRROR	-14.516941
▁acceleration	-14.189625
PADDING	-14.422577
▁potentially	-13.590415
userptr	-14.909306
▁MISSING	-15.555601
SBML	-14.297351
▁minutes	-12.196869
Expire	-14.201877
fffffffffffff	-14.363974
Series	-13.689125
Even	-14.448035
RANSFORMFEEDBACK	-14.451865
Battery	-14.739736
▁glGetUniform	-15.525472
▁submodule	-15.216204
Relay	-13.930674
▁sensors	-14.260556
Water	-13.700363
Synchronize	-14.195971
▁scanning	-14.066068
▁smallest	-13.399978
▁IMPLICIT	-14.988888
▁webrtc	-14.341617
▁discord	-14.897528
▁enabling	-14.046544
AutomationPeer	-15.926620
▁pinned	-14.676019
▁situation	-12.803243
gnutls	-14.496962
^	-10.203953
$	-9.349908
`	-10.546499
~	-9.922920
?	-8.792085
@	-7.933790
%	-8.805527
|	-7.409472
'	-7.648783
!	-7.709776
+	-7.882939
\	-7.646949
]	-7.548040
[	-7.554547
&	-7.466661
<	-7.104221
#	-6.346495
}	-5.215121
{	-5.608144
"	-6.898346
:	-6.130624
>	-6.489515
.	-5.718622
=	-5.975710
-	-5.904916
/	-5.561116
;	-5.051180
(	-5.338861
)	-5.315964
,	-5.529025
*	-5.241169
_	-5.251258
▁I	-8.735542
▁A	-8.488189
▁his	-9.591133
▁In	-9.258036
▁he	-9.775482
▁or	-8.814538
▁S	-9.133584
	-87.802829
▁He	-9.915461
▁C	-9.205423
▁It	-9.843884
▁B	-9.585331
▁her	-10.337341
▁E	-9.653063
▁M	-9.585633
▁P	-9.634412
▁D	-9.765906
▁F	-9.803507
▁T	-9.273136
▁de	-11.149635
▁up	-10.298739
▁R	-9.851900
▁she	-10.632038
▁G	-9.745606
▁References	-6.909648
▁over	-10.477705
▁people	-8.625783
▁American	-9.054051
▁L	-9.834596
▁New	-9.632426
▁N	-9.916179
▁th	-14.463942
▁H	-10.103761
▁no	-10.114056
▁K	-10.160023
▁U	-10.145193
▁him	-10.744574
▁like	-10.520990
▁said	-10.407307
▁years	-10.583765
▁right	-11.080236
▁year	-11.036094
▁United	-9.666478
▁most	-10.826845
▁O	-10.227498
▁On	-10.542532
▁She	-10.835684
▁through	-10.684092
▁J	-10.281602
▁As	-10.634572
▁part	-10.667642
▁well	-10.898379
▁W	-10.186783
▁For	-10.410626
▁V	-10.061224
▁States	-9.919717
▁second	-11.021414
▁links	-7.990130
▁players	-9.000578
▁known	-11.233119
▁now	-10.613292
▁me	-10.811927
▁External	-7.988694
▁born	-12.532707
▁season	-11.004557
▁century	-11.619870
▁No	-10.404649
▁back	-11.023071
▁team	-11.004135
▁film	-10.613142
▁National	-10.140630
▁Let	-11.403652
▁our	-10.826929
▁life	-9.529207
▁St	-10.692081
▁high	-11.206480
▁World	-10.208898
ton	-10.507177
▁They	-11.287361
▁May	-10.843496
▁Re	-10.245989
▁After	-11.330464
▁even	-10.913816
▁family	-11.081895
▁day	-11.511216
▁series	-10.642400
▁ref	-12.684035
▁To	-10.903734
▁John	-10.630288
▁became	-11.644194
▁What	-10.625882
▁At	-11.197639
▁County	-10.017594
▁South	-10.290552
▁York	-10.580202
▁four	-11.412186
▁X	-10.534993
▁com	-12.924944
▁home	-11.365772
▁War	-10.441806
▁But	-11.129865
▁order	-10.957352
▁around	-11.320709
▁game	-11.341843
▁down	-11.230788
▁area	-11.245705
▁place	-11.186902
▁March	-11.062433
▁school	-11.435871
▁August	-11.118783
▁School	-10.329921
▁State	-10.767345
▁British	-10.310042
▁September	-11.150154
▁All	-10.187184
▁And	-11.059477
▁way	-11.082496
▁La	-10.872903
▁An	-10.752627
▁October	-11.160559
▁June	-11.177682
men	-11.240671
▁government	-11.404777
▁January	-11.158473
▁July	-11.193524
▁world	-11.375389
▁own	-11.077557
▁off	-11.277848
▁women	-10.430955
▁April	-11.170608
▁When	-11.187227
▁De	-10.603804
▁English	-10.117976
▁Co	-10.898269
▁City	-10.602399
▁early	-11.585163
▁His	-11.542103
▁November	-11.198563
▁played	-11.669322
▁December	-11.216067
▁w	-11.043829
▁present	-11.523621
▁League	-10.235582
▁align	-11.544237
▁North	-10.680161
▁Q	-9.473387
▁city	-11.810245
▁Z	-10.836338
▁album	-11.843464
▁study	-11.943488
▁Al	-11.036186
▁court	-11.291465
▁took	-11.745455
▁Le	-11.111861
▁un	-11.481453
ley	-10.946774
▁support	-10.977869
▁frac	-15.007116
▁former	-11.387065
▁births	-9.390592
▁style	-10.894391
▁One	-11.212056
▁water	-11.652104
▁head	-11.711409
▁member	-11.369815
▁company	-11.691086
▁February	-11.280343
▁form	-11.407276
▁career	-9.673157
▁began	-11.992871
▁music	-11.145208
▁football	-10.004664
▁children	-11.317749
▁West	-10.907365
▁main	-10.921020
▁example	-11.218550
▁point	-11.175699
▁German	-10.742074
▁five	-11.860807
▁members	-10.992011
▁films	-9.731054
▁French	-10.644720
▁power	-11.423109
▁control	-11.340571
▁service	-11.024000
▁think	-11.421659
▁People	-9.791363
▁model	-11.532151
▁population	-11.864992
▁established	-10.769775
▁help	-11.396463
▁law	-11.065821
▁play	-11.888425
▁top	-11.483262
▁II	-10.939868
▁side	-11.608357
▁History	-8.801824
▁located	-11.732890
▁District	-10.630307
▁line	-10.970900
▁House	-10.927079
▁often	-11.947812
▁Court	-11.106790
▁My	-11.051055
▁per	-11.482382
▁open	-11.338967
▁death	-11.391562
▁London	-11.121848
▁came	-11.842814
▁San	-11.056254
▁US	-11.837148
▁That	-11.626929
▁College	-10.575069
▁process	-11.086680
▁Y	-11.394693
▁games	-10.606014
▁species	-11.552957
▁days	-11.849676
▁full	-11.232962
▁country	-11.699210
▁International	-10.322768
▁Man	-11.155762
▁Category	-9.885341
▁record	-11.048026
▁book	-11.854789
▁station	-11.832753
▁center	-12.996902
▁post	-11.654097
▁great	-11.753560
▁By	-11.446823
▁died	-11.810981
▁site	-11.356205
▁major	-11.803838
▁million	-12.308299
▁served	-12.049193
▁fig	-15.023022
▁national	-11.612199
▁among	-12.013945
▁period	-11.653729
▁title	-11.846278
▁district	-11.323458
▁player	-11.328184
▁went	-11.948921
▁role	-12.049742
▁development	-11.589786
▁term	-12.072487
▁patients	-12.626708
▁little	-11.619855
▁song	-12.047181
▁body	-11.878417
▁change	-11.254334
▁near	-11.911628
ship	-11.357802
▁General	-10.491713
▁television	-10.495035
▁band	-12.228351
▁come	-11.730264
▁Do	-11.027150
▁List	-10.256216
▁run	-11.416547
▁war	-11.912113
▁position	-11.211683
▁El	-11.441263
▁st	-12.059859
▁During	-12.229250
▁go	-11.776818
chi	-11.360690
▁label	-12.452145
▁father	-12.086892
▁la	-11.718797
▁Na	-11.484654
▁hand	-12.067102
▁Park	-11.143025
▁business	-11.795272
▁six	-12.145392
▁production	-11.798137
▁Cup	-10.818280
▁half	-11.603710
▁action	-11.593259
▁club	-12.147674
▁video	-11.010488
▁First	-10.901978
▁Go	-11.353380
▁real	-11.500820
▁research	-11.882267
▁ve	-13.744500
▁range	-11.258773
▁human	-12.060354
▁Living	-9.040751
▁With	-11.630801
▁village	-11.889804
package	-10.303244
▁community	-11.882621
▁America	-11.290886
les	-11.238728
▁cell	-12.204531
▁Mo	-11.371616
▁Me	-11.274090
▁written	-10.866141
▁put	-11.903774
▁begin	-12.378901
▁Her	-11.756349
▁male	-10.190624
▁England	-11.090831
▁Mar	-11.486067
▁fact	-12.103406
▁groups	-11.220983
▁alpha	-12.756002
▁project	-11.771376
▁km	-12.458614
▁Association	-10.517030
▁East	-11.338350
▁River	-11.339168
▁From	-12.043913
▁story	-11.936550
▁away	-11.831176
▁President	-11.593727
▁High	-11.040982
▁France	-11.166573
▁black	-11.758146
▁list	-10.248311
▁pro	-12.426162
▁William	-11.460875
▁white	-12.257638
▁region	-11.850867
▁produced	-11.613064
▁Australia	-10.907716
▁evidence	-11.939084
▁James	-11.392691
▁social	-12.068985
▁European	-11.428171
▁mathcal	-20.613920
▁India	-11.161007
▁q	-11.459935
▁political	-11.774683
▁election	-11.776235
▁George	-11.418665
▁section	-11.498204
▁points	-11.614549
▁analysis	-11.753532
▁works	-11.201471
▁say	-11.782859
▁Party	-11.157715
▁Be	-11.410311
▁living	-12.532715
▁ll	-14.489856
▁got	-12.041960
▁Pro	-11.174220
▁mu	-13.350895
▁Ma	-11.365484
▁round	-11.251955
▁health	-12.056475
▁car	-12.087856
▁King	-11.689585
▁town	-12.167511
▁seen	-12.108182
▁co	-11.810911
▁Dr	-11.738717
▁look	-11.839939
▁big	-12.227303
▁live	-11.981187
▁Or	-11.556575
▁While	-12.384723
▁months	-12.277890
▁lead	-12.105495
▁professional	-11.861541
▁thought	-12.043855
▁effect	-12.082642
▁Art	-11.159793
▁problem	-11.783113
▁Indian	-10.985955
era	-11.234826
▁Australian	-10.899120
▁low	-11.948085
▁Some	-11.811977
▁treatment	-12.403163
▁Canada	-11.091557
▁Air	-11.349471
▁David	-11.398526
▁north	-12.430863
ya	-11.297013
▁China	-11.359979
▁Paul	-11.496218
▁space	-11.543227
▁win	-12.219718
▁match	-11.449495
▁lower	-11.981455
▁Act	-11.673622
▁close	-11.929721
ham	-11.441401
▁announced	-12.361579
▁wrote	-12.278246
▁students	-12.322407
▁international	-11.215386
▁Royal	-11.278405
▁deaths	-10.096177
▁Street	-11.718443
▁worked	-12.370685
wood	-11.589243
▁light	-12.154551
▁Canadian	-10.834540
▁Army	-11.367209
▁How	-11.369852
▁Is	-10.790306
▁house	-12.195224
▁himself	-12.182675
▁others	-11.942885
▁south	-12.477269
▁Red	-11.183766
▁military	-11.816365
▁media	-11.540138
▁Award	-11.220309
▁love	-12.061890
▁website	-10.543162
▁far	-11.979355
▁air	-12.397807
▁shows	-11.627469
▁young	-12.234460
▁Council	-11.558910
▁night	-12.213731
▁Black	-11.259336
van	-11.815620
▁anti	-12.370126
▁Ha	-11.630376
▁mother	-12.252683
▁week	-12.394032
▁Church	-11.534075
▁track	-12.041585
▁studies	-12.347417
▁Bo	-11.554502
▁men	-11.575610
king	-11.765162
▁Union	-11.490604
▁energy	-12.443725
▁issue	-11.959033
▁Other	-10.394014
don	-11.496018
▁Robert	-11.588406
▁bgcolor	-10.891894
▁added	-11.633810
▁Division	-11.273052
▁access	-11.235894
▁bar	-12.308763
▁div	-13.995754
▁Li	-11.686031
▁course	-12.111286
▁told	-12.189842
▁Club	-10.460230
▁office	-12.073309
▁Sa	-11.532281
▁Mr	-11.864769
▁care	-11.919955
▁developed	-12.190321
▁director	-11.987306
▁Department	-11.472473
▁En	-11.417459
▁According	-12.365208
▁Washington	-11.467517
▁Germany	-11.255468
▁date	-12.516811
▁God	-11.955089
je	-11.812326
▁debut	-11.954202
▁structure	-10.959396
▁Japanese	-11.186918
▁Japan	-11.192462
▁Russian	-11.304644
▁areas	-11.960506
▁married	-12.302163
▁material	-12.328096
▁Center	-11.594375
▁Since	-12.162339
▁Music	-10.601909
za	-11.686206
▁late	-12.763878
▁money	-12.186272
▁keep	-11.588764
▁age	-12.902611
▁Ka	-11.635648
▁food	-12.364697
▁education	-11.321375
▁Group	-10.981791
▁almost	-12.357194
▁interest	-12.064574
▁wife	-12.378080
▁org	-13.146507
the	-10.411157
▁face	-12.616482
▁president	-12.407166
▁White	-11.408312
▁although	-12.611402
▁Europe	-11.509032
▁police	-12.250896
▁Fig	-13.613374
▁joined	-12.546629
▁trial	-12.015930
▁mean	-12.073045
▁Car	-11.489091
▁Best	-11.374490
▁continued	-12.549162
▁Italian	-11.074949
▁Green	-11.293246
▁front	-12.377314
ster	-11.726677
▁African	-11.302877
sen	-11.763167
▁Hall	-11.677676
▁church	-12.306972
▁Ar	-11.464905
▁saw	-12.385308
▁Year	-10.865459
▁Un	-11.537480
▁systems	-11.957133
▁TV	-11.545233
▁Con	-11.351445
▁UK	-11.992831
▁gave	-12.447838
▁Pre	-11.156423
▁Ca	-11.771494
▁formed	-12.658347
▁report	-11.778824
▁art	-11.938820
▁Although	-12.682569
▁surface	-12.453538
▁involved	-12.475696
▁view	-11.941722
▁Company	-11.663488
▁asked	-11.984029
▁Roman	-11.532164
house	-12.053214
▁Championship	-11.190243
▁Michael	-11.626311
▁Thomas	-11.730310
▁fire	-12.264935
▁says	-12.073750
▁Ko	-11.795890
▁states	-12.085350
▁Se	-11.481308
▁companies	-11.255374
▁Road	-11.525984
▁race	-12.253269
▁road	-12.305677
▁recorded	-12.459277
▁playing	-12.507139
▁Then	-12.075774
che	-11.917961
▁Ben	-11.807685
▁hard	-12.211833
▁Women	-10.803669
▁league	-11.728256
▁Press	-11.718172
▁mathbb	-20.659750
▁popular	-12.056481
▁includes	-11.852094
▁official	-11.718226
▁con	-12.388091
▁increased	-12.766233
▁Chinese	-11.573482
▁modern	-12.486145
▁review	-12.114002
▁east	-13.029887
▁Western	-11.612768
▁behind	-12.420573
▁rest	-12.451997
▁Institute	-11.697841
▁west	-12.788223
▁Can	-11.517906
▁Per	-11.838224
▁Am	-11.756177
yl	-12.116893
▁directed	-11.730468
▁teams	-11.682104
▁designed	-12.562456
▁cost	-12.399941
▁levels	-12.477474
▁Lo	-11.615643
ford	-11.652235
▁kind	-12.030702
▁seven	-12.542963
▁contract	-12.453452
▁appeared	-12.609093
▁sum	-12.282456
▁Two	-11.925377
▁risk	-12.569624
▁Charles	-11.853192
▁Bar	-11.846434
▁taking	-12.411157
▁market	-12.517056
▁Central	-11.578010
▁elected	-12.611080
▁experience	-12.379994
▁Peter	-11.766202
▁move	-12.280918
▁degree	-12.678845
ville	-11.654913
▁cause	-12.168631
▁thing	-12.245939
▁plan	-12.244936
▁Men	-11.088309
▁especially	-12.632064
▁Ta	-11.714798
▁Society	-11.627569
ology	-11.328308
▁Lake	-11.551076
fer	-11.667489
▁Island	-11.652075
▁paper	-12.516710
▁Texas	-11.349029
▁var	-11.667557
ju	-11.796153
▁rate	-12.282688
▁Law	-11.530156
▁founded	-12.647565
▁month	-12.529665
▁songs	-11.152953
▁Ne	-11.787656
▁female	-11.696165
▁hours	-12.490291
▁issues	-12.055022
▁Lu	-11.816120
▁Great	-11.764444
▁Bay	-11.785061
▁blood	-12.730688
▁Star	-11.889351
▁pay	-12.753540
▁account	-12.004525
▁Day	-11.725175
▁compared	-12.821640
▁inter	-13.294109
▁complete	-11.921082
▁Minister	-12.009960
▁mind	-12.281428
▁Du	-11.966195
▁natural	-12.467461
▁Los	-11.630319
▁activity	-12.477236
▁eight	-12.651802
▁turn	-12.758804
▁Games	-10.999566
▁daughter	-12.608973
▁Africa	-11.484747
▁Now	-11.830894
▁Pa	-11.568875
▁Ra	-11.822487
▁Po	-11.726683
▁today	-12.338773
▁Mi	-11.790029
▁beta	-13.858599
▁Kingdom	-11.297186
▁loss	-12.633337
▁countries	-12.456996
▁attack	-12.640822
▁ever	-12.250756
ists	-10.874983
sha	-11.248196
▁complex	-12.522731
▁Most	-12.018962
▁campaign	-12.501039
▁Museum	-11.492705
▁super	-12.156997
▁Summer	-11.377584
▁less	-12.071311
tro	-11.628615
▁Vi	-11.773522
▁multi	-11.904639
▁force	-12.214881
▁heart	-12.370912
▁Figure	-12.883790
▁mass	-12.711032
▁books	-11.588772
▁lines	-12.142995
▁personal	-12.408869
▁speed	-12.149704
▁Catholic	-11.554611
▁word	-12.052730
▁Spanish	-11.425593
▁appointed	-12.685523
▁room	-12.331579
▁Football	-10.935113
▁disease	-12.610724
▁Here	-11.833266
▁Ho	-11.838119
▁independent	-12.349877
▁Big	-12.203114
▁sea	-12.474392
ase	-12.508436
▁cancer	-12.444939
▁Film	-10.884976
▁wide	-12.731088
▁Super	-11.590720
▁novel	-12.573070
stone	-12.153306
▁sqrt	-14.079677
▁Smith	-11.981791
ski	-11.546782
▁CR	-12.796268
▁Grand	-11.729622
▁Early	-10.013847
▁soon	-12.431172
▁sold	-12.826821
▁idea	-12.408356
pur	-12.013112
▁mid	-12.739251
▁Cor	-11.859900
▁span	-13.928726
▁Har	-12.043336
▁Richard	-11.889654
▁Suppose	-12.747602
▁unit	-11.925864
▁Records	-10.872126
▁woman	-12.589996
▁places	-11.160159
▁words	-12.241515
▁Pe	-11.909235
▁Not	-11.761003
▁forward	-11.490659
▁brought	-12.637235
▁build	-11.943610
▁throughout	-12.730442
▁hit	-12.596909
▁schools	-11.511555
▁goal	-12.570411
▁policy	-12.098016
▁stated	-12.678533
▁medical	-12.474595
▁killed	-12.526389
▁Life	-10.612801
▁Christian	-11.794179
▁Republic	-11.578437
▁birth	-11.201103
▁Academy	-11.653885
▁reason	-12.004564
▁sort	-12.140991
▁footballers	-9.949406
▁generally	-12.629227
ground	-11.472709
▁Pan	-11.798203
▁phase	-12.519102
▁wanted	-12.561785
▁albums	-10.469608
▁Paris	-12.024567
▁sound	-12.488474
▁Awards	-10.220654
▁staff	-11.873827
▁brother	-12.722278
▁product	-12.075088
rich	-12.251891
▁Second	-11.518588
▁approach	-12.604800
▁Of	-12.539094
▁lot	-12.412025
▁coach	-12.454849
▁decided	-12.797972
▁led	-13.022077
▁Di	-11.680418
▁document	-12.569632
▁voice	-12.241969
▁alumni	-10.265059
▁Research	-11.488592
▁Government	-11.418208
▁Mary	-12.039976
▁Te	-11.892660
▁introduced	-12.371219
▁pi	-12.945168
▁Mark	-11.769750
▁job	-12.119204
▁placed	-12.630442
▁showed	-13.093485
▁Post	-11.355769
▁rd	-13.615399
town	-12.095342
▁pone	-17.901792
▁Zealand	-11.429653
▁presented	-12.688911
▁active	-11.966508
▁Henry	-12.083410
▁industry	-12.387772
▁feel	-12.526499
▁Our	-12.264812
▁condition	-12.287313
▁believe	-12.491071
▁stop	-12.033420
ius	-11.900136
▁practice	-12.522540
▁Love	-11.665478
▁motion	-12.403235
▁Brown	-11.928748
▁Sam	-12.006211
▁problems	-12.335206
▁Ch	-11.666660
▁Mac	-11.971448
▁episode	-12.829123
▁pressure	-12.873306
▁mathbf	-21.083876
▁units	-11.944560
shi	-12.345375
▁star	-12.961648
▁protein	-13.223981
▁Olympics	-11.475449
▁particularly	-12.820908
▁Ireland	-11.695050
▁factors	-12.275496
▁parts	-12.266325
▁turned	-12.536695
▁weeks	-12.854130
▁Public	-10.640332
▁article	-12.337027
▁Order	-11.592857
▁forces	-12.736595
▁theory	-12.261018
▁growth	-12.807311
▁relationship	-12.795248
▁host	-11.901325
▁initial	-11.851483
▁respectively	-12.976748
▁let	-12.090532
▁movement	-12.478232
▁listed	-12.017985
▁prime	-12.350191
▁ground	-13.028803
ita	-11.852945
▁web	-12.157851
▁Ja	-12.076135
▁observed	-13.049687
▁Saint	-11.955183
▁culture	-11.591112
▁buildings	-11.620954
▁normal	-12.120888
▁Ver	-11.823779
▁Martin	-11.961793
▁percent	-13.024507
▁gene	-13.363425
▁remained	-12.989988
▁Su	-11.873261
▁news	-12.455583
▁sometimes	-12.686928
▁management	-12.004352
ven	-11.879827
▁sense	-12.549403
▁Sir	-12.190021
berg	-12.000717
▁tournament	-12.134222
▁search	-11.968257
▁step	-12.107080
▁Chicago	-11.773670
▁online	-12.351418
▁factor	-12.249544
▁reference	-11.639282
gar	-12.090628
▁sigma	-15.168877
▁Sea	-11.974005
▁comes	-12.430999
▁Education	-10.545432
▁blue	-12.502095
▁More	-11.926475
▁Sch	-12.291325
▁originally	-12.771712
ign	-12.073714
mor	-12.502876
▁oil	-12.680625
▁cross	-12.528085
▁Hill	-12.069152
▁models	-12.347714
▁families	-12.542125
▁Science	-11.708767
nes	-11.680703
▁Open	-11.342717
▁metal	-12.665113
▁rock	-12.014528
▁Pat	-12.295028
▁feature	-11.980579
▁themselves	-12.621864
▁organization	-12.642318
▁Ni	-12.170871
▁leave	-12.260804
▁trade	-12.475400
▁Land	-11.753774
▁towards	-12.758062
▁Tri	-11.822058
▁Virginia	-11.563014
▁Committee	-12.238794
▁college	-12.580123
▁share	-12.886895
▁seat	-12.885306
▁Tom	-12.010476
▁impact	-12.544669
▁fourth	-12.855782
mis	-12.311281
▁Congress	-12.228287
▁Home	-11.617811
▁federal	-12.607052
▁Team	-11.154245
▁Soviet	-11.859578
▁gamma	-13.792412
▁Bank	-12.012575
▁Si	-12.044663
▁score	-12.514490
▁battle	-12.622583
▁stations	-11.279946
▁Under	-12.231442
▁Com	-11.786984
▁nature	-12.687321
▁Chi	-12.090841
▁Board	-12.087321
▁Lord	-12.298374
▁Mexico	-11.706745
▁weight	-12.671214
wing	-12.383396
▁nd	-15.586838
▁winning	-13.091130
▁caused	-12.814923
▁Russia	-11.860289
▁science	-12.035321
▁artist	-12.263795
▁Florida	-11.662000
▁competition	-12.588699
▁eventually	-12.934704
▁economic	-12.894293
▁Mu	-12.225250
fish	-12.306624
▁Italy	-11.621748
▁sec	-14.049075
▁scale	-12.394390
▁politician	-12.042408
▁financial	-12.731266
▁aircraft	-12.353759
▁pm	-13.583141
▁Old	-12.080775
▁border	-12.451302
▁technology	-12.278047
▁display	-11.837049
▁eyes	-12.474423
▁someone	-12.546113
▁summer	-12.900711
▁Qu	-12.425794
▁Ex	-11.827996
▁plant	-12.809768
▁artists	-11.277158
▁Ba	-11.709005
▁capital	-12.721910
▁security	-12.268968
▁hat	-14.430382
▁Force	-11.918322
▁direct	-12.870478
▁gold	-12.331276
▁opening	-12.755721
▁Inc	-11.344957
▁Lee	-12.098280
▁leader	-12.674978
▁cut	-12.831349
▁sequence	-11.943738
▁basis	-12.652834
▁Bill	-12.126293
▁rule	-12.305364
▁Pi	-12.281328
▁approximately	-13.044453
▁map	-11.750310
▁Railway	-11.491317
▁Vo	-12.378733
▁felt	-12.881866
▁Health	-11.918308
▁follow	-12.507861
▁Many	-12.774264
▁guitar	-11.694903
▁proposed	-12.932386
▁quite	-12.618475
▁types	-11.676806
▁tax	-12.720127
▁activities	-12.277275
▁understand	-12.474194
▁Notes	-9.459495
▁spent	-12.833406
▁coming	-12.622312
▁Long	-12.228305
▁presence	-12.929039
rat	-12.496554
▁chief	-12.647831
▁CD	-11.445201
▁Olympic	-11.131119
mann	-12.166488
▁Da	-11.923624
▁equal	-12.386802
▁Hu	-12.244672
▁pain	-13.149165
▁friends	-12.717850
▁Ad	-11.866284
my	-10.981640
tre	-12.555948
▁app	-12.231026
▁route	-12.744145
boy	-12.335999
▁Sun	-12.096068
▁Sp	-11.906287
ani	-11.872111
▁majority	-13.015218
ella	-11.915258
▁writer	-12.256008
▁floor	-12.919303
▁awarded	-12.757905
▁sample	-12.396374
▁Greek	-11.943577
▁delta	-12.959619
▁System	-11.363168
▁claim	-12.650450
▁difficult	-12.943860
▁centre	-12.695628
war	-11.856696
▁dark	-12.864387
▁Back	-12.432445
▁Ru	-12.249885
▁micro	-12.755377
▁Irish	-11.769335
▁tried	-12.525489
▁meeting	-12.862802
▁III	-12.136549
▁Tr	-11.947844
▁Service	-11.631212
▁Table	-12.533977
▁Rock	-11.935557
▁drama	-11.434097
▁mathrm	-22.079963
▁studio	-12.903326
clo	-13.237568
▁board	-12.352800
▁tour	-12.988784
▁officer	-12.696270
idae	-11.312585
▁Cal	-12.205759
▁saying	-12.828740
▁Shi	-12.076225
▁Vol	-11.910393
bra	-12.419476
▁studied	-13.214051
▁drive	-12.988321
▁lived	-13.059382
▁noted	-12.864588
▁hospital	-13.035326
▁Thus	-12.824221
▁computer	-12.463441
▁Ed	-12.542537
▁knowledge	-12.787370
▁remains	-12.733592
▁Ga	-12.077702
▁note	-12.868067
sy	-11.382378
▁Joseph	-12.229398
▁disc	-12.725377
▁identified	-12.943119
los	-12.489643
▁Town	-11.636915
▁parents	-12.866622
▁featured	-12.870533
▁basketball	-11.593103
cup	-12.347501
▁determined	-12.759375
▁travel	-12.700938
▁Frank	-12.204997
▁traditional	-12.991200
▁divided	-12.279817
▁manager	-12.507342
▁sex	-13.172520
ions	-11.524709
▁Wood	-12.140562
▁green	-12.825485
▁singer	-12.239141
▁focus	-12.869026
▁appears	-12.695247
ette	-12.041297
ney	-12.073027
▁red	-12.940496
▁html	-14.250226
▁overall	-12.895241
▁Northern	-11.918514
▁Par	-12.125243
▁rho	-15.346873
▁square	-12.907444
▁Chief	-12.213170
▁door	-12.708005
▁scored	-12.560190
▁student	-12.971631
▁Fa	-11.897860
▁entered	-12.744469
▁engine	-12.709130
▁establishments	-10.971954
▁Arts	-11.890534
more	-11.974652
▁individuals	-13.065141
▁names	-11.489835
▁river	-12.918234
▁tell	-12.363893
▁Good	-12.059517
▁cover	-12.774902
▁parties	-12.007860
worth	-12.403327
lay	-12.253692
▁draw	-12.050125
▁Your	-11.987247
▁fine	-15.603891
▁Angeles	-11.993012
▁Van	-12.217051
▁nine	-13.069686
▁husband	-12.997792
▁Ge	-12.297002
▁Free	-11.239754
▁Carolina	-11.717145
ised	-12.487393
▁Historic	-11.526351
ban	-12.444218
▁Major	-11.499628
▁sports	-11.957206
▁Navy	-11.931844
▁Cross	-11.867146
▁carried	-13.100221
▁Career	-9.582499
▁Director	-12.073951
▁division	-12.643982
▁income	-13.307633
▁appeal	-12.527764
▁Mount	-12.489953
▁Festival	-12.086978
▁claims	-12.651379
▁Get	-10.169141
▁Championships	-11.480603
▁Because	-12.752074
▁Battle	-11.992613
▁tau	-15.263027
una	-12.151768
▁Films	-10.683787
▁Province	-11.674869
▁patient	-13.312300
▁Trump	-12.694067
lie	-12.405276
▁Queen	-12.309888
▁Series	-11.726452
▁bib	-15.321651
▁letter	-12.738301
tin	-12.352438
▁Sha	-12.168224
▁looked	-12.579849
▁Mor	-12.337204
▁shot	-12.258897
▁Democratic	-11.903291
▁Louis	-12.316034
▁def	-14.352562
▁Jewish	-11.938105
▁Tu	-12.212223
▁highly	-13.107192
▁density	-13.279156
▁runs	-12.676402
▁Commission	-12.408915
▁nu	-13.890043
▁elect	-13.209048
▁influence	-12.874199
bird	-12.466208
▁Young	-12.102371
▁Gar	-12.262096
▁gas	-13.080073
▁writers	-10.975637
▁Further	-10.384526
▁alone	-12.834688
▁raised	-12.784795
▁older	-12.906723
▁railway	-12.268861
▁Col	-12.318677
▁script	-12.599092
▁sp	-11.841220
▁knew	-12.814656
▁Gold	-12.126525
▁Dan	-12.260096
▁lack	-13.054167
▁nearly	-13.058510
▁Over	-12.276600
▁App	-12.250441
▁shape	-12.552373
▁poor	-13.010816
▁Radio	-11.720339
▁fight	-13.086089
▁editor	-12.337304
▁Top	-11.693838
▁Bi	-11.796396
▁reduced	-13.050129
▁Jan	-12.334211
▁trans	-13.342019
▁Wales	-11.885031
lam	-11.945428
▁Another	-12.763740
▁plays	-12.183003
mus	-11.947400
hall	-12.607729
▁price	-12.852337
▁variety	-13.065014
mal	-12.034084
▁Civil	-11.822987
▁Jo	-12.236927
▁Ti	-12.079890
▁hour	-12.960515
▁foreign	-12.750155
▁recently	-12.976986
▁join	-12.731828
▁Times	-12.541702
▁actor	-12.237492
▁Delta	-14.120477
▁Jack	-12.266475
▁acid	-13.315309
▁Blue	-11.697981
▁Both	-12.913280
▁Cha	-12.180604
▁hands	-12.751722
ding	-11.448186
▁rm	-14.533709
▁para	-13.108867
▁offer	-12.877486
▁significantly	-13.415059
▁Er	-12.456010
▁edition	-12.674226
▁Spain	-11.840118
▁extra	-11.895291
▁Asian	-11.769956
▁award	-12.802353
▁rules	-12.325027
▁finally	-12.660196
▁Register	-10.946138
▁Following	-13.110182
▁log	-11.767258
▁Sub	-11.518961
▁senior	-13.056376
▁answer	-12.453080
▁pass	-12.015591
▁Even	-12.828501
▁quickly	-12.951810
lar	-12.033731
▁drug	-13.112074
▁option	-11.391959
▁meet	-12.869446
▁Line	-12.048397
▁programs	-12.402730
▁Southern	-12.124828
▁protect	-13.098032
▁civil	-12.528324
▁couple	-12.933756
▁bring	-12.874428
▁attended	-13.157850
ors	-11.532536
▁defendant	-12.769205
▁morning	-12.775229
och	-12.370820
▁Foundation	-11.446469
▁questions	-12.605412
sin	-11.803279
▁Dutch	-11.796000
▁Israel	-12.172762
▁island	-13.127335
▁eq	-14.908789
▁producer	-12.213324
▁quarter	-12.959423
▁heard	-12.753166
▁appearance	-12.896836
▁volume	-12.674900
▁vocals	-11.676523
▁Gi	-12.332753
▁goals	-12.242560
▁mostly	-13.090397
▁Empire	-11.986105
▁stay	-12.755088
▁omega	-15.168462
▁des	-13.049527
▁Game	-11.551481
▁constant	-12.352565
illa	-12.105411
▁poly	-13.014285
une	-12.603753
▁clinical	-13.327122
▁upper	-12.506245
▁Bre	-12.351011
▁Office	-12.193920
▁Assembly	-12.086193
▁department	-12.421544
▁Pennsylvania	-11.676253
ola	-11.556206
▁Jones	-12.380353
vent	-12.496183
▁brain	-13.167138
▁Char	-12.309728
▁Journal	-12.211278
▁sites	-12.319057
▁Edward	-12.321924
▁Fe	-12.475960
▁Official	-10.673455
▁lives	-12.838229
▁que	-13.341118
▁Three	-12.421873
▁Time	-11.869969
▁launched	-13.009378
▁Ohio	-11.806740
▁learn	-13.017995
▁Che	-12.104445
▁sign	-13.188439
▁store	-11.978552
▁Dis	-11.732312
▁select	-12.228804
gue	-12.335988
▁administration	-12.640364
▁southern	-13.122283
▁judge	-12.848341
▁Its	-12.656174
▁Tour	-11.761744
▁officers	-12.034280
▁sources	-12.051629
▁referred	-13.224333
▁musical	-12.122096
▁religious	-12.870854
▁eye	-13.125215
▁Johnson	-12.391521
ara	-12.016028
▁bill	-13.120700
▁visit	-12.592674
▁county	-12.974480
▁northern	-13.134174
enter	-12.057604
flo	-13.452670
cer	-12.544716
▁murder	-12.484159
▁hair	-13.264996
▁gives	-12.631925
▁Parliament	-12.149552
▁Water	-11.938371
▁magazine	-12.845325
▁army	-13.212005
▁conducted	-13.234650
▁becoming	-13.227838
▁Their	-13.088669
▁semi	-13.055448
▁connected	-12.418158
▁split	-12.770648
▁Fort	-12.414517
▁Just	-12.456886
dar	-12.325617
▁du	-12.368838
▁Br	-12.385070
▁link	-11.964082
▁giving	-12.965992
▁Pacific	-12.517020
▁Later	-11.780888
▁chance	-12.818231
▁Asia	-11.790483
▁Port	-11.998364
▁Note	-11.267679
▁revealed	-13.422136
▁vote	-13.116930
▁offered	-13.038973
▁movie	-13.019740
▁Wi	-12.444523
▁theta	-15.281329
▁pop	-12.240003
▁screen	-12.280945
▁sister	-12.996253
▁heavy	-13.035568
rick	-12.364159
▁leq	-18.714057
▁numerous	-13.203744
▁executive	-12.451473
▁Will	-12.283024
▁Supreme	-12.346287
▁Valley	-12.240958
▁users	-12.548516
▁Republican	-12.291668
▁annual	-13.104724
▁infty	-18.956734
▁forced	-13.076515
▁leaving	-13.031239
▁Scottish	-11.577875
▁wall	-13.157357
▁Ku	-12.334703
▁covered	-13.003654
▁despite	-13.300569
▁receive	-12.192676
rie	-12.076758
▁bottom	-12.490282
▁Joe	-12.292333
▁Ri	-12.327417
▁Part	-11.994809
▁society	-12.961966
▁recording	-12.679011
▁seasons	-11.768699
▁News	-11.821581
▁Each	-12.658248
▁Far	-12.490022
pet	-12.607301
▁helped	-13.272808
▁feet	-13.056870
▁Michigan	-11.839563
rose	-12.814910
▁western	-13.297466
▁Williams	-12.286777
▁Middle	-12.120179
▁heat	-13.244036
cher	-12.502664
yard	-12.874777
▁Ki	-12.349204
▁Britain	-12.378701
▁Ju	-12.142138
▁Boston	-12.002475
▁photo	-13.020002
▁Section	-12.013145
▁dead	-12.752021
▁damage	-13.112377
▁workers	-13.103026
▁Prince	-12.551967
cre	-12.468101
nie	-12.517227
ena	-11.850485
▁Development	-11.391909
▁Show	-12.113687
▁Out	-11.829946
▁DNA	-13.381783
ery	-12.322266
▁census	-12.608550
hill	-12.718782
▁Special	-11.786946
▁Scott	-12.358387
▁latter	-13.214831
▁Main	-11.583046
▁Members	-11.106923
NY	-12.184752
▁choice	-12.795002
▁believed	-13.292954
▁Power	-11.973377
▁invention	-12.849931
met	-12.664285
▁Sho	-13.000168
▁mentioned	-13.018801
▁ratio	-13.081985
zo	-12.245303
▁stories	-12.741253
▁Sports	-11.328497
▁becomes	-12.764565
▁defense	-13.028938
▁Kar	-12.443652
▁Ya	-12.516949
▁toward	-13.066844
▁initially	-13.232431
▁exist	-12.448937
▁develop	-13.296725
▁minor	-12.656541
▁claimed	-13.250687
▁Well	-12.824667
▁Book	-12.103363
▁serving	-13.080782
▁formation	-13.261311
▁footballer	-12.248495
▁Dar	-12.419546
▁Win	-12.102684
sexual	-12.997557
▁plans	-13.000702
▁core	-12.703817
▁Field	-11.857034
▁edge	-12.450709
▁professor	-13.044028
▁marriage	-13.081853
tes	-11.837505
▁Military	-11.283603
SD	-11.087109
▁Live	-11.788017
▁defeated	-13.271140
▁paid	-13.131532
▁Like	-12.486525
▁fixed	-12.424512
▁Ke	-12.175183
ula	-12.140124
▁Illinois	-11.741769
chemical	-13.168689
▁park	-13.255916
▁Library	-11.835213
ological	-12.362384
▁learning	-12.961004
▁pair	-12.736514
▁filter	-11.864466
▁Federal	-12.264899
▁train	-13.234395
▁famous	-13.273490
▁judgment	-12.672650
▁rise	-13.282280
▁Despite	-13.486667
▁Hospital	-12.322834
▁Scotland	-12.057087
▁Columbia	-11.969808
ye	-11.954078
▁Little	-12.308710
▁issued	-13.031307
▁Eastern	-12.246086
ene	-12.269720
▁Ab	-12.174516
▁kept	-12.891835
▁Ram	-12.457487
▁layer	-12.381552
▁Sal	-12.371637
▁ended	-13.340137
▁component	-12.049511
dia	-12.096790
oma	-12.345506
▁treated	-13.221570
▁profile	-11.639784
cular	-13.009916
▁conference	-12.972447
▁Conference	-12.174106
▁Ana	-12.530834
▁injury	-13.179594
▁die	-13.142037
▁cast	-12.715220
ica	-12.022557
▁communities	-11.988491
mine	-12.790681
▁Justice	-12.394284
▁save	-12.020955
▁launch	-12.976120
▁fall	-12.554274
▁td	-14.847881
▁buy	-13.126293
▁FC	-11.313125
▁remain	-12.811821
▁hold	-12.255911
▁Social	-11.988449
▁Project	-11.851289
▁vs	-11.875627
▁Im	-12.126449
▁Police	-12.136425
▁increasing	-13.185422
▁phi	-14.595446
▁interview	-12.899242
▁anyone	-12.677160
▁providing	-13.036468
▁Georgia	-12.071371
[...]
