<unk>	0.0
<s>	0.0
</s>	0.0
<mask>	0.0
<pad>	0.0
<CLS>	0.0
<SEP>	0.0
<EOD>	0.0
▁▁▁▁▁▁▁▁▁▁▁▁▁▁▁▁▁▁▁▁▁▁▁▁	-1.0
▁▁▁▁▁▁▁▁▁▁▁▁▁▁▁▁▁▁▁▁▁▁▁	-1.0
▁▁▁▁▁▁▁▁▁▁▁▁▁▁▁▁▁▁▁▁▁▁	-1.0
▁▁▁▁▁▁▁▁▁▁▁▁▁▁▁▁▁▁▁▁▁	-1.0
▁▁▁▁▁▁▁▁▁▁▁▁▁▁▁▁▁▁▁▁	-1.0
▁▁▁▁▁▁▁▁▁▁▁▁▁▁▁▁▁▁▁	-1.0
▁▁▁▁▁▁▁▁▁▁▁▁▁▁▁▁▁▁	-1.0
▁▁▁▁▁▁▁▁▁▁▁▁▁▁▁▁▁	-1.0
▁▁▁▁▁▁▁▁▁▁▁▁▁▁▁▁	-1.0
▁▁▁▁▁▁▁▁▁▁▁▁▁▁▁	-1.0
▁▁▁▁▁▁▁▁▁▁▁▁▁▁	-1.0
▁▁▁▁▁▁▁▁▁▁▁▁▁	-1.0
▁▁▁▁▁▁▁▁▁▁▁▁	-1.0
▁▁▁▁▁▁▁▁▁▁▁	-1.0
▁▁▁▁▁▁▁▁▁▁	-1.0
▁▁▁▁▁▁▁▁▁	-1.0
▁▁▁▁▁▁▁▁	-1.0
▁▁▁▁▁▁▁	-1.0
▁▁▁▁▁▁	-1.0
▁▁▁▁▁	-1.0
▁▁▁▁	-1.0
▁▁▁	-1.0
▁▁	-1.0
▁	-1.0

	0.0
<0x00>	0.0
<0x01>	0.0
<0x02>	0.0
<0x03>	0.0
<0x04>	0.0
<0x05>	0.0
<0x06>	0.0
<0x07>	0.0
<0x08>	0.0
<0x09>	0.0
<0x0A>	0.0
<0x0B>	0.0
<0x0C>	0.0
<0x0D>	0.0
<0x0E>	0.0
<0x0F>	0.0
<0x10>	0.0
<0x11>	0.0
<0x12>	0.0
<0x13>	0.0
<0x14>	0.0
<0x15>	0.0
<0x16>	0.0
<0x17>	0.0
<0x18>	0.0
<0x19>	0.0
<0x1A>	0.0
<0x1B>	0.0
<0x1C>	0.0
<0x1D>	0.0
<0x1E>	0.0
<0x1F>	0.0
<0x20>	0.0
<0x21>	0.0
<0x22>	0.0
<0x23>	0.0
<0x24>	0.0
<0x25>	0.0
<0x26>	0.0
<0x27>	0.0
<0x28>	0.0
<0x29>	0.0
<0x2A>	0.0
<0x2B>	0.0
<0x2C>	0.0
<0x2D>	0.0
<0x2E>	0.0
<0x2F>	0.0
<0x30>	0.0
<0x31>	0.0
<0x32>	0.0
<0x33>	0.0
<0x34>	0.0
<0x35>	0.0
<0x36>	0.0
<0x37>	0.0
<0x38>	0.0
<0x39>	0.0
<0x3A>	0.0
<0x3B>	0.0
<0x3C>	0.0
<0x3D>	0.0
<0x3E>	0.0
<0x3F>	0.0
<0x40>	0.0
<0x41>	0.0
<0x42>	0.0
<0x43>	0.0
<0x44>	0.0
<0x45>	0.0
<0x46>	0.0
<0x47>	0.0
<0x48>	0.0
<0x49>	0.0
<0x4A>	0.0
<0x4B>	0.0
<0x4C>	0.0
<0x4D>	0.0
<0x4E>	0.0
<0x4F>	0.0
<0x50>	0.0
<0x51>	0.0
<0x52>	0.0
<0x53>	0.0
<0x54>	0.0
<0x55>	0.0
<0x56>	0.0
<0x57>	0.0
<0x58>	0.0
<0x59>	0.0
<0x5A>	0.0
<0x5B>	0.0
<0x5C>	0.0
<0x5D>	0.0
<0x5E>	0.0
<0x5F>	0.0
<0x60>	0.0
<0x61>	0.0
<0x62>	0.0
<0x63>	0.0
<0x64>	0.0
<0x65>	0.0
<0x66>	0.0
<0x67>	0.0
<0x68>	0.0
<0x69>	0.0
<0x6A>	0.0
<0x6B>	0.0
<0x6C>	0.0
<0x6D>	0.0
<0x6E>	0.0
<0x6F>	0.0
<0x70>	0.0
<0x71>	0.0
<0x72>	0.0
<0x73>	0.0
<0x74>	0.0
<0x75>	0.0
<0x76>	0.0
<0x77>	0.0
<0x78>	0.0
<0x79>	0.0
<0x7A>	0.0
<0x7B>	0.0
<0x7C>	0.0
<0x7D>	0.0
<0x7E>	0.0
<0x7F>	0.0
<0x80>	0.0
<0x81>	0.0
<0x82>	0.0
<0x83>	0.0
<0x84>	0.0
<0x85>	0.0
<0x86>	0.0
<0x87>	0.0
<0x88>	0.0
<0x89>	0.0
<0x8A>	0.0
<0x8B>	0.0
<0x8C>	0.0
<0x8D>	0.0
<0x8E>	0.0
<0x8F>	0.0
<0x90>	0.0
<0x91>	0.0
<0x92>	0.0
<0x93>	0.0
<0x94>	0.0
<0x95>	0.0
<0x96>	0.0
<0x97>	0.0
<0x98>	0.0
<0x99>	0.0
<0x9A>	0.0
<0x9B>	0.0
<0x9C>	0.0
<0x9D>	0.0
<0x9E>	0.0
<0x9F>	0.0
<0xA0>	0.0
<0xA1>	0.0
<0xA2>	0.0
<0xA3>	0.0
<0xA4>	0.0
<0xA5>	0.0
<0xA6>	0.0
<0xA7>	0.0
<0xA8>	0.0
<0xA9>	0.0
<0xAA>	0.0
<0xAB>	0.0
<0xAC>	0.0
<0xAD>	0.0
<0xAE>	0.0
<0xAF>	0.0
<0xB0>	0.0
<0xB1>	0.0
<0xB2>	0.0
<0xB3>	0.0
<0xB4>	0.0
<0xB5>	0.0
<0xB6>	0.0
<0xB7>	0.0
<0xB8>	0.0
<0xB9>	0.0
<0xBA>	0.0
<0xBB>	0.0
<0xBC>	0.0
<0xBD>	0.0
<0xBE>	0.0
<0xBF>	0.0
<0xC0>	0.0
<0xC1>	0.0
<0xC2>	0.0
<0xC3>	0.0
<0xC4>	0.0
<0xC5>	0.0
<0xC6>	0.0
<0xC7>	0.0
<0xC8>	0.0
<0xC9>	0.0
<0xCA>	0.0
<0xCB>	0.0
<0xCC>	0.0
<0xCD>	0.0
<0xCE>	0.0
<0xCF>	0.0
<0xD0>	0.0
<0xD1>	0.0
<0xD2>	0.0
<0xD3>	0.0
<0xD4>	0.0
<0xD5>	0.0
<0xD6>	0.0
<0xD7>	0.0
<0xD8>	0.0
<0xD9>	0.0
<0xDA>	0.0
<0xDB>	0.0
<0xDC>	0.0
<0xDD>	0.0
<0xDE>	0.0
<0xDF>	0.0
<0xE0>	0.0
<0xE1>	0.0
<0xE2>	0.0
<0xE3>	0.0
<0xE4>	0.0
<0xE5>	0.0
<0xE6>	0.0
<0xE7>	0.0
<0xE8>	0.0
<0xE9>	0.0
<0xEA>	0.0
<0xEB>	0.0
<0xEC>	0.0
<0xED>	0.0
<0xEE>	0.0
<0xEF>	0.0
<0xF0>	0.0
<0xF1>	0.0
<0xF2>	0.0
<0xF3>	0.0
<0xF4>	0.0
<0xF5>	0.0
<0xF6>	0.0
<0xF7>	0.0
<0xF8>	0.0
<0xF9>	0.0
<0xFA>	0.0
<0xFB>	0.0
<0xFC>	0.0
<0xFD>	0.0
<0xFE>	0.0
<0xFF>	0.0
0	-5.794244
1	-5.633485
2	-5.912547
▁x	-9.569701
3	-6.452230
4	-6.635851
6	-6.723268
8	-6.691194
5	-6.797476
7	-6.976673
▁the	-6.460762
9	-6.555443
▁if	-8.399648
s	-7.292234
▁t	-10.845953
▁define	-12.942424
▁int	-7.865934
▁const	-8.379242
▁return	-8.253418
▁void	-7.821919
▁a	-7.754224
▁to	-7.143318
▁i	-9.190169
▁is	-7.584081
▁of	-6.643110
▁for	-7.649105
▁struct	-8.735737
▁n	-10.184067
▁in	-7.003778
▁h	-11.920135
▁c	-10.086673
▁p	-9.896978
▁f	-10.805584
▁static	-8.000023
▁NULL	-8.439605
▁uint	-9.475796
S	-8.816296
D	-8.828311
▁char	-8.934307
▁and	-7.029448
▁include	-12.644400
▁b	-10.226633
▁size	-9.721695
▁get	-9.790603
▁data	-9.635965
▁m	-9.509642
▁else	-8.571292
d	-8.646890
▁value	-9.418727
▁this	-8.458991
▁u	-10.686307
▁case	-9.684616
▁set	-9.697728
▁endif	-10.777068
▁C	-9.732146
▁type	-10.162733
P	-9.502530
▁unsigned	-9.341750
▁be	-8.473934
C	-8.761144
p	-8.391969
▁e	-10.640990
▁d	-10.917712
▁bool	-9.259209
R	-9.575107
▁lean	-9.338671
▁v	-10.083015
r	-9.270324
▁std	-9.964594
▁T	-9.589248
A	-9.017065
▁object	-10.593944
▁break	-9.735395
▁The	-7.932688
▁param	-13.935170
▁not	-8.702866
▁that	-8.198772
▁name	-10.164352
▁error	-9.883998
▁This	-9.210521
x	-7.295151
▁or	-8.713240
▁string	-10.840882
▁with	-8.276794
▁pyx	-24.918876
M	-9.720388
F	-9.262621
T	-9.212666
▁from	-8.055503
ID	-9.575214
▁class	-8.897206
▁by	-8.172812
▁id	-11.561380
Type	-9.379661
▁sizeof	-10.077822
▁file	-9.717172
X	-9.421533
t	-7.884556
V	-9.878082
▁A	-8.656388
i	-8.464427
▁k	-10.481549
▁it	-8.647817
▁F	-10.157979
▁U	-10.478539
▁ret	-9.891166
▁arg	-11.981801
▁on	-8.279635
▁g	-10.712350
▁new	-9.671831
▁r	-10.441837
▁E	-10.243114
N	-9.997643
▁long	-9.734707
▁state	-10.326303
n	-8.162201
Set	-9.911147
e	-9.466978
I	-9.398402
B	-9.251797
▁H	-10.654236
▁index	-10.643650
▁B	-10.068937
f	-8.343280
▁buffer	-10.517790
E	-9.448867
▁xff	-19.729241
▁typedef	-9.098597
▁j	-10.765252
▁out	-9.533577
▁dev	-12.691268
v	-9.177068
▁are	-8.693704
▁l	-10.661592
▁result	-10.087463
▁len	-10.891852
ed	-9.071182
q	-10.096145
c	-8.629858
▁key	-10.608894
▁float	-10.700545
name	-8.773986
L	-9.472875
▁code	-10.226195
▁double	-10.419798
▁as	-8.312548
▁I	-8.827794
▁we	-9.338667
▁function	-9.718644
▁info	-11.831198
▁an	-9.109246
▁inline	-9.719610
id	-8.919444
Data	-9.786665
▁device	-10.793580
▁free	-10.815906
▁status	-10.478757
▁defined	-10.207020
U	-9.366740
W	-10.090784
y	-9.533970
▁goto	-10.776197
▁use	-9.751848
▁end	-10.718131
▁flags	-11.017066
▁ptr	-12.772175
▁read	-10.865043
▁buf	-11.449815
▁list	-10.204706
▁mode	-10.648148
ing	-9.415492
▁xFF	-22.667887
▁true	-9.609493
▁L	-10.326560
▁node	-10.967408
▁init	-12.218106
len	-9.388780
▁ctx	-12.180316
▁public	-8.679473
▁can	-9.282719
▁offset	-11.004826
▁false	-9.601920
▁at	-8.567847
type	-8.656720
▁num	-11.239218
▁start	-10.879993
▁count	-11.047226
▁OF	-9.992137
a	-9.020425
▁X	-10.750153
list	-9.527199
▁virtual	-10.620781
▁extern	-9.719507
▁ifndef	-13.244690
▁y	-10.765152
▁MAX	-12.329104
▁GL	-10.327612
▁ifdef	-12.486930
size	-8.845068
▁next	-10.770922
▁add	-11.093296
▁default	-10.472744
l	-9.791382
▁err	-10.302845
data	-8.766322
info	-9.399581
▁base	-11.016164
▁will	-9.419545
▁used	-9.739524
▁bit	-10.855051
▁write	-11.184605
▁w	-11.259727
▁context	-11.125601
▁CONFIG	-10.956096
▁has	-9.383342
▁License	-9.838471
H	-9.092584
▁ERROR	-13.313526
▁typename	-10.855932
▁OR	-10.163936
▁src	-11.296919
▁number	-9.970522
▁input	-10.689965
Value	-9.958680
Info	-10.055251
▁brief	-15.457047
O	-10.458371
▁length	-10.905544
Q	-10.240162
buf	-9.545419
Get	-9.875900
▁max	-11.135954
▁DEFAULT	-12.314121
▁tmp	-11.270522
▁current	-10.487898
▁template	-9.930926
▁all	-9.416565
Z	-10.285801
▁output	-10.757189
▁addr	-12.351334
▁test	-10.692317
▁entry	-11.241470
String	-9.809812
▁handle	-11.123901
▁event	-10.932288
API	-9.988883
Name	-9.943727
In	-10.207182
G	-10.018487
▁vector	-11.830586
CTRL	-10.987352
▁port	-11.458574
▁IS	-11.010851
▁block	-10.791840
▁UL	-16.766798
Size	-10.212663
▁while	-10.186005
▁copy	-10.546186
▁array	-11.076776
b	-8.979397
Y	-10.613982
▁IN	-10.484519
▁GPIO	-11.512500
▁property	-12.105616
ptr	-9.464543
▁If	-9.984246
u	-9.015582
▁TYPE	-14.036691
▁time	-9.922908
▁check	-10.809265
▁Get	-10.299646
List	-9.968588
▁INT	-11.795275
▁val	-11.575036
▁reg	-11.988672
▁str	-11.766278
Mode	-10.568086
State	-10.125790
▁op	-11.941628
▁first	-9.749207
▁namespace	-9.297715
▁address	-10.757583
set	-8.887240
▁have	-9.138462
▁must	-10.095430
▁PyObject	-10.490598
▁msg	-12.197799
▁THE	-10.047299
▁source	-10.486196
▁MASK	-13.939509
▁NO	-11.596800
Id	-10.264178
▁do	-9.783571
▁lock	-12.398698
m	-9.035376
o	-10.243522
Object	-10.038347
▁z	-11.383957
▁using	-9.906911
▁table	-10.832237
▁only	-9.869026
▁mask	-11.630320
▁may	-9.665532
▁request	-11.079445
▁memory	-10.780960
▁register	-10.852985
▁last	-10.592838
▁Copyright	-10.452617
str	-9.792519
IO	-10.509488
▁config	-12.177880
To	-10.275036
▁when	-9.673500
▁res	-11.247107
▁self	-11.219618
▁ANY	-10.433349
▁user	-10.983844
or	-10.109087
▁obj	-12.209947
▁any	-9.861055
h	-7.855977
TYPE	-9.729894
er	-10.079445
▁which	-9.335642
Index	-10.401958
▁hash	-11.580594
▁private	-9.497133
▁SIZE	-15.159247
Error	-10.211220
Status	-10.261179
▁dst	-11.724299
▁func	-11.823431
▁assert	-11.535504
▁target	-11.154788
▁xf	-16.902383
▁one	-9.521653
in	-9.076801
▁bytes	-11.088988
▁create	-11.071266
▁printf	-12.064013
Ptr	-10.542851
▁tx	-12.548321
▁should	-10.050543
▁message	-10.938106
▁no	-9.967595
▁enum	-10.143994
▁DMA	-11.542278
▁field	-10.852407
▁cmd	-12.187193
▁version	-10.556060
out	-9.512607
io	-10.121079
file	-9.674365
▁Pyx	-18.237614
▁path	-11.419394
Node	-10.487225
▁UINT	-11.300816
▁pointer	-10.782186
w	-9.797547
Buffer	-10.513547
▁Py	-11.458842
EN	-11.073766
▁mm	-13.287358
▁header	-11.338205
▁glad	-10.446495
▁you	-9.303938
▁line	-10.904232
Context	-10.475973
▁format	-11.232194
▁image	-11.264695
▁ADC	-11.687904
▁other	-9.762418
EXT	-10.631950
For	-10.912173
▁so	-9.892414
▁Lean	-14.971884
▁client	-11.694160
▁ctor	-17.495034
state	-9.483616
map	-10.089286
val	-9.591879
▁xe	-17.025131
▁frame	-11.536920
▁rc	-11.149366
▁o	-11.482076
db	-10.841314
IF	-11.086254
▁stream	-11.712710
▁G	-10.390237
▁xF	-22.845594
Count	-10.585544
▁xa	-17.316064
▁values	-10.735027
no	-9.908088
▁call	-10.876331
▁update	-11.431392
▁override	-10.523397
▁xc	-16.383204
▁operator	-10.876441
▁ERR	-13.196040
▁thread	-11.512857
▁under	-9.878716
▁module	-11.270833
▁switch	-11.478978
File	-10.465250
Is	-10.763701
▁REG	-13.026044
Key	-10.680027
line	-9.728657
▁HAL	-11.210110
▁but	-9.497676
Create	-11.020108
▁map	-11.676607
▁interface	-11.247041
▁USE	-11.223521
▁iVar	-12.085377
▁following	-9.907960
▁args	-12.021851
▁internal	-11.605922
Handle	-10.579184
key	-9.757948
▁idx	-12.375744
▁DEBUG	-12.418260
▁FALSE	-10.806250
▁CMU	-12.261384
K	-10.273917
▁GET	-13.128374
▁channel	-11.478011
Array	-10.620597
num	-9.843600
CR	-11.295359
dir	-10.712712
▁Windows	-11.720985
▁NOT	-11.258013
▁BIT	-12.789099
▁USB	-11.477541
UI	-10.870754
▁page	-11.012453
▁software	-10.390372
Base	-10.728892
▁queue	-12.007911
Register	-11.557553
Vector	-10.849128
▁send	-11.665290
▁BOOL	-11.829543
▁params	-12.519997
Request	-10.800387
▁xd	-15.925092
▁byte	-11.535373
code	-9.776498
▁SHIFT	-17.044478
▁width	-11.610155
time	-9.963455
▁server	-11.586202
▁level	-11.155931
▁callback	-11.451503
Check	-11.262388
▁method	-10.991898
▁local	-11.161701
▁command	-11.152842
▁xb	-18.011295
▁FOR	-10.776512
▁CHECK	-11.876522
▁volatile	-12.173745
▁without	-10.256090
int	-7.985518
Image	-10.912490
pos	-10.468816
▁sub	-11.754878
▁conn	-13.066079
on	-10.461750
Event	-10.696805
off	-10.870986
▁TO	-11.153438
PROC	-10.868810
▁DATA	-12.724907
▁ref	-12.874350
▁item	-11.791688
▁old	-11.082344
▁attribute	-12.279188
addr	-10.085680
▁load	-12.135786
to	-9.467743
▁AND	-10.708617
▁enable	-11.938570
Time	-10.827506
able	-10.174680
▁xE	-21.137916
ref	-10.173521
▁null	-11.590673
▁packet	-11.782914
Add	-11.063458
▁http	-11.424722
▁PIN	-13.679073
▁TRUE	-10.895944
Init	-10.767882
▁rx	-13.169663
▁OK	-12.939172
▁gl	-12.148369
Pos	-10.963447
J	-10.768153
▁cpu	-12.536224
▁hw	-13.563532
▁text	-11.537163
z	-9.878764
▁auto	-11.463038
if	-6.768738
▁ASSERT	-13.163923
▁bits	-11.622583
▁parent	-11.884401
es	-10.304719
▁dec	-14.958995
▁cur	-12.384394
Int	-10.929216
mode	-10.235281
fs	-10.817214
dev	-9.550917
SIZE	-10.113008
ON	-11.272714
▁left	-11.274054
▁retval	-11.906622
▁failed	-10.978976
▁window	-11.446745
ly	-10.230219
▁was	-8.586651
Function	-11.058537
▁priv	-13.741096
▁instance	-11.354095
Read	-11.209162
ED	-10.439999
System	-11.286546
count	-9.780666
end	-7.643625
▁SSL	-11.911507
al	-10.251777
IP	-11.227219
▁STATUS	-13.493627
k	-9.534578
Result	-10.775860
Map	-10.766663
▁mutex	-13.646690
log	-10.408588
▁log	-11.967564
▁OP	-11.972019
▁clear	-11.592954
▁find	-11.076282
▁need	-10.542997
LOC	-12.167091
▁Software	-10.787390
▁group	-11.131343
▁min	-11.909730
▁into	-9.859089
SET	-10.454171
▁req	-12.737201
Input	-10.922033
▁options	-11.646678
MODE	-10.695553
▁K	-10.618623
cp	-11.063524
▁LL	-12.216085
▁SET	-13.446562
▁Msk	-21.641001
lib	-10.863579
▁TIM	-12.358357
▁point	-11.058262
▁mem	-12.783156
▁CH	-13.506766
OR	-11.490170
VAL	-10.546737
DATA	-10.490190
▁flag	-11.548134
Mask	-11.277516
▁make	-10.576283
▁alloc	-13.435334
▁temp	-11.870476
max	-10.178017
g	-9.780355
▁row	-11.852624
▁xC	-20.962772
word	-11.281504
On	-11.204539
Write	-11.266324
▁task	-11.790506
Block	-11.101316
▁nonatomic	-12.909046
View	-10.796597
▁LOG	-13.479820
▁handler	-12.135837
op	-10.087842
▁reserved	-10.862491
▁RX	-13.149131
▁XFF	-19.476970
Offset	-11.137048
path	-10.295644
▁color	-11.665271
Config	-11.064351
get	-8.896430
▁re	-11.777588
Device	-10.952556
en	-9.388900
▁Returns	-10.841053
▁height	-11.792243
▁TX	-12.838755
MAC	-11.541980
▁pos	-12.082516
▁var	-11.668675
ctx	-9.925506
No	-10.862882
▁fd	-12.314230
▁reset	-11.840008
Address	-11.117430
▁exit	-11.100177
▁RTC	-12.152906
table	-10.185457
▁SUCCESS	-14.116231
Free	-11.087367
Table	-10.969402
err	-9.599641
▁GLenum	-12.265546
▁zero	-11.585087
▁range	-11.314501
▁host	-11.898287
▁then	-10.145938
DB	-11.087764
▁more	-9.807786
▁ENABLED	-13.997587
Stream	-11.053933
▁open	-11.381234
▁argv	-12.606297
▁short	-10.852630
ERR	-10.293519
▁VERSION	-15.530959
▁cache	-12.095306
▁non	-10.841404
▁driver	-11.624530
▁debug	-12.781054
CFG	-11.422547
IN	-10.594360
CLK	-11.528440
▁stack	-11.765519
▁fprintf	-11.733478
▁zend	-12.588674
▁print	-11.690674
value	-9.336635
CH	-11.277037
▁SOFTWARE	-10.881225
fd	-10.534911
▁CC	-12.918800
▁work	-10.484043
▁session	-12.129698
▁attr	-13.030569
OS	-11.364415
INT	-10.391101
▁found	-10.502419
▁element	-11.414345
Var	-10.199877
NV	-11.214992
▁given	-10.567797
▁system	-10.695024
Item	-11.005681
link	-10.625617
▁tag	-12.060859
▁put	-11.855310
▁SPI	-12.088039
▁See	-8.528013
▁each	-10.569551
With	-10.960154
▁USART	-12.457404
▁sc	-12.638232
Message	-10.946908
▁shared	-12.383880
New	-10.830328
index	-9.827136
▁NSString	-11.504531
▁RCC	-12.709831
stat	-11.156405
▁after	-10.080935
▁continue	-11.424065
▁hr	-11.999885
From	-10.949699
▁above	-10.658520
SEL	-11.615237
▁EXPORT	-13.156485
obj	-10.245926
▁control	-11.219787
▁desc	-13.585598
INFO	-10.490805
▁BASE	-14.570604
▁valid	-11.613553
si	-11.208761
▁parameter	-11.314642
Version	-11.400700
▁process	-11.030235
Start	-11.255528
box	-11.082563
▁yy	-11.326089
▁specific	-10.862942
spec	-11.393223
▁import	-11.190238
▁filter	-11.999267
▁called	-10.624412
mask	-10.457785
▁right	-11.016170
▁We	-10.345773
▁TEST	-12.410882
Callback	-11.249732
Test	-11.051497
Control	-11.485582
▁match	-11.415347
▁sys	-13.111459
Class	-11.055472
▁root	-11.862248
▁empty	-11.796468
▁GLuint	-12.278734
LOG	-10.501800
Source	-11.299786
▁functions	-10.890601
Number	-11.311246
▁ZEND	-11.642713
of	-10.375264
▁up	-10.119117
▁ok	-11.866396
▁see	-10.754120
sz	-11.251253
REG	-10.611185
Default	-11.557912
Length	-11.111133
▁HAVE	-11.163857
string	-9.195280
▁tree	-11.640103
ip	-10.792832
▁position	-11.172576
▁WARRANTIES	-10.993099
buffer	-9.882460
▁conditions	-10.704230
▁returns	-11.178947
▁timer	-12.204814
Update	-11.446437
Pointer	-11.501045
▁interrupt	-11.531528
▁cb	-13.131081
▁token	-12.171074
▁before	-10.382063
us	-10.374261
▁information	-10.407365
▁connection	-11.606240
Flags	-11.197366
▁EVENT	-12.047791
▁its	-9.927481
reg	-10.287894
▁access	-11.312474
Channel	-11.677325
▁done	-10.672226
▁st	-12.777959
▁notice	-11.142455
▁same	-10.488407
▁net	-12.124120
▁rights	-10.601206
node	-10.049330
cnt	-11.237250
pp	-11.041809
Instance	-11.184989
▁xA	-20.486206
▁env	-13.096782
▁part	-10.587657
up	-10.219596
▁INVALID	-14.044513
args	-10.546986
▁query	-12.045373
▁specified	-11.136772
ch	-10.717228
▁UART	-12.090860
st	-9.850296
▁STM	-12.510851
it	-10.759246
Color	-11.072466
▁INFO	-16.676742
▁nullptr	-11.252996
▁fp	-13.291966
ex	-11.194407
▁iterator	-12.802140
▁there	-10.019938
▁dest	-12.534654
End	-11.199195
▁tp	-12.845151
Client	-11.106241
▁pragma	-13.670446
Path	-11.081974
▁FILE	-12.386372
Command	-11.296032
▁AS	-12.679248
is	-9.384241
▁INCLUDING	-11.825502
▁remove	-11.973992
▁option	-11.614339
Global	-11.639390
All	-11.326846
port	-10.283700
▁timeout	-12.159445
▁ip	-12.501405
▁push	-12.809926
▁END	-12.384911
bits	-10.912135
me	-11.253771
▁provided	-10.798111
Matrix	-11.333858
▁cast	-12.719168
▁binary	-11.373214
▁org	-13.155064
Format	-11.142062
▁than	-10.183124
▁clock	-11.759805
▁irq	-13.305003
Out	-11.199445
OUT	-11.098488
idx	-10.626906
▁program	-11.047349
▁main	-10.848652
arg	-9.652299
Code	-11.233122
▁NONE	-16.022587
▁linux	-15.546918
Text	-11.006036
▁order	-10.848614
▁MIN	-13.696048
▁copyright	-11.047384
base	-10.063768
Ref	-10.905340
▁delete	-11.871336
▁HRESULT	-11.233900
▁STATE	-13.847332
▁skb	-12.788034
▁wait	-12.154717
sec	-10.823556
▁closed	-12.459142
▁global	-11.910407
▁PFNGL	-11.452746
cb	-10.813583
▁VALUE	-12.788102
▁loop	-11.696772
▁head	-11.768958
md	-11.460943
IC	-11.672039
▁MODE	-14.831645
ER	-11.536695
▁iParam	-12.697393
min	-10.737844
CTL	-11.552239
▁memcpy	-13.030198
▁com	-13.698673
▁response	-11.354330
▁READ	-13.901210
var	-10.300376
▁structure	-10.917266
▁ARG	-14.979808
▁my	-10.289087
▁ext	-13.417046
▁DWORD	-11.206312
Output	-11.238441
▁parameters	-11.250076
MASK	-10.515155
PC	-11.844374
▁active	-11.864418
func	-10.387688
▁operation	-11.285892
▁total	-11.410295
▁distributed	-11.358339
Point	-11.336677
ING	-10.988756
▁unit	-11.891813
▁required	-11.028993
Handler	-11.279774
▁You	-10.375070
▁close	-11.804114
▁parse	-12.281048
▁opt	-13.144400
▁TIMER	-12.800448
▁prev	-12.840619
▁Pos	-15.016613
▁enabled	-11.723063
▁ENABLE	-14.123207
▁per	-11.441773
Model	-11.425529
NAME	-10.626136
array	-10.243187
Num	-11.350456
▁available	-10.932982
Max	-11.465032
▁PORT	-13.556032
▁filename	-12.789315
▁been	-9.876941
▁vec	-12.436303
▁begin	-12.355973
▁real	-11.542177
▁inc	-14.880117
flags	-10.015822
Window	-11.246426
char	-9.354357
▁core	-12.699034
▁xB	-20.785082
▁THIS	-11.380053
▁child	-11.616331
▁exception	-12.249100
▁pool	-12.494195
▁un	-12.702375
▁unlock	-14.157587
DMA	-11.284713
▁resource	-12.216288
Frame	-11.325633
▁move	-12.072490
▁NRF	-11.559278
▁DEVICE	-14.738492
block	-10.494639
MAP	-11.369103
▁common	-11.615738
▁WRITE	-14.492996
KEY	-10.923214
▁argument	-11.532746
▁GLint	-12.273093
Timer	-11.522771
▁ps	-13.469803
ARB	-11.593244
Module	-11.308267
▁either	-10.923937
LIST	-11.344667
▁here	-10.426787
▁mp	-12.679303
Filter	-11.435368
re	-10.063914
▁signal	-12.119923
Memory	-11.316352
▁undef	-14.848710
▁raw	-12.694323
lock	-10.160452
▁Shifted	-12.454031
▁matrix	-11.730611
TIME	-11.467250
LIB	-11.252708
Port	-11.608460
mem	-10.590015
ST	-11.794390
▁variable	-11.603409
an	-10.867650
VM	-11.731345
net	-10.455714
▁Foundation	-11.420381
Entry	-11.290137
▁release	-11.816325
free	-9.433799
▁insert	-12.809370
j	-10.016089
▁GLAPI	-11.227888
▁inode	-12.806747
Op	-11.564091
▁STRING	-14.624665
SC	-11.762833
▁fail	-11.151865
▁fields	-11.523307
▁cfg	-13.556752
msg	-10.252422
▁CMD	-13.415203
▁KEY	-13.128600
▁returned	-11.136281
Position	-11.578633
th	-9.502638
▁does	-10.768342
▁xD	-19.287856
▁OUT	-11.939684
be	-11.108460
▁FLAG	-15.260605
▁kernel	-12.329840
▁socket	-12.192051
Call	-11.684945
▁ch	-12.397873
OP	-10.686556
▁license	-11.438084
▁SDL	-12.023532
Local	-11.450539
▁GNU	-11.245950
ADDR	-11.219031
nr	-11.503436
Manager	-11.169896
▁PRS	-13.403076
▁top	-11.460313
▁CAN	-12.434839
▁link	-11.934561
▁disable	-12.158630
rs	-11.123605
▁label	-12.454854
▁INLINE	-14.839336
col	-11.057016
STATUS	-10.520256
▁Bit	-11.641527
▁www	-13.811569
Property	-11.485567
Group	-11.277164
▁WTIMER	-13.263294
▁pin	-12.343205
▁change	-11.167881
DIV	-12.144123
Options	-11.369656
▁two	-10.051303
▁errno	-12.935821
Element	-11.329262
▁AF	-12.791361
▁integer	-11.809287
FS	-11.548159
IS	-10.604862
▁EFI	-11.375760
▁BE	-11.806281
ps	-10.901891
Field	-11.431615
▁already	-11.044451
Expr	-11.620492
le	-10.834729
▁malloc	-12.652878
▁pg	-12.807441
▁texture	-12.779459
sw	-11.583578
MC	-11.915690
ce	-11.462871
Bit	-11.993252
start	-9.693895
ic	-11.396038
▁def	-13.729665
▁stats	-12.881586
▁expected	-11.752063
▁IMPLIED	-11.408504
▁OFFSET	-16.593896
▁location	-11.675727
▁APIENTRYP	-16.555418
▁INIT	-14.866237
▁stderr	-13.448568
▁strcmp	-14.427954
▁memset	-12.955877
▁elements	-11.664844
▁action	-11.518117
▁pre	-12.205077
▁Interrupt	-11.769041
res	-10.259549
▁column	-11.936023
DC	-11.676089
ent	-11.535425
▁SYS	-13.470590
▁stop	-11.985637
AL	-11.465510
▁strlen	-12.097519
Interface	-11.254876
▁run	-11.309006
chan	-11.805385
▁xffff	-46.956912
cmd	-10.464703
▁configuration	-11.390954
our	-13.062358
▁json	-12.627628
cm	-11.242307
▁wpa	-12.720826
Clear	-11.756859
▁constexpr	-11.663580
END	-10.347493
ar	-10.954302
▁iface	-14.079582
▁view	-11.885853
class	-9.726487
ld	-11.311996
▁invalid	-12.140272
▁cursor	-12.645350
▁FUNCTION	-14.375000
▁argc	-11.982270
CMD	-11.098425
test	-10.197209
▁RPC	-13.679214
▁some	-10.261197
▁once	-10.520752
IT	-11.859263
Line	-11.425430
Header	-11.473054
Log	-11.640527
▁prefix	-12.470960
Core	-11.525589
User	-11.605367
rv	-11.380561
▁where	-10.333281
PS	-11.892107
▁MSG	-13.312407
ion	-11.221316
▁single	-11.046159
▁display	-11.852241
▁destroy	-13.660433
MM	-12.140527
▁full	-11.378369
▁RETURN	-13.733712
bl	-12.304399
bit	-10.410172
▁LIMITED	-11.467873
STATE	-10.804066
sd	-11.707215
space	-11.207858
▁app	-12.291782
▁chip	-13.068978
Val	-11.687256
▁asn	-12.970220
▁LICENSE	-11.893097
▁types	-11.615096
Release	-11.331778
Flag	-11.847232
tab	-11.646980
con	-11.367255
DEV	-11.400185
Range	-11.546031
SW	-11.975114
Current	-11.685100
▁protocol	-12.405928
▁BUT	-11.482490
Query	-11.293220
Enable	-11.859014
▁unique	-12.603515
Load	-11.484272
cache	-10.799129
Reg	-11.812799
▁section	-11.683428
NET	-11.447902
▁epi	-16.186116
Thread	-11.412637
▁depth	-12.600027
▁WITHOUT	-11.382457
▁success	-11.395908
Obj	-11.682022
▁store	-11.846061
Open	-11.794350
PP	-11.997342
▁implementation	-11.460917
▁ap	-13.209445
im	-11.438475
▁impl	-13.181212
▁It	-9.769883
▁TRACE	-13.426723
▁don	-10.889000
CB	-11.848804
PTR	-11.314477
Response	-11.514441
Str	-11.601144
▁NUM	-13.926458
Description	-11.901678
Cache	-11.486174
▁try	-11.277518
▁reference	-11.565269
▁parser	-12.836189
▁service	-11.103459
▁prop	-13.423329
at	-10.792882
▁descriptor	-12.308196
▁just	-10.472738
offset	-10.183953
gl	-9.870261
▁model	-11.502897
cast	-11.075553
UP	-11.486406
sh	-11.491644
pm	-11.600581
▁now	-10.558779
▁sk	-13.017263
Service	-11.424053
▁rt	-12.927806
▁None	-11.291178
▁COLOR	-15.210992
Server	-11.620077
fc	-11.739433
desc	-10.919207
▁mono	-12.655700
▁save	-12.037322
▁rhs	-12.133770
priv	-10.766598
flag	-10.981067
GEN	-11.867534
▁ui	-12.983386
▁setup	-12.353873
LEN	-11.234128
LP	-11.795264
▁PURPOSE	-11.357412
▁supported	-11.542199
BUF	-11.603341
▁record	-10.991882
▁sp	-12.627417
▁win	-12.216330
STAT	-11.895490
config	-10.314082
▁entries	-12.203788
▁pci	-13.228270
▁FIELD	-14.933966
▁SHA	-13.400045
▁power	-11.359269
▁LIABILITY	-11.742884
▁ssl	-13.235057
Sub	-11.636011
▁ss	-13.349091
iv	-11.655800
Lock	-11.606674
▁HANDLE	-13.886414
back	-10.494773
▁CPU	-12.265430
▁dma	-13.461244
hash	-10.666162
AC	-11.931663
▁ARRAY	-13.470929
Hash	-11.643296
Copy	-11.181937
▁back	-10.979255
RC	-11.897007
Len	-11.650810
Char	-11.578251
pd	-11.686159
▁lua	-12.869139
And	-11.199026
printf	-10.362836
rec	-11.726267
▁Return	-11.003454
hdr	-11.264074
▁FITNESS	-11.355613
Param	-10.855911
▁space	-11.397154
▁details	-11.357507
▁MERCHANTABILITY	-11.338456
▁also	-8.374995
CC	-11.280773
error	-9.540041
▁col	-12.705708
▁ULONG	-11.601994
Desc	-11.714442
Level	-11.743062
▁slot	-12.484088
cfg	-11.201157
req	-10.876146
▁sqlite	-12.269742
▁WITH	-12.267134
▁style	-10.905605
▁ssize	-12.410414
▁unlikely	-13.753613
Target	-11.722497
▁convert	-12.264150
▁Elab	-17.915527
▁usb	-12.675444
▁atomic	-13.946524
FILE	-10.863235
▁because	-10.651503
▁gpio	-13.576157
Reset	-11.561807
▁PA	-12.818402
GC	-12.009961
Arg	-11.864369
REF	-10.607474
RAM	-12.228273
▁written	-10.795866
PR	-12.049098
▁uParam	-14.088970
▁General	-10.473221
▁os	-12.416828
▁PARTICULAR	-11.378772
▁proto	-13.310031
url	-11.807062
TABLE	-11.666094
UL	-10.758886
FIFO	-12.021768
▁PCI	-12.433173
▁Public	-10.605038
mi	-11.517170
▁MBEDTLS	-12.124537
ation	-11.005244
▁chunk	-12.601074
▁modify	-11.676465
▁names	-11.407305
def	-8.636408
▁CONST	-13.315678
▁FT	-12.023023
▁content	-11.636352
Exception	-11.298406
▁region	-11.751993
▁ops	-14.813803
▁All	-10.186552
▁adapter	-12.941488
level	-10.819066
FD	-11.646520
▁NAME	-14.823933
▁GB	-12.019251
LE	-11.880159
▁received	-11.057338
Bits	-11.755566
ob	-11.697991
pc	-11.434139
Task	-11.687490
▁PWM	-12.582048
range	-11.191734
▁skip	-12.211692
TDMETHODCALLTYPE	-11.688550
read	-9.961373
▁heap	-12.554357
▁tuple	-12.891804
▁macro	-12.527351
Func	-11.675089
▁union	-11.046400
▁Enable	-11.590681
sp	-11.067968
tree	-11.032201
▁php	-14.022602
Tx	-11.845257
▁library	-11.512085
Process	-11.815718
▁png	-12.990881
▁ff	-14.683990
sc	-10.985829
PORT	-11.089234
loc	-11.854202
If	-11.475606
▁NS	-12.306604
Internal	-11.905681
Send	-12.002011
▁second	-10.946066
▁MEM	-13.807082
sub	-10.518662
▁your	-10.082052
▁high	-11.140164
▁peer	-12.813201
▁DECL	-12.892323
▁dw	-12.729238
mat	-11.818525
▁platform	-12.175580
▁multi	-12.456846
Vec	-12.051322
are	-12.314306
NO	-10.205580
▁whether	-11.155907
▁append	-13.393316
▁support	-10.926354
▁otherwise	-11.410010
▁stride	-13.163643
▁hdr	-13.978163
▁seq	-13.220824
AR	-12.118102
proc	-11.443678
CON	-11.723744
▁ngx	-12.139199
▁always	-11.300979
▁ep	-13.603642
CM	-11.545954
▁WIN	-13.235038
Meta	-12.295801
▁final	-11.141315
SR	-12.122619
▁IRQ	-13.244718
▁Note	-11.325790
point	-10.884791
Page	-11.558591
FLAG	-11.235710
GL	-10.363592
Token	-11.689461
CF	-12.025502
load	-10.657189
stream	-10.380217
TS	-11.959337
▁noexcept	-11.908764
SP	-11.788238
▁PIO	-13.389572
▁symbol	-12.395145
▁spin	-14.162030
▁FUNC	-14.465180
AP	-11.882708
Shift	-12.125531
▁assign	-13.023133
call	-10.720023
As	-11.606358
▁ATTR	-15.031285
Resource	-11.833194
script	-11.577572
▁VK	-12.355903
▁layer	-12.289068
blk	-12.012597
▁show	-11.325085
IR	-12.129094
mul	-12.091338
▁xFFFF	-21.510417
▁bp	-13.484107
core	-10.942489
▁UNUSED	-13.579828
SM	-12.502869
▁files	-11.576183
▁GLsizei	-12.739363
▁tcp	-13.262988
Params	-11.794504
▁rate	-12.117863
▁font	-12.555594
▁allocated	-12.108102
▁bus	-12.541506
os	-10.802346
LOAD	-11.984170
▁Aws	-12.035070
do	-10.427297
▁contains	-11.496022
▁settings	-12.043693
dt	-11.977624
and	-10.602901
CL	-12.439591
sm	-11.647841
▁extra	-12.235361
▁since	-10.986958
rc	-10.477517
▁expr	-13.101957
▁runtime	-12.732380
▁FF	-14.443599
Queue	-11.813204
page	-10.826771
EP	-12.057404
▁sequence	-11.941840
▁failure	-11.710709
Msg	-11.859846
Failed	-11.891202
host	-10.909474
Impl	-11.700852
▁readonly	-12.699151
gen	-11.317221
▁counter	-12.249533
xml	-11.652398
▁snd	-12.640229
▁XF	-16.550991
▁BEGIN	-12.866030
Debug	-11.865784
DIR	-11.744383
lo	-11.638771
▁EINVAL	-13.144031
ad	-11.601262
Clock	-12.447857
▁bad	-11.642031
▁needed	-11.484339
Width	-11.753683
▁search	-11.916414
write	-10.131403
▁between	-10.469239
as	-10.529311
▁transaction	-11.915751
SRC	-12.064504
▁dump	-13.074650
▁BLE	-12.809163
ctl	-11.608221
Access	-12.025923
ca	-11.482608
▁note	-12.808981
Of	-11.435637
▁events	-11.024352
Iterator	-11.720169
▁surface	-12.383423
stack	-11.123416
sel	-11.702027
TX	-11.066266
TO	-11.126558
frame	-10.800158
all	-10.970129
PB	-12.253245
▁rb	-13.070519
▁component	-12.226746
Attribute	-11.781828
act	-12.230005
▁RT	-12.289648
▁pending	-12.697450
MOD	-11.959775
tb	-12.031836
▁scan	-12.617954
mp	-11.277645
cd	-12.033205
IE	-12.108682
CHAR	-11.549960
status	-9.962466
Struct	-11.920570
▁elif	-13.295688
▁USER	-12.850506
▁de	-10.376780
▁sample	-12.345327
Delete	-11.636146
▁select	-12.273295
vec	-11.398527
▁implied	-11.498518
▁generated	-11.711777
co	-11.335115
Action	-11.638220
▁arguments	-11.653298
Method	-11.686519
AN	-12.550494
ee	-11.764211
▁lpVtbl	-16.411508
Invalid	-11.770986
nd	-10.893202
Store	-11.963913
▁KIND	-11.836011
▁pixel	-12.813883
uc	-12.023425
▁le	-13.072022
▁documentation	-11.558227
▁sock	-13.260087
▁pkt	-13.823314
▁comp	-13.556055
▁transfer	-12.024633
Tag	-11.806705
Next	-11.648483
DE	-11.861090
▁COPYRIGHT	-11.749800
▁ROUTE	-16.913476
▁except	-11.515763
PATH	-11.754689
Bool	-11.735556
▁va	-12.463121
pa	-11.489280
▁protected	-10.300097
ast	-12.175311
EM	-12.411293
Texture	-11.778614
oid	-12.020587
Stack	-11.767027
cs	-11.140195
▁LEVEL	-16.909095
▁LONG	-13.304684
parse	-11.241860
▁rd	-13.727965
em	-11.438964
seq	-11.423562
tt	-11.935662
Float	-11.844533
conf	-11.399156
▁objects	-11.701108
FLAGS	-12.002429
row	-10.886290
▁xFFFFFFFF	-87.804028
▁shape	-12.619722
▁fmt	-13.079694
▁iter	-13.487032
init	-9.744621
opt	-11.034065
▁got	-11.577332
BC	-12.162903
el	-10.821404
By	-11.727672
▁character	-11.387888
▁tv	-13.612647
▁payload	-12.605987
types	-11.124154
mm	-10.579853
▁dim	-13.376654
OFF	-11.920310
▁being	-10.617541
▁description	-11.746408
▁associated	-11.386196
bytes	-10.913429
▁llvm	-12.627393
▁phy	-13.921482
REQ	-12.027311
▁application	-11.536889
▁draw	-12.122647
Use	-12.154892
Parser	-12.031684
tag	-11.026520
▁directory	-11.836599
SUB	-11.893312
Mem	-11.886580
Return	-11.978515
▁terms	-11.245056
▁mac	-13.351471
▁even	-10.827616
▁storage	-12.288235
cr	-11.981892
Tensor	-12.283427
STR	-11.114756
▁disclaimer	-11.662701
▁trace	-12.837837
Select	-12.336337
▁container	-12.616235
▁DEF	-13.346591
▁STR	-14.559722
Display	-11.771571
vm	-11.120231
▁network	-11.711685
▁ARM	-12.967953
vp	-12.068144
graph	-12.054397
ue	-12.503314
▁CODE	-12.939770
▁vscale	-16.189287
▁want	-11.021181
BASE	-11.049747
Buf	-11.980637
▁retain	-12.120924
ms	-11.296200
MS	-11.964573
Connection	-11.707786
▁domain	-12.544275
ct	-12.032795
▁emit	-12.687764
▁ring	-13.154522
▁remote	-12.634280
▁reply	-12.991976
NS	-10.544138
CA	-12.060666
▁sym	-13.213589
IM	-12.157407
Rect	-11.966994
Print	-12.119736
▁td	-14.283240
▁alpha	-12.751676
▁cs	-13.474854
▁about	-9.850754
direct	-12.292191
Packet	-12.031371
OK	-10.329330
▁MODULE	-13.208501
▁mod	-13.300463
pt	-11.315443
▁limit	-12.299080
di	-11.581183
POS	-12.450134
NUM	-11.264408
Parameters	-11.534325
▁optional	-12.406443
▁bcm	-12.641533
lower	-12.445950
YTHON	-11.978392
▁cleanup	-11.715546
▁conf	-14.126868
▁ADD	-14.006954
▁basic	-12.473906
bd	-12.086804
Addr	-12.037844
OF	-11.323679
util	-11.389707
▁build	-12.004882
▁stbi	-12.579962
Find	-12.464558
ret	-9.300123
Configuration	-11.812057
▁sent	-11.765286
assert	-10.319623
App	-11.809523
CORE	-11.908844
▁ADDR	-15.723380
RX	-11.106946
alloc	-10.635439
fn	-11.063804
less	-11.510099
attr	-11.050304
Descriptor	-11.894157
▁NEXT	-14.679437
STREAM	-12.023188
▁these	-10.533104
CMP	-12.478209
▁LINE	-14.823851
▁EXTI	-13.282130
▁licenses	-13.485820
MEM	-11.238845
Byte	-11.930517
BIT	-10.807519
First	-11.873501
seg	-12.341863
▁equal	-12.325291
▁Redistributions	-11.746097
▁ASN	-13.316098
Controller	-11.761075
eq	-11.615032
▁cplusplus	-18.581565
RT	-11.600663
▁sig	-12.952294
CI	-12.282204
▁created	-11.158612
▁bitmap	-13.099401
▁complete	-11.954629
MAX	-10.010901
entry	-10.335720
▁could	-10.609459
▁OBJECT	-14.964992
UART	-11.604269
▁language	-11.430641
Parse	-11.776077
dm	-12.105026
▁sum	-12.330788
mv	-12.239246
ts	-11.104141
Button	-11.707847
Args	-11.957748
Session	-11.851095
cc	-11.298669
▁PHP	-12.108440
▁points	-11.541637
▁DAMAGES	-11.886567
▁START	-13.794477
▁lp	-13.121563
▁decode	-13.367482
CODE	-11.020900
▁they	-9.982554
rel	-11.367907
px	-11.407965
▁ctrl	-14.368565
field	-10.626873
▁pthread	-12.428531
WORD	-11.542218
div	-10.748440
format	-10.783450
rep	-12.440842
▁cannot	-11.580673
▁permission	-11.538888
▁Inc	-11.355555
Identifier	-11.850920
FP	-12.006456
Kind	-11.984713
▁lookup	-13.140203
▁SR	-13.858438
context	-10.270503
▁HAS	-13.894488
▁body	-11.802226
am	-11.466120
gp	-12.309187
▁them	-10.376786
ie	-11.523122
width	-10.664914
▁BT	-13.042057
▁vertex	-12.945867
add	-10.036943
length	-10.275385
▁compiler	-12.426341
▁RESET	-14.697088
▁shader	-13.308166
Not	-11.993638
shift	-11.873091
Label	-11.735242
▁AES	-13.467689
▁FROM	-12.200241
▁STATIC	-12.712699
PE	-12.413237
▁EVP	-12.618099
RNA	-12.724878
▁BUFFER	-16.046025
object	-9.940807
CU	-12.135537
Host	-11.966496
▁spi	-13.378317
▁CTX	-15.517185
Pin	-12.451228
▁pipe	-12.964843
low	-11.721762
▁PG	-13.078235
▁scalar	-12.895257
mt	-12.092857
RGB	-12.103348
ALL	-11.686300
Tree	-11.842597
▁google	-14.345262
▁through	-10.608598
se	-11.517625
▁FLASH	-13.088382
▁LENGTH	-17.100815
▁cc	-13.161017
▁friend	-11.732956
Min	-12.129652
lp	-11.057250
DIS	-11.963304
▁opcode	-12.875558
▁expression	-11.798224
sync	-11.505917
▁metadata	-12.648107
not	-11.029521
sl	-11.552907
tx	-10.653791
▁extension	-12.385243
VAR	-11.570608
▁regs	-14.435631
EQ	-12.080334
▁based	-10.624112
Layout	-11.686038
Record	-11.926342
group	-10.444016
▁TLS	-13.062302
PT	-12.164622
▁changed	-11.844559
▁INPUT	-14.263708
scan	-11.495368
▁writing	-11.458934
▁priority	-12.442389
▁MP	-12.516396
bar	-11.493214
ctrl	-11.445605
▁buff	-14.390501
nv	-11.946966
▁ABI	-13.200595
MB	-12.463293
ack	-12.392311
▁ARGS	-15.834025
Link	-11.944568
Cmd	-12.009544
Re	-11.884672
ok	-11.217755
PD	-12.264633
ib	-12.127940
▁CLASS	-14.909304
FRAME	-12.223461
rt	-11.243100
FE	-12.055199
SI	-12.709502
▁winrt	-13.590406
Font	-11.987572
▁selected	-11.874637
br	-11.669179
▁connect	-13.104549
clk	-11.640515
▁setting	-11.884786
▁pattern	-12.417863
LL	-11.382629
▁INTERFACE	-16.076760
▁distribution	-11.390996
ME	-12.249958
ci	-11.769472
▁compare	-12.787291
ge	-11.659367
▁step	-12.096328
▁cl	-12.905682
▁passed	-11.685811
▁bfd	-12.671062
▁LIABLE	-11.923893
dma	-11.391429
▁PROVIDED	-11.992048
ab	-11.812052
rp	-12.088329
OID	-12.351981
▁bt	-13.014565
▁explicit	-12.049334
▁drm	-12.568921
Library	-12.147829
▁BYTE	-13.362250
▁GLfloat	-12.865374
ui	-11.208809
DS	-12.009209
URL	-11.963169
▁DISABLE	-15.185869
Un	-11.675985
▁SHALL	-11.950291
ES	-11.935045
pass	-11.807274
▁netdev	-13.038315
▁fn	-14.323887
▁instead	-11.520494
▁later	-10.882551
Change	-12.044071
▁errors	-12.078916
SS	-12.200624
pool	-11.334133
▁generic	-12.809590
ai	-12.073115
▁DECLARE	-12.885255
▁pdev	-14.290207
▁encoding	-12.594947
CD	-11.030839
▁channels	-12.258209
cl	-11.414601
▁member	-11.414233
▁EXPRESS	-12.005463
view	-11.089803
mod	-11.312912
▁FAIL	-12.930836
api	-11.457203
▁WHETHER	-11.951719
mon	-11.806564
▁delta	-12.933910
▁recv	-13.701005
▁OTHER	-12.210468
Parameter	-11.948353
dy	-11.672053
CAP	-12.091975
▁DECREF	-17.502231
▁wx	-12.659477
▁maximum	-11.903955
▁such	-10.548836
▁master	-12.550096
Make	-12.710729
DR	-12.641101
BB	-12.162531
▁AUTO	-14.485892
ns	-11.193209
▁screen	-12.347111
▁delay	-12.841674
CONF	-12.203208
▁FAILURE	-13.182615
Idx	-12.278233
▁flow	-12.719507
Ex	-12.022103
Remove	-12.491571
pl	-11.877591
▁CRYPTO	-13.929994
▁ds	-13.747737
▁methods	-11.649390
▁allow	-11.872550
gt	-12.318017
▁vm	-13.562106
▁low	-11.805438
open	-10.744184
▁elem	-13.637990
Media	-12.095686
▁inst	-14.186056
tmp	-10.352790
▁cap	-13.589888
▁MPI	-12.863722
▁previous	-11.752629
▁PHY	-13.327389
Rx	-12.260224
▁actual	-12.035589
Reference	-12.096437
▁gen	-13.201117
ac	-11.639005
ba	-11.284376
GROUP	-12.122192
Operation	-12.134024
SL	-12.559193
▁pid	-13.046227
▁flush	-13.151154
check	-10.513646
▁LEN	-17.122467
ia	-11.216796
LOW	-12.325364
arch	-12.073954
▁PYX	-18.693923
LINE	-11.442905
▁possible	-11.342265
SYNC	-12.193962
▁METHOD	-15.747581
▁mapping	-12.671823
▁items	-12.342169
▁scale	-12.283487
text	-10.287271
pack	-11.865447
Transform	-12.048903
▁verify	-13.101444
▁ARISING	-12.076602
▁Apache	-11.950061
▁both	-10.820011
▁allocate	-12.365846
▁fill	-12.539667
ERROR	-9.876910
result	-9.866008
PAD	-12.483639
▁safe	-12.541019
xx	-11.736085
▁rel	-13.411520
▁BLOCK	-14.318250
lc	-12.046836
▁term	-12.023053
STRING	-11.076078
TAG	-11.739882
▁ns	-13.577873
FILTER	-12.163503
▁kind	-12.066732
GP	-12.474112
▁edge	-12.358427
sa	-11.261490
Layer	-12.048269
▁APP	-12.681920
CP	-12.313661
▁mk	-14.209081
fp	-11.052014
Decl	-12.139958
▁too	-11.214126
Settings	-11.990206
▁li	-14.120642
ext	-11.046490
▁segment	-12.601548
DEF	-11.458919
▁INTERNAL	-15.340862
ir	-11.935789
CNT	-12.590724
BUFFER	-11.381018
Storage	-11.962073
LOCK	-11.694327
ix	-12.112518
bc	-12.103257
▁uni	-14.761657
▁initialize	-12.300623
Container	-11.917909
ops	-11.279590
pg	-11.408150
At	-11.931947
▁form	-11.142786
▁WINAPI	-11.860008
▁area	-11.151099
Only	-12.471464
▁AV	-12.425108
▁PTR	-14.135203
▁CONTRIBUTORS	-11.986166
▁pair	-12.834079
TEST	-10.957607
win	-10.999611
▁including	-10.892858
CK	-12.278961
▁factor	-12.220557
▁sa	-13.352394
▁nb	-13.272343
▁mark	-12.350901
▁clk	-13.734919
▁NI	-12.941344
CSR	-12.541793
un	-9.198155
vector	-10.259513
▁multiple	-11.456131
▁PAGE	-13.522785
▁TODO	-12.000231
STRUCT	-12.175081
▁ROM	-13.268717
▁sin	-13.666054
▁different	-10.999818
Term	-12.561919
SIG	-11.912097
bi	-11.770678
▁merge	-12.650363
▁CALL	-15.239919
MUX	-12.216537
RM	-12.898698
▁post	-11.850085
red	-11.722381
RES	-12.250322
▁controller	-12.458028
scale	-11.595279
SH	-12.345578
▁apache	-14.643523
▁usage	-12.208341
rm	-11.578417
▁original	-11.255093
▁stmt	-14.273802
▁external	-12.315825
▁SD	-12.738589
qp	-12.513972
Match	-12.365411
ul	-11.138667
Protocol	-11.995529
MD	-11.982969
queue	-10.770909
▁example	-11.225368
ht	-12.309847
▁ipv	-13.585229
CALL	-11.295014
▁warning	-12.577204
per	-11.035567
▁report	-11.979161
SEC	-12.342601
Row	-12.076795
VA	-12.430700
▁xFE	-19.465814
▁https	-12.193625
▁what	-10.402844
▁pc	-13.015856
MR	-12.614831
RA	-12.465393
▁DAC	-13.393796
WS	-12.391694
li	-10.694285
CE	-12.316765
face	-12.352151
vi	-12.192892
RF	-12.567802
ii	-11.890689
TEXT	-12.120646
ds	-11.351004
thread	-10.632109
▁FB	-14.494633
▁rect	-13.458195
vars	-12.257183
Or	-11.817946
CACHE	-12.182120
Async	-12.265082
vl	-12.489284
▁PyErr	-12.297565
▁keys	-12.583718
fw	-12.033394
▁attributes	-12.226791
▁present	-11.525383
sv	-12.098414
▁OTHERWISE	-12.131657
DP	-12.282327
▁mb	-14.120291
▁constant	-12.305513
PRE	-12.188152
▁Tcl	-12.389968
▁copies	-11.762433
▁would	-10.157602
▁layout	-12.587859
ni	-11.869477
Close	-12.001772
▁asm	-14.536551
▁registers	-12.153940
▁codec	-14.082313
Last	-12.007179
ARG	-11.027109
compress	-12.341034
Location	-11.930876
▁zval	-13.992470
▁endpoint	-12.576070
COM	-12.056388
lu	-12.321040
Compare	-12.183211
SPI	-11.405744
BLOCK	-11.526880
RS	-12.412497
▁initial	-12.128637
ind	-12.251572
▁async	-13.403881
▁fixed	-12.350930
EX	-11.861928
Enum	-12.141501
Component	-11.868067
▁ALL	-13.303603
▁BY	-12.014205
▁track	-11.998375
Height	-11.976023
nl	-11.938745
▁PER	-13.855627
▁until	-11.055631
▁TORT	-12.110464
dx	-12.614863
da	-11.387058
POINT	-12.100042
▁calls	-12.005452
RANGE	-12.246538
▁policy	-12.047388
FUNC	-11.274458
ft	-12.076268
▁RE	-12.785205
▁instruction	-12.191870
Template	-12.077277
NR	-11.996116
▁wchar	-13.038191
▁video	-10.945812
▁fast	-12.636779
▁NRFX	-12.043035
wr	-12.320200
▁TARGET	-13.507547
AB	-12.295395
param	-9.177684
▁sync	-13.240702
▁ms	-13.334724
WIDTH	-12.280978
Counter	-12.321007
WAIT	-12.221099
Network	-12.165293
▁auth	-13.815161
▁during	-10.658583
▁apply	-12.149308
Private	-12.292218
af	-12.215478
▁builtin	-13.795519
▁CHANNEL	-15.665732
▁CRC	-13.163614
▁ETH	-13.191670
▁blocks	-12.409034
Cell	-11.913331
▁WARRANTY	-11.943610
TR	-12.291462
CLASS	-11.454100
sum	-11.503772
item	-10.795189
il	-11.977817
head	-10.732877
cap	-11.463371
Multi	-12.127077
▁simple	-12.039841
▁EXTERN	-13.073307
Audio	-12.261120
GE	-12.185568
df	-12.405571
▁DBG	-14.090280
ot	-12.114388
mark	-11.676859
▁LCD	-12.935541
▁audio	-12.606394
▁nodes	-12.503002
pr	-11.592785
hi	-11.745973
▁eval	-13.647814
ids	-12.004934
▁pixels	-12.754488
▁serial	-12.846682
▁mbedtls	-12.631932
ep	-11.455931
▁exp	-13.550337
▁COUNT	-15.432747
▁AT	-12.647241
byte	-11.005014
LINK	-12.119303
PF	-11.718167
Draw	-12.124844
▁execute	-12.367990
▁within	-11.091154
▁sb	-13.900207
▁engine	-12.618339
▁encode	-13.794034
iter	-11.438315
▁proc	-13.184295
▁PARAM	-15.686795
dc	-11.713297
▁compute	-12.417705
▁OUTPUT	-14.652003
DF	-12.278928
Bytes	-12.056654
▁When	-11.139377
media	-12.209728
▁throw	-12.549934
CS	-11.808205
▁doesn	-11.650697
▁normal	-12.140323
dp	-11.490680
▁caller	-12.245812
bool	-9.619942
▁below	-11.377004
main	-11.386733
BACK	-12.136221
▁database	-12.031271
▁xx	-15.366068
▁dict	-13.526157
▁ev	-13.641009
▁curr	-13.430616
FORMAT	-11.710242
angle	-12.367707
fr	-12.234368
lineno	-12.899082
▁obtain	-11.646447
▁feature	-12.071680
new	-9.904484
tr	-11.106637
Option	-12.088314
close	-10.847803
acc	-12.267871
conv	-12.425958
▁cell	-12.159070
Style	-11.928120
est	-11.805895
float	-10.209668
src	-10.519320
▁YY	-12.471836
fl	-12.294543
▁signed	-13.283550
Auto	-12.224751
fi	-12.185046
mac	-11.536304
▁best	-11.322660
▁results	-10.765019
▁pr	-13.289419
▁gc	-13.714537
JSON	-12.480755
▁COMP	-13.665978
wp	-11.925489
Build	-12.241792
▁sort	-12.633320
UInt	-12.290819
DESC	-12.266640
HasBeenSet	-12.421544
▁ESP	-12.807839
MA	-12.728783
▁transform	-12.863373
▁chain	-12.528532
dist	-12.565165
▁WM	-12.505459
sys	-10.663105
▁identifier	-12.521508
Active	-12.217572
▁take	-11.209185
▁disabled	-12.300348
NL	-12.292109
Sync	-12.076862
Enabled	-12.164146
▁sure	-11.513404
▁PLL	-13.453581
ISR	-12.588010
comp	-11.490839
▁variables	-11.877096
▁swap	-13.169321
down	-11.658421
▁definition	-12.073573
sig	-11.685415
pw	-12.481800
Common	-12.225580
MSG	-11.353235
▁crypto	-13.241896
ice	-12.386756
STOP	-12.378039
▁av	-12.936297
▁pop	-12.339615
▁QString	-12.457405
▁random	-12.425000
▁unknown	-11.949509
event	-10.497407
Has	-12.313492
over	-11.066867
sym	-11.451409
Stop	-12.321643
expr	-11.647906
▁SQLITE	-12.512291
UTF	-12.576575
bound	-12.047701
py	-11.277703
▁custom	-12.562720
ble	-12.277125
▁rule	-12.287858
▁ALT	-13.892772
▁exec	-13.955555
Oid	-12.141737
▁timestamp	-13.055029
▁SPECIAL	-12.266617
aa	-12.387478
▁An	-11.056962
▁needs	-11.795871
▁stored	-12.123249
JS	-12.134132
▁APIENTRY	-12.440865
▁receive	-12.109370
▁like	-10.434469
▁cluster	-12.791587
▁NAMESPACE	-15.064589
Inst	-12.413829
▁HW	-13.562864
▁interval	-12.963177
▁mesh	-13.301171
▁permissions	-11.820978
▁APB	-15.052455
com	-10.056021
▁synthesize	-15.906534
▁buffers	-12.562980
▁complex	-12.468389
▁stdio	-15.055912
▁OBJ	-13.694549
Video	-12.030085
▁Use	-11.505339
edit	-12.519644
▁running	-11.828253
THREAD	-12.084059
▁dbg	-15.497785
▁keep	-11.738361
so	-11.572111
▁cert	-13.999513
▁down	-11.133950
▁direction	-12.178103
▁SOC	-13.666433
CLR	-12.598373
ram	-12.122001
▁slave	-13.116495
ra	-11.740755
MI	-12.233955
▁button	-12.484275
store	-11.584831
Variable	-12.152481
pix	-12.407069
ri	-11.831220
Sample	-12.391258
AT	-11.876046
▁uart	-13.626122
PRINT	-12.249188
HI	-12.487776
Space	-12.006037
tm	-11.883100
RB	-12.290881
▁native	-12.307012
wm	-12.245919
▁allowed	-11.931491
▁DEFINED	-19.387220
▁protobuf	-15.570711
▁FAR	-13.696941
TE	-12.380615
▁operations	-11.715573
▁force	-12.131648
la	-11.568953
BF	-12.344500
Content	-12.006792
PI	-12.654780
▁subject	-11.682021
Assert	-12.079208
▁xfe	-20.948925
FN	-11.991972
rate	-11.487331
▁StringCopy	-17.570472
STD	-12.030790
▁properties	-11.961866
▁sha	-14.205612
▁threads	-12.673617
de	-10.489585
▁dp	-13.767773
sb	-11.767938
▁forward	-12.299667
▁sf	-13.786246
ity	-11.278256
▁rows	-12.973676
EV	-12.143638
▁destination	-12.302388
ml	-11.997949
Box	-12.002690
copy	-10.766668
▁fff	-20.735704
▁stm	-13.214673
▁MONO	-12.851068
▁allocator	-12.999261
Wait	-12.498966
▁machine	-12.335422
▁WARNING	-14.458557
▁uses	-11.419515
▁enc	-13.910165
▁how	-10.839798
eb	-12.409816
▁manager	-12.461052
▁initialized	-12.402251
▁EC	-12.792309
Pool	-12.156777
BR	-12.308059
▁NODE	-14.476127
Run	-12.432550
▁express	-11.903366
NC	-12.672934
▁tm	-13.613580
▁DEFINE	-12.780303
ONLY	-12.117882
▁DIRECT	-12.416453
▁tile	-13.474201
Double	-12.305381
Word	-12.354866
▁abs	-13.903650
dl	-12.119694
▁insn	-13.969795
▁side	-11.516617
GPU	-12.287002
▁UN	-13.729341
▁CONTROL	-15.650158
cv	-12.359208
Stmt	-12.104423
▁headers	-12.669150
▁orig	-13.639604
Destroy	-11.956651
fix	-12.349145
▁pages	-12.390647
▁profile	-11.572659
Delegate	-12.228736
▁speed	-12.258381
Real	-12.460137
▁lambda	-14.781435
▁aws	-15.383896
EE	-12.504504
dot	-12.087788
▁uv	-13.193978
▁PM	-12.300094
handle	-10.499173
▁family	-10.963767
▁vtk	-12.268842
NT	-12.276950
Any	-12.620412
pf	-12.046209
▁dc	-13.896340
crypt	-12.018136
ARRAY	-11.486697
▁HEADER	-14.982424
CONFIG	-10.177131
▁backend	-12.908053
bo	-12.208710
▁derived	-12.004839
Builder	-12.023446
▁FLOAT	-14.873309
▁date	-12.024314
▁sensor	-13.060478
DA	-12.517361
▁esp	-13.457665
▁MEMORY	-14.818449
part	-11.776153
▁sprintf	-13.432737
▁STRICT	-12.377490
tbl	-12.503139
▁soc	-14.715591
ae	-11.954037
rq	-12.485055
▁none	-12.163307
mc	-11.926592
▁tail	-13.236368
cx	-12.422067
LD	-12.277423
▁included	-11.354626
Setup	-12.226183
▁job	-12.234001
INIT	-11.166892
MP	-11.945978
Socket	-12.205304
sr	-12.222299
▁shift	-12.549897
ls	-11.772331
Non	-12.148597
ULL	-12.638557
▁fetch	-13.606539
▁img	-13.831311
temp	-11.158584
NF	-13.037176
BE	-11.863657
▁prior	-11.651420
Graph	-12.159375
light	-12.237950
gre	-13.581003
alt	-12.338507
TREE	-12.376507
CT	-12.526351
dns	-12.525847
▁amount	-11.931947
math	-10.812709
cpp	-12.270313
Mesh	-12.293673
cu	-12.316020
▁xffffff	-45.174802
▁might	-11.316493
▁scope	-12.320481
▁ul	-13.407461
US	-11.897737
ANT	-12.383091
▁means	-11.556489
▁world	-11.328335
RST	-12.804624
▁pass	-11.945765
Power	-12.558839
pe	-12.087561
wc	-12.427959
True	-12.260211
▁lv	-13.633789
boot	-12.442325
▁ACTION	-12.925512
ment	-11.438680
▁applicable	-11.822865
▁trans	-13.488805
fa	-12.223715
▁overflow	-12.564540
PER	-11.715357
vc	-12.349351
▁NVIC	-12.900205
by	-11.001698
▁avoid	-12.002087
dv	-12.408153
sql	-12.380908
▁bucket	-13.491883
▁transport	-12.328116
Used	-12.977377
▁XK	-13.323445
▁compliance	-12.025392
▁uintptr	-13.381882
▁BAD	-14.779755
▁doc	-13.815703
▁boost	-12.939062
▁contents	-12.534542
▁dynamic	-12.837115
▁NG	-13.127062
▁REGISTER	-15.044969
tk	-12.460501
▁grpc	-13.244103
▁via	-11.742020
IA	-12.484395
ws	-12.183702
rand	-12.433907
▁signature	-12.806782
▁FORMAT	-16.043518
COUNT	-11.629058
Can	-12.495707
INDEX	-11.778027
▁uuid	-13.878043
▁strong	-12.070246
Allocator	-12.301614
▁arm	-12.987973
▁least	-11.488773
stats	-11.377344
LV	-12.466736
DL	-12.434183
ll	-10.804658
▁fb	-14.185309
SAM	-13.010110
TH	-12.392231
VPROC	-12.366886
Widget	-12.054321
Left	-12.221513
▁currently	-11.634449
▁ieee	-13.038662
WR	-12.347031
▁proxy	-13.320623
Shape	-12.325742
ear	-13.615282
Save	-12.507077
Region	-12.400314
CPU	-11.707646
Policy	-12.245187
Search	-12.314052
Date	-12.092482
▁CS	-12.943662
SQL	-12.404732
bm	-12.440365
▁fe	-14.049168
▁xmm	-13.657025
USB	-11.384534
▁completion	-12.541207
▁modification	-11.962061
▁TEXTURE	-17.882534
socket	-11.484297
IX	-12.953601
ap	-10.890278
SERVER	-12.020131
▁sockaddr	-12.473665
▁strings	-12.575295
▁ACPI	-12.782291
plan	-12.337103
BITS	-11.987718
▁TCP	-12.884522
▁dispatch	-13.930033
bus	-11.557211
▁unused	-13.031611
mb	-11.694761
Factory	-12.016571
loop	-11.538460
PA	-12.211143
▁Licensed	-12.291464
▁sg	-14.087032
▁isl	-13.276262
Properties	-12.235910
round	-12.524162
▁columns	-12.663226
Script	-12.066101
▁VAR	-13.462885
▁LA	-12.318648
Column	-12.206205
▁PY	-13.225833
REQUEST	-12.332448
Generic	-12.096153
root	-11.214333
limit	-11.483113
Loc	-12.282699
Vertex	-12.171816
▁ll	-14.642332
PARAM	-11.666166
Surface	-12.289543
Up	-12.155093
Types	-11.814766
▁messages	-12.214561
utils	-12.099667
▁useful	-11.900597
▁FEATURE	-14.809508
▁exists	-12.223641
▁cond	-14.449244
▁allocation	-12.320183
▁special	-11.728887
▁over	-10.494559
▁meta	-13.493373
NODE	-11.644434
▁INDIRECT	-12.362846
▁OPENSSL	-12.397667
mx	-12.608587
Render	-12.275429
bt	-11.778642
▁lhs	-12.907231
GET	-10.641273
▁ENTRY	-16.876310
font	-11.712123
▁boolean	-12.624338
rr	-12.464695
▁small	-11.422230
▁yych	-16.316658
ea	-12.226260
mov	-12.240412
support	-12.227784
Alloc	-12.391509
▁BCM	-12.735200
hp	-12.231719
▁features	-11.856790
mu	-12.024768
AND	-11.797181
Spec	-12.212953
▁del	-12.471576
uid	-12.159480
NUMBER	-12.338088
DONE	-12.578292
▁EX	-13.742810
imm	-12.639778
▁requested	-12.256179
▁MS	-12.784618
QUEUE	-12.353581
▁jl	-13.741794
Unit	-12.322358
▁characters	-11.245332
BUS	-12.512715
ZERO	-12.275644
Capture	-12.537958
dh	-12.784094
CAL	-12.962887
dict	-11.726857
Net	-12.130644
Convert	-12.996766
Interrupt	-12.861470
▁RV	-15.454555
▁ignore	-12.728961
print	-11.011899
Src	-12.426576
Loop	-12.457555
▁INDEX	-15.257770
▁generate	-12.446596
Begin	-12.184517
KHR	-12.597787
▁MD	-13.222952
▁TAG	-14.300197
Insert	-12.259715
▁reason	-12.100169
▁GPL	-13.399468
▁hi	-13.272347
rank	-12.719736
CHECK	-11.020719
cmp	-11.849264
▁UNKNOWN	-16.283660
color	-10.948727
bh	-12.353631
nt	-11.992867
lt	-12.403594
Driver	-12.472114
▁threshold	-13.081775
Lib	-12.088479
▁UNICODE	-13.299425
▁render	-12.894502
▁SYMBOL	-16.384331
▁secp	-13.162984
IDX	-12.632972
▁HTTP	-12.805314
▁still	-11.037200
▁entity	-12.917856
▁half	-11.550081
▁Reserved	-12.109527
▁weak	-13.152870
ck	-12.191499
Scalar	-12.365578
▁standard	-11.880751
▁hardware	-12.180089
▁pt	-13.356355
▁PROP	-13.819280
▁sign	-12.440032
bs	-11.827374
EB	-12.552184
Extension	-12.176310
ACC	-12.744105
dec	-10.199380
SA	-12.510857
Information	-12.268469
Def	-12.249589
▁met	-11.425732
Err	-11.985664
return	-7.310781
DD	-12.582600
▁partition	-13.105415
et	-11.535393
▁disk	-12.748399
▁bf	-14.479549
pv	-12.046888
tables	-12.878441
DEC	-11.155615
RATE	-12.496162
DBG	-11.898073
▁samples	-12.569523
▁prepare	-13.032097
▁utf	-13.949414
fb	-12.086340
▁materials	-11.791818
sock	-11.517640
Proxy	-12.296734
ring	-11.511265
Helper	-12.228121
strdup	-12.470848
▁NEW	-13.780562
▁POWER	-14.106584
rl	-12.392291
▁abort	-12.913028
RET	-12.120827
▁ATTRIBUTE	-14.692494
sets	-12.904904
SB	-12.704450
SCAN	-12.523562
Values	-12.144229
▁WINED	-12.968386
▁xffffffff	-21.965993
▁negative	-12.319830
▁MSC	-15.033282
▁tls	-14.278399
▁HOLDERS	-12.232005
▁LOSS	-12.451432
One	-12.064269
RING	-12.424012
▁html	-14.217672
Dir	-12.263651
▁indices	-13.127928
ec	-11.669756
hw	-10.960401
▁product	-11.973353
▁routine	-12.304448
▁limitations	-11.478326
FR	-12.689439
LONG	-11.381310
ty	-11.499923
regs	-11.786287
vf	-12.669255
mutable	-12.834287
Scan	-12.255916
play	-12.377202
IL	-12.794502
OBJ	-11.931321
form	-11.729900
Reader	-12.170711
Step	-12.473705
Export	-12.405342
▁bb	-14.358146
▁KERNEL	-15.995494
▁calling	-12.116231
▁VOID	-11.555139
filter	-11.232628
▁PyLong	-13.143281
que	-12.388496
▁cipher	-14.011941
TOP	-12.503538
Ext	-12.459278
te	-11.523043
▁origin	-12.514632
DI	-12.597948
Win	-11.752801
▁IRQn	-14.756810
▁dummy	-13.052909
ENC	-12.719422
struct	-8.501770
ALLOC	-12.385773
Application	-12.293249
FW	-11.889038
man	-10.552309
▁soap	-13.165961
tor	-11.821110
▁replace	-12.873507
DEBUG	-10.504968
Transfer	-12.710647
▁encoder	-13.381424
ver	-11.775440
EVENT	-11.346531
▁HASH	-14.392511
▁CONTEXT	-16.163343
▁governing	-11.876771
ACK	-12.656887
▁flash	-13.066049
ATOM	-13.696162
▁additional	-11.468258
detail	-12.729312
▁EXIT	-13.592343
▁OPT	-13.505881
▁BASIS	-12.302347
Expression	-12.363016
▁devices	-12.220599
case	-8.548269
▁aligned	-13.776983
sleep	-12.264297
External	-12.621468
▁operand	-13.174175
oc	-12.216687
phy	-11.692907
▁RESERVED	-13.500041
acl	-12.593364
unk	-12.978240
Scope	-12.280169
Provider	-12.355434
▁their	-9.950941
Vk	-12.071738
▁large	-11.472960
ha	-11.970209
RO	-12.483981
AS	-11.346982
▁SYSCTL	-13.007714
HP	-12.285252
▁alignment	-12.641187
tuple	-11.644209
Attributes	-12.265740
▁api	-14.024572
BD	-12.386554
▁ac	-13.787203
Transaction	-12.211158
▁distance	-12.428880
IV	-12.298803
TypeDef	-12.029050
▁STACK	-14.639486
ance	-12.668203
mux	-12.679582
▁CONSEQUENTIAL	-12.339399
Right	-12.288183
SO	-12.442265
Long	-11.872946
▁TC	-13.305717
▁MESSAGE	-15.685910
Engine	-12.324566
MU	-12.991880
match	-11.118290
▁restrict	-14.313354
ma	-11.475362
▁another	-11.113849
Integer	-12.168510
▁algorithm	-12.401494
Web	-12.093952
▁permitted	-11.992933
PART	-12.601946
Off	-12.677839
▁CONDITIONS	-12.209935
▁DO	-12.404935
Move	-12.638789
▁did	-10.905227
Kernel	-12.395786
Section	-12.479867
FL	-12.514990
START	-11.565371
▁CLIENT	-14.362146
▁USBD	-13.290864
OPT	-12.004542
slot	-11.615744
SEQ	-12.781674
None	-11.532566
▁helper	-13.298950
▁bind	-13.602290
Scale	-12.466131
MPU	-12.964094
bg	-12.446097
Shader	-12.319547
ADC	-11.786137
Initialize	-12.450952
pad	-12.019015
lx	-13.020429
▁axis	-12.964740
Created	-12.383446
▁split	-12.795894
▁These	-11.426760
ABLE	-11.857531
▁pb	-14.107719
It	-11.559980
Report	-12.543822
Edge	-12.585299
ECC	-12.774007
▁intel	-13.594274
▁interp	-14.109956
▁PyUnicode	-13.084422
AST	-12.398236
DLL	-12.417191
ro	-11.900721
Changed	-12.307210
▁FAILED	-15.955402
▁added	-11.556900
Temp	-12.392594
opa	-13.508435
Standard	-13.138473
▁TMP	-15.380814
▁extract	-13.057861
▁relation	-12.766402
▁INCIDENTAL	-12.363031
Child	-12.227692
Priority	-12.551925
IEN	-13.507183
Pre	-12.530810
EC	-11.837007
sk	-10.969534
▁dd	-14.511621
▁Define	-12.318448
▁kInstruction	-13.053192
▁inner	-12.992098
trans	-11.378186
Metadata	-12.366922
▁card	-12.753181
GR	-12.658828
Raw	-12.566307
cos	-12.810154
SG	-12.531389
SE	-12.570506
ADD	-11.648730
age	-11.759058
TI	-12.621666
▁cmp	-14.260678
BYTE	-11.729457
frag	-12.697882
RE	-11.626908
TASK	-12.613704
DM	-12.580112
▁padding	-12.825425
Timeout	-12.456854
CY	-12.586352
▁align	-11.435538
exc	-12.675286
▁progress	-12.667838
Compute	-12.354019
Valid	-12.316619
Zero	-12.523639
▁CWindows	-22.959162
dup	-12.577043
tp	-11.167117
▁abi	-15.958981
PID	-12.676980
long	-10.668176
▁diff	-13.363130
Profile	-12.329637
▁IEEE	-13.127866
▁ADDRESS	-15.655336
flow	-11.425223
▁bounds	-12.932363
adc	-12.642399
▁XX	-14.535422
Attr	-12.586442
EMPTY	-12.420962
▁summary	-12.096280
▁condition	-12.236070
DOUBLE	-12.405700
POINTER	-12.460023
Trigger	-12.496527
BL	-12.501471
▁vacc	-13.810531
Instruction	-12.147488
next	-10.120152
HT	-12.623028
AUDIO	-12.580851
MF	-12.374767
▁BIO	-13.455219
VALUE	-11.155249
▁period	-11.715190
Disable	-12.434822
mf	-12.636720
▁errmsg	-13.054613
▁scene	-12.508894
Program	-12.381184
mr	-12.463357
▁txt	-15.876344
▁ioctl	-13.817669
FORCE	-12.488452
conn	-10.900724
▁probe	-13.885971
▁never	-11.313932
▁Disable	-12.384396
Trace	-12.427505
NOT	-10.968403
DRV	-12.727267
NB	-12.638453
▁upper	-12.491895
PROTO	-11.820998
▁PROFIT	-18.049425
▁saved	-12.636346
▁hwnd	-13.433486
▁forms	-11.915482
av	-11.750931
▁GTEST	-13.143227
card	-11.710103
▁changes	-11.587032
inc	-10.621686
▁bio	-12.613103
▁IDirect	-12.922315
fmt	-11.723085
TP	-12.243584
▁clang	-12.615188
▁wined	-12.948269
Const	-12.526007
▁frequency	-12.482379
Selection	-12.274845
▁ec	-14.177496
▁blob	-13.822934
▁xdc	-14.911407
inv	-12.717089
Allocate	-12.371846
CV	-12.768720
▁commands	-12.473471
HD	-12.739426
▁selection	-12.264763
TC	-12.355911
trace	-11.654970
▁COPY	-15.646233
▁freq	-14.141075
vb	-12.695190
phase	-12.843805
dr	-11.931664
▁GLEW	-12.966406
▁glGet	-13.416652
vt	-12.430193
ve	-11.409678
timer	-11.348008
▁ready	-12.435831
LEVEL	-11.493092
▁guard	-12.829858
EA	-12.615549
ICAL	-12.567692
Heap	-12.428908
▁AWS	-13.186844
▁LOCK	-14.702543
vert	-12.740241
▁SUCH	-11.985697
▁removed	-12.073119
▁ins	-14.055061
sid	-12.260707
comm	-12.653133
▁snprintf	-13.982504
LT	-12.817689
tok	-12.531900
CONTRACT	-13.100298
LY	-12.248648
Pass	-12.551218
Low	-12.825732
▁mc	-14.035064
sort	-11.790086
▁tc	-13.721527
rd	-10.988352
attrs	-12.668495
PARAMETER	-12.424620
GUI	-12.344694
▁py	-13.920139
NE	-12.572629
decl	-11.905073
ant	-12.033125
▁NON	-14.599625
▁PROTOBUF	-13.742508
params	-10.938479
MATRIX	-12.711250
label	-10.886489
▁pi	-13.587949
rx	-11.010710
▁inputs	-12.722707
▁np	-13.654917
Main	-12.350539
CO	-12.732721
att	-12.564029
▁MT	-13.432437
▁IPV	-14.102319
Dynamic	-12.650357
va	-11.538328
▁stage	-11.521375
Screen	-12.423321
Devices	-12.902478
Uint	-12.508579
http	-11.001416
Menu	-12.191447
HTTP	-12.142430
▁constructor	-12.250269
▁digits	-13.701846
▁Unless	-12.155540
Slot	-12.523082
▁SERVICES	-12.518113
▁WINRT	-13.213020
Receive	-12.580966
Sequence	-12.365898
▁FEAT	-12.188501
Root	-12.321629
▁hal	-14.718122
PH	-12.756343
ization	-11.963877
▁CONNECTION	-12.906351
device	-10.164486
XML	-12.309672
▁shall	-11.799128
ne	-11.504316
▁defines	-12.207914
fv	-12.585695
▁ostream	-14.986858
hf	-12.772494
MIN	-11.194639
nat	-12.501291
▁apr	-12.857131
▁conversion	-12.436463
top	-11.122484
Pixel	-12.483997
LO	-12.681674
▁RSA	-14.048747
FULL	-12.587302
MIT	-12.879123
▁wrapper	-13.271361
▁mrb	-13.135482
enc	-12.056105
EXTPROC	-12.665533
Ret	-12.441943
nn	-12.482419
ev	-11.628906
▁home	-11.442543
▁poll	-13.538804
▁bin	-13.684104
▁evt	-14.711561
TIMER	-11.897974
▁tensor	-13.418378
Simple	-12.639387
▁UPDATE	-13.694390
MT	-12.275614
SF	-12.149603
▁owner	-12.775991
▁printk	-16.359093
project	-12.625215
▁etc	-12.052414
▁reinterpret	-13.334942
▁xfc	-16.506189
▁CLEAR	-15.334236
▁COMMAND	-13.835761
▁NEGLIGENCE	-12.549173
▁POSSIBILITY	-12.168934
▁ADVISED	-12.436240
▁DAMAGE	-11.970685
▁password	-13.150644
rev	-12.547804
client	-10.764711
CG	-11.953444
Static	-12.376639
▁capacity	-12.693209
exp	-11.611748
matrix	-11.773486
hs	-12.329485
▁many	-10.814496
bv	-12.814810
Endpoint	-12.623769
zip	-12.840808
▁super	-12.676475
Do	-12.239930
RW	-12.606368
ION	-12.657377
version	-10.995724
▁cycle	-12.788447
▁NSObject	-12.573827
▁IMAGE	-14.269845
▁tests	-12.289865
ga	-12.047106
▁ecs	-12.782315
▁agreed	-11.904082
Cluster	-12.448532
▁statement	-11.977082
SEND	-12.612944
image	-10.823878
▁PUBLIC	-14.592393
▁good	-11.164946
pdu	-12.953558
▁WCHAR	-12.973351
▁adjust	-13.313843
atom	-12.876695
▁RD	-13.518830
▁containing	-11.998309
DOWN	-12.460462
wrap	-12.404670
Custom	-12.554621
▁HOST	-14.649097
TCP	-12.108790
▁IMPL	-18.944400
BM	-12.760719
▁packets	-12.859706
▁GLOBAL	-14.400188
▁EVEN	-12.480268
na	-11.388984
▁again	-11.209296
mgr	-12.682726
RUN	-12.586596
GT	-12.678847
▁BITS	-15.515118
pi	-11.670486
rtc	-12.327869
magic	-12.883844
SD	-11.889562
lf	-12.853377
visit	-13.265640
lex	-13.027237
▁OC	-13.703599
▁Redistribution	-12.354714
BA	-12.726220
TT	-12.563234
▁reproduce	-12.332453
Scene	-12.403750
▁plane	-13.044530
sq	-12.487380
AE	-12.679449
rw	-12.539997
hd	-12.554112
▁resources	-12.140660
ACT	-12.553797
▁accept	-12.857913
ALPHA	-12.647553
▁times	-11.567347
Entity	-12.357533
caps	-12.790723
cy	-12.139090
▁batch	-13.265415
cont	-12.693188
zx	-13.303428
cause	-13.646009
tex	-12.638158
prog	-12.592453
INSTANCE	-12.733859
▁CONTRACT	-12.077386
▁sem	-14.183077
led	-11.800431
▁catch	-12.461607
run	-11.160934
Native	-12.476061
escape	-13.124022
HDR	-12.655259
▁LOCAL	-14.219282
AUTH	-12.470336
▁corresponding	-12.183903
Collection	-12.330169
▁SUPPORT	-16.180121
▁enough	-11.681994
▁hook	-13.643160
ff	-11.018417
VIDEO	-12.491226
▁peripheral	-12.591374
▁mlx	-13.251269
▁aux	-13.664512
▁NOTE	-12.588779
▁frames	-12.991462
OB	-12.233524
STORE	-12.665022
▁arena	-13.901902
▁wl	-13.662137
▁AD	-12.431682
pn	-12.739302
gr	-12.303439
▁bottom	-12.723532
▁seconds	-12.476362
Document	-12.397961
▁HOWEVER	-12.457758
▁WARN	-15.541245
▁collection	-12.128526
▁framework	-13.480420
▁cookie	-13.651225
ax	-12.814067
ef	-11.826182
tl	-12.334773
▁rte	-13.658758
GUID	-12.684228
HW	-11.978214
band	-12.044467
Usage	-12.165474
▁ensure	-12.420464
▁ACCESS	-15.791156
▁RESULT	-15.749828
number	-10.930299
SIMD	-12.708999
▁join	-12.826975
ph	-12.115580
▁tags	-13.484489
MX	-12.310121
▁worker	-13.160521
alg	-12.703865
▁ENOMEM	-14.159732
one	-11.174010
▁cf	-14.251345
EQUAL	-12.657947
SZ	-12.677490
▁xcb	-13.726446
▁restore	-13.225718
Constant	-12.462146
prop	-11.516363
▁zone	-12.945053
▁pad	-13.252380
▁CAUSED	-12.476185
PROPERTY	-12.616636
▁AM	-12.405826
▁trigger	-12.814750
▁PRIVATE	-14.820716
▁interrupts	-12.659152
▁menu	-12.845353
▁DW	-13.639936
▁DT	-13.490760
▁modified	-12.393898
Rate	-12.524587
Push	-12.412588
▁psz	-13.648128
tri	-12.996780
▁children	-11.335369
▁XDECREF	-20.736750
gate	-12.586385
▁INTEGER	-13.943748
curve	-13.084166
wd	-12.699350
▁FC	-11.124560
▁PWR	-14.818723
ssl	-11.458606
▁ts	-13.777372
left	-10.263213
header	-10.801894
Proc	-12.465014
VALID	-12.695555
Tuple	-12.355563
▁board	-12.340699
bin	-11.865706
High	-12.659836
▁matches	-11.970750
▁ITEM	-15.384791
PASS	-12.350841
▁future	-11.901264
vlan	-12.840124
REGION	-13.022903
gpu	-12.570152
▁LABEL	-15.796086
SYM	-12.782234
▁major	-11.833065
▁FREE	-14.240611
OBJECT	-11.413882
▁BUSINESS	-12.535364
grp	-12.551643
HEAD	-12.384890
▁SUBSTITUTE	-12.565807
▁elf	-13.926504
server	-11.008101
▁existing	-12.164979
▁crc	-14.132345
Limit	-12.531606
▁yet	-11.729911
Stats	-12.298170
▁PNG	-12.653694
patch	-13.009877
EXP	-12.053125
Parent	-12.314064
▁packed	-13.426974
▁processing	-12.236819
▁nothing	-11.751454
CASE	-12.381838
▁TIMEOUT	-17.471916
OSC	-13.148417
LEFT	-12.549854
BUTTON	-12.675728
▁FMT	-14.641545
▁GOODS	-12.567991
▁contain	-12.333037
▁NGX	-12.628987
lnum	-12.808339
▁attach	-14.022402
Mod	-13.006058
▁player	-11.252125
▁DISCLAIME	-12.516416
ping	-12.471905
▁constraint	-13.436634
▁arr	-13.905260
▁drop	-12.729003
strcpy	-12.481394
▁Initialize	-12.034640
▁digest	-13.676971
▁nk	-13.278065
▁PROCUREMENT	-12.555155
▁extent	-12.783433
Permission	-12.496375
RIGHT	-12.536856
▁place	-11.091491
tick	-12.571538
▁SECTION	-15.227544
MULTI	-12.311608
▁sta	-14.011340
SV	-12.563319
▁closure	-13.995620
WINDOW	-12.678958
▁necessary	-11.879216
▁Do	-11.409148
▁ENUM	-15.639519
fg	-12.745159
export	-12.450053
Symbol	-12.510482
ONE	-12.241263
AMD	-12.764556
▁along	-11.483278
input	-10.598896
▁resp	-14.196952
▁INTERRUPTION	-12.541513
▁mouse	-12.809254
let	-12.005915
unit	-11.540750
aff	-13.263017
▁offsetof	-13.307909
gid	-12.857331
▁xaa	-20.416115
▁BN	-13.234581
scroll	-12.772089
▁THEORY	-12.471357
FA	-12.312877
▁nor	-12.275199
cpu	-10.962617
udp	-12.930316
CONN	-12.564407
ARCH	-12.503833
Player	-12.529216
▁PROTOCOL	-16.208590
COLOR	-11.282405
▁ZVAL	-15.902004
Ctx	-12.561849
▁validate	-13.022741
TF	-12.685184
▁title	-11.773616
▁law	-11.016335
▁stdout	-13.429505
sn	-12.318589
▁duration	-12.820226
AF	-11.765253
▁help	-11.514558
▁notify	-13.852012
▁dirty	-13.316934
Show	-12.517475
mg	-12.860480
PKT	-12.855646
reduce	-13.035561
▁callbacks	-12.886659
Null	-12.297803
calloc	-12.962121
Xaml	-13.605872
pred	-12.664345
▁writer	-12.143255
TK	-12.571414
MODULE	-11.515395
▁sctp	-13.343673
▁redistribute	-12.407026
RD	-12.174835
icon	-12.427402
▁remaining	-12.366004
▁BSD	-12.480852
▁initialization	-12.494176
▁lapack	-13.140908
typ	-12.802991
MODEL	-12.747595
soft	-12.301723
bp	-11.594913
go	-11.652530
stride	-11.795188
Tab	-12.474613
▁EXEMPLARY	-12.522111
TA	-12.705473
TOKEN	-12.558537
▁were	-9.754873
▁TEMPLATE	-14.677226
▁pointers	-12.560888
NORMAL	-12.586819
builder	-12.863207
pow	-13.148131
▁stdlib	-19.157802
MISC	-12.948074
lv	-12.322517
Order	-12.324039
▁successful	-12.028255
pid	-11.857426
nil	-12.764652
▁granted	-12.138003
words	-12.942710
▁slice	-13.687019
Cursor	-12.507546
rgb	-12.852082
▁cached	-13.127126
▁published	-11.128481
STA	-12.828997
step	-11.975489
PLL	-12.399992
LAST	-12.603462
Append	-12.468744
▁expect	-12.687634
RESOURCE	-12.621553
FAST	-12.564926
▁nc	-13.908395
CFGR	-13.418970
tc	-12.029123
Switch	-12.885433
▁products	-11.803813
▁MOVE	-13.587746
Empty	-12.281720
UN	-10.989151
▁WAY	-12.580992
▁APORT	-14.850786
▁cost	-12.404796
▁requires	-12.261683
▁windows	-13.122166
▁INET	-14.891977
norm	-12.948366
▁tr	-13.718389
VECTOR	-12.750745
▁HIGH	-14.788333
▁OPEN	-14.410186
cli	-12.630685
groups	-12.737836
▁rdev	-14.887027
Fill	-12.509599
PRI	-12.627525
▁leaf	-13.354169
▁schema	-13.485539
HASH	-11.906289
Macro	-12.654897
STATS	-12.626752
hint	-13.088252
Binary	-12.519166
▁XML	-12.283147
▁requests	-12.484926
DNS	-12.566174
▁xFC	-87.804028
user	-10.711455
well	-12.409689
CAST	-12.607427
rf	-12.643375
Dev	-12.796606
▁rtl	-14.191543
▁tty	-13.917568
FORM	-12.596911
VERIFY	-12.828676
Post	-12.577498
EL	-12.603570
▁SYSTEM	-14.471352
UDP	-12.987794
archive	-12.815240
▁lines	-12.013377
bn	-12.618611
▁pf	-14.444057
▁encoded	-12.932829
FC	-10.915005
Notify	-12.516204
▁correct	-12.155418
▁drv	-15.386297
monitor	-12.850911
lb	-12.862853
Exit	-12.571043
Boolean	-12.693606
▁FIXME	-12.735930
▁weight	-12.720283
▁rpc	-13.886865
▁author	-11.673438
COMP	-12.259192
▁opts	-14.294405
EF	-12.321218
▁limits	-13.130215
Mat	-13.002760
plus	-11.422950
▁xFFFE	-87.804028
widget	-12.663361
cols	-12.599147
▁go	-11.341205
target	-10.925348
▁way	-10.929588
bb	-11.894219
PATCH	-12.592210
der	-12.217290
▁center	-12.919088
sim	-12.513321
▁pname	-13.010756
▁dpy	-15.102420
work	-11.404764
My	-11.944000
▁PyTuple	-13.245184
score	-12.683512
Structure	-13.131133
pk	-12.682571
▁SERCOM	-14.337609
qual	-12.747503
▁enter	-12.863687
IB	-12.498014
▁updated	-12.488079
ator	-12.349596
▁directly	-11.985800
Security	-12.630003
ub	-12.761204
▁most	-10.734541
▁camera	-12.944492
▁insertion	-13.933729
▁TM	-13.570913
CAN	-12.178938
PIPE	-12.717682
▁xef	-24.362493
▁relative	-12.496192
VC	-12.690329
eap	-12.812858
js	-11.878443
Body	-12.409701
OPTION	-12.502386
gui	-12.482714
Platform	-12.588552
Mutex	-12.526439
indent	-12.621417
bind	-12.063497
▁pcm	-15.608693
dump	-11.678591
ND	-12.230762
DSP	-12.835888
▁VT	-13.138373
Support	-12.739656
SK	-12.969337
Unknown	-12.270841
▁SOURCE	-16.061641
SHADER	-12.769638
▁retry	-12.706453
Camera	-12.689158
▁gnu	-14.945677
▁decoder	-13.445867
READ	-11.210993
▁persistent	-13.794468
▁eth	-14.419221
FIRST	-12.629993
intr	-12.721509
dims	-12.886009
eric	-13.223766
▁BPF	-13.823499
Fn	-12.859359
arr	-12.167938
Project	-12.734381
▁cancel	-13.797420
▁connected	-12.492743
▁glUniform	-14.047740
ize	-11.917913
MAKE	-12.700737
ut	-12.459680
Pattern	-12.572167
▁nullable	-13.208449
ln	-12.666685
GS	-12.713167
Req	-12.794155
Normal	-12.722712
▁phys	-14.789354
Runtime	-12.548755
Material	-12.708205
▁CWE	-13.132899
▁commit	-13.345423
▁mpi	-14.674616
SYS	-11.149799
PRESC	-14.176598
UE	-12.825479
▁GOTRE	-20.586812
▁vcpu	-14.501330
▁grid	-13.079546
MATCH	-12.674305
tool	-12.736205
mapped	-13.238469
▁Amazon	-12.559686
neg	-12.618517
traits	-12.753976
▁PRIORITY	-18.208010
▁ARE	-12.297247
VP	-12.426563
REAL	-12.596324
configure	-12.972230
jump	-13.190393
Form	-12.469102
▁SWIFT	-13.475399
▁consume	-13.613667
SPACE	-11.692028
▁xbf	-22.443921
▁svn	-13.119139
term	-11.637900
Single	-12.624575
▁warranty	-12.275238
tf	-12.729461
▁IID	-13.760103
Total	-12.550317
OT	-12.449523
PHY	-12.139872
rect	-12.077292
▁disp	-14.174653
▁slots	-12.609183
lhs	-12.682232
CURRENT	-12.780652
Remote	-12.565851
▁ALIGN	-15.267594
▁CLOCK	-14.337486
Dictionary	-12.359974
FB	-12.105765
HS	-12.630535
▁reader	-13.340853
▁LED	-13.293229
DX	-12.457157
ApplicationModel	-13.384134
gap	-12.881085
▁know	-10.988907
PACKET	-12.743259
LAB	-12.427468
▁spdk	-13.278502
▁primary	-11.982559
document	-12.196419
▁volume	-12.628300
▁ctxt	-14.304355
Bitmap	-12.632424
▁SCTP	-13.469870
Functions	-12.242688
Full	-12.730041
▁big	-12.160473
const	-8.709609
use	-9.881144
schedule	-12.546964
Master	-12.740704
▁fname	-14.463416
▁every	-11.401727
ive	-12.119922
▁rtx	-13.265449
Maximum	-13.431654
Iter	-12.606148
Domain	-12.660414
nx	-12.907420
▁CREATE	-14.324771
▁account	-12.180390
BU	-13.314344
▁HandleTypeDef	-87.804028
▁TCC	-14.558297
▁SCB	-14.198433
board	-12.006840
▁adv	-15.250819
blocks	-12.277450
PLAYER	-13.513407
shell	-12.822426
logical	-13.074287
▁alias	-13.352181
ORDER	-12.678986
pcb	-12.982504
ASM	-12.626041
▁ACMP	-14.402706
▁verbose	-13.394702
▁likely	-12.328997
▁finish	-12.737316
▁dimension	-12.980801
▁starting	-12.187354
Shared	-12.523748
▁PREFIX	-15.644528
▁XXX	-12.834316
▁minimum	-12.486377
▁kvm	-13.495802
QUERY	-12.679265
BYTES	-12.855662
▁resize	-13.960067
keys	-11.974174
▁scsi	-13.990112
▁distribute	-12.621325
bridge	-12.527256
LED	-12.276093
▁locked	-13.022658
Red	-12.875236
span	-11.690600
tyObject	-13.649997
Game	-12.631668
VL	-13.109759
▁glVertexAttrib	-13.847716
bank	-12.671979
Feature	-12.685774
sign	-12.118715
▁ignored	-12.569362
hci	-12.630468
MARK	-12.752961
right	-10.500437
WDT	-13.205786
EVT	-12.937255
PACK	-12.221737
inf	-12.466584
branch	-13.028768
▁AHB	-14.725830
▁compile	-13.316662
mount	-12.347480
visible	-13.063482
GO	-12.544331
Success	-12.551011
▁LESENSE	-14.354921
mail	-12.663749
poly	-13.015443
▁git	-13.880414
▁security	-12.204216
Res	-12.805824
▁iov	-14.895759
gs	-12.263438
Ch	-12.942322
hard	-12.768728
urb	-13.014135
UV	-13.145355
LS	-12.662331
VERTEX	-12.727914
▁fifo	-14.485204
hand	-12.276117
▁promote	-12.338304
pll	-13.137027
fault	-13.129655
Json	-12.526131
▁vk	-14.256951
▁DRIVER	-15.318113
au	-12.218860
cell	-11.865508
clean	-11.820770
INTR	-12.946846
▁shutdown	-13.692603
pu	-12.619186
Depth	-12.507925
agg	-12.800835
opts	-12.136734
options	-11.164779
cq	-12.994137
▁AA	-14.080147
This	-10.435083
STACK	-11.942239
mit	-12.131646
▁border	-12.451735
day	-11.897441
Optional	-12.572820
Graphics	-12.503985
▁vim	-13.585438
web	-12.092145
names	-11.874910
▁reading	-10.299671
▁GLdouble	-13.536292
OFFSET	-11.575357
▁PL	-13.316612
▁marker	-13.527135
▁hex	-13.810811
▁BOOLEAN	-12.290388
TRACE	-11.578888
guid	-13.015570
ident	-12.518259
▁MHz	-14.216308
dim	-11.909558
ML	-12.522740
▁SUPPORTED	-15.303114
▁dtype	-13.650425
cred	-12.926049
▁ACTIVE	-16.994455
▁exist	-12.418024
▁SOCKET	-14.232848
▁idle	-13.607727
▁rarg	-19.322241
IPv	-12.840513
hit	-12.998859
plugin	-12.661577
▁KERN	-14.417630
▁riid	-13.414161
game	-12.710044
De	-12.498838
▁execution	-12.535434
NA	-12.965786
env	-11.346719
▁ImGui	-12.964670
▁route	-12.764176
▁kfree	-15.518180
▁raise	-12.891155
rial	-15.028673
▁CIPHER	-17.066768
▁outer	-13.175332
Fixed	-12.612320
▁own	-11.055883
▁package	-12.963627
bw	-12.969287
clear	-10.796683
BT	-11.904732
gamma	-12.737742
TEMP	-12.783635
AA	-12.469621
▁rsp	-15.231340
▁sfr	-13.408381
▁round	-11.209943
rows	-12.033149
Operand	-12.796179
▁GLAD	-13.097675
▁par	-13.629432
Put	-13.028274
digit	-12.920286
NVPROC	-12.950346
PM	-12.106183
linear	-13.034581
▁seed	-13.057433
IMGUI	-13.155897
Http	-12.606370
eat	-13.834895
▁PyExc	-14.620116
mid	-12.810258
MENT	-12.677048
Rec	-12.751627
▁There	-10.992701
VR	-12.529682
Track	-12.605833
Generator	-12.607496
FX	-12.737799
▁effect	-12.019233
▁actually	-11.832255
UC	-12.750858
▁charge	-12.293710
Signature	-12.555879
create	-10.785452
sector	-13.051956
▁certificate	-13.052160
clone	-12.992731
UNIT	-12.813951
Basic	-12.877516
ELEMENT	-12.767705
▁macros	-12.752342
coeff	-13.126531
Writer	-12.316751
acpi	-13.285852
method	-11.343325
RPC	-11.558618
elem	-11.980115
LIMIT	-12.807916
doc	-11.602941
Argument	-12.544602
▁vma	-14.190228
▁category	-12.903439
cg	-12.825576
instr	-12.912759
▁IFS	-16.800671
inet	-12.518188
pub	-12.473378
▁Sets	-12.582190
▁definitions	-12.343412
▁erase	-13.510235
ting	-12.018006
▁glyph	-13.818756
bss	-12.867075
hid	-12.849270
▁defgroup	-18.425706
▁SELECT	-13.284751
▁endian	-13.783017
▁listener	-13.440458
FM	-11.996694
Void	-12.996202
▁perform	-12.395565
cn	-12.789695
▁comment	-12.610057
gc	-11.974663
▁implemented	-12.498065
Mac	-12.753388
Io	-12.619507
▁console	-12.876822
Member	-12.620432
INC	-11.869155
ave	-13.558342
PG	-11.798320
▁background	-11.699779
perf	-12.739558
local	-10.918772
▁CHIP	-13.497728
AD	-11.971777
Seq	-12.866579
▁expand	-13.287059
▁vs	-11.770303
SPEED	-12.707432
MAIN	-12.658726
▁classdump	-12.920029
Complete	-12.756868
▁Otherwise	-12.634192
pipe	-11.860640
publish	-13.745912
LC	-12.679552
VT	-12.621087
Plugin	-12.564960
▁INCREF	-18.459211
▁PLATFORM	-14.888081
ath	-12.829977
▁HID	-13.864783
front	-12.624136
Gen	-12.448919
EOF	-12.580117
Dialog	-12.415114
▁ti	-13.582310
chain	-12.052880
Part	-12.473742
WT	-12.927515
Std	-13.061691
Expected	-12.907045
▁PyArray	-13.313128
nm	-12.941772
▁refcount	-13.476276
▁assignment	-12.647744
▁stdcall	-17.404876
identity	-13.095480
▁wasm	-13.748458
SN	-12.616282
Per	-12.654350
▁warn	-14.549936
DELAY	-12.830967
Light	-12.554848
False	-12.500948
▁PKEY	-18.814002
▁xAA	-26.224900
fm	-12.670504
Delay	-12.663812
▁So	-11.126311
dep	-12.798871
▁parallel	-12.836816
Signal	-12.869896
▁reverse	-12.817456
Constraint	-12.728726
Interval	-12.754382
pic	-12.794713
Segment	-12.792793
dis	-10.738263
Bar	-12.392569
order	-11.453860
▁environment	-12.287859
▁dyld	-16.958020
cat	-12.306989
Decode	-12.786876
ISO	-12.699614
▁curwin	-13.468829
spi	-11.895780
scratch	-13.311053
▁inside	-12.027174
Top	-12.423411
▁VENDOR	-15.716990
Bus	-12.893678
After	-12.650444
slice	-12.439087
last	-10.772236
Relation	-12.505131
wait	-11.310228
app	-11.309971
▁contributors	-12.588680
td	-11.303011
NIL	-12.687173
Generated	-12.647257
▁known	-11.069286
DEPTH	-12.723239
fe	-11.598425
ah	-12.268518
pat	-12.814836
▁crtc	-14.685710
vis	-13.159688
▁exclusive	-13.343344
INTEL	-12.948026
▁VER	-15.537385
uint	-9.030157
PL	-12.435916
▁tid	-13.975728
Direct	-12.838468
Mark	-12.762835
▁NSArray	-13.386410
sound	-12.848523
▁partial	-12.807400
tg	-12.939511
chars	-12.745131
▁hold	-12.158443
kw	-12.725588
Connect	-12.612356
▁components	-12.453781
dens	-13.929964
▁clip	-13.661629
HANDLER	-12.748109
Edit	-12.699612
Reserved	-13.107845
APPLE	-12.899570
▁deal	-12.051405
sink	-13.082338
address	-11.023647
cls	-13.063624
ter	-12.113578
ng	-11.891028
ENT	-12.129296
LAN	-13.075335
FF	-10.432491
RAW	-12.827321
TB	-13.170763
wallet	-13.511564
source	-11.076224
select	-11.767834
DH	-12.706705
ACL	-12.838615
Constructor	-12.578991
beta	-12.601639
BOX	-12.448895
NU	-13.299427
rb	-11.736322
save	-11.337233
SOCK	-12.842607
VIEW	-12.664375
▁MAJOR	-17.801705
▁loaded	-12.795594
▁uri	-14.566877
FO	-13.505151
drv	-12.035074
▁sched	-14.554864
▁deleted	-12.831814
TSRML	-13.316480
ti	-12.000383
clause	-13.488261
BUSY	-12.451583
▁netif	-13.974784
▁offsets	-13.412027
▁GFP	-13.167792
dn	-12.760859
IDLE	-12.889801
Animation	-12.398269
▁allows	-12.273414
Exp	-12.860120
abs	-12.272404
▁those	-11.035570
factor	-12.476758
ATI	-12.978392
▁UIKit	-14.588931
SDK	-12.751264
arity	-13.656280
dst	-11.004615
radius	-13.149367
▁ingroup	-19.917637
PARAMS	-12.790290
Job	-12.877137
▁FFF	-18.448370
rn	-12.685832
QT	-12.439638
Wrapper	-12.657528
ENTRY	-11.095474
▁outputs	-13.135083
▁cases	-11.597944
▁OTG	-14.661272
Other	-12.832467
▁NPY	-13.076942
▁precision	-13.262852
look	-13.405867
literal	-13.075234
handler	-11.203364
pb	-12.097608
bdev	-13.249636
POST	-12.636433
BIG	-12.490978
Co	-12.739008
fx	-12.889526
▁endorse	-12.651911
des	-12.284989
Operator	-12.565230
Notification	-12.654081
▁role	-11.962075
▁fragment	-13.454110
gb	-12.811092
▁extended	-12.713674
▁SWIG	-13.325524
fit	-13.155255
SINGLE	-12.952072
ei	-12.629125
locale	-13.090681
▁supports	-12.572928
▁hypre	-13.122090
▁wrong	-12.216912
sf	-12.017946
HCI	-12.813534
▁geometry	-13.265479
▁isn	-12.296244
SSE	-12.874955
gain	-13.365449
SAMPLE	-12.894506
binding	-12.758460
Peripheral	-12.867636
wire	-13.011491
▁fxp	-13.520184
rest	-12.917045
▁checksum	-13.329606
ANS	-14.179955
gfx	-12.817005
realloc	-13.013900
NULL	-9.845569
DT	-12.339652
Datum	-11.942823
diag	-12.989988
VI	-12.811420
ratio	-13.224806
double	-10.326552
pair	-11.989004
Slice	-12.813417
diff	-12.227793
coll	-13.355494
catalog	-12.994338
inter	-11.960892
codes	-13.131926
srv	-13.062065
▁GrB	-12.892526
wide	-12.665474
join	-12.352234
nic	-12.829521
fold	-13.010378
▁LWIP	-12.996278
Grid	-12.456181
▁pins	-13.264124
ify	-12.309271
stub	-13.328862
XC	-13.367859
CLOCK	-12.277962
thr	-13.080128
▁ndim	-13.880985
▁memcmp	-14.451869
Speed	-12.886277
BOOT	-12.925137
Clause	-12.686386
RED	-12.646981
▁minor	-12.609864
▁iteration	-13.235311
lr	-12.676686
height	-11.185515
▁Corporation	-11.948410
Ty	-13.105213
Warning	-13.217713
only	-10.980323
Back	-12.486514
move	-11.419556
rk	-12.730105
▁capture	-13.137872
calc	-12.723952
Down	-12.579992
bias	-13.209661
lines	-12.242928
old	-10.962608
fatal	-13.012714
RR	-12.883314
Try	-13.336961
▁RefNanny	-87.804028
buff	-11.849886
Variant	-12.670411
hr	-11.901973
processor	-13.033744
dat	-13.011901
Gr	-12.934863
align	-10.330046
backup	-13.295079
▁xfd	-18.694384
SCALE	-12.983828
▁ssid	-14.239093
▁testing	-12.368074
glProgramUniform	-13.146180
▁FUN	-15.316814
deprecated	-13.220328
CERT	-12.926337
fh	-13.123530
▁PFNGLGET	-12.899185
Configure	-12.648368
ITEM	-12.146804
Describe	-13.217529
sse	-13.027957
▁completed	-11.546443
exit	-10.916464
▁usr	-16.203512
touch	-13.148806
▁missing	-11.103464
rem	-12.683348
Geometry	-12.737632
TRANS	-12.869426
BP	-12.726487
▁related	-11.853466
CALLBACK	-12.626741
Old	-12.703652
vx	-13.099665
▁renderer	-13.590144
put	-10.907180
▁handling	-12.552748
Generate	-12.658378
HANDLE	-11.369252
Sys	-12.546825
▁generator	-13.338423
▁lane	-14.464403
DDR	-13.148280
auth	-11.974164
FREQ	-13.159611
COMMON	-12.830292
SIM	-12.950031
DataType	-12.796277
▁logging	-13.122802
TV	-11.530589
pin	-11.677319
IPC	-12.963782
Skip	-13.334265
cf	-12.262844
DEFINE	-12.560778
BS	-11.860427
CONST	-11.785379
▁WINDOWS	-14.712975
▁constraints	-13.040037
▁licensed	-12.742674
hc	-13.070700
▁addresses	-12.749949
SQ	-12.842602
Virtual	-13.017006
tract	-14.211191
▁pfn	-13.891078
members	-13.265312
DEVICE	-11.352649
kind	-11.885991
PRIO	-12.833986
mate	-13.579032
Ctrl	-12.838261
PAGE	-12.026109
coord	-13.097160
Auth	-12.792721
FLT	-13.203154
NK	-13.476558
Verify	-12.691124
Direction	-12.671902
PROT	-13.457819
▁GLboolean	-13.014231
Volume	-12.785954
▁errcode	-14.718539
▁IFC	-16.047539
Fast	-12.989090
▁READWRITE	-12.497486
PARSE	-12.788958
arginfo	-13.246735
mix	-13.233286
Col	-12.769668
SESSION	-12.905693
IER	-13.325615
ig	-12.849094
▁delegate	-13.269309
sep	-12.691953
dom	-12.644341
FLOAT	-11.961431
▁PCNT	-14.788792
declaration	-13.815785
▁pull	-13.327715
Comp	-12.963864
ov	-12.014425
▁Also	-12.093680
▁QSPI	-13.702892
▁numbers	-12.010632
FUNCTION	-11.197391
▁UnityEngine	-13.825317
INCLUDE	-12.256667
▁xbd	-19.428470
VERSION	-10.972568
▁registered	-12.608230
detect	-13.231317
Lookup	-12.828188
Traits	-12.861638
▁checks	-12.676668
COUNTER	-13.040058
▁constants	-12.934595
tz	-12.531823
Directory	-12.480607
ASSERT	-10.806144
▁behavior	-12.386717
▁Lesser	-12.429649
Dest	-12.943142
IRQ	-11.553459
INPUT	-11.906936
tail	-11.990482
▁guint	-13.215327
avail	-12.559247
OVERRIDE	-12.829487
pkt	-11.895619
prom	-13.275307
▁GCC	-13.190764
vol	-12.581236
vd	-13.093638
▁due	-11.506464
PCM	-12.913699
▁rotation	-13.134045
▁restart	-13.090586
fid	-13.119104
ENDIAN	-12.758465
SCRIPT	-12.690373
cid	-12.972631
MV	-12.504219
▁nrf	-13.463032
▁foo	-13.520827
LDAP	-12.826841
WRITE	-11.257254
action	-11.177148
▁itself	-11.910368
READY	-12.792911
▁nfs	-13.376362
edge	-12.254500
FIX	-12.784714
▁shim	-17.445728
ERIC	-15.645318
Bind	-12.768076
resume	-13.037681
ROW	-12.810472
CRIT	-13.017478
SHORT	-12.847587
vr	-12.853870
Tile	-13.024805
▁matching	-12.754830
suspend	-12.935387
INV	-12.968845
▁appropriate	-12.292050
MSK	-13.386696
▁dentry	-13.644860
bx	-13.349154
SSL	-11.208906
AV	-12.042315
UUID	-13.020661
▁btrfs	-13.279688
▁xfb	-17.397717
FileName	-12.789741
▁hope	-12.079776
MAGIC	-12.886781
ag	-12.762188
▁history	-10.466089
Work	-12.855885
▁purpose	-12.297611
room	-12.790238
white	-11.957595
std	-9.503299
Now	-13.015049
Serial	-12.740598
debug	-11.030025
▁invoke	-13.474134
pwm	-13.196515
DST	-13.160442
Api	-12.706542
Account	-12.801789
ru	-12.409994
scheme	-13.457980
Pack	-13.092441
VEC	-13.023194
busy	-13.130134
▁HYPRE	-13.143011
PUSH	-12.748974
SWAP	-13.051312
Abstract	-12.919396
sat	-13.119819
ctr	-13.123751
COL	-12.909499
Icon	-12.617335
Called	-12.689515
ET	-12.777809
Face	-12.848562
CONTROL	-12.033561
▁indicates	-12.490193
▁xbe	-17.821108
▁waiting	-12.602501
GRP	-13.152565
Alpha	-12.896077
nodes	-12.254261
▁ownership	-12.797641
▁uLocal	-12.646166
Definition	-13.102405
rhs	-12.360896
Green	-13.272868
▁intptr	-13.893693
▁named	-11.190628
Outcome	-13.384411
ios	-12.805846
Rule	-12.774794
Title	-12.544699
vertices	-13.549033
Events	-12.616872
▁physical	-12.381362
BY	-12.467601
ENTER	-12.558285
▁radio	-11.911484
ViewController	-12.843414
Chunk	-12.959929
▁npy	-13.572148
Swap	-12.797539
share	-13.129406
nb	-12.109280
avg	-13.175925
▁made	-10.750214
Prop	-12.784799
ary	-12.073688
drive	-13.020790
ux	-12.850007
Monitor	-12.545286
▁started	-11.784945
tion	-12.373846
UT	-12.980408
sqrt	-12.402700
▁href	-12.648126
▁snapshot	-13.367681
Head	-12.768316
CCR	-13.523419
colors	-13.264046
nf	-12.738512
OPEN	-11.895726
▁detach	-13.674800
klass	-13.266813
ta	-11.850024
cam	-12.961440
broadcast	-13.392668
▁specify	-12.828655
▁NUL	-12.983881
malloc	-11.702263
URI	-12.812106
Force	-13.180978
CODEC	-13.019500
ASCII	-12.947505
▁sizes	-13.066121
▁secret	-13.121848
WM	-12.377694
▁hereby	-12.748694
shadow	-13.006397
blocking	-13.268574
▁provide	-11.777362
MG	-13.051887
edges	-13.432794
delay	-11.712538
Short	-12.727795
HC	-12.742720
▁cdef	-13.050949
▁pData	-13.935111
▁finished	-12.339648
SERVICE	-12.832706
POOL	-12.972782
bf	-12.078973
MK	-12.910404
wt	-12.958656
DIO	-13.101929
year	-11.833501
▁numpy	-14.356325
lang	-12.079564
classes	-13.375668
VS	-12.423357
TL	-12.853608
from	-10.525544
▁notification	-13.079920
Batch	-12.846379
svc	-13.093869
▁curl	-13.728727
lm	-12.874851
AI	-13.078290
Chain	-12.819522
▁carry	-12.698483
wi	-12.834563
▁handlers	-13.381329
pte	-13.341839
FLOW	-12.948811
▁ZEPHIR	-14.796276
▁Neither	-12.789296
BUILD	-12.749961
Allow	-12.930849
IOC	-12.999576
Cfg	-13.107999
▁includes	-11.794189
jit	-12.878847
▁listen	-13.820639
Flush	-12.719586
mz	-13.387111
RI	-13.130969
logger	-12.855311
▁xcc	-18.058552
po	-12.394544
variant	-13.005345
press	-12.857055
▁require	-12.300464
speed	-12.203594
Tick	-12.901574
LB	-12.877431
om	-12.464261
▁strerror	-13.465759
INST	-13.038588
▁Rights	-12.280252
EDGE	-13.127647
CONNECT	-12.978493
Nullable	-13.239465
CPP	-12.829812
▁FOUNDATION	-12.924988
send	-11.042260
RELEASE	-12.908803
ling	-12.213049
cur	-10.972352
▁transmit	-13.299648
▁extensions	-12.969797
BSP	-13.154030
▁handles	-12.987482
NI	-11.930087
Blue	-13.104929
PRESENT	-13.024893
HAL	-11.487313
Listener	-12.706175
▁representation	-12.477687
bu	-12.823932
np	-12.051937
Unicode	-12.450072
increment	-12.790719
graphic	-13.897365
COPY	-11.884967
tup	-12.893669
▁configured	-12.874568
WIN	-11.224196
SLEEP	-13.134090
UNDEF	-12.905770
▁EMIT	-13.858582
▁palette	-13.672612
Utils	-12.506423
quote	-13.078438
ulong	-12.945007
cons	-12.769602
SEG	-13.188057
Mono	-12.202003
PV	-12.197040
vals	-13.070761
CN	-13.033238
phi	-12.561311
▁EXPECT	-13.097145
verifier	-13.581550
FREE	-11.905746
▁permit	-12.678403
▁flatbuffers	-13.578157
can	-11.610505
focus	-12.755841
od	-12.500035
CRC	-12.785340
▁AddRef	-14.330940
▁startup	-13.263373
UNLOCK	-12.685055
▁pipeline	-13.238492
Card	-12.972394
Failure	-12.693633
POSITION	-13.061668
CHANGE	-12.931189
▁strncmp	-14.816474
site	-12.728487
trigger	-12.641115
▁unexpected	-13.338918
Area	-12.770655
ness	-11.740255
ser	-12.290701
Dump	-12.759048
▁protoc	-16.111267
MIPS	-13.072354
INS	-12.879216
BLK	-13.214543
SPEC	-12.344557
Database	-12.745700
Qt	-13.154867
XT	-13.370132
TRIGGER	-13.131410
RL	-13.038602
Results	-12.584488
IVPROC	-12.865014
AVX	-13.361738
▁docs	-14.449840
▁GNUC	-16.951800
CX	-12.568569
ToString	-12.825893
▁restriction	-12.642913
▁PERI	-14.967288
mmc	-13.167473
fds	-12.989193
▁actions	-12.573095
Setting	-12.713686
Cancel	-12.892281
▁person	-11.753354
model	-11.637958
TEXTURE	-11.906223
channel	-11.055732
▁NIM	-14.118670
menu	-12.240461
ticks	-12.967480
funcs	-13.141176
ino	-12.536392
Initial	-13.326283
LUA	-12.935403
prot	-12.996826
CRYPT	-12.750869
White	-13.139985
ENV	-12.847922
Pair	-12.797430
Adapter	-12.693749
um	-11.705535
Import	-12.705546
Author	-13.566908
BAR	-12.863143
▁undefined	-12.900039
HOST	-12.177991
PU	-13.010347
loader	-12.861130
FMT	-12.322694
▁cpi	-14.095903
LOOP	-12.971694
PIXEL	-12.891892
mbuf	-13.046987
▁automatically	-12.558439
Should	-13.696235
pitch	-13.440663
clock	-11.882664
Cost	-13.218457
refresh	-13.182922
way	-12.267595
walk	-13.173968
GPIO	-11.327036
TIFF	-12.973803
Public	-13.181476
xy	-13.006315
arc	-13.237841
Black	-12.948981
NAN	-13.505428
Eigen	-13.046894
CLOSE	-12.866925
▁successfully	-12.522252
▁reserve	-13.222280
MESH	-13.132444
tw	-13.048372
ENCODE	-13.056773
▁wake	-13.612873
▁modes	-13.060235
Processor	-12.797628
Flow	-13.060527
▁firmware	-13.274088
▁Intel	-12.822336
ber	-12.645586
▁unless	-12.529408
function	-10.702562
lat	-13.152825
dd	-11.988395
▁ereport	-15.366050
sis	-13.172882
▁QueryInterface	-14.869502
resolution	-13.666804
MON	-13.018332
▁Don	-11.785623
ATION	-12.354264
▁glew	-17.626429
▁hresult	-17.074651
TD	-12.911827
ASSIGN	-12.928808
▁checking	-12.760344
vid	-13.029551
INSERT	-13.113055
syntax	-13.384900
IMP	-12.996122
FONT	-13.014882
▁construct	-13.611815
▁general	-11.544811
Enter	-12.850477
▁syscall	-13.463109
Ready	-12.802007
TYPES	-12.552576
BANK	-13.302514
ers	-11.060362
Encoding	-12.887695
▁joaa	-13.223855
CLIENT	-12.203107
▁rcu	-14.163180
▁opline	-15.044214
STORAGE	-13.149781
▁xdf	-21.542869
▁globals	-14.415354
Env	-12.453674
rg	-12.736878
metric	-12.957303
MACRO	-13.029639
ating	-12.606887
Flash	-13.378938
▁AUTHORS	-12.849481
picture	-13.205626
PQ	-12.770436
descr	-13.221815
CONTEXT	-12.107947
▁University	-9.621462
Python	-13.496804
▁processed	-12.969520
added	-13.335093
zero	-11.384231
Arguments	-12.279190
gu	-13.077001
▁iLocal	-14.507131
ies	-11.908340
thrift	-13.477228
▁vendor	-13.793337
INTERRUPT	-12.925229
module	-11.011142
Stat	-13.012061
▁copied	-12.971934
Condition	-12.755386
nu	-12.327011
paths	-13.216164
urn	-14.684965
▁desired	-12.746925
IMAGE	-12.144379
Kit	-12.055373
token	-11.370380
TERM	-12.902000
SLOT	-13.254705
LA	-12.013256
quad	-12.527100
Rel	-12.820897
▁xaf	-22.142334
ICON	-13.012446
▁uchar	-14.563851
HEAP	-13.037914
kv	-13.004065
VARIANT	-13.054693
ephir	-13.244814
motion	-13.196722
elt	-13.157707
interface	-10.813773
live	-13.004268
▁LLU	-19.100365
Bad	-12.987445
VF	-13.133103
▁fails	-12.768999
PEN	-13.579338
Category	-12.459679
wb	-13.142858
we	-12.512707
issue	-13.301803
Abort	-12.885691
REV	-13.197814
Mapping	-12.812253
Elements	-12.691758
kp	-13.328784
▁xfa	-19.487502
die	-12.584092
▁TPM	-13.549806
▁Sk	-12.931104
Binding	-12.811369
ud	-12.798159
▁openssl	-15.038426
Complex	-13.273438
▁rtw	-14.195384
points	-12.267793
SGIX	-13.178721
UNI	-12.101896
SMP	-13.154682
DES	-13.111053
erts	-13.100937
▁stdint	-17.358729
smp	-13.094664
far	-13.359477
Self	-12.952277
Effect	-12.919674
▁modules	-13.153892
grad	-12.964155
TAB	-13.034484
RGBA	-13.123226
▁MemoryView	-19.831660
Java	-13.388519
ENABLE	-10.434772
▁unregister	-14.388785
▁calculate	-12.926112
▁FWD	-16.165720
Language	-12.991977
SU	-13.139010
tot	-13.050686
xfer	-13.188718
▁portions	-12.446683
▁connector	-14.108270
Dst	-13.202568
▁interfaces	-13.105556
▁pdata	-14.497420
ASYNC	-13.196342
resolve	-12.853456
Progress	-12.851249
▁SPH	-13.994624
nc	-12.394433
Db	-12.939381
▁NimString	-14.222437
Forward	-13.066600
Tactic	-14.289234
for	-9.778590
SOURCE	-12.241193
CHAN	-13.079799
rules	-13.339241
St	-12.662413
message	-10.938203
AZ	-12.949411
exec	-11.999765
HEX	-13.366775
Validate	-12.718167
mach	-12.990541
▁indicate	-12.603772
fun	-13.072219
DRAW	-12.924202
para	-12.646335
Pending	-12.961915
▁sell	-12.685723
wifi	-13.146545
ray	-12.278922
mult	-13.208364
▁TCL	-13.092475
▁IDS	-13.312359
body	-11.499914
EG	-13.011178
he	-12.529646
SCR	-13.401743
kb	-11.994059
SENSOR	-13.105481
prim	-12.616736
files	-12.332567
aw	-12.989591
ur	-12.367891
EDIT	-13.257277
heap	-11.998655
▁something	-11.436660
▁linked	-12.822540
PKCS	-13.582107
cursor	-11.657530
Sec	-11.625019
AM	-12.473986
Random	-12.993123
kill	-12.988843
mesh	-12.306657
Names	-12.507249
cho	-13.929765
DISPLAY	-13.048940
TMR	-13.276879
dll	-12.958964
▁temporary	-12.749907
Allocation	-12.910523
Done	-12.664615
▁memoryview	-15.321335
▁pubkey	-14.556818
Sort	-13.049564
MOV	-13.209569
▁give	-11.754148
PIX	-13.148020
Renderer	-12.869349
▁determine	-12.354429
MASTER	-13.073318
▁DISABLED	-15.371393
ean	-12.077016
▁LEAN	-14.282505
▁provides	-12.062357
SCSI	-13.054690
CLI	-13.040183
UND	-15.010673
symbols	-13.702487
FATAL	-13.001032
HL	-13.028185
ual	-13.886037
irq	-11.145016
trap	-13.332100
Points	-12.906353
csr	-13.322364
PIC	-13.223583
VER	-11.937443
▁xfs	-13.535204
dialog	-13.370881
buflen	-13.040629
MEDIA	-13.097511
iso	-12.964492
MZ	-13.156543
▁assume	-12.795186
tlv	-13.326139
MALLOC	-13.072628
request	-10.807686
Transmit	-13.308310
▁dimensions	-13.016298
RG	-13.085038
puts	-12.806603
▁EXTENSION	-15.390718
nid	-13.142567
DSI	-13.368706
▁versions	-12.186522
Keys	-12.823923
RESET	-11.900786
DOM	-12.810175
▁datatype	-13.848624
PK	-12.910193
RECORD	-13.069322
▁INCLUDED	-14.688494
DELETE	-12.933512
Each	-13.835289
EXPR	-12.835125
SAFE	-13.078463
fork	-13.354651
COMPARE	-13.044875
den	-12.318143
dio	-12.496008
router	-13.362073
date	-11.756811
ATT	-13.417551
USE	-11.047678
Factor	-13.067231
del	-11.774983
SAVE	-12.937035
▁boundary	-12.863557
▁appear	-12.385818
▁handshake	-13.761861
▁chartInstance	-14.017751
ssa	-13.363945
MENU	-12.909294
▁parsed	-13.318093
seek	-13.009604
provider	-13.221256
pmd	-13.574833
Nt	-13.444050
Statement	-12.953040
▁SND	-13.759950
▁statistics	-11.089141
OC	-12.430532
Cast	-12.930771
Exec	-12.833177
Payload	-13.084836
ks	-12.367921
Asset	-13.089056
▁greater	-12.396014
▁nVersion	-13.253649
▁BKE	-13.569734
TIMEOUT	-12.210628
▁slow	-12.935063
Calculate	-14.344236
▁checked	-13.014468
ATTR	-11.621568
Cy	-13.340426
▁coordinates	-12.931007
▁vectors	-13.077091
FT	-12.150218
ao	-12.701300
▁terminated	-13.455557
▁serialize	-13.760912
jpeg	-13.148875
bug	-13.353856
EXCEPTION	-12.890919
mo	-12.135304
gd	-12.991390
ate	-11.766727
Inc	-13.708430
▁CLAIM	-12.977928
PROP	-12.435230
▁semaphore	-13.533006
▁arrays	-13.114810
▁amazon	-17.211967
Compiler	-13.039392
▁compressed	-13.404989
ian	-11.803450
vo	-12.990912
mgmt	-13.345987
AUX	-13.165786
BOARD	-13.067478
RNG	-13.161543
BREAK	-12.618519
Opt	-12.999319
CTX	-11.936064
Prefix	-12.972061
SERIAL	-12.213798
▁timing	-13.356435
Encode	-12.985059
Must	-14.062968
CNTL	-13.270565
▁XE	-16.176316
REL	-12.810661
maps	-13.114312
tim	-12.214831
Fields	-12.977805
VERB	-13.757982
sense	-13.492419
INSN	-13.526589
reference	-11.931744
▁NID	-13.393688
TLS	-12.098954
▁initWith	-15.167570
gf	-13.289760
cloud	-13.036705
▁NONINFRINGEMENT	-12.888648
BG	-13.010455
SETUP	-12.823587
Items	-12.778090
STEP	-13.055485
▁ovs	-13.440273
▁anon	-14.130980
▁writel	-17.115891
▁nested	-13.468726
▁detected	-12.929077
GMAC	-14.022020
▁generation	-12.632646
window	-11.366284
pro	-12.438900
SHARED	-13.183639
relid	-13.206187
▁regular	-12.343285
Schema	-12.814389
▁mmap	-14.137129
problem	-14.027786
Unlock	-12.765438
Cnt	-13.103788
chunk	-11.903286
ppc	-13.359180
▁atoi	-13.244960
mip	-13.450776
cal	-12.159789
Desktop	-13.324864
▁FOREACH	-15.340551
su	-12.750813
▁creation	-12.622939
Apply	-12.945166
SEQUENCE	-12.983640
▁obtaining	-12.857727
fle	-14.970029
EST	-13.170683
▁whole	-11.989344
Execute	-12.847454
props	-12.978271
▁TWI	-13.822134
▁HWND	-13.405516
little	-13.981538
▁structures	-11.438485
swap	-12.030109
▁substantial	-12.363703
CAM	-12.998189
FAIL	-11.263217
TIM	-11.807970
Be	-12.865862
▁tasks	-12.904508
xp	-12.864719
▁xbb	-18.603424
DEPRECATED	-13.048852
Partition	-12.936515
ABORT	-12.954999
imag	-13.527399
▁very	-11.021084
▁strcasecmp	-15.204632
INTEN	-13.292891
▁hidden	-13.318798
▁whom	-12.183608
▁longer	-12.122033
▁shm	-14.413508
▁according	-11.987692
tools	-12.849650
IsValid	-12.898146
▁parsing	-13.037879
▁Authors	-12.516893
sg	-12.315764
ified	-12.980317
XA	-13.579448
▁held	-11.413803
▁compatible	-13.343932
agent	-13.291494
style	-10.971054
stuff	-13.895595
par	-11.813749
assoc	-13.267157
PROCESS	-12.991088
gcc	-13.162504
query	-11.297142
NETWORK	-13.278358
▁limitation	-12.708072
▁floating	-13.043419
▁executed	-12.596566
PERIPH	-13.290677
LIGHT	-12.967085
REGS	-13.309425
Example	-13.250621
terminal	-13.565668
ascii	-13.290526
▁prevent	-12.544439
▁CURL	-13.415330
xor	-13.253560
ROOT	-13.197725
▁ENTITY	-15.487364
ALT	-12.369180
DOT	-13.317377
POP	-12.702539
HTML	-12.765875
▁PMC	-14.585881
python	-13.139261
▁immediately	-12.315514
Split	-13.263356
Doc	-12.886801
Mouse	-13.128220
acquire	-13.281623
its	-12.394893
neighbor	-13.737960
Assign	-13.072897
HF	-12.806741
Alignment	-13.047754
rom	-12.917650
▁DEALINGS	-12.893565
PROGRAM	-12.879610
Character	-13.411963
hl	-12.812473
SAI	-13.300542
▁MAY	-14.330978
Py	-9.891359
Extra	-13.109139
Dict	-12.836184
EXEC	-12.931945
section	-11.574585
▁SKIP	-15.330482
reloc	-13.103248
uv	-12.433176
▁operands	-13.743945
pol	-13.246525
valid	-11.430045
▁msgs	-15.553719
CFE	-13.519591
sion	-13.888382
Package	-12.897165
DUMP	-13.124945
OVER	-12.881113
parent	-11.023525
▁txid	-14.861197
eh	-13.000321
MUL	-13.265372
▁unordered	-15.124949
▁xab	-20.275627
Sig	-13.158336
Cert	-13.151713
RFC	-13.891349
▁pkey	-14.617116
Dim	-13.169678
▁instructions	-12.738486
▁instances	-12.985101
WL	-12.968766
layout	-11.730255
secure	-13.390948
now	-12.104969
fu	-13.010312
▁xBF	-24.638675
▁tokens	-13.511918
Services	-12.896300
▁WPA	-13.740663
BINARY	-13.042202
toggle	-13.469188
SSI	-13.605302
Blob	-13.089675
▁xFD	-31.915550
OV	-13.147234
LastError	-13.206686
▁furnished	-12.824421
lcd	-13.240373
sess	-13.362827
rna	-12.779024
side	-11.714571
Distance	-12.773846
▁clients	-12.945915
OSE	-14.115607
Proto	-12.983427
lit	-13.134066
GU	-14.031460
▁weights	-13.608993
scope	-12.007374
chk	-13.190751
strip	-13.378920
▁anything	-12.025564
ACE	-13.037397
Go	-12.908447
panel	-13.171000
dw	-11.650370
▁SYSCFG	-14.337577
CDC	-13.399831
sample	-11.652706
▁fopen	-13.485681
▁performance	-11.474042
Plan	-13.081048
▁persons	-12.512391
tv	-11.799954
STS	-13.342607
TM	-12.577808
MOCK	-13.289461
▁utility	-13.227045
Wallet	-12.965745
Blocks	-13.038234
ofs	-13.281693
▁aom	-14.080413
UINT	-10.990628
NG	-12.155346
▁particular	-11.976468
METHOD	-11.471522
ull	-13.456475
ak	-12.534551
rot	-12.927610
Same	-13.595856
mtx	-13.300308
ROUND	-13.186638
▁diagnostic	-12.730223
MQTT	-13.248649
COMPONENT	-12.835540
eg	-12.783089
Cur	-12.879309
LSB	-13.397771
▁happen	-12.509380
qos	-13.470909
ERTS	-13.213824
Required	-12.852729
ALG	-13.256066
Aux	-13.502167
SWITCH	-13.159603
PAIR	-13.231567
LF	-12.936752
▁legacy	-12.748465
▁sender	-13.571579
▁FMC	-14.154776
sol	-13.273995
ger	-12.673690
▁PED	-17.501451
Restore	-12.915399
cross	-13.208508
UG	-14.417267
dq	-13.356180
Sink	-13.077400
INTER	-13.005237
▁RADIO	-13.956418
EEPROM	-13.906946
▁fclose	-12.920760
WORK	-13.069663
ALIGN	-12.475533
LM	-13.150838
search	-11.884347
Since	-14.129691
reload	-13.574992
barrier	-13.314244
DIM	-13.505484
▁primitive	-13.442228
Drop	-13.136534
ssh	-13.493998
hal	-12.039834
asm	-11.723968
Math	-13.036088
▁freed	-13.098857
Cached	-12.925021
GF	-13.261764
USER	-11.847487
RECT	-13.097201
counter	-11.917206
Overflow	-13.117101
▁cinfo	-13.997120
NATIVE	-13.221652
stmt	-12.039568
IND	-13.154163
▁intern	-15.450642
idl	-13.350335
rad	-13.206159
▁CGAL	-13.326263
▁sptr	-14.237576
▁selmon	-14.483038
▁hpp	-16.692362
NP	-13.441139
▁ctype	-14.727946
▁dataset	-13.360477
Observer	-12.836521
bundle	-13.456319
misc	-13.004476
nxt	-13.456379
logic	-13.672713
ELEM	-13.371636
Some	-13.517529
ADV	-13.117833
▁PFNGLUNIFORM	-13.393149
PROFILE	-13.137903
lists	-13.338551
▁really	-11.620541
▁counters	-13.623376
▁keyword	-13.939083
Sensor	-13.177622
Zone	-12.984921
World	-12.497675
vfs	-13.240918
area	-12.176524
▁LPTIM	-14.293541
ipc	-13.216017
Destination	-13.054446
ENGINE	-13.137346
▁queues	-13.829458
bulk	-13.458512
domain	-11.983297
rcv	-13.352096
Atomic	-13.291421
ValueType	-13.121704
▁boxed	-15.461235
usb	-11.821850
watch	-12.765804
LENGTH	-11.881258
Stub	-12.979216
install	-13.147062
Product	-13.060020
ki	-12.286710
Snapshot	-13.075593
mtu	-13.411661
PERF	-13.395344
▁assigned	-12.684398
▁ImVec	-14.191332
Sound	-13.045677
▁mca	-14.068014
▁routines	-12.911860
ErrorCode	-12.994208
▁dictionary	-13.164376
Disabled	-13.155983
NX	-13.137136
suffix	-13.575965
▁OPCODE	-14.534849
extend	-13.398074
▁wine	-13.273426
cond	-11.967590
Identity	-13.153770
Received	-13.127242
ini	-11.868919
▁Creates	-13.044307
Trans	-13.288552
▁xba	-22.745509
MANAGER	-13.172490
snprintf	-12.549790
ry	-11.897092
dg	-13.344733
ins	-11.937816
▁streams	-13.473753
enum	-10.806222
KB	-13.007341
raw	-11.549029
Threshold	-13.137374
solver	-13.122886
Scroll	-13.074522
▁images	-12.559971
sect	-13.303297
MOUSE	-13.168107
▁REDIS	-13.381544
TRIG	-13.711779
draw	-11.743984
xxx	-13.151063
Background	-12.791286
Sign	-13.231076
Cannot	-13.481608
Case	-12.901689
ioc	-13.127749
IMR	-13.974901
▁QSTR	-18.589006
ELF	-13.240464
Safe	-13.188764
zz	-13.267728
inst	-12.078142
Retrieve	-13.083416
seen	-13.612774
Align	-13.240827
grid	-12.629702
output	-10.751096
emu	-13.304120
LIT	-14.280905
Route	-12.985051
dead	-12.667399
aux	-12.281019
wakeup	-13.143378
TION	-13.683353
▁connections	-12.902385
▁IUnknown	-13.434083
▁sublicense	-13.248847
IDs	-13.109426
TMP	-12.818269
▁critical	-12.798609
▁references	-11.956807
▁IOM	-17.754592
Available	-13.070648
Transport	-12.980435
fffff	-12.980084
▁endl	-14.519503
▁capnp	-17.837854
baud	-13.237068
▁receiver	-13.172704
▁xce	-18.422028
ROM	-12.511169
Ip	-13.159387
▁PyDict	-14.122614
advance	-13.366849
Pipeline	-13.009030
▁FreeRTOS	-13.588191
Sum	-13.018923
▁transition	-12.908409
▁getter	-14.524994
▁inp	-14.784440
topic	-13.281191
▁voltage	-13.433214
FAULT	-13.411162
▁AUTHOR	-13.309226
VLAN	-13.344470
flip	-13.442711
OD	-13.461459
UA	-13.078511
▁PPU	-16.347440
USAGE	-13.162098
▁jint	-13.890754
BOOL	-10.668911
▁MODEM	-14.870015
sy	-12.107037
refs	-13.124878
fence	-13.407877
▁xcd	-18.158093
▁sqInt	-12.995961
▁third	-11.733391
ABS	-13.148316
▁latest	-13.092337
translate	-13.383107
▁strchr	-13.821137
▁pSrc	-13.811922
Cb	-13.451879
OM	-13.016356
Reply	-12.926317
PRINTF	-13.196399
▁SetString	-15.676326
▁NTSTATUS	-12.170014
▁usec	-15.118496
Equal	-12.623176
vn	-13.145926
▁GLubyte	-14.008842
gm	-13.154025
PUT	-13.185333
BW	-13.353295
unnel	-16.236010
▁declspec	-18.126447
first	-10.873634
Present	-13.256134
JIT	-13.203835
▁handled	-12.993039
pq	-13.091631
▁positive	-12.345159
MY	-12.937689
Windows	-11.214917
Conversion	-13.053659
FFFFFF	-12.007354
▁opal	-13.800262
▁HRTIM	-14.471937
Timestamp	-13.098398
▁DUK	-13.944733
alpha	-11.824881
CHK	-13.327654
QP	-13.409329
▁much	-11.142409
LR	-13.223389
simd	-13.502638
Lo	-13.175727
KV	-12.883409
DESCRIPTOR	-13.264382
CODING	-13.410017
▁assembly	-13.273161
SHIFT	-11.114101
tra	-13.029122
amp	-13.232833
ffe	-13.567976
▁records	-12.018854
used	-11.658390
WIFI	-13.303366
JPEG	-13.231679
terminate	-13.077988
Environment	-13.103957
Vtbl	-11.890923
▁formats	-13.218768
▁STBI	-13.327723
CUR	-13.166621
compat	-13.029863
Linux	-13.656520
plain	-13.280647
AH	-12.762739
▁sending	-12.932610
DHCP	-13.848956
Fail	-12.940403
VE	-13.074898
▁LFA	-17.664056
Pipe	-13.096340
lan	-12.447141
Fault	-13.228662
specs	-13.735780
▁keyboard	-13.424769
Fetch	-13.051907
Ignore	-13.019880
▁writes	-12.981976
▁incoming	-13.275918
PIN	-11.209846
Invoke	-13.295372
TW	-12.757139
rpc	-12.435897
▁takes	-12.279981
ENA	-13.563739
CTR	-13.492445
▁ERRCODE	-16.400919
ay	-12.645548
AG	-13.370231
▁gets	-12.548486
WAKE	-13.466724
Statics	-13.837585
latency	-13.716569
Supported	-13.069657
MSI	-13.286514
Literal	-13.238166
position	-11.498709
Archive	-13.043691
▁GLFW	-13.458282
▁ecma	-13.805784
FLUSH	-13.204359
icmp	-13.450213
▁nla	-13.767883
ARE	-13.527336
virt	-13.102159
cycle	-12.711592
▁xac	-19.885629
NOTIFY	-13.192347
control	-11.312669
DYNAMIC	-13.167914
compatibility	-12.957965
▁marked	-12.866043
AK	-13.127582
Url	-12.866414
Decoder	-13.166033
Center	-13.069949
freq	-12.397724
TRI	-13.303315
MCU	-13.368393
▁tif	-16.290689
DROP	-13.279030
▁starts	-12.782710
▁finalize	-14.182197
Bounds	-13.188241
dsp	-13.307649
Opcode	-13.228738
TEX	-13.138337
▁coordinate	-13.202933
DV	-13.198782
Linear	-12.851869
rng	-13.544740
mysql	-13.115434
mq	-13.042168
▁avx	-16.489844
GFX	-13.328043
KS	-12.989312
MO	-13.258463
tap	-13.408198
DAT	-13.630003
▁curbuf	-13.956141
▁recovery	-13.195630
▁lpfc	-13.911550
hist	-13.252725
COMPLETE	-12.937139
▁strides	-14.467907
▁xdd	-19.524655
Pop	-13.031060
Nodes	-13.088780
Pad	-13.341797
msi	-13.196837
▁hres	-13.481073
fee	-13.925586
conflict	-13.844276
ecc	-13.629384
▁xee	-22.898669
fall	-12.981205
parm	-13.357246
▁tstate	-14.000257
Delta	-12.728893
EVENTS	-13.580032
▁absolute	-12.997563
UTIL	-13.144377
▁underlying	-12.844681
▁PINMUX	-14.881605
NumberOf	-13.191756
change	-11.883996
HEADER	-11.928586
▁compiled	-13.219339
undo	-12.991361
MATH	-13.201958
Focus	-12.936072
vs	-11.994676
▁filters	-13.515998
DATE	-13.121843
▁METH	-13.881497
▁lda	-14.005457
fol	-15.063118
▁specifies	-13.186980
shuf	-15.911222
CARD	-12.912026
noise	-13.579917
shape	-11.924048
▁chunks	-13.587252
▁xbc	-20.956107
▁BLI	-13.693809
▁separate	-12.449776
repl	-13.247388
MSB	-13.509764
pause	-13.219183
Callable	-13.617419
iph	-13.499525
CONV	-13.141879
LINUX	-13.100882
packet	-11.411780
▁beginning	-12.316224
TILE	-13.384862
Semaphore	-13.216635
scr	-13.167005
▁LEUART	-14.882358
▁PyInt	-13.997556
▁SUCCEEDED	-16.756803
▁ifp	-15.068695
▁duk	-15.157650
▁xed	-15.495109
▁IGNORE	-15.379658
ADDRESS	-12.260576
BI	-13.159375
▁three	-10.843091
META	-13.136591
ql	-13.270295
FNGLVERTEXATTRIB	-13.241993
lw	-12.928831
wa	-12.534119
SPD	-13.345996
rop	-14.172380
Objects	-12.924372
▁xad	-17.955922
▁radeon	-13.861514
pixel	-11.866960
nh	-13.428223
▁disconnect	-13.920077
▁nbytes	-13.710929
Syntax	-13.196167
▁Whether	-12.921338
fail	-11.417289
ACTIVE	-12.355682
PULLUP	-13.713904
floor	-13.513596
▁krb	-13.699729
curr	-12.222992
DU	-13.390761
null	-11.107160
APP	-12.285196
jj	-13.497982
Atom	-13.097383
▁foreach	-13.758994
FI	-12.967301
Duration	-13.058012
Serialize	-13.141840
Namespace	-13.047766
RESULT	-12.045924
RP	-13.346117
usart	-13.402228
▁cairo	-13.773288
Construct	-13.037883
vtable	-13.566412
▁MUST	-13.817807
adj	-13.327539
Axis	-13.109210
GD	-13.242192
tcp	-11.893869
Contact	-13.258303
The	-9.896119
Details	-13.070480
vif	-13.888065
isc	-13.144062
arp	-13.410388
▁xea	-28.530940
Elem	-13.309996
Curve	-13.202422
filename	-11.509311
fill	-12.094638
▁won	-11.350208
INTERVAL	-13.357277
Replace	-13.575346
prime	-13.235619
micro	-13.221520
Files	-12.630934
▁Gets	-12.918903
DEN	-12.998491
▁However	-11.554386
▁EIC	-15.378015
filled	-14.026991
Entries	-13.143069
zone	-12.406328
values	-11.639654
Break	-13.267313
SourceLocation	-13.025724
DO	-12.287987
▁against	-10.987240
miss	-13.481014
IPROC	-13.190858
Util	-12.933246
OWNER	-13.212700
▁omap	-13.954150
▁simde	-13.814512
▁segments	-13.289257
ih	-13.412711
▁xde	-20.514679
Stage	-13.140010
Google	-13.446604
FIXED	-13.322035
POLL	-13.099502
Con	-12.992009
▁represents	-12.679398
ALLOW	-12.740247
Sleep	-13.447713
qh	-13.644706
HEIGHT	-13.387545
Slave	-13.706722
wq	-13.428908
SER	-13.011028
▁MIDL	-14.767147
▁PFN	-14.078141
sta	-12.357894
PROGRAMUNIFORM	-13.425060
protect	-12.575854
PCIE	-13.674340
hints	-13.512500
RESPONSE	-13.301923
DOMAIN	-13.347331
SSP	-13.481879
PRT	-13.810730
▁mavlink	-14.213682
▁IOCTL	-14.486971
echo	-12.930555
decimal	-13.737836
PULSE	-14.285806
rdp	-13.469981
Updated	-13.126487
ARGS	-11.751376
Tk	-13.249602
▁blen	-15.064636
REPORT	-13.180799
▁DDevice	-87.804028
▁fib	-14.455430
▁scheduler	-13.630777
SCAL	-13.324849
wl	-12.450594
active	-11.393648
pri	-13.254853
begin	-10.806528
RTS	-13.259593
▁NSNumber	-13.549393
Period	-13.416353
clamp	-13.752821
▁SCIP	-13.435047
OPTIONS	-13.263094
ros	-12.457023
▁xBB	-22.516711
unpack	-13.136855
EXIT	-11.937267
▁attached	-12.824889
process	-11.564212
sun	-13.026213
disk	-12.609691
BX	-13.528721
SHA	-11.951202
Bucket	-13.354571
▁opened	-11.870215
ist	-11.887475
▁salt	-12.979713
▁gboolean	-12.380031
pts	-13.533413
RDY	-13.583043
HY	-13.414343
folder	-13.627754
screen	-12.138343
▁COPYING	-13.463024
▁UNSIGNED	-16.077469
frm	-13.604106
Lim	-14.857674
Dec	-13.290909
Rep	-13.306977
▁doing	-11.978091
tell	-13.816254
Boot	-13.039993
Matcher	-13.278816
TICK	-13.484194
lim	-12.994929
xc	-11.550378
management	-14.046090
Filename	-13.282961
dbg	-12.172272
Weight	-13.272231
▁HFXO	-15.662367
▁iwl	-13.884133
ability	-12.297602
ABI	-12.380600
REC	-13.267499
▁reflection	-14.078582
PARSER	-13.224314
Tmp	-13.385208
▁discard	-13.703453
Machine	-13.260998
yn	-13.332543
proto	-11.454472
▁RID	-14.552542
GOTO	-13.439553
iw	-13.245474
▁SERIALIZE	-16.714577
PRO	-13.163437
UF	-13.772694
▁xcf	-19.246109
tls	-12.124810
▁transpose	-13.771397
Features	-13.102388
ess	-13.548317
CSS	-13.384804
plane	-12.642739
▁Includes	-13.562069
▁mock	-14.036655
xl	-13.160802
Derived	-13.024262
▁declare	-12.880466
▁mini	-13.723087
minus	-13.478361
isr	-13.291975
perm	-13.332019
▁entire	-12.277872
Uniform	-12.336968
Origin	-13.160719
implicit	-14.022138
Certificate	-13.364994
COMM	-13.344817
Definitions	-12.762250
task	-11.350123
child	-11.600451
▁larger	-12.517769
uct	-13.839538
Named	-13.063246
▁returning	-12.817071
▁exact	-13.104697
▁reuse	-13.347816
Throw	-13.053957
▁sx	-14.797583
▁sampler	-13.981185
DISP	-13.151653
▁XMC	-14.396752
syn	-13.175078
Owner	-13.157125
Yellow	-14.676169
History	-12.763106
▁xdb	-19.260379
suit	-14.775703
Wrap	-13.220390
▁retrieve	-13.184385
GA	-13.302003
INF	-13.443011
▁ucs	-13.854709
▁RAC	-14.878592
accel	-13.506277
▁UINTN	-12.854503
ise	-12.949416
▁uiv	-19.604716
Hz	-13.824511
Encoder	-13.245050
Extended	-13.519413
Extract	-13.121399
Download	-13.177119
▁absl	-13.741232
disp	-12.686948
RTL	-13.118313
FLD	-13.538868
Revision	-13.096943
coords	-13.468088
SHR	-13.307617
Emit	-13.326404
▁elog	-15.847924
pages	-12.273464
PARAMETERS	-13.081335
Xml	-13.130903
layer	-12.134252
▁journal	-13.432065
▁BSTR	-13.807910
▁metrics	-13.667616
Management	-13.457019
▁MAVLINK	-14.193750
▁attempt	-12.533523
▁tvb	-14.477480
WP	-13.374893
abilities	-13.781637
Selected	-12.980748
mn	-13.361580
Constants	-13.077272
nonce	-13.532427
IGSEL	-15.397649
alarm	-13.732697
▁objc	-14.256336
Frequency	-13.210663
▁instancetype	-15.038710
Implementation	-12.697617
▁tensorflow	-14.191776
▁SDMMC	-14.298671
▁NONNULL	-17.321671
▁selector	-13.958872
▁xEF	-23.449864
CUDA	-13.539389
▁pmix	-13.958486
tgt	-13.580951
▁CSL	-14.001747
SEEK	-13.374710
▁Please	-12.462674
USED	-12.876695
▁UCHAR	-13.655502
▁Enables	-13.447396
▁indexes	-13.561334
▁had	-9.890764
▁outside	-12.092937
▁tsk	-14.020071
links	-13.187130
Join	-13.215463
duplicate	-13.978223
▁fake	-13.581374
▁sds	-13.870003
poll	-12.281963
lg	-13.266993
Console	-13.140014
SEM	-13.790500
tic	-12.778542
BLEND	-13.443324
SUN	-12.992820
▁xFB	-21.295987
Registry	-13.035252
TLV	-13.537050
Loader	-13.101769
▁Cyan	-12.621470
chr	-13.040552
SIGN	-13.443682
▁ZAP	-14.662859
gemm	-13.883334
Selector	-13.154128
▁xeb	-27.088501
Angle	-13.246787
Accept	-13.091355
▁xae	-19.145052
track	-11.886791
STRUCTURE	-13.584260
du	-12.578244
option	-11.362576
Stride	-13.483539
Purpose	-14.427654
▁controls	-13.105997
notify	-12.333557
Side	-13.279793
▁framebuffer	-14.204033
instance	-11.359287
▁quic	-15.016346
PDF	-12.931767
odd	-12.533926
STYLE	-13.141117
rotate	-13.837096
Alias	-13.283799
zy	-13.608696
AX	-13.206783
▁counts	-13.294830
▁unlink	-13.929062
▁Operating	-13.194499
▁developers	-13.077617
▁previously	-12.249195
Password	-12.987197
▁uniform	-13.432193
strncpy	-13.505648
InitStruct	-13.205657
KA	-13.347954
done	-11.577698
ol	-12.410695
cuda	-13.494360
▁USA	-12.095938
prio	-13.690716
▁xFA	-30.847197
▁reads	-13.066697
▁xabababab	-87.804028
ans	-12.537399
PHYS	-13.450105
WC	-13.051838
pal	-12.817130
▁ppvObject	-15.309391
WRAP	-13.419745
▁htim	-14.281493
Cloud	-12.871423
XD	-13.327723
blank	-13.343812
▁deref	-15.550816
Keyboard	-12.959352
DICT	-13.417161
SX	-13.428871
wk	-13.231703
Marker	-13.268039
region	-11.762434
EGL	-13.368814
Declaration	-13.408773
▁recursive	-13.754433
▁makes	-12.059811
▁sam	-14.181013
MII	-13.526978
GAIN	-13.745195
▁cout	-14.423392
reset	-11.272754
▁OBSERVER	-18.398642
Si	-13.479455
wise	-12.693337
clr	-13.437294
Peer	-13.150705
POL	-13.685805
▁transactions	-13.003891
Logger	-13.125718
ism	-11.698943
Resize	-13.301668
lun	-13.550460
tol	-13.484395
▁occurred	-12.581569
Conv	-13.388273
tuples	-14.081320
RTC	-12.002365
register	-10.898555
paint	-13.731488
cert	-12.263320
Ver	-13.102601
▁OVS	-13.780062
Dispatch	-13.044112
display	-11.666566
▁better	-11.662057
▁vout	-14.261340
▁cells	-12.409577
candidate	-13.564368
sem	-12.289154
▁cJSON	-13.907819
HashTable	-13.261678
▁going	-11.505513
void	-8.433660
ALWAYS	-13.359674
Sym	-13.031679
II	-11.833637
▁gint	-13.325427
▁LETIMER	-15.215945
pj	-13.473081
THRESHOLD	-13.516084
Using	-13.663835
Editor	-12.948040
▁implement	-12.870236
▁scoped	-13.733849
Merge	-13.012634
▁accompanying	-12.906041
▁YYCURSOR	-15.302358
DEL	-13.373414
GTK	-13.472414
owner	-12.194998
▁delayed	-13.666213
▁Magenta	-12.671352
Before	-13.121102
gg	-13.368599
DESCRIPTION	-13.459132
▁revision	-13.791100
LOCATION	-13.316420
SOFT	-13.093159
▁bmc	-16.617745
omp	-13.009053
BITMAP	-13.139352
▁DECLSPEC	-13.680002
SIMPLE	-13.401990
sections	-13.740464
SCI	-13.361204
system	-11.553462
PDU	-13.583634
quant	-13.343485
steps	-13.796610
default	-9.843257
erate	-14.015472
▁OSSL	-13.752232
▁creating	-12.645360
▁easy	-12.684286
pdf	-13.140245
▁addtogroup	-16.982254
smart	-13.321757
Arena	-13.089210
own	-12.711957
Worker	-13.063063
▁invoked	-13.222651
qf	-13.756929
ICR	-13.639978
Border	-13.226748
gw	-13.665308
▁xec	-19.722843
collect	-13.385376
layers	-13.579260
COND	-13.502174
roll	-13.331446
Clip	-13.165146
General	-12.672691
BLE	-12.302535
ICE	-13.080200
pda	-14.152977
▁UCS	-13.924807
registry	-13.715342
book	-12.740027
POLICY	-13.419966
Shadow	-13.328030
Malloc	-13.427360
Crypto	-12.941013
ARP	-13.447165
intf	-13.524253
Visual	-13.370374
ence	-12.982253
fifo	-12.630183
▁strcat	-13.767408
▁workspace	-14.061888
▁signals	-12.714425
CHUNK	-13.476172
datum	-13.363603
SCOPE	-13.348113
▁redis	-13.770525
NN	-13.282587
serv	-13.396344
ized	-12.196247
▁reached	-12.404876
DN	-13.355789
▁ctrlr	-15.946165
Rows	-13.275377
Reason	-13.065091
▁overlap	-13.785925
regex	-13.532359
▁SIZEOF	-14.079839
frames	-12.708528
ny	-12.428329
▁integr	-16.657610
DAC	-12.758955
▁applied	-12.500815
SIL	-13.159672
rdma	-13.583702
Cpu	-13.391566
Algorithm	-13.101547
▁MLX	-14.216721
rnd	-13.850763
RN	-13.404668
json	-11.664127
browser	-13.526803
SECURITY	-13.350750
When	-12.757790
▁contact	-12.618813
EventArgs	-13.680110
▁AVAILABLE	-15.547413
REMOVE	-13.378275
hub	-13.369889
rule	-12.277621
▁detection	-12.979166
▁softc	-17.021707
▁username	-13.677703
bmp	-13.759880
PDX	-13.138013
mer	-12.773765
Touch	-13.221922
▁NSDictionary	-14.047056
▁sph	-14.070319
MAT	-13.328265
WD	-13.066554
SIGNAL	-13.059871
▁converted	-12.942705
strm	-13.666813
hook	-12.513179
spawn	-13.444861
▁addition	-12.097290
▁destructor	-13.449299
BIN	-13.585891
prompt	-13.632598
▁nonnull	-15.915422
COMPILE	-12.870908
Fragment	-13.072253
TG	-13.145054
TY	-13.116989
THREADS	-12.998178
ele	-13.174543
qs	-13.352218
timeout	-11.594933
▁Microsoft	-12.508690
QC	-13.259868
▁mtd	-14.464581
▁vch	-14.045160
▁OPA	-16.144268
Completion	-13.326690
vq	-13.682992
Glyph	-13.387921
▁supplied	-13.126967
oss	-13.817715
▁itk	-13.217028
Role	-13.213583
LU	-12.889352
▁rettv	-14.352813
FACE	-13.301149
CREATE	-12.411916
Codec	-13.249135
▁EIGEN	-13.448224
▁vertical	-13.439024
depth	-11.758978
▁gdb	-14.087888
▁EXTERNAL	-15.011858
▁users	-12.583975
ier	-12.438041
▁dealloc	-15.307016
▁ENR	-17.690883
PLUS	-13.226264
FILL	-13.534234
mag	-13.179156
BN	-12.696162
▁equivalent	-12.733087
Hdr	-13.506048
pre	-11.149828
LARGE	-13.152593
▁governed	-13.116757
Lower	-13.308178
oe	-13.131102
MEMBER	-13.540656
Folder	-13.239613
RESP	-13.597309
▁avctx	-14.759290
▁NEED	-15.001063
lvl	-13.608041
Logical	-13.263209
Unique	-13.176619
TRY	-13.034682
SSH	-13.267208
split	-12.110692
▁performed	-12.120066
▁gpointer	-13.389306
MUTEX	-13.303401
crt	-13.287751
▁kafka	-16.650002
XOR	-13.573275
▁PGUID	-14.904618
BV	-13.376426
▁circuit	-13.107225
parms	-13.623667
gi	-12.737295
empty	-11.464714
FRC	-14.160938
pointer	-11.620368
▁xda	-20.163922
ine	-12.259299
TAILQ	-13.529353
HZ	-13.289333
ted	-12.260007
▁whose	-12.200778
eps	-13.419984
▁exponent	-13.760748
▁todo	-13.630077
But	-12.655384
loss	-13.496288
Will	-13.368371
OE	-13.441965
CTS	-13.714823
▁notifier	-14.591310
▁lws	-14.185016
pairs	-14.098350
nz	-13.364973
MGMT	-13.554862
▁ASSUME	-16.681864
BINDING	-13.379490
star	-12.568321
sprite	-13.632495
defs	-13.166614
HARD	-13.407999
stop	-11.499206
Conn	-13.079997
mont	-13.242824
ctxt	-12.495191
DateTime	-13.208984
hm	-13.078538
▁viewport	-14.140470
▁CUI	-15.929056
pend	-13.759826
BIND	-13.367487
IVE	-13.257550
Note	-12.823687
▁working	-11.791320
Magick	-12.555444
LOCAL	-12.287193
snap	-12.910203
▁contained	-12.777770
PSK	-13.573624
Hook	-13.285642
mic	-13.072851
PROXY	-13.422257
▁Could	-14.073934
unmap	-13.186040
YUV	-13.598094
▁fout	-14.461437
Comm	-13.385190
scaling	-14.127688
▁PURE	-13.509034
Special	-13.244509
▁encryption	-13.472005
▁ofproto	-14.335154
INFORMATION	-13.385267
xw	-13.836441
pose	-13.404896
uf	-13.183771
Coord	-13.487621
Freq	-13.618060
flush	-11.872560
Prepare	-13.159790
▁slab	-14.481648
Increment	-13.246837
▁EXPECTED	-15.420014
this	-9.955114
▁fffffff	-19.382959
▁glm	-14.137595
▁masked	-14.233531
▁drivers	-12.097928
team	-13.053361
Idle	-13.293706
vuint	-13.859252
Agent	-13.315196
authentication	-14.420386
update	-10.923519
Final	-13.049074
ivity	-14.145373
▁difference	-12.469215
fld	-13.583023
▁OpenSSL	-13.711046
▁computed	-13.282333
CAPS	-13.489896
ZIP	-13.180094
Execution	-13.156737
▁illegal	-13.268647
strict	-13.752913
PN	-13.477875
▁declarations	-12.943990
▁phalcon	-16.098331
▁abfd	-15.523548
▁IPT	-13.887378
▁submit	-13.857972
Alarm	-13.738251
car	-12.487525
SVC	-13.780638
FETCH	-13.505376
▁ISC	-14.141917
thresh	-13.688063
stp	-13.628233
TRANSFORM	-13.524525
IW	-13.060394
cut	-13.112009
▁flat	-13.339045
▁rval	-14.419631
▁descriptors	-13.499214
REFERENCE	-13.261693
▁DESCR	-13.163997
▁VkDevice	-13.639614
GNSP	-15.080218
OpenGL	-13.313824
▁dobj	-16.148762
▁higher	-12.192198
ldap	-13.540316
msr	-13.707751
▁referenced	-13.338109
BufferSize	-13.319893
▁hdc	-14.121214
Workspace	-14.125256
CHAIN	-13.421488
GPR	-13.690156
UID	-13.341853
geo	-13.636147
▁bitwidth	-17.241939
▁things	-11.663751
▁LSM	-13.904117
Guid	-13.356703
vg	-13.517967
actor	-13.646335
ENCLR	-14.424130
wave	-13.350212
SLAVE	-13.596225
Numeric	-13.427468
mnt	-13.703281
IVEREF	-13.740671
disc	-13.166260
prod	-13.391526
▁WOLFSSL	-13.544701
TOR	-12.966561
▁Unable	-14.726899
ARM	-12.194298
PENDING	-13.475665
RK	-13.222072
SEARCH	-13.392091
▁UNIX	-14.290557
▁highest	-12.408664
Perform	-13.175859
Added	-13.137844
choose	-14.065252
oh	-13.407747
▁isset	-16.855309
ccb	-13.943562
▁OPERAND	-15.848712
iz	-13.050865
nk	-12.895571
prefix	-11.932550
lin	-12.385975
GB	-12.148383
▁unistd	-17.687923
ether	-12.914298
▁xnn	-14.439777
fbb	-12.696558
DIG	-13.756023
xid	-13.317918
Cap	-13.471804
▁pbuf	-13.897268
modifier	-13.534651
▁updates	-13.046126
▁github	-16.612709
▁PMIX	-13.577771
▁hri	-14.725155
WU	-13.804455
Plane	-13.403667
HR	-12.978574
▁produce	-12.749888
Acquire	-13.211937
▁anchor	-13.730753
BIAS	-13.894376
BUILTIN	-13.410441
tn	-13.361794
dai	-13.437969
▁sysbio	-87.804028
spaces	-13.644743
FIELD	-11.436446
▁velocity	-13.510870
NM	-13.301003
Pt	-13.747924
▁rather	-12.018866
▁loading	-13.348293
▁spinlock	-14.405628
▁rectangle	-13.613667
imp	-13.674798
Backend	-13.325547
Original	-13.321751
Overlay	-13.569230
▁temperature	-12.803133
Bound	-13.213430
En	-13.106520
ANCE	-13.650647
▁isolate	-13.554514
symbol	-12.048518
Found	-13.343101
hdl	-13.635852
▁quality	-12.538476
AU	-13.381925
bot	-12.947725
▁swift	-13.958497
▁hWnd	-14.425784
intra	-13.752568
WF	-13.546710
FFFF	-12.068587
OPERATION	-13.457878
ana	-12.481072
multiply	-14.288017
har	-12.967134
brush	-13.791942
YES	-13.593677
button	-12.162713
▁occurs	-12.701927
▁hmac	-15.057030
printer	-13.740443
meta	-11.620049
BLUE	-13.092212
MEMORY	-11.963501
Sampler	-13.391977
qt	-13.449745
▁mex	-16.542603
▁CRYP	-14.198636
alias	-12.718501
▁filesystem	-13.799280
Px	-13.725985
▁Mountain	-12.240925
answer	-13.742464
Finish	-13.063798
Sel	-13.402077
CW	-13.235379
nand	-13.594579
▁xCC	-21.908913
hb	-13.545001
XR	-13.579276
XX	-12.323607
▁separator	-13.703592
▁APR	-13.536951
▁please	-12.473603
▁translation	-12.844973
prof	-13.129454
dac	-13.472385
Receiver	-13.231265
prt	-13.745386
Visible	-13.177945
FORWARD	-13.493312
▁DCHECK	-13.619627
cbmc	-14.381574
pick	-13.886021
Second	-13.231385
▁Specifies	-13.735321
▁milliseconds	-13.610008
▁unable	-13.210989
pan	-12.683628
Over	-13.073847
MOS	-13.272240
▁btree	-14.273257
pulse	-14.010284
circ	-13.307482
gsl	-13.876827
Amount	-13.264298
qc	-13.895836
jmp	-13.339899
fine	-14.104175
▁ffd	-19.961876
FRAMEBUFFER	-13.433930
PO	-13.280107
▁pybuffer	-17.446001
ENUM	-12.298043
Primitive	-13.321346
uni	-11.697750
cvt	-13.597542
CXX	-12.921630
Ad	-13.157578
▁taken	-11.953756
mbox	-13.315916
▁optarg	-14.239040
▁tcg	-13.841038
sens	-14.387990
BAND	-13.464114
Com	-13.384197
▁resolver	-14.906999
▁comparison	-12.831109
Seg	-13.415063
Composition	-13.788978
ata	-12.241333
RHS	-13.634014
▁various	-11.807654
Include	-13.424275
hz	-13.624690
prob	-13.414837
mpz	-13.851014
▁FSL	-13.939195
▁sad	-14.401257
Div	-13.292215
▁xca	-19.700344
▁inserted	-13.326585
burst	-13.834343
fwd	-13.574391
Enc	-13.422418
XL	-13.161373
▁owned	-12.654159
▁odp	-14.546863
RENDER	-13.464532
trim	-13.594076
PWR	-12.738451
▁hdev	-15.661441
Comparator	-13.640920
Elf	-13.941165
Apple	-13.816909
uri	-12.306254
vari	-14.733572
targets	-13.889595
▁dtor	-15.592898
▁SIMDE	-14.068875
▁vdev	-15.961709
cw	-13.568191
▁LIBXSMM	-14.117879
▁smaller	-12.619556
enable	-10.846208
CONTENT	-13.629374
▁predicate	-13.693133
XY	-13.499847
ACTION	-12.438060
▁BLAZE	-13.828280
▁irqrestore	-17.853093
Distributed	-14.839410
Quad	-13.326573
▁srna	-15.907970
Transition	-13.171441
FPU	-13.770867
Drive	-13.567190
FU	-13.372819
alert	-13.545417
Given	-14.317055
org	-10.764320
tu	-12.768904
WK	-13.516976
▁decoded	-13.802080
thing	-13.657659
▁blaze	-14.020233
bio	-12.184615
▁posix	-14.076961
▁mdb	-14.481593
▁built	-11.773453
Bin	-13.623889
Channels	-13.334049
procedure	-14.534118
IMG	-13.823913
▁overlay	-14.044141
▁USING	-14.686741
rst	-13.281088
total	-11.686144
oo	-13.204414
neos	-14.668577
Super	-13.044791
FLEX	-13.863065
pwr	-13.708450
MMU	-13.616615
▁epoch	-14.028508
▁RELOC	-15.660920
Ensure	-14.703737
Override	-11.933296
▁COMPILER	-15.170600
▁services	-11.477868
PWM	-12.660763
▁initializer	-13.875574
az	-12.917565
▁TypeError	-14.939639
prec	-13.346749
mmu	-13.100589
CUSTOM	-13.418936
iff	-13.484174
meth	-13.535306
gpr	-13.756832
▁GLAPIENTRY	-14.163959
▁IDC	-13.581334
audio	-12.351399
▁topology	-13.977340
PW	-13.281860
ftp	-13.510589
Sz	-13.463430
Digital	-14.097162
real	-11.658630
LI	-13.168834
Shell	-13.358323
▁vsi	-14.849716
▁octet	-14.228187
Patch	-13.241212
vv	-13.758282
Viewport	-13.532169
TLE	-15.162894
▁ACTIONS	-13.440769
▁evaluate	-13.454120
random	-12.299095
Need	-13.870921
Ok	-13.142011
▁glVertex	-14.395262
BK	-13.114815
Minimum	-13.312468
▁SOAP	-14.118093
▁buckets	-14.320024
SAMPLER	-13.484179
▁phba	-15.844530
Secure	-13.427684
grow	-13.636772
HB	-13.110418
NVM	-13.538500
buttons	-13.839782
▁vget	-14.781867
tal	-12.752200
ITER	-13.571406
▁EIO	-15.084549
▁upb	-14.269273
BO	-13.241947
CURSOR	-12.590198
Phase	-13.249824
Authentication	-13.500300
▁cleared	-13.327238
pop	-11.717243
Play	-13.041808
▁dart	-13.456065
▁sidl	-13.893023
sbmc	-14.506612
▁adding	-12.818698
Registers	-13.417214
▁xEE	-87.804028
ZCL	-13.774515
▁setter	-14.346791
mh	-13.659273
Bank	-13.459898
Comment	-12.742037
▁drvdata	-17.314959
Band	-13.389116
▁debugging	-13.280892
sigma	-12.975199
strategy	-13.832140
ez	-12.755232
MESSAGE	-12.231767
▁validation	-13.316488
Capacity	-13.371490
admin	-13.234073
▁Elias	-13.706667
▁probably	-12.230801
parser	-11.791679
LN	-13.526175
▁SFD	-17.161831
LCD	-12.911755
ashcho	-14.518868
TIMING	-13.892078
rss	-13.742495
ko	-12.184042
resp	-12.479133
▁adds	-13.457780
LJIT	-14.389839
▁CAmount	-13.494897
▁further	-11.750193
ang	-12.879219
Prev	-13.314069
▁StatusTypeDef	-87.804028
ffff	-12.454084
km	-11.532686
NIC	-13.518022
command	-11.313723
May	-13.090392
Actor	-13.494868
▁bVar	-14.310085
Branch	-13.421664
▁TNode	-14.347136
▁STDMETHOD	-13.559163
▁protection	-12.716211
push	-11.127647
▁sources	-12.094714
ever	-13.324300
▁spl	-14.503506
arm	-12.270253
DECL	-11.679716
Framework	-13.546698
LAYER	-13.587627
bea	-14.322640
▁leading	-12.411481
eu	-13.170245
▁PPI	-14.300930
HERE	-14.120319
COMMAND	-12.364153
Inputs	-13.278014
LFXO	-14.600279
Qual	-13.346325
▁explicitly	-13.105059
Recv	-13.487830
HOOK	-13.351070
ENSET	-14.972054
▁endcode	-17.237820
uart	-12.318486
Fix	-13.818334
pci	-11.915490
offs	-13.106502
▁ENET	-14.093030
Two	-13.049686
▁trailing	-13.516731
▁ovld	-22.112116
piece	-13.814021
mw	-13.635850
▁ptrdiff	-13.961458
inity	-15.402948
▁mqtt	-14.481620
Analog	-14.395633
SCL	-13.877846
dbus	-13.547694
▁VDAC	-15.142945
▁pxd	-18.142043
CLUSTER	-13.608630
▁THROW	-16.687125
flt	-13.818572
activate	-13.515213
equal	-11.984246
ka	-11.769446
tty	-12.515041
▁DEVINFO	-15.355868
Span	-13.333680
click	-12.837513
panic	-13.424373
FLASH	-12.475015
Maybe	-13.585954
GAME	-13.706969
reach	-13.033511
delta	-12.091469
Sparse	-13.515754
frac	-11.867585
▁HFCLK	-15.638353
CAT	-13.362259
SCREEN	-13.434132
EXPORT	-10.935428
▁ZSTR	-14.643909
Sprite	-13.374011
▁OPTIONAL	-14.109164
▁interpret	-14.451149
TOOL	-13.449806
LABEL	-12.347003
LVL	-13.914796
her	-12.816447
LESS	-13.321310
GM	-13.420724
▁cospi	-15.177449
mmio	-13.715682
SUPP	-13.423510
tile	-12.333551
Browser	-13.088755
SELECT	-12.402669
Panel	-13.098986
the	-10.596735
▁PyCFunction	-15.486992
margin	-12.450006
▁party	-12.040412
▁GATT	-15.316252
napi	-13.787209
▁middle	-12.565195
▁regval	-13.858644
▁NOTICE	-13.685987
my	-11.235868
▁PVOID	-13.340586
SOL	-13.605685
TBL	-13.560909
▁folly	-13.823453
Diff	-13.485677
▁decrypt	-14.561089
son	-11.722045
fully	-13.716541
Intrinsic	-13.711194
holder	-13.742721
Board	-13.511630
ik	-12.894105
Look	-13.698573
axis	-12.699628
Methods	-13.422186
▁vld	-14.423414
attrib	-13.436491
lab	-12.068591
Isolate	-13.453511
CLKSEL	-14.156629
▁regmap	-14.789859
stencil	-13.913404
peek	-13.776803
▁capability	-13.663767
gz	-13.522726
STRLEN	-13.660477
ical	-12.955710
HA	-13.270784
▁queued	-13.916727
square	-13.518861
ible	-12.752529
Did	-12.866474
stroke	-13.535491
login	-13.375028
switch	-10.487076
anim	-13.229683
bk	-13.716759
Initialization	-13.258347
▁nSize	-13.746644
▁ETM	-15.338205
pseudo	-14.083184
Keep	-14.007556
▁indicating	-13.117779
▁vport	-15.066660
Indices	-13.540185
PHASE	-13.580500
▁exchange	-13.161177
Motion	-13.427206
vel	-13.246535
▁BORINGSSL	-14.747097
▁animation	-13.016163
INSTR	-13.907491
Based	-13.545006
▁xdr	-14.452919
SOCKET	-12.443489
Collections	-13.535438
StringRef	-13.375046
▁rename	-14.140117
▁SDH	-16.537804
ile	-12.955815
Half	-13.611445
break	-8.306330
▁certain	-12.136861
HeapTuple	-13.003419
▁readl	-14.417897
DDS	-13.527635
insert	-11.518829
STENCIL	-13.435242
XM	-13.291032
▁opensource	-15.894699
Visitor	-13.158277
element	-11.708099
SPC	-13.500470
NEG	-13.547338
Summary	-13.382751
mixer	-13.758510
NOR	-13.388042
Hint	-13.453521
Eval	-13.445577
bson	-13.497781
sib	-14.436882
cas	-13.349347
pkg	-13.364343
▁CCP	-14.058115
▁lost	-12.062718
Ids	-13.570064
▁hyg	-17.436553
▁though	-11.829674
▁elab	-19.326077
RUNTIME	-13.484850
▁yyvs	-15.831155
oston	-17.828226
spell	-13.867186
COR	-13.510973
TOK	-13.470706
Place	-13.824999
USHORT	-13.301581
lut	-13.683872
LANG	-13.229445
Cleanup	-13.101814
claim	-13.969627
Family	-12.679225
IFG	-14.339697
fptr	-13.675544
▁GTLR	-13.621789
▁SFR	-16.457436
▁scaled	-14.067299
CRL	-13.850357
SYSTEM	-12.461141
Columns	-13.387749
Preview	-13.600443
AXIS	-13.961818
Mgr	-13.439011
Clone	-13.308968
post	-11.774253
GLX	-13.463159
Im	-13.064461
Blend	-13.226571
hh	-13.778188
▁jiffies	-14.163870
▁HSE	-14.431309
safe	-12.158413
▁REQUIRED	-15.513522
▁MagickFalse	-13.722270
ATA	-13.483402
fact	-14.040027
▁SPDK	-14.308141
Controls	-13.535383
TransactionId	-13.358952
algo	-13.563029
iq	-13.272701
prov	-13.606624
▁resulting	-12.700084
java	-12.279342
▁INPUTSEL	-19.184368
▁across	-11.909939
EU	-13.714671
▁ValueError	-14.557307
GATE	-13.558518
away	-13.300073
obs	-13.899836
▁invalidate	-14.028745
Buffers	-13.310486
Dimension	-13.362327
recv	-12.200931
▁NEON	-15.614379
UB	-13.454263
▁neon	-15.225687
geom	-13.586284
Modify	-13.650007
theta	-13.080341
▁positions	-12.433318
cost	-12.581715
▁substream	-15.256374
MAN	-12.832092
▁matched	-13.533960
with	-11.191194
▁immediate	-13.204938
Disk	-13.166685
MSP	-13.615441
Determine	-15.482733
tran	-13.580577
▁released	-11.582928
COMPRESSED	-13.538069
▁YCH	-18.886354
▁refer	-11.065107
coin	-13.258549
▁XED	-13.887090
HIGH	-12.528412
REP	-13.691673
Particle	-13.397901
impl	-11.788201
SUM	-13.436052
▁BITCOIN	-13.161499
▁holding	-12.758808
PCR	-13.435712
KEEP	-13.486437
Team	-13.434206
▁average	-12.442008
Hex	-13.448476
PERIOD	-13.824746
ArrayRef	-13.458955
RQ	-13.751354
rtp	-13.709392
sch	-12.972963
Demo	-12.918221
▁rewrite	-13.965232
STAMP	-13.478471
▁fixup	-14.601535
VID	-13.664036
ite	-12.757507
Big	-12.639155
▁IXGBE	-14.012048
SPROC	-13.354372
RULE	-13.103304
Rtl	-13.447213
TER	-13.385100
eax	-13.761150
lst	-13.569686
callback	-11.314754
NOP	-13.237991
Inline	-13.401335
hole	-13.553121
▁SINGLECTRL	-19.382209
chrono	-13.583639
IRQHandler	-13.276595
isa	-13.042638
ONCE	-13.686281
▁FTM	-14.450062
▁ROR	-16.529166
AO	-13.529551
▁holds	-12.748407
MPEG	-13.613570
Drag	-13.594050
▁deep	-12.893059
MemoryContext	-13.168307
▁DOCTEST	-13.777738
have	-12.772103
▁horizontal	-13.505814
▁simply	-12.357108
▁riscv	-15.458016
▁representing	-12.866551
csum	-13.776248
Adjust	-13.419804
Analysis	-13.409946
▁traverse	-14.530168
ox	-13.462829
axi	-13.786999
PCI	-12.498475
ESC	-13.646508
normalize	-13.848029
▁inverse	-13.655802
fuse	-13.613256
CLEAR	-12.398456
SHOW	-13.280230
UR	-13.875445
▁IInspectable	-15.252698
combine	-13.660311
WB	-13.467893
IPSETTING	-13.895450
▁correctly	-13.001011
▁managed	-12.842449
Score	-13.338225
Rotation	-13.385264
▁SHIM	-16.711010
GCM	-13.817070
subtype	-13.911261
Rpc	-13.665913
▁orientation	-13.573723
tid	-12.715877
PROBE	-13.604180
▁HSI	-15.039723
▁multiplication	-13.526851
Bridge	-13.234706
Arr	-13.643284
any	-12.110339
mempool	-13.705960
FUSE	-14.081304
cube	-13.761185
▁xCD	-23.242134
mk	-12.190586
PJ	-13.506307
Define	-13.889417
▁packages	-13.884225
Specific	-13.574803
ODR	-14.166792
▁adev	-16.016712
Me	-12.791010
▁GENERATED	-13.524787
gather	-13.623007
plt	-13.525286
Always	-14.068042
Compile	-13.154459
hx	-14.167859
cdev	-13.689396
PAR	-13.404851
Routine	-12.936822
balance	-13.549704
ACCESS	-12.227141
Leave	-13.653323
▁popup	-14.516715
Floor	-14.667435
LEAVE	-13.251234
multi	-11.813279
SECOND	-13.358360
concat	-13.657585
Instr	-13.602868
▁bnx	-14.198470
Pixels	-13.650261
▁EBI	-14.966587
▁GST	-13.923803
▁glMultiTexCoord	-14.615471
▁memmove	-14.439340
det	-12.931379
WA	-13.221011
Variables	-13.124996
fin	-12.991923
▁stdin	-14.106503
▁scanner	-14.213778
▁PCD	-14.864619
ze	-12.324284
▁regions	-12.778442
▁implements	-13.124545
Builtin	-13.315073
▁nxv	-16.913695
master	-12.006344
nav	-12.989115
rho	-12.945120
crash	-14.298957
▁compl	-15.430469
That	-12.601980
air	-12.934424
▁past	-12.140313
title	-11.911886
▁everything	-12.283296
ally	-12.376623
▁estate	-13.037214
BSD	-13.217677
MCS	-13.826781
canvas	-13.788973
▁prototype	-13.548450
DSA	-13.741951
▁exactly	-12.649624
DMI	-15.212894
DECODE	-12.842192
▁GLshort	-14.334879
▁having	-11.670471
Man	-12.696100
CELL	-13.621156
▁padapter	-16.002542
CONTROLLER	-13.737258
Ar	-13.630762
demo	-13.619762
▁dependent	-13.600007
▁moved	-12.063519
Unsafe	-14.232062
signal	-11.778667
Headers	-13.410556
Pull	-13.503059
dna	-13.945726
IMPORT	-13.272341
assign	-11.910074
gst	-13.768314
Install	-13.642136
common	-11.300436
Small	-13.309611
UM	-13.364126
▁glfw	-14.883126
img	-12.290893
REMOTE	-13.699943
▁luaL	-13.912556
CLIP	-13.599647
▁WMI	-14.345479
▁SMU	-14.401723
Gui	-13.076580
drop	-12.386912
Clk	-13.819452
dest	-11.518256
wind	-13.493761
inherit	-13.391591
▁upstream	-14.199567
▁ldb	-14.148534
cmds	-13.588702
Once	-13.753624
cdb	-13.834496
MOVE	-12.846304
dk	-12.972353
▁irqsave	-17.379343
userdata	-13.611092
IDE	-13.436901
▁depending	-13.052084
▁libxsmm	-14.360442
rivateFrameworks	-13.890623
Cx	-13.804261
oy	-13.249690
▁PyTypeObject	-13.993156
CPL	-13.797246
ens	-12.825866
▁timeval	-13.257276
Round	-13.530555
▁obliv	-19.210724
rid	-13.444935
vin	-13.092439
▁VMA	-13.839256
▁strstr	-14.599323
▁Nonnull	-18.428708
▁backward	-13.751195
BaseType	-13.577320
▁vint	-15.106492
xt	-13.407044
Protection	-14.079615
▁ordered	-12.868656
▁consumer	-13.529560
▁glVertexAttribI	-14.866966
ern	-13.161816
NORM	-13.118049
Pr	-13.553069
fixed	-12.440414
Modified	-13.329987
▁daemon	-14.067130
rates	-13.605830
Orientation	-13.477455
Hi	-13.283716
▁stores	-12.975823
Checks	-13.460287
▁vlib	-14.167248
Hardware	-13.930203
Upper	-13.494909
TXT	-13.618810
DIGEST	-13.697053
exe	-13.525725
ated	-12.134669
weight	-12.079308
▁unref	-16.179307
▁watchdog	-14.001752
DOG	-14.176994
CRT	-13.468850
▁bandwidth	-14.050144
CTRLA	-14.751468
▁stopped	-12.928191
▁xCE	-31.242004
EXCEPT	-13.668511
AMP	-13.585481
btn	-13.414782
OVR	-14.083315
▁CCMR	-15.871140
slash	-13.598057
▁DISPID	-14.061889
yield	-13.773446
fac	-13.810172
iy	-13.750155
Tex	-12.960087
Ethernet	-13.406178
preferred	-14.189123
▁typval	-14.257425
▁REFI	-13.594050
BIOS	-13.573019
qi	-13.513396
EXIST	-13.585716
QM	-13.765162
▁glColor	-14.719846
▁sbitmap	-13.314002
NDRV	-14.042178
Backup	-13.522168
ATTRIB	-13.568010
▁yes	-13.067268
▁occur	-12.874140
Callbacks	-13.495088
Parallel	-13.328015
NDIS	-13.655215
▁specification	-13.381092
arrow	-13.243811
HINT	-13.696748
eth	-12.250758
Unexpected	-13.688059
▁MKL	-15.371989
tyEnum	-14.430611
ory	-13.403176
hide	-13.029345
▁blocked	-13.647808
▁considered	-12.002578
UD	-12.630571
▁pstate	-15.152277
written	-12.675019
nop	-13.360703
▁follows	-12.034213
▁checkpoint	-13.974634
DIFF	-13.660378
▁VTSS	-14.737714
dsi	-13.922913
DK	-13.436558
ERATOR	-14.053275
ATTACHMENT	-13.593161
▁upload	-14.207563
Toggle	-13.535969
Tail	-13.314803
▁redraw	-14.062737
▁bParam	-14.733678
IQ	-13.620330
Dummy	-13.525385
OA	-13.868368
zu	-13.437843
RSP	-13.789509
hcd	-13.856746
ERASE	-13.934635
Bundle	-13.267047
nw	-13.713131
Ring	-13.665063
visibility	-13.880220
▁OPAL	-13.744347
upper	-12.794441
▁fcntl	-15.246127
netlink	-13.655121
Buff	-13.691132
Then	-13.559370
OVERFLOW	-13.613379
Tool	-12.911587
Interp	-13.740542
▁PRIu	-14.778082
sci	-13.393152
charset	-13.870702
▁JNIEnv	-15.245582
Unsigned	-13.493847
unlock	-11.026075
LITERAL	-13.882880
▁dropped	-13.064472
CScript	-13.517411
DER	-13.323633
▁jlong	-14.299537
▁qla	-14.467766
access	-11.688023
Returned	-13.187735
PPP	-13.612383
lk	-13.323389
SYN	-13.972095
grant	-13.772151
iterate	-14.412857
▁DECODER	-16.980746
Pg	-13.578125
fire	-13.145998
LAYOUT	-13.735609
anal	-14.930242
Scheme	-13.501466
▁SYNCBUSY	-16.987799
CONT	-13.533662
Signed	-13.540088
ACCEPT	-13.573303
PRODUCT	-13.712990
OLD	-13.427144
STMT	-13.596771
Running	-13.334606
oper	-13.659448
PEND	-14.191766
Cmp	-13.806107
NaN	-14.183984
▁chroma	-15.101698
XB	-14.028026
▁FSMC	-14.544374
▁amdgpu	-14.106734
zlib	-13.654685
▁upon	-11.697157
tau	-13.110632
MIC	-13.133707
RTT	-13.842729
Collision	-13.572340
bufs	-13.635558
Foundation	-12.085831
FAMILY	-13.711726
▁EFM	-14.254126
bond	-13.933863
TRIM	-14.139698
mii	-13.806601
▁ENODEV	-16.138939
▁LPCWSTR	-13.868350
▁fallback	-13.942808
proxy	-12.404673
Share	-13.524000
WX	-13.473576
▁executable	-13.734167
Multiple	-13.652764
Eq	-13.682871
Paint	-13.286451
▁xBE	-30.749681
▁effects	-12.109390
▁normalized	-13.963899
Modifier	-13.561603
CONVERT	-14.050527
late	-13.072491
GetCurrent	-13.576667
▁processes	-12.773256
estimate	-14.202776
power	-11.871874
cstr	-13.777029
flash	-12.645383
GH	-13.660698
Raise	-13.391488
Automation	-14.196347
▁xAB	-25.155542
LW	-13.305245
Printer	-13.341541
WRAPPER	-13.587120
cpy	-13.677639
FRAGMENT	-13.741858
global	-11.455988
▁rendering	-13.487347
registration	-14.058922
Refresh	-13.374696
CHANNEL	-12.164113
▁coap	-14.303612
gettext	-13.751625
▁elapsed	-13.877872
grab	-13.817578
▁reject	-13.754672
ace	-13.319962
Tracker	-13.471392
accum	-13.507098
▁stb	-14.101489
Os	-13.308106
▁Il	-13.004493
Help	-13.394990
▁NSInteger	-14.474460
xi	-13.039319
SENSE	-13.732572
▁gevent	-17.236041
▁RESETVALUE	-87.804028
Gradient	-13.570069
template	-11.111060
▁nTime	-13.789054
▁encrypted	-13.897502
cgroup	-13.778149
▁secondary	-12.886895
▁EFAULT	-17.642130
Resources	-13.258003
TRANSFER	-13.742391
▁smb	-14.279519
Gain	-13.580389
▁dpif	-14.534011
ANY	-12.362056
ek	-12.844329
▁XCH	-18.046185
▁perror	-14.076423
PTE	-14.057160
Micro	-13.541907
▁subsystem	-14.120703
BIF	-13.899943
SRS	-14.119173
quit	-13.445082
GREEN	-13.668544
hv	-13.589740
boxes	-13.991035
BasicBlock	-13.653648
CONSTRAINT	-13.817164
Commit	-13.321362
▁divider	-14.085534
▁mvm	-15.970026
MTU	-13.781138
PMU	-13.997510
cbc	-13.909135
Solver	-13.654199
Closure	-13.290577
libc	-13.592047
ALIAS	-13.533421
Gpu	-13.715819
xyz	-13.861398
SIGNATURE	-13.841453
REPLY	-13.691724
TU	-13.528181
adr	-12.949675
LZ	-13.859024
▁ticket	-13.983082
VX	-13.864795
VERIFIER	-13.743177
extra	-12.100773
lite	-13.323589
VARIABLE	-13.539868
full	-11.949559
▁HFPERCLK	-17.950377
BSS	-13.824693
▁mongoc	-14.042128
Contains	-13.476961
fname	-12.574796
dpi	-13.825545
ISP	-13.814889
Fee	-13.523060
Pro	-12.976315
surf	-14.019439
▁xBC	-18.765235
▁htons	-13.870786
BOOST	-13.839392
Lite	-13.436601
stl	-13.724084
hop	-13.676236
Errors	-13.306859
▁NIMCALL	-87.804028
Mock	-13.137725
NAT	-13.701335
Declarations	-13.180257
Shutdown	-13.353004
▁possibly	-12.998102
▁ucp	-14.186455
▁dwFlags	-14.119997
▁ompi	-14.308544
scanf	-13.274404
tbtt	-14.398462
Spatial	-13.710959
Radio	-13.231783
xact	-13.744893
SUPPORT	-11.475002
INLINE	-11.396183
gray	-13.634694
MIX	-13.244274
▁solution	-12.456586
VB	-13.746276
GENERAL	-13.715075
Tests	-13.224949
Physical	-13.692230
Chars	-13.700322
FUL	-13.744377
▁DISALLOW	-13.900816
GAP	-13.761468
▁transparent	-13.641990
▁UNSUPPORTED	-16.432715
Pose	-13.831189
Frames	-13.666274
mass	-13.810452
SURFACE	-13.645788
truncate	-13.411040
Del	-13.400561
Vars	-13.555582
reader	-12.586559
Dist	-13.814387
chip	-11.812280
FINAL	-13.144099
BROWSE	-13.817576
clauses	-14.098057
Imm	-13.743971
psk	-13.914997
indx	-13.870200
nmp	-13.998794
▁decoding	-13.585329
Samples	-13.456155
ppp	-14.001316
MONITOR	-13.722171
asoc	-13.879045
esc	-13.501902
QUIC	-13.633723
COMPRESS	-13.691988
▁regulator	-13.968361
▁operators	-12.950974
Arc	-13.583916
DataSize	-13.639500
RECV	-13.679109
ide	-13.135599
OPS	-13.650426
▁described	-10.949828
optimize	-13.580671
SMB	-13.651888
▁Indicates	-13.733730
cxt	-13.686973
▁comments	-12.553696
▁OSPEED	-19.335365
ute	-12.614326
▁vreinterpret	-14.733966
▁lsm	-14.278642
▁matcher	-14.266879
▁RTCC	-15.092925
setup	-11.787671
PRSSEL	-14.991301
CreateInfo	-13.629100
▁Phalcon	-15.300046
GetDatum	-13.735275
▁expressions	-13.332765
LOOKUP	-13.820177
▁functionality	-13.196994
▁SYSCALL	-15.044828
sdp	-13.997923
don	-12.329547
Metrics	-13.529150
contiguous	-13.667527
mouse	-12.702456
smooth	-14.165447
BODY	-13.336564
▁represent	-12.832815
JOIN	-13.946676
▁identify	-13.041010
HALF	-13.898251
▁declared	-12.762246
connect	-11.736403
vect	-13.911044
IBM	-13.691535
Bottom	-13.435073
▁pA	-15.907427
▁equals	-14.075110
STB	-14.396693
prev	-11.445988
▁fsm	-14.917981
▁similar	-11.959157
percent	-13.701326
Visit	-13.906759
structure	-13.113093
▁pkcs	-14.755602
engine	-12.208634
Broadcast	-13.657049
TAP	-13.836455
dsa	-13.581402
ped	-12.741339
FIND	-13.593038
water	-12.951733
▁helpstring	-19.445012
FLG	-14.050775
▁serialized	-13.501235
other	-11.740229
Printf	-13.764739
Cookie	-13.292662
coef	-13.889843
▁properly	-12.805994
ushort	-13.811287
Expand	-13.933347
▁CTransaction	-13.619974
REASON	-13.698754
▁GenTree	-14.284727
▁ndev	-15.941233
Statistics	-13.463598
▁consider	-12.504106
hot	-13.562637
find	-11.428187
storage	-12.142435
▁CBlockIndex	-13.452396
PRIV	-13.772099
ObjC	-13.588975
ho	-12.857662
▁repeated	-13.282289
▁TOO	-16.681455
▁dreg	-15.485698
fan	-13.403038
SORT	-13.559673
▁fileName	-14.249403
▁broken	-12.981387
Capabilities	-13.696750
▁BIGNUM	-14.161352
▁xDD	-21.046924
repr	-13.979982
bde	-15.679033
Predicate	-13.588723
Pa	-13.459325
mirr	-16.873718
launch	-13.750920
argv	-11.268482
▁reported	-12.211034
SOUND	-13.542096
LAT	-13.875158
mpc	-14.169549
lpc	-13.987032
Additional	-14.069434
OFS	-14.109025
▁sbi	-15.456552
▁PyList	-14.252422
OMP	-13.632125
WARN	-12.397483
▁applications	-12.486867
UIView	-14.102370
Picture	-13.622207
polygon	-14.337026
COLUMN	-13.753813
▁resolved	-13.566820
▁executor	-14.064763
ua	-13.035033
hashtable	-13.736196
Navigation	-13.227877
▁MINT	-14.743790
ler	-12.637551
CCU	-14.151451
items	-12.190330
subscribe	-14.026525
Live	-12.852488
hu	-13.074946
Sock	-13.668891
Geo	-13.560973
station	-13.835181
vaddr	-13.828538
▁warnings	-13.423254
VG	-13.672622
Rectangle	-13.578228
short	-11.708566
ctiva	-17.575846
place	-12.246810
EH	-13.693567
snd	-12.424862
Brush	-13.590354
Watch	-13.312032
RAND	-13.703784
VOL	-13.277545
▁IRDA	-14.638729
hex	-12.640360
Pred	-13.833859
events	-12.123238
▁ofp	-14.589883
Representation	-13.224436
Caller	-13.576748
ttl	-13.771834
lh	-13.967893
▁cdecl	-17.094953
Nb	-13.874118
COMPAT	-13.624327
Indirect	-13.614911
eval	-12.627979
▁xAC	-27.676843
▁pDst	-14.266468
meter	-13.349545
TRA	-13.464330
ker	-12.879448
proj	-13.791834
Timing	-13.610834
nam	-13.159562
▁dependency	-14.126797
service	-11.857395
bios	-13.334254
Inner	-13.582276
Extensions	-13.376571
Requested	-13.752161
TXD	-14.116144
QOS	-14.036122
convert	-12.265725
States	-13.236127
LINEAR	-13.548120
Severity	-13.791887
SETTINGS	-13.815411
▁xAD	-24.420977
DBL	-13.867298
sdl	-13.949992
▁css	-15.145588
▁fini	-15.618128
▁envoy	-14.800289
▁IMF	-14.050498
▁analog	-14.114658
iot	-13.620805
▁advertising	-13.133473
errno	-11.323198
▁nghttp	-14.005484
TCB	-13.840007
Commands	-13.500370
▁efx	-14.652028
ARR	-13.953278
▁lld	-16.702599
MOUNT	-13.873090
glob	-13.484769
▁njs	-14.011474
ANGLE	-13.631928
Framebuffer	-13.362098
▁fabs	-14.731708
Erase	-13.727028
▁gchar	-13.620639
▁dpp	-15.431251
▁predictor	-15.233641
Ti	-13.867001
Holder	-13.391146
▁emlrt	-14.654303
PLAY	-13.553280
▁lifetime	-13.578804
gram	-13.194756
▁individual	-12.213538
DEST	-14.008423
WSA	-13.569943
ISA	-13.638798
corner	-14.154008
JUMP	-13.471951
SCHEMA	-13.812079
▁nothrow	-16.640469
cmap	-13.917337
FINISH	-13.478379
CHILD	-13.696413
▁DTLS	-15.594085
Locale	-13.646844
driver	-11.475964
ZONE	-13.633316
oa	-13.226280
foreign	-14.039101
▁VEHICLE	-16.297105
▁iommu	-14.908141
▁bsize	-14.667309
compound	-14.232679
▁CDTI	-18.968566
INITIAL	-13.797566
▁aarch	-15.400095
fft	-13.976752
▁triggers	-13.769828
Quic	-13.423222
▁zeros	-14.038660
Fmt	-13.903662
RECEIVE	-13.836856
▁thus	-12.344647
DISK	-13.695512
MULT	-13.926993
SDA	-14.047384
tun	-13.554930
ntDefaultHandler	-13.557627
TRANSPORT	-13.749134
lua	-11.905146
CONSOLE	-13.617991
Anim	-13.789551
high	-11.940390
tlb	-13.825840
Voice	-13.571405
CEC	-14.050250
▁xBA	-26.343829
▁acado	-15.298444
PATTERN	-13.745543
Defines	-13.542439
CAR	-13.155222
hello	-13.554285
▁glTexCoord	-14.806881
sdk	-13.667510
fat	-13.808710
GOT	-12.330645
PMD	-13.833158
Sim	-13.650302
▁MHZ	-17.164817
feed	-13.794669
CSI	-13.517130
FG	-13.485203
XS	-13.469442
shared	-11.356454
itive	-13.325465
▁destroyed	-12.969271
AQ	-13.854653
true	-11.129336
▁sentinel	-14.000179
voice	-13.448098
itor	-14.787973
og	-12.914392
Joint	-13.641416
colour	-14.091661
SCH	-13.945752
Cond	-13.657292
session	-11.368762
▁hstring	-15.210856
▁llu	-17.779777
iu	-13.665651
PARENT	-13.745274
trig	-13.821167
route	-12.719190
▁RADEON	-14.323317
elm	-13.818715
Radius	-13.649797
ves	-13.462546
ina	-12.364608
▁tiles	-14.406652
▁mismatch	-14.082426
egl	-13.998689
vw	-13.783189
PQExpBuffer	-13.046815
▁smartlist	-13.819437
TAIL	-13.814069
DRIVE	-13.768276
▁fflush	-13.592052
MAG	-13.790840
ADAPTER	-13.721405
Missing	-13.638171
plot	-13.483689
MESA	-14.002885
Behavior	-13.185249
circle	-13.891601
Alert	-13.441414
Alternate	-13.522660
nan	-13.185237
OO	-14.079303
▁SECP	-15.786533
DIAG	-13.605294
ke	-12.388461
Uri	-13.611190
dig	-13.464610
skip	-11.977630
▁imx	-14.704816
RANDOM	-13.782952
WHITE	-13.627030
MODIFY	-13.941481
Hit	-13.678264
▁ANALOG	-16.076599
Scoped	-13.634172
drag	-13.819355
Launch	-13.233208
TAMP	-14.464893
▁nType	-13.999816
▁happens	-12.946997
BTN	-13.882169
▁sectors	-14.043980
complex	-12.317830
Usb	-13.756981
▁locals	-14.213355
▁nodiscard	-20.129416
▁INITIALIZER	-18.312682
TOTAL	-13.794193
bad	-12.095706
crl	-14.052180
located	-14.715034
SECURE	-13.905602
▁fVar	-14.349700
FAT	-13.761077
peak	-14.259279
IMPL	-12.305889
energy	-13.844530
SysTick	-13.984037
▁clinic	-15.959228
Poly	-13.521127
ldr	-13.949515
RIS	-14.221604
THR	-13.843901
PLANE	-13.914533
RND	-14.496003
runs	-14.655500
merge	-12.659053
▁UniValue	-14.090059
clip	-12.678910
INI	-13.904204
droid	-15.835448
Subscription	-13.532095
Jump	-13.802871
▁xhci	-14.829864
delete	-11.474008
▁sampling	-13.888001
yy	-11.729743
sPer	-13.849484
Ray	-13.403690
gh	-13.539582
WAVE	-13.381818
yp	-13.653247
Previous	-13.793723
FilePath	-13.600463
▁Ltd	-12.592079
series	-13.570432
DAY	-13.286593
PDM	-13.909494
Turn	-14.064561
LSR	-14.271102
▁scb	-15.157373
mmask	-14.275138
IFF	-13.822515
repo	-13.798770
▁MICROPY	-13.715137
GRAPH	-13.634444
BASIC	-13.517372
pmc	-13.931966
▁NSError	-14.694732
▁xfff	-24.404896
Sup	-14.167735
▁nlmsg	-15.095868
ku	-13.174531
STUB	-13.764104
incr	-13.710610
FFI	-13.732746
wnd	-13.071605
divide	-13.840882
Android	-13.380030
force	-12.188235
Best	-12.691116
Velocity	-13.710852
JOY	-13.777745
Outputs	-13.496058
ANDROID	-13.770490
▁newly	-13.022505
XP	-13.259983
bufsize	-13.756739
▁SMARTCARD	-14.661418
▁histogram	-14.304053
▁flb	-13.918638
ell	-12.583360
VOLUME	-13.818961
train	-13.523038
▁pindex	-14.267202
▁noop	-15.453634
▁hdma	-14.756384
▁indexed	-13.970473
▁sysctl	-14.660162
kk	-13.896468
WAL	-13.619935
CAPTURE	-13.882557
VIRTUAL	-13.723823
▁EXTINT	-16.625351
JL	-13.894688
LITE	-13.272061
▁msm	-14.486123
PING	-13.660310
▁upgrade	-13.920574
Alter	-14.112213
GetAttr	-14.077751
▁udev	-15.107628
IOS	-13.353387
▁proper	-12.738860
▁wlan	-14.651736
gx	-13.877381
raid	-13.868802
motor	-14.079444
▁buffered	-14.243617
▁sas	-16.220864
siz	-14.073358
Padding	-13.673981
ECDSA	-13.931981
▁alloca	-14.650436
▁replaced	-12.594541
damage	-14.228798
▁alive	-13.731904
Inter	-13.596915
Just	-13.437548
▁hashmap	-14.035374
POLY	-13.981228
FFT	-13.955933
HE	-13.450280
▁others	-11.879445
CLOUD	-13.924883
▁xAF	-30.344450
ous	-12.554321
Resolution	-13.678821
ATTRIBUTES	-13.546386
TRACK	-13.586342
▁triggered	-13.626174
Suite	-14.258192
alter	-14.305302
Spi	-13.724977
▁iomem	-17.199885
▁GCLK	-15.694321
▁SiS	-15.275319
Cpp	-13.334117
gradient	-14.112295
Site	-13.435660
ass	-13.466175
Leaf	-13.481561
JA	-13.259821
BER	-13.781750
▁communication	-12.793825
zoom	-14.077862
ark	-14.135823
Canvas	-13.551043
supply	-14.350711
wild	-13.791237
lexer	-14.086278
ord	-13.485211
▁ASF	-14.316036
▁pNext	-14.365076
Rank	-13.377950
STAGE	-13.438044
collation	-14.172646
Unsupported	-13.722593
wo	-13.398115
Macros	-13.507551
Mux	-14.140172
▁EVSYS	-14.764721
writ	-15.393951
▁xCF	-23.069719
Activity	-12.892994
JOB	-13.737949
SPLIT	-13.783921
▁authors	-12.431220
Rotate	-13.723854
PARM	-13.827689
Converter	-13.554810
land	-11.758584
Destructor	-13.334658
AREA	-13.913913
locations	-14.088662
rh	-13.711389
xe	-11.731645
Connected	-13.547255
▁deinit	-15.447912
eff	-13.704872
▁unsafe	-13.938788
MACHINE	-13.838322
▁succeeded	-13.137459
▁bssid	-15.426242
Finished	-13.435725
▁views	-12.854212
deferred	-14.120972
Smi	-13.960219
Dot	-13.459447
▁indic	-15.899054
▁ddraw	-14.850769
Ali	-13.936836
▁ndarray	-15.810284
▁sockets	-14.065131
Chip	-14.062332
integer	-12.255049
EXPAND	-13.862357
Legacy	-13.912629
LHS	-14.124721
fraction	-14.183352
EACH	-13.148552
HV	-13.707198
VISIBLE	-13.719529
Undefined	-13.579883
Reverse	-13.416157
RETRY	-13.848575
VO	-13.709107
Strings	-13.122773
HELPER	-13.797478
CANCEL	-13.518959
Ops	-13.703634
come	-14.357522
Remaining	-13.391845
▁wmi	-14.788405
▁NoneT	-15.930356
wall	-13.430246
Occurred	-13.946622
lay	-12.781891
Contents	-12.697414
▁ecere	-16.717699
▁digital	-12.734043
PNG	-13.409887
▁MONS	-14.550625
▁subset	-13.792752
anti	-13.312463
nbr	-14.021384
▁overload	-14.184800
REQUIRE	-12.980969
BMP	-13.842577
art	-12.704824
LK	-13.656826
▁cctx	-15.096038
ARN	-14.087662
Sp	-13.449861
▁opc	-14.987967
Mutable	-13.086882
planes	-13.588370
Caps	-13.729780
▁ixgbe	-14.293458
qm	-14.089179
BLOB	-13.818199
▁GETARG	-16.488325
stamp	-13.984630
STL	-13.595163
▁TIMx	-14.265881
LOWER	-13.951784
sil	-13.880332
▁sysfs	-14.695558
Networking	-14.116691
EI	-13.256617
PAUSE	-13.730054
FALSE	-11.230826
half	-12.727377
ADR	-13.987533
▁who	-10.077807
▁ovsdb	-14.002257
▁didn	-12.011829
Seed	-13.579471
Validation	-13.437655
PARITY	-13.999734
▁DFMT	-19.949559
▁expansion	-12.975476
▁anyway	-13.089550
bitmap	-12.312218
▁rspamd	-14.383257
▁usually	-12.398405
IOT	-13.788380
UAL	-14.415485
fpu	-14.017601
Functor	-13.700513
▁xAE	-87.804028
Playback	-13.871564
▁drw	-15.171638
cnfn	-13.985527
false	-11.180283
cent	-13.476378
▁exceptions	-13.607571
leader	-13.869325
bone	-13.930178
▁building	-11.882228
Utility	-13.429761
▁dual	-13.875815
▁loadu	-17.980282
DQ	-13.790185
▁trying	-12.233813
HO	-13.680347
▁offload	-14.793420
Partial	-13.079978
▁gatt	-15.229368
SHELL	-13.685802
▁newline	-14.074695
seed	-12.850754
SCHED	-13.734686
LUT	-14.083664
audit	-14.038436
Alt	-13.767182
▁ALC	-15.088981
CLEAN	-13.589021
▁XFS	-14.286011
Dense	-14.095018
BLAS	-13.970606
▁QWidget	-14.060544
ObjectType	-13.733356
Home	-13.112602
Future	-13.626888
Vendor	-13.716254
▁lParam	-14.319518
aio	-13.870255
lrd	-14.569788
ANA	-13.329727
Ind	-13.947385
▁creates	-13.207023
mad	-13.740464
▁represented	-12.504623
Seek	-13.693964
▁printLine	-13.530205
build	-12.047241
Processing	-13.437403
▁SYSCLK	-15.109474
▁followed	-12.336848
VTK	-13.815476
TLB	-13.982620
▁hwloc	-14.400701
▁swig	-14.828626
Mass	-13.813771
monst	-14.329414
Lua	-13.598330
▁enqueue	-14.631678
current	-10.734750
particle	-14.021876
GX	-13.677956
▁supplicant	-16.931330
Seconds	-13.645978
▁PULL	-15.796258
▁depends	-13.193744
▁bindings	-14.518592
kh	-13.382270
▁FUNCTIONS	-14.187733
Calc	-13.724438
SGIS	-13.951029
▁limited	-12.537327
▁FORCEINLINE	-13.999610
Groups	-13.567841
record	-11.891104
med	-13.260154
▁replacement	-12.657352
Components	-13.317540
cst	-13.948231
ention	-15.299455
Theme	-13.564749
Persistent	-13.564812
basis	-14.333114
▁platforms	-13.141377
▁drawing	-13.236719
multiplier	-14.351989
▁TSS	-14.304130
Relative	-13.419438
Schedule	-13.876432
IDL	-13.622038
▁UNEXPECTED	-16.313915
▁vkGet	-15.143483
FLAC	-14.000352
Printing	-14.460886
▁computation	-13.505935
MPL	-13.928845
content	-11.663559
▁HOLDER	-13.800364
tiny	-13.801049
ACCEL	-13.795705
Interaction	-13.836630
Assignment	-13.348345
pattern	-12.211791
self	-10.481735
CUBE	-13.755901
STANDARD	-13.535757
VkPhysicalDevice	-13.699009
▁lpsz	-14.396154
▁overwrite	-13.971337
rwlock	-13.985319
▁jobject	-13.945851
ose	-12.469121
AsyncCaller	-14.906522
lease	-14.256823
ahead	-13.487719
▁obtained	-12.577411
attack	-13.766156
cch	-13.893977
FUN	-12.602856
TUPLE	-14.029842
▁xBD	-87.804028
mime	-13.546071
AFTER	-13.929380
cipher	-12.389271
Tasks	-13.541480
RSTR	-14.760066
memory	-11.025596
dsc	-14.150269
letter	-14.186675
Mul	-13.841721
lev	-13.605708
▁UNIVERSAL	-15.868838
lon	-13.281628
Ms	-12.457892
getenv	-13.889404
▁ATTRS	-17.416887
▁KEYWORD	-15.721541
Accessor	-13.678006
pnt	-14.218144
AW	-13.628589
▁changing	-13.003330
ey	-12.310446
COMPLEX	-13.721615
MGR	-14.056187
Performance	-13.797961
Children	-13.096494
▁CGFloat	-14.164364
ptp	-14.096140
lead	-14.337587
▁spirit	-13.729374
▁inflate	-14.299852
▁HSTRING	-14.760572
▁few	-11.613386
FTP	-13.620124
Candidate	-13.626061
Weak	-13.598907
▁pst	-14.992461
Chat	-13.788438
ji	-12.616644
BPROC	-13.779365
ival	-14.002034
▁DTFC	-18.525892
encode	-11.859343
SCU	-14.434141
▁TORSO	-18.811337
Attrib	-13.854595
Crypt	-13.544227
▁SPIS	-14.322813
SEED	-13.976421
An	-12.444806
Conf	-13.650197
DOC	-13.073576
▁bitfield	-14.272616
sched	-12.577161
division	-14.476695
▁vval	-18.598103
▁PyBytes	-14.529326
▁OMX	-14.003926
Histogram	-13.803356
HID	-12.859422
▁sscanf	-14.896938
ou	-13.115426
destruct	-13.247352
▁getting	-12.273693
like	-11.439333
kl	-13.515341
trie	-14.286501
Par	-13.373129
osc	-14.046427
NMI	-14.137001
COMPUTE	-13.993207
▁online	-12.347664
credentials	-14.292874
▁embedded	-13.617309
▁assumed	-13.229580
STALL	-14.207363
▁vwsn	-20.928478
GI	-13.357296
batch	-12.787874
RUNNING	-13.884133
Primary	-13.620306
▁prefetch	-14.568684
▁crop	-14.444253
fo	-13.149087
LDO	-14.325600
▁SELF	-16.640947
▁PyThreadState	-14.834690
blob	-12.683827
Ro	-13.770253
▁significant	-12.314515
▁IDA	-14.879512
WEB	-12.509437
Attach	-13.647831
▁manual	-13.627794
▁typed	-14.181315
Acpi	-13.398837
▁psa	-14.348165
COEF	-14.404451
Union	-13.421548
PLUGIN	-13.792135
IAM	-13.835050
IPP	-14.310526
TARGET	-12.145706
▁mDNS	-14.349058
Tags	-13.527247
HELP	-13.731901
Gp	-13.975683
EventHandler	-13.879739
ROLE	-13.818023
Upload	-13.645462
expose	-15.442636
race	-13.675271
isnull	-13.618301
Metric	-13.658551
▁xDB	-21.564619
Payment	-13.563953
Tr	-13.677407
Cut	-13.928661
▁itemsize	-14.902988
Opaque	-13.783747
Credit	-13.368217
▁purposes	-12.767093
▁compilation	-12.618851
▁accessed	-13.460382
upd	-13.833776
▁feedback	-13.742825
▁plat	-15.521158
▁conditional	-13.917484
try	-11.546188
SOF	-14.050727
comma	-14.283753
wh	-13.722175
▁integers	-13.646519
▁ICU	-14.194765
FPROC	-13.706709
probe	-12.503397
Sector	-14.080474
stddef	-13.210185
OTA	-13.930495
▁composite	-13.212354
qd	-14.001742
DUP	-13.787933
ETH	-12.552786
tar	-13.040065
Immediate	-13.700465
▁loops	-13.849411
▁vpx	-14.651274
▁projection	-13.762513
▁XXH	-14.452889
ial	-12.993867
▁observer	-14.062390
UTILS	-13.802907
GetItem	-13.846434
▁hcryp	-14.772780
Picker	-13.841311
FREQUENCY	-14.025383
▁serialization	-13.838773
ERRNO	-13.739122
Attachment	-13.763578
▁ordering	-13.647835
Instances	-14.081243
learn	-14.263521
▁wParam	-14.428068
Disconnect	-13.702637
▁bitmask	-14.288038
ORIG	-14.944180
raster	-14.218385
▁PSM	-14.546074
Xt	-13.943819
strength	-14.206628
define	-7.566964
itr	-13.911686
CString	-13.696056
▁dct	-14.423817
Bi	-13.421322
IG	-13.492491
▁dirent	-14.447522
▁replication	-13.808330
cpus	-13.788716
VREF	-14.493250
UARTE	-13.930780
SRV	-13.948319
decode	-11.927776
WI	-13.258030
▁transmission	-13.183006
coding	-13.805114
verts	-13.958544
▁email	-12.926863
Wire	-13.500414
Logging	-13.613966
SAT	-13.768217
PTP	-13.996347
SDHC	-14.362149
tracing	-14.263183
AIN	-14.429575
icroelectronics	-14.140387
FROM	-12.361680
ready	-12.496612
COORD	-13.941326
thd	-14.582042
Secret	-13.661286
▁pinfo	-15.048272
▁clib	-14.051014
Capability	-13.826598
▁Ipp	-14.688348
warn	-12.601259
drain	-14.128880
▁dependencies	-13.425141
▁COBJMACROS	-12.909826
▁XDMAC	-15.806991
POWER	-12.341774
exist	-12.479816
matrices	-15.523723
▁ymm	-15.639502
beg	-13.668923
NEXT	-11.901538
▁stable	-13.715293
▁xEA	-25.777204
shr	-14.066110
▁enumeration	-13.767961
sky	-12.344504
Messages	-13.514483
GetValue	-13.892036
El	-12.885951
▁debugstr	-14.500544
solve	-14.277771
delim	-13.824172
Msp	-13.633358
appendStringInfo	-13.778263
JP	-13.586333
constr	-14.118142
▁IMX	-14.889898
GG	-13.938272
bucket	-12.474323
oi	-13.428807
▁xEC	-25.922459
ities	-12.913057
GEO	-14.208659
Poll	-13.860146
INTFLAG	-15.118449
CHANGED	-13.944692
▁altivec	-17.612359
▁orx	-14.820313
Activation	-13.815394
▁ENOENT	-14.445667
Transpose	-13.670208
▁nRF	-14.798619
▁increase	-12.478887
normal	-12.483880
Encryption	-13.776472
▁sli	-15.871947
▁pC	-15.243012
enet	-14.019768
▁combination	-12.987700
▁EID	-15.306649
▁coefficients	-13.657077
▁xEB	-28.386581
OES	-13.696894
NEW	-12.219515
▁xDC	-22.424072
Dead	-13.898668
BLACK	-13.665606
RH	-13.823439
fields	-12.144604
Ack	-13.792133
Inv	-14.047113
▁masks	-13.957438
Ui	-13.233639
WE	-13.682867
▁deserialize	-14.305456
VD	-13.914799
SPL	-13.918899
ddr	-13.771692
▁hapd	-15.618157
Ax	-13.849330
▁LLC	-13.309855
▁NSData	-14.513954
note	-11.253046
ew	-12.724413
BUFFERS	-13.847907
Gtk	-13.521584
iscsi	-14.010537
Rendering	-13.867118
PROG	-13.953837
cdc	-14.212641
▁wrapped	-13.847870
▁kcontrol	-16.515833
▁subdev	-16.159921
Executor	-13.598910
wcs	-13.947702
▁asset	-14.230473
Where	-13.194497
OL	-13.216832
nor	-12.977766
writer	-12.253387
TypeInfo	-13.564970
TWO	-13.926806
▁locking	-13.811510
MPI	-12.845792
Clean	-14.177427
wal	-13.255321
abc	-13.944351
▁making	-11.931033
aml	-14.165336
Gpio	-14.266661
IES	-13.130381
Click	-13.299986
intersect	-14.330994
▁outgoing	-14.089353
ug	-13.730014
SIDE	-13.291279
lru	-14.016408
▁gasnet	-14.549495
Resolve	-13.738827
tle	-13.705642
▁ends	-13.113003
Completed	-13.701632
depend	-13.482587
▁nHeight	-14.105040
▁accessor	-14.443388
pkts	-13.982935
COIN	-13.783482
PCLK	-14.293484
▁lgl	-14.705328
RSSI	-14.210983
unused	-12.573433
qpair	-14.384479
GUARD	-13.659015
Own	-14.088088
STK	-14.023624
DEAD	-13.710519
LIN	-13.813825
▁cython	-16.382360
VFS	-13.916289
▁calibration	-14.006773
Ns	-13.709185
▁kzalloc	-14.191452
▁affiliates	-13.317933
uu	-13.269396
SHADOW	-13.856209
Polarity	-14.181879
Pi	-13.534211
ron	-13.052787
Deriving	-14.921007
ITY	-12.829091
▁KVM	-14.399017
same	-12.946839
CTLR	-14.022074
▁palloc	-14.282177
▁vhost	-14.859077
▁battery	-13.566995
Scheduler	-13.574060
MIS	-14.100916
▁They	-11.247379
ALIGNMENT	-13.922768
commit	-12.637961
FIAsyncOperation	-14.597117
Stencil	-13.644556
TOUCH	-14.032980
Cr	-14.100674
▁commercial	-12.588399
Undo	-13.639264
Arm	-13.822198
instantiate	-14.885868
imap	-14.148378
passwd	-13.836125
DYN	-14.116825
VK	-12.818516
▁Does	-12.794827
DET	-14.259679
Packed	-13.981827
Catalog	-13.467192
▁UPB	-14.729389
▁unaligned	-14.760236
ya	-12.180939
CONTAINER	-13.958887
VERTEXATTRIBI	-14.080197
▁inout	-15.587892
▁exceed	-14.203115
hold	-13.195418
▁LETTER	-14.953762
▁lcid	-14.551581
EAP	-13.957243
▁CYCLES	-17.038197
Digest	-13.663130
▁ukernel	-19.004715
sTo	-13.721047
UChar	-14.026645
WiFi	-14.151727
SAS	-13.671178
Admin	-13.564939
Detect	-13.820592
▁IGNORED	-15.912257
Unix	-13.535366
Arn	-14.243674
▁numberOf	-14.334115
Wave	-13.706590
▁subsequent	-13.046844
▁MAYBE	-15.191087
TZ	-13.683648
Cycle	-13.380441
Measurement	-13.983978
▁pCtx	-15.493908
ENTRIES	-13.940813
diagonal	-14.506518
▁remap	-14.850795
zi	-13.171645
HOLD	-14.153031
▁APIs	-13.537093
Hub	-13.434174
Here	-13.793593
mxArray	-13.877567
▁internally	-13.668106
▁Ifx	-14.558883
arb	-13.960264
EXCLUSIVE	-13.980547
▁exclude	-14.149281
FACTOR	-13.957213
▁PCRE	-14.364658
▁timers	-14.219028
ASH	-14.370015
▁infoPtr	-14.997418
FromString	-13.782174
xf	-10.899815
usage	-12.303602
rou	-14.350877
gateway	-14.337864
▁accepted	-12.900613
tags	-12.581927
SAR	-13.916717
DataSource	-13.768032
NEGSEL	-15.521278
▁gfp	-14.609949
ndx	-13.944829
feat	-13.566898
aq	-13.666857
PCH	-14.124614
▁calculated	-13.222039
tape	-14.191971
▁visitor	-14.227350
ww	-13.965512
Bias	-13.832377
got	-12.303997
Lang	-13.689240
Major	-13.589867
periodic	-14.318084
Plus	-13.574433
▁Adds	-13.825586
Detail	-13.570469
SHUTDOWN	-13.786633
locate	-14.147619
midi	-13.921007
ja	-12.415949
Tracking	-13.717063
MST	-14.335602
Acc	-13.947698
Guard	-13.668966
Coin	-13.544403
USCI	-14.390543
CST	-14.185544
Busy	-13.906581
▁xCB	-28.594834
Palette	-13.806549
▁assemble	-14.956365
ARI	-14.745543
video	-12.163938
▁SPECIES	-15.686211
▁assertion	-13.932057
ten	-12.640603
tip	-13.692925
Wide	-14.065581
▁pio	-16.352815
Collect	-14.126249
Dis	-13.566140
XYZ	-13.977068
▁OMAP	-14.421190
▁why	-11.979692
OGR	-14.170155
▁lookahead	-14.702456
▁marshall	-16.428101
▁LFRCO	-15.806896
▁xDE	-32.576572
VertexAttrib	-12.316056
▁subs	-15.750336
Ratio	-13.713990
Walk	-13.840438
▁CURLE	-13.602278
city	-12.703496
Phy	-13.948379
▁guaranteed	-13.584364
▁wstring	-15.880305
▁important	-11.806246
mpd	-14.237923
▁TWIS	-14.362797
abi	-12.373774
▁expire	-14.523440
Dll	-13.785613
Soft	-13.844270
▁lowest	-13.368127
▁fts	-14.351537
▁timed	-14.312768
▁xdeadbeef	-87.804028
Registration	-13.476748
Probe	-13.740354
▁kwds	-16.146226
▁usbd	-15.170982
▁ALTER	-14.286597
Fd	-13.938525
Bluetooth	-13.635149
lsn	-14.135803
BRIDGE	-13.854185
▁copying	-13.696975
Limited	-14.969014
▁looking	-12.258212
Rev	-13.834476
sRequest	-14.076873
days	-13.778007
FV	-13.680956
bed	-13.407784
▁tegra	-14.649533
rfc	-14.385542
SUPER	-13.423535
pen	-13.573685
job	-12.627811
UPDATE	-12.369306
keylen	-13.966364
vote	-14.314909
▁slen	-14.361699
ij	-13.110558
CAMERA	-14.055694
manager	-12.231329
XFER	-14.165386
Locked	-13.609019
FIT	-13.971694
▁verification	-13.802802
▁ABCDEF	-18.315012
▁unset	-14.324974
Multiply	-13.752384
▁UDMA	-14.349226
▁SMBUS	-15.077282
plug	-14.185132
CDF	-14.150450
Descr	-14.066593
▁skipped	-14.002043
Resume	-13.603332
▁Initializes	-13.726431
xa	-11.508334
▁CLKOUT	-16.992486
LOCKED	-14.158840
Nested	-13.797985
Prim	-13.908064
▁IWL	-14.852324
▁addrs	-15.535791
▁pathname	-14.637554
Tp	-13.986775
vy	-13.492679
ball	-12.792878
tracker	-13.886621
aspect	-14.477513
MH	-13.672197
Assertion	-13.798687
gn	-12.908251
prep	-13.525678
▁aead	-15.229305
▁PyArg	-16.844411
▁goodG	-13.800228
ow	-13.052819
▁EAGAIN	-14.662335
▁design	-11.930139
▁largest	-12.591286
ALERT	-14.055769
wsi	-14.160108
▁QDEC	-14.264524
crc	-12.856550
▁xfffffffe	-87.804028
deflate	-14.462580
nest	-13.210800
plist	-14.006495
▁reduction	-13.201047
DIF	-13.946417
▁xaaaaaaaa	-87.804028
Bitcoin	-14.939711
desktop	-14.066002
dif	-10.004769
Unregister	-13.752535
Parameteriv	-14.002381
mpt	-14.131870
istic	-13.377886
private	-10.597879
Pkt	-14.120473
▁shouldn	-13.452700
▁NSURL	-14.616475
INITIALIZE	-13.062626
▁fread	-14.734650
faces	-13.852269
Balance	-13.527250
degree	-13.983456
▁several	-11.402142
has	-10.765071
FEC	-14.184013
REPEAT	-14.123358
ill	-13.294982
▁kmp	-14.859762
▁PDC	-14.512936
lz	-13.694892
ure	-12.980180
Managed	-13.736098
IGN	-12.675541
recur	-13.708654
UPD	-14.256942
▁clocks	-14.157417
▁lwip	-14.814515
ighbd	-14.843561
quota	-14.285649
▁PyString	-14.399333
Abs	-13.810876
▁QObject	-14.278855
▁fwrite	-14.662545
fec	-14.202735
▁emm	-15.660055
Like	-13.640567
▁consumed	-13.887491
NAMED	-13.819762
▁outb	-15.696080
▁pretty	-12.836125
determined	-15.391918
▁become	-11.893534
▁wps	-15.297708
onto	-14.973838
analyze	-14.458048
▁xmlChar	-13.879348
OU	-14.743665
UPPER	-14.113996
▁OPC	-15.545032
▁xfffffffd	-87.804028
GetString	-13.906456
▁divisor	-13.465246
Xfer	-13.686597
Retry	-13.868227
▁debugfs	-15.363638
vmx	-14.154541
▁requirements	-12.685928
How	-12.734913
CTRLB	-14.988055
rio	-13.308681
Cm	-14.122231
MIME	-13.891107
shrink	-14.382552
passes	-14.901654
Defaults	-13.719354
▁receiving	-13.017131
▁quiet	-13.742079
PIPELINE	-14.025929
Let	-13.247385
▁xFFF	-43.048629
smc	-14.096695
▁blocksize	-14.803210
QS	-13.848651
Hw	-14.042455
▁CMedia	-17.511938
Divide	-14.642401
▁nondet	-14.936161
GetProcAddress	-14.369757
limb	-14.185900
▁rxq	-15.693528
fy	-13.636406
Reflection	-13.682170
More	-13.489168
MCR	-14.166730
▁lengths	-13.957324
Disp	-13.640742
▁intended	-12.773262
Smart	-13.903532
▁together	-11.892455
oap	-14.075144
▁describe	-13.320506
▁pBuffer	-14.534480
▁ALEN	-19.259685
LIC	-12.481584
▁nonzero	-14.079900
▁statements	-13.018148
mib	-13.986030
TexSubImage	-14.241894
mtime	-14.138502
Implicit	-13.822046
▁IOTHUB	-14.823154
▁decltype	-14.684669
Attrs	-13.986660
Quaternion	-14.026617
▁portal	-14.041176
ole	-13.366212
stk	-14.114692
cdata	-14.134484
bfa	-14.410286
Indexed	-13.736027
▁Franklin	-12.899999
▁calculation	-13.401941
gpio	-11.936989
REPLACE	-13.968893
▁btl	-16.285267
Polygon	-13.589565
▁ptype	-15.859791
▁stcb	-15.548075
AES	-12.471043
LONGLONG	-13.800668
oct	-13.635992
rmtol	-14.285908
Blk	-14.141321
Nav	-13.426387
secs	-13.785425
DEFAULT	-11.104741
▁responsible	-12.715283
PRS	-13.718564
ake	-13.539373
efree	-13.460507
ZZ	-14.299340
most	-12.807309
▁subtract	-14.518628
▁Fifth	-13.065632
▁huart	-14.620795
iop	-14.047418
mission	-12.910756
ifier	-12.722613
KW	-13.894119
rA	-13.862751
kc	-14.063514
LEGACY	-13.939231
Technology	-15.605768
▁usize	-15.597037
GRAPHICS	-14.081526
FinishContext	-13.729132
▁SDRAM	-14.937301
▁streaming	-13.687314
Sent	-13.799907
nes	-12.746366
▁emplace	-15.784904
PixelFormat	-14.085141
Quality	-13.782672
APPEND	-13.832498
PAN	-13.915193
▁extents	-14.614129
izing	-12.929197
AKE	-14.904876
▁EMR	-15.360337
sts	-13.403694
lea	-13.808932
ARGB	-14.132796
RLE	-14.111893
shmem	-14.106877
▁ATL	-14.833980
SON	-13.944977
zv	-13.776994
RU	-13.842294
mapping	-12.393601
kin	-12.818219
sur	-12.860783
second	-11.684957
association	-14.374251
preview	-14.223546
ifa	-14.115114
workers	-13.898298
▁paddr	-15.091676
dz	-13.678636
▁faster	-13.220978
pending	-12.048755
SECTOR	-14.215627
ECP	-14.025296
CONNECTED	-13.661606
CQ	-13.937501
▁ntohs	-14.403588
DIST	-13.894098
▁gmail	-17.503401
udata	-14.162704
HK	-13.478185
ili	-13.428117
pressure	-14.259215
ECS	-13.902757
▁JNICALL	-13.713129
▁subclass	-14.036670
Fc	-13.413337
MN	-13.590962
entities	-14.294101
Known	-13.911480
▁LDMA	-15.367646
▁hspi	-14.798539
▁MASKWRITE	-87.804028
▁adap	-16.381412
▁dnx	-15.190983
Dirty	-13.588196
▁TCG	-14.668183
nary	-14.762900
▁terminator	-14.109991
▁className	-14.243368
HX	-13.973312
▁TEE	-14.288918
Aligned	-13.952155
▁effective	-12.784244
▁toString	-14.362734
CHANNELS	-14.071012
dvb	-14.172588
Calibration	-14.037312
▁queries	-13.813492
apic	-13.832358
Pages	-12.947562
▁fputs	-14.131196
Translate	-13.707587
▁payment	-13.468112
FILENAME	-13.820171
zf	-14.403548
NPC	-13.904308
MMIO	-14.178600
▁glsl	-15.369895
Take	-13.595525
IMU	-15.032360
eng	-13.536550
Activate	-13.842716
▁contexts	-13.985187
namespace	-11.923480
HUD	-13.998544
▁alternate	-13.492627
WEIGHT	-14.029044
SSD	-14.100092
locator	-13.397819
objs	-13.984646
WAY	-14.109905
▁RESTRICT	-15.282781
▁operating	-12.778021
▁wiphy	-15.187950
wqe	-14.353360
▁however	-11.964765
tfm	-14.187200
▁SWI	-15.449281
▁modifiers	-14.332397
ocfs	-14.121747
Units	-13.797773
▁chosen	-13.122906
▁OCI	-14.890788
▁displayed	-13.297437
txt	-12.180959
▁protocols	-13.807096
SLOTS	-13.596819
PCTL	-14.338329
KEYS	-13.943853
SHAPE	-13.972072
▁VARARGS	-17.481915
▁vnet	-14.828810
Are	-13.281901
vio	-14.390235
▁nearest	-12.594185
property	-10.244414
hack	-13.611080
▁scanline	-14.674418
initialize	-12.024246
Vertical	-13.618779
▁prediction	-13.834853
Communication	-14.655486
▁normally	-13.324932
RESTART	-13.890851
▁robj	-14.268479
life	-12.830693
VDD	-14.423976
tst	-14.109470
ard	-12.671928
▁seat	-12.885879
ash	-13.330956
▁WEAK	-15.174429
SVG	-13.809766
constant	-12.454359
RSA	-12.612337
▁orte	-15.372311
cgi	-13.947931
▁maxlen	-14.553662
Startup	-13.723417
samp	-14.321483
▁Cortex	-14.262447
sup	-12.778847
msp	-14.282890
▁UNORM	-18.298753
hashes	-14.620860
▁closing	-13.419883
Photo	-13.398642
▁FIVector	-87.804028
mar	-12.836036
ZX	-13.750238
auto	-11.330352
MINUS	-14.137115
Diag	-14.067608
sensor	-12.572300
kt	-13.715528
printed	-14.554924
Negative	-13.529958
dB	-14.184720
ndr	-14.330179
▁MCG	-14.491981
PUPDR	-14.967395
Norm	-13.743875
OUTPUT	-12.179838
▁NSMutableArray	-14.205237
stand	-13.633839
Ctor	-14.473341
▁CONTINUE	-16.239919
Calling	-13.986175
ROUTE	-13.011040
▁globus	-13.998051
▁spa	-14.786267
DCT	-14.050371
QR	-13.584137
lval	-14.059758
ubi	-13.686818
DSS	-14.124023
independent	-14.161464
Foo	-13.507494
▁Chromium	-13.881621
▁LPWSTR	-14.109182
▁COMPONENTS	-15.389905
Composite	-13.517372
▁darkskin	-19.835029
▁fmadd	-18.793531
▁meaning	-12.805303
axes	-14.270172
hip	-13.517164
Pause	-13.691658
▁AVR	-15.223610
▁Napi	-14.716379
Reduce	-13.843026
▁transformation	-13.376488
PPS	-14.062408
Implement	-13.766458
TYP	-14.242724
▁uplo	-14.622092
▁pIn	-14.581369
boolean	-12.042182
License	-11.627897
Systems	-14.671444
Horizontal	-13.662283
joystick	-14.572514
▁moves	-13.506765
▁seems	-12.420939
▁bstr	-14.872942
▁qemu	-14.364310
Advanced	-14.251761
Large	-13.790070
qu	-13.370231
▁consistent	-13.167671
▁combined	-12.921328
TRUE	-11.585569
symtab	-14.116255
AWD	-14.727311
Front	-13.757568
Operations	-14.004045
sheet	-13.428400
Popup	-14.008630
▁USBC	-15.441064
▁ceph	-14.448615
ipaddr	-14.237460
▁recover	-13.857904
SPELL	-13.988048
ByteArray	-13.876157
SetupContext	-14.314826
jo	-12.888633
▁xCA	-28.507921
WORLD	-13.334328
Attempt	-13.796213
spc	-14.204851
Allowed	-13.879295
▁xED	-30.612139
▁DFSDM	-15.092082
UserData	-13.925850
Anchor	-13.647997
AIR	-13.682575
▁passing	-13.068616
Jit	-14.022802
▁GetArena	-14.615897
▁EXTENDED	-15.982734
UDB	-14.912387
serial	-11.911766
▁sdata	-15.670320
Constraints	-13.780052
▁PROTOTYPES	-15.608478
▁sctx	-15.557360
Na	-13.473141
VV	-14.098780
FRAG	-14.083272
▁evaluation	-13.219291
qe	-14.057653
DELTA	-14.307890
▁manage	-13.482700
efi	-14.148777
entries	-12.144629
Secondary	-14.097516
▁central	-12.641186
psi	-13.389805
pivot	-14.649538
▁alternative	-12.812060
ARC	-13.697574
Creation	-13.897451
each	-11.959994
CURVE	-14.088633
nim	-13.814592
▁lfirst	-14.250261
PSR	-14.202557
▁assumes	-13.724150
▁recent	-12.527417
Calendar	-13.765526
Compression	-13.697719
glyph	-13.116310
Curr	-13.705955
SHARE	-13.962556
IEs	-14.225837
▁PACKED	-15.029775
Have	-13.555718
▁gives	-12.567633
DPLL	-14.389825
INTERFACE	-11.655205
▁TASKS	-16.004886
▁EFIAPI	-11.839735
policy	-12.360845
GEMM	-14.153325
guide	-14.106924
▁bases	-13.888712
msk	-14.158929
uh	-13.595436
mutex	-11.068237
Asm	-13.969955
▁populate	-14.150469
SLICE	-14.247448
USR	-13.754873
▁decay	-14.384510
HU	-13.843875
▁functor	-14.288334
QUE	-13.971335
dfs	-14.197489
Continue	-13.912225
Software	-12.800439
cor	-13.257673
▁outfile	-15.226507
SCK	-14.234796
▁goes	-12.652386
▁optimized	-13.890318
SWP	-15.020264
Sg	-14.202010
▁CURLOPT	-13.998751
Regs	-14.056750
▁getType	-14.726258
▁ecdsa	-16.046101
ObjectId	-13.903794
Comparison	-14.234084
▁grib	-14.728134
▁identical	-13.438523
shl	-14.240622
OCSP	-14.233367
CONFIGURATION	-13.994205
Sep	-14.057892
Updates	-13.633957
ware	-12.770137
TRG	-14.464457
dissect	-15.598200
▁WASM	-14.218845
CEE	-14.044144
▁bfin	-15.016315
▁measurement	-13.394365
RenderTarget	-14.144418
MIB	-14.092665
putc	-13.686087
▁reports	-12.777513
LPM	-14.449054
▁DATATYPE	-14.942936
▁OBJC	-14.849813
consensus	-14.358244
AML	-13.940987
▁METHODS	-14.228565
▁XPAR	-14.295890
Slider	-13.885900
▁dwc	-14.995356
Feedback	-13.760223
▁FreeBSD	-15.427478
▁deque	-15.042855
WGL	-13.965062
TypeName	-13.947133
▁BITFIELD	-15.413857
kbd	-14.149493
▁pointed	-13.242662
▁CGRect	-14.728321
Rd	-14.179551
ada	-12.547069
Mon	-13.937003
rgba	-14.442797
Lines	-13.591566
PRESCALER	-14.681821
▁implementations	-13.505499
TRAP	-13.953047
Threads	-13.743474
▁partitions	-14.315420
▁Fint	-18.761374
Tcp	-13.922034
location	-12.003597
ask	-13.486547
RANK	-14.201011
▁blockSize	-14.144673
security	-12.746086
Dependency	-13.696480
JNI	-13.263068
PACKAGE	-13.970289
Codes	-13.995451
▁DMAMUX	-15.366747
▁applies	-13.411835
measure	-13.935681
▁scheduled	-13.246028
Diagnostic	-13.818240
▁PORTB	-15.090050
▁LWS	-14.331094
JMP	-14.022824
Exists	-13.778385
ative	-12.348304
AGC	-14.317666
▁concurrent	-14.010597
▁executing	-13.788784
Advance	-14.477555
▁ORTE	-14.279842
Prescaler	-14.338646
DIRECTION	-13.880163
▁arbitrary	-13.506853
CHG	-14.384363
▁PRIMARY	-15.068871
▁internalformat	-14.635900
XV	-13.632178
wrapper	-12.670877
AXI	-14.343262
▁expanded	-13.333417
CriticalSection	-13.749771
Detection	-13.788726
blas	-13.780055
▁xDA	-29.741154
eta	-12.955336
render	-12.171729
Day	-13.172255
WIDE	-13.974388
ead	-14.036725
Changes	-13.696677
▁mddev	-15.355807
▁preserve	-13.659070
CHIP	-13.148936
▁PHYMOD	-14.298862
madd	-14.004517
▁unformat	-15.288879
MORE	-13.371218
GTM	-14.277738
Most	-14.000353
CLKSOURCE	-14.405096
▁SVN	-14.307547
Thr	-14.437365
▁doublereal	-14.454959
his	-13.677580
▁relevant	-12.791777
SPIRV	-14.187383
▁algorithms	-13.449734
▁iid	-15.613443
Margin	-13.739246
APIC	-14.153012
GOOGLE	-14.921139
Se	-13.607910
▁Reads	-13.901275
▁hostapd	-14.496218
▁ntohl	-14.462044
▁UNPACK	-16.212643
bor	-13.882886
Terminal	-14.045062
mis	-13.417406
Coordinate	-13.940444
ular	-13.774919
EO	-13.777742
▁therefore	-12.432232
▁vnode	-14.383882
▁nsI	-14.739555
RDMA	-14.182872
▁iovec	-14.374038
Strategy	-13.375952
EXECUTE	-14.078177
BUFF	-14.213786
▁OMITBAD	-13.197317
▁Perl	-14.370523
▁legal	-12.440101
interval	-12.487516
▁recommended	-13.254001
ale	-13.204936
STARTED	-14.211251
▁SQR	-16.268421
CYCLE	-13.706084
PSC	-14.375330
▁UIColor	-14.509357
▁sdev	-15.897819
Email	-13.733875
▁unlocked	-14.437759
marks	-12.952305
▁NVME	-15.191441
▁HFCORECLKDIV	-17.765743
FSM	-14.151301
Diagnostics	-14.106947
Topic	-13.844838
SENT	-13.919980
Consumer	-13.865060
QUAD	-13.880685
attnum	-14.090958
▁expired	-13.997932
INSTRUCTION	-13.872413
Finalize	-13.849966
tmr	-14.168742
pps	-14.119683
▁tablet	-14.622682
▁GRPC	-14.143650
▁pmap	-14.955981
▁EZRADIO	-14.335788
SIGNED	-13.054644
Uses	-14.641495
PROGRESS	-13.950186
uio	-14.283502
▁BTA	-14.591639
wf	-14.011982
MIXER	-14.235253
OptionsT	-14.112535
▁severity	-14.119220
TSEL	-14.712740
ras	-13.251624
facet	-14.296975
▁garbage	-13.891569
aggr	-14.839222
huge	-14.173605
trust	-13.893147
stripe	-13.978162
sweep	-14.123887
Decimal	-13.987531
OWN	-14.026415
Duplicate	-13.789732
BOUND	-14.074270
▁PyNumber	-14.620057
marshal	-13.467064
▁BNX	-14.702187
fullscreen	-14.408056
DAG	-14.253531
KIND	-13.156942
VALIDATE	-13.977061
Declare	-14.686650
▁typeof	-14.878243
MIDI	-13.756323
kit	-13.147206
DRIVER	-12.539372
sphere	-14.197900
SizeOf	-14.151808
pcap	-14.239148
correction	-14.851396
INSTALL	-14.006445
▁DAPM	-17.125430
Notes	-13.951529
▁moving	-12.820017
jp	-13.200284
tan	-13.191583
zh	-13.453338
▁outline	-13.930098
▁wants	-13.022761
▁WWDG	-15.002162
▁vha	-15.248154
safety	-14.484256
ium	-12.981574
▁BTRFS	-14.521514
▁completely	-12.705800
Compressed	-13.543101
namelen	-14.029832
BURST	-14.135656
APPLICATION	-14.067554
DXGI	-13.860693
▁decompress	-15.142624
▁hda	-14.824531
▁nfc	-15.139530
notes	-13.757396
wn	-14.058439
▁derivative	-12.980109
ich	-13.093048
MQ	-14.058143
ITS	-13.954171
DETECT	-14.155376
▁testcase	-14.597737
▁CYDEV	-14.348920
make	-11.780479
▁polling	-13.896285
Lsp	-15.421966
GW	-13.678568
Pci	-13.990696
▁intermediate	-13.669972
XXX	-13.256733
▁forced	-12.996218
Sa	-13.325634
▁DBGMCU	-15.636826
highlight	-14.038066
Router	-13.755815
▁DTPRS	-22.582128
AUTO	-12.170181
ALARM	-14.260958
▁OPAMP	-15.109501
ics	-13.576345
Cross	-13.569117
Actual	-13.860034
verb	-12.072455
nss	-14.196642
vst	-14.469742
ged	-13.628063
▁corresponds	-13.700601
NAMES	-13.939803
mch	-14.017136
▁arithmetic	-13.853323
Invalidate	-13.652002
kr	-13.429448
filt	-14.352037
▁PyDoc	-14.130502
VGA	-14.025480
▁PAYLOAD	-16.323745
▁causes	-12.948363
Aggregate	-13.999030
opr	-14.161378
Sender	-13.888882
Firmware	-13.997098
BlockSize	-14.151560
BZ	-13.976218
cil	-13.811944
TTY	-13.501221
Fifo	-14.218926
▁incorrect	-13.776224
▁CheckExact	-87.804028
CORR	-14.385595
onical	-17.743089
▁PFNGLVERTEX	-14.277383
ade	-13.326708
Physics	-13.981315
confirm	-13.702766
cpl	-12.410435
▁PQget	-15.165486
bat	-13.433674
▁MODER	-17.988056
▁shown	-12.278085
▁GMP	-16.041683
ida	-13.088794
Tri	-13.771764
propagate	-14.690918
TID	-14.078109
ptrs	-14.083067
WORDS	-13.737303
Pitch	-13.881782
WebAPI	-14.830915
▁gss	-14.790451
▁pure	-13.544428
LIVE	-12.663836
▁ffffffe	-23.093006
▁htonl	-14.349382
trunc	-14.015522
Colour	-13.699044
HUB	-13.642724
ner	-12.358606
LIBRARY	-13.873070
duplex	-14.044244
CATEGORY	-14.107177
SQLite	-13.833517
RefPtr	-13.989148
unload	-13.925819
here	-13.248809
LJ	-13.974097
▁HASHMAP	-17.972717
puc	-14.209565
▁cifs	-14.737005
MULTITEXCOORD	-14.140475
▁kobj	-15.463211
DevicePath	-14.047711
Internet	-13.868210
ish	-12.820493
DG	-13.828300
▁Eterm	-13.975014
discovery	-14.300921
prm	-14.312736
nulls	-13.998169
ipp	-14.242987
spot	-13.989867
▁msec	-15.034271
GEOMETRY	-14.108330
zd	-13.941723
WIDGET	-14.023083
reporting	-14.753218
▁relaxed	-14.935507
▁models	-12.344823
▁relocation	-13.967902
mtk	-14.230257
VECT	-14.581239
RPT	-14.510295
▁EXTIPSEL	-19.229783
▁PyModule	-14.564286
HH	-13.980381
mesa	-14.121068
Coeff	-14.266358
retries	-14.379041
▁tsc	-15.492807
EML	-14.462937
Actions	-13.579396
NAK	-14.432080
Streams	-14.089999
aj	-13.342098
yo	-13.047365
▁hyper	-14.025984
▁PTHREAD	-14.785248
proof	-13.997302
▁dso	-15.770877
▁plen	-14.591681
▁IMXRT	-15.675637
Below	-14.868795
Vi	-13.954674
▁llx	-17.683639
family	-12.143214
HM	-13.524206
▁virtio	-14.524345
Flat	-14.100128
IsNull	-13.965714
PCS	-14.398241
ZY	-14.368294
ATH	-14.042265
Extend	-13.930019
ena	-12.969557
BARRIER	-13.985236
▁interpolation	-13.998305
distinct	-14.484013
Maps	-14.132725
LING	-13.918347
STARTUP	-14.257592
Ob	-14.119829
lba	-14.230668
▁ossl	-14.764603
IDENTIFIER	-14.021384
dwarf	-14.641867
▁RXF	-14.991058
▁rmi	-16.476711
▁istream	-16.053236
▁pOut	-14.823694
leaf	-12.766399
FPGA	-14.091813
Repeat	-13.753082
VALUES	-14.082826
ORINFO	-14.355101
FIELDS	-13.905241
Guide	-14.547582
IPS	-13.791874
Good	-13.223060
lj	-13.893878
▁radix	-14.626814
Assembly	-13.565217
ECDH	-13.867447
▁GetEmptyString	-20.396718
Irp	-13.970785
MARKER	-13.775791
▁bitrate	-14.868959
IsA	-13.943732
Te	-14.074841
Spacing	-14.051062
ane	-13.273257
Ctl	-13.758416
Watchdog	-14.219446
ADT	-14.022969
ceil	-14.673731
▁swapchain	-15.216228
under	-12.617814
▁intersection	-13.838108
ADI	-14.349141
▁typically	-13.044892
BLOCKS	-14.146093
▁patterns	-13.322202
▁automatic	-13.567200
▁bli	-14.950594
▁BTM	-14.541303
▁EOP	-15.417541
Credentials	-14.005319
Nv	-14.387204
Nothing	-13.981055
MPC	-14.133352
epsilon	-13.162508
occ	-14.249384
▁btf	-15.384388
▁magick	-16.653555
help	-12.226572
▁specifier	-14.487352
SSID	-14.249845
phone	-13.403105
BOLD	-14.439075
▁installed	-13.074354
HCLK	-14.538796
KM	-13.794172
ICM	-14.725479
vertex	-12.343783
Fun	-13.872289
mech	-14.216751
center	-10.728770
▁IFX	-14.292603
▁fgets	-15.109464
▁suitable	-13.291179
HOME	-13.689589
FREEZE	-14.968341
▁Steve	-12.365223
CLAMP	-14.080147
▁OMITGOOD	-13.257062
SEGMENT	-14.156050
SCROLL	-14.041237
▁becomes	-12.691731
FILES	-13.855472
Magic	-13.901818
▁MSVCRT	-14.640590
ran	-12.892252
AlreadyInit	-14.656803
TRANSACTION	-14.033352
Gt	-14.002989
wdt	-14.138912
deg	-14.151776
▁bounding	-14.045770
hang	-14.079682
Dma	-14.214620
▁loff	-14.982300
▁herr	-13.633908
lint	-13.977007
ple	-14.105394
Mult	-14.177334
flg	-14.178557
Calls	-13.853624
wg	-14.010023
neigh	-14.083519
DUMMY	-13.952172
FileSystem	-13.849457
fil	-13.493291
dset	-14.466516
OLE	-13.903333
Nx	-14.611649
Enumerator	-14.332796
Login	-13.527823
ali	-13.423755
▁IMETHOD	-21.164039
ota	-13.236198
POLARITY	-14.585489
kernel	-11.744868
▁htab	-14.847322
weapon	-14.302882
RECOVER	-14.066915
scatter	-14.423069
▁coded	-14.602373
Enumeration	-13.976422
▁DEXT	-21.937752
▁heal	-15.626182
ElementType	-14.059281
▁cstate	-15.343831
avl	-14.327526
HIT	-13.974157
lag	-13.475900
Cont	-14.147011
Ps	-13.363441
qr	-14.128078
lsb	-14.362964
ong	-13.416145
▁functional	-13.801913
Scaling	-14.129768
▁dout	-15.413866
Flex	-13.713278
▁robot	-14.221528
▁PrettyPrinte	-20.493233
▁fHelp	-14.154787
▁NVIDIA	-14.486148
getopt	-14.106175
EAR	-14.003635
▁inactive	-14.275420
▁DTYPE	-15.114816
OFP	-14.298045
RpcChannelBuffer	-14.472082
▁sequences	-13.502148
licon	-16.424750
GPS	-14.070869
FZ	-14.811422
▁Liftoff	-14.212806
▁ethtool	-14.572495
TITLE	-13.747977
KR	-13.517105
Voltage	-14.118306
targ	-14.196990
OTH	-15.000952
Handles	-13.849303
mute	-13.953936
SUSPEND	-13.871383
Pulse	-13.922904
▁xffffffe	-22.335737
iocb	-14.421075
▁performs	-13.645711
WaitFor	-13.921247
eid	-14.283147
tablespace	-14.174909
Unary	-14.012378
colon	-13.706880
▁mtmp	-15.449487
profile	-12.281305
▁overhead	-13.871042
shader	-12.321223
Uni	-14.098288
IK	-13.747953
mess	-14.547846
▁tga	-14.916959
LG	-13.520883
RESTORE	-13.914593
Uart	-14.324883
▁vprod	-15.233507
Phone	-14.066421
▁MODKEY	-14.634263
SIZ	-14.372350
PhysicalDevice	-14.575260
Th	-14.354796
▁GPIOA	-15.297248
clazz	-14.819432
Simd	-14.246232
ECHO	-14.159896
Restart	-13.906159
▁glIs	-14.934051
NVIC	-13.543612
Boundary	-13.789630
ule	-13.639694
uck	-14.645757
▁coefficient	-13.791528
TUNE	-14.407785
▁PFNGLCOLOR	-14.213432
Divider	-14.358144
Fence	-14.057967
DIGIT	-14.180746
▁memview	-15.623926
▁problems	-12.262633
BAUD	-13.953720
Vulkan	-14.434714
Strip	-14.072414
cdf	-14.545955
sprintf	-12.808362
TCR	-14.395895
Dlg	-13.609178
Fp	-14.271857
▁RedisModule	-14.544343
▁ShiftMask	-15.248433
Starting	-14.299085
▁treat	-13.589280
Written	-14.077812
▁PERSISTENT	-17.370986
OUS	-14.065376
NW	-13.779809
Allocated	-14.079519
GetDevice	-14.195420
▁MICR	-15.875356
▁ddrc	-18.379113
Annotation	-13.933104
hy	-13.148964
▁textures	-14.432174
▁bta	-14.719200
degrees	-15.115843
Checked	-13.886135
MID	-13.481813
PAT	-14.050906
connection	-11.652444
▁storing	-13.825834
Unused	-13.947672
▁CBlock	-13.888388
longlong	-14.434619
Terminate	-13.849284
Exchange	-13.990704
MISS	-14.026126
fcp	-14.409474
▁California	-10.734639
tupdesc	-14.056031
Cipher	-13.892545
Outer	-13.734644
Triangle	-13.751630
▁frontend	-14.857976
▁filtered	-14.330439
Quick	-13.971309
▁clipboard	-14.465094
player	-12.382406
toc	-13.847128
ZC	-14.348832
quat	-14.245010
mss	-14.358411
▁ierr	-14.706516
Car	-13.582858
▁stereo	-14.608023
▁manually	-13.630875
▁MFP	-17.313233
sapi	-14.470124
CDB	-14.177793
otg	-14.153817
▁NSUInteger	-14.948674
ended	-14.132785
▁yyval	-15.353874
EXCHANGE	-14.127824
▁Semiconductor	-13.770798
▁CALLBACKS	-18.094371
Hide	-13.693825
▁infinite	-13.779723
▁xcccccccc	-87.804028
Checksum	-14.093526
even	-13.243792
Equals	-13.793930
▁SLCR	-16.125825
mcast	-14.295153
think	-14.723634
chart	-13.032269
▁NETIF	-14.974528
ReceivedHandler	-15.241050
▁SSC	-15.120442
Mo	-13.592039
Ranges	-13.786051
▁tabs	-14.567073
▁ftnlen	-15.772227
GIF	-14.035155
IPA	-14.054927
Cat	-13.678820
uk	-12.742348
▁synchronous	-14.149056
EFR	-14.741934
attach	-12.568448
ompletionHandler	-14.806330
▁formatted	-14.299495
▁JNIEXPORT	-13.708299
Formatter	-14.047529
Encoded	-14.080256
redo	-13.789356
FAN	-13.992449
VISION	-13.819079
NACK	-14.153013
RETURN	-11.227768
EW	-13.868747
▁twice	-12.998293
Vm	-14.228737
mpu	-14.228872
▁nvmf	-16.061809
Wasm	-14.028921
cff	-14.342056
STRIDE	-14.365998
▁FromLong	-21.281478
Initialized	-13.790370
▁attention	-12.819152
Chan	-13.913041
Writes	-14.026212
▁filtering	-13.894272
DISABLE	-11.808573
▁ECMA	-14.609379
cover	-13.588818
FIR	-14.254038
PREV	-14.167934
▁libinput	-14.610161
▁prototypes	-13.716678
SEPARATE	-14.215998
▁residual	-14.295215
▁dapm	-16.763248
decrement	-14.811286
APC	-14.230723
▁remarks	-14.363401
PDO	-14.164426
▁truncated	-14.108139
je	-12.580234
LOS	-14.082724
QE	-14.365288
▁ecx	-14.682021
▁CANT	-16.869494
mcu	-14.325575
Js	-14.116379
Needed	-13.893754
SharedPtr	-14.140782
FOR	-11.865359
cef	-14.346159
RDS	-14.491855
Agg	-14.024990
KE	-13.261926
Possible	-14.467092
SHM	-14.159120
sqr	-14.421571
IAR	-14.353446
▁EPWM	-15.187503
CLSID	-14.382506
Debugger	-13.889919
kd	-14.191629
tcl	-14.290216
▁CBigNum	-14.307546
▁GxB	-15.061202
▁dequeue	-15.028136
▁sand	-14.110080
▁GLchar	-14.493282
Barrier	-13.840714
▁reflect	-13.784123
▁LFB	-16.869710
Vert	-13.896211
DISC	-13.188440
lic	-12.538655
Serializer	-13.843840
▁aborted	-14.314087
macro	-11.985052
Dispatcher	-13.904270
Led	-14.352003
Neg	-13.949202
▁GenericClass	-17.959195
datetime	-14.161999
OVF	-14.420013
DCB	-14.447605
Reading	-14.149938
gv	-14.227877
AADC	-14.909109
roots	-14.255513
▁enables	-13.740262
▁vrf	-15.516177
▁subtree	-14.723911
GLES	-14.000457
▁GetProcessHeap	-15.503492
Mix	-14.090795
spacing	-14.334294
▁cij	-14.290042
GetType	-14.138779
▁WANT	-15.128326
▁VkResult	-14.090249
ips	-13.617140
Matches	-14.087333
▁breakpoint	-14.566611
Vertices	-14.143456
▁suppress	-14.148680
PORTS	-13.947789
▁MonoMethod	-14.598753
procs	-14.199047
▁kept	-12.820158
broker	-14.523515
UNDER	-13.834399
WG	-14.113089
▁setsockopt	-15.457522
mdev	-14.223770
▁XMM	-15.777275
intrinsic	-14.538655
Mailbox	-14.410296
▁COMPILING	-16.811639
▁LPCSTR	-14.613536
Chart	-13.795697
RENDERBUFFER	-14.049441
▁sst	-15.232776
▁AOM	-14.446090
▁pNew	-14.592660
TN	-13.733801
gcm	-14.399776
Cl	-13.925872
NUMERIC	-14.136399
▁CHROME	-14.700247
bsd	-14.024560
Absolute	-13.727637
▁RCT	-15.162660
EXTRACT	-14.587040
Tf	-14.149022
▁vehicle	-12.885974
▁allocations	-14.062607
Dr	-13.223982
PROPS	-14.437302
BORDER	-14.223176
TPC	-14.339058
▁SEE	-14.125407
cart	-14.071475
▁verbatim	-15.744018
▁ahd	-15.536118
FSR	-14.715160
Joystick	-14.090694
Img	-14.180489
quo	-14.549319
latch	-14.021990
kn	-13.810379
▁updating	-13.863306
door	-13.650731
Defined	-14.011379
committed	-14.572317
While	-14.175994
Cols	-13.963950
▁MCA	-14.246979
Sw	-14.081712
MAPPING	-14.230007
▁MCO	-16.274700
configUSE	-14.139038
▁ecount	-15.980664
PROTECT	-13.918858
SNMP	-14.723532
▁xbfff	-87.804028
eNB	-14.640452
FEATURES	-14.087349
clusters	-14.571757
Ice	-14.103334
Resp	-14.250752
Projection	-13.943771
Quantum	-13.872901
ROT	-14.127510
COMMIT	-13.910656
partition	-12.665834
closure	-12.608387
big	-12.317494
cwd	-14.138414
chat	-13.796110
EQAN	-14.658802
▁saddr	-15.569725
▁NSMutable	-14.492100
crypto	-12.398324
▁kmem	-14.821088
transfer	-12.507254
ris	-13.141572
outbuf	-14.169086
DPI	-14.222404
digits	-13.388944
▁cpustate	-16.030108
Recursive	-13.950601
▁glDelete	-14.847147
modem	-14.635605
wid	-14.146412
GetNext	-14.122994
qui	-13.525936
rela	-14.062186
peer	-12.082839
▁INVALC	-26.183573
traceback	-14.114683
BIP	-14.266411
Lambda	-13.793923
▁uninitialized	-14.358363
ending	-13.714945
▁EBUSY	-15.597769
▁evaluated	-13.651697
HDC	-14.018300
▁transfers	-13.644714
OW	-14.071627
PRIMITIVE	-14.314740
▁sParam	-15.536580
RTOS	-13.540740
cqe	-14.543507
▁regBuiltin	-87.804028
SGI	-14.182351
▁cpuid	-15.178196
▁xsi	-14.390457
▁ehci	-15.329861
binfo	-14.729224
vtx	-14.252505
show	-11.673582
eo	-12.807078
rewind	-14.111808
▁QLA	-14.756048
Loaded	-13.835588
pay	-12.229880
▁vfloat	-15.187001
▁uip	-14.665892
▁CMSIS	-14.327707
mcp	-14.331331
▁tmpreg	-14.450825
html	-11.536784
▁kHz	-15.012446
▁aren	-13.339255
▁NSDate	-14.622090
Ap	-13.508959
ano	-13.142654
ECB	-14.368625
SendMessage	-14.314904
▁LPVOID	-14.443360
PERM	-13.658194
Too	-13.819122
▁BKP	-15.782810
▁hadc	-15.204319
guess	-14.654575
sqlite	-12.502768
▁decision	-12.245284
udc	-14.289710
MUTE	-14.562130
Dimensions	-13.778964
MATERIAL	-14.150768
▁IWDG	-15.050560
segs	-14.259224
▁PORTA	-15.313816
column	-12.148788
lldb	-14.090927
▁Cmm	-15.319748
condition	-12.519870
MetaData	-14.086768
CERTIFICATE	-14.234744
jobs	-14.351068
HISTORY	-14.122077
Mapped	-13.989557
semantics	-15.661709
lid	-13.893384
Redis	-13.792679
datalen	-14.110212
▁UNLIKELY	-17.454667
▁Anum	-15.293647
feature	-12.614758
GRID	-14.185106
▁issues	-11.988011
▁plaintext	-14.708780
Encrypt	-14.116763
tmpl	-14.071832
▁callee	-14.698761
Indent	-14.028777
non	-10.964318
Trust	-14.099001
Precision	-13.929674
SYMBOL	-12.152346
▁retrieved	-13.887007
▁milvus	-16.888053
DIALOG	-13.818751
carrier	-14.193472
QUAL	-14.375669
▁bignum	-14.785407
▁IEnum	-14.321757
SYNTAX	-14.084397
HOT	-13.630606
SLOW	-14.128563
gos	-13.925954
atoms	-14.504994
▁PyMem	-14.257867
EZ	-13.755758
pB	-13.880758
FILT	-14.643253
eye	-13.740852
invocation	-15.183912
UTC	-13.550077
Coins	-13.867632
iov	-12.906417
StringInfo	-13.648736
KILL	-14.090804
▁respect	-12.806802
als	-12.720369
▁opening	-12.770511
LX	-13.781533
SERV	-14.044580
Sun	-14.000786
▁TCPIP	-14.850141
LCDC	-15.057056
SSA	-14.126605
adapt	-12.202968
ATE	-13.352773
▁iostream	-17.047579
ries	-13.044237
Sha	-13.900823
rtm	-14.532737
Parm	-14.259618
▁XEvent	-15.515721
spr	-14.071279
Logic	-13.612820
▁colormap	-14.905057
MINI	-14.114267
Wake	-14.422717
MISMATCH	-14.196424
▁inplace	-15.775101
▁afs	-14.565796
subst	-14.364337
Lit	-13.609213
DOS	-13.394358
EFFECT	-14.104402
COMMENT	-14.029444
shot	-12.712327
dbl	-14.244568
▁LSE	-15.550115
ppendPQExpBuffer	-14.384903
ency	-13.760288
msa	-14.437831
segment	-12.435292
Records	-13.884434
MEDIUM	-14.141202
more	-12.294860
▁MYSQL	-14.493616
purge	-14.260462
mpl	-13.789098
finite	-14.226049
PROCESSOR	-13.925328
FOG	-14.234360
▁asynchronous	-13.965395
▁FALLTHROUGH	-14.688251
SYNTH	-14.829904
ima	-13.311552
atan	-13.924340
Separate	-14.326079
▁newval	-15.011938
▁HFPERCLKDIV	-17.962028
▁sends	-13.774869
putchar	-13.823963
leak	-14.794079
addrlen	-14.104789
▁libraries	-13.165621
▁kGTLR	-14.237567
Pic	-14.239303
AUD	-14.102562
za	-12.721239
▁validity	-13.939398
aliases	-14.588148
uw	-14.069195
METADATA	-14.196109
Keyword	-14.043825
▁srs	-16.282223
lookup	-12.282479
Simp	-15.490326
▁saving	-13.780637
Mean	-14.239226
▁reasons	-12.689816
Both	-14.609188
VN	-14.151191
ions	-12.876386
Eb	-13.816207
Stroke	-13.841129
Evaluate	-14.695012
PARTIAL	-14.163941
ste	-13.421918
▁epu	-19.230820
Removed	-14.023437
nas	-13.493764
▁STDC	-15.415899
FALL	-13.280579
ADJ	-14.168523
▁umock	-14.810081
Lazy	-13.948398
uttx	-14.098473
ned	-13.233450
mos	-13.315612
vers	-13.652400
rex	-14.205100
conc	-14.824477
▁kmalloc	-14.467538
▁logs	-13.938978
▁Microchip	-13.829617
asc	-14.019885
Po	-13.689426
hk	-14.150887
▁oscillator	-14.240141
Street	-14.831534
nsp	-14.352637
Cube	-13.796424
▁dpm	-16.412004
aac	-14.526640
▁shost	-16.055828
▁timezone	-14.608920
▁expires	-14.601541
TreeNode	-14.205364
OCTET	-14.306170
▁DCDC	-15.772394
▁directive	-14.130537
Periph	-14.390888
ZE	-12.975388
reclaim	-14.663986
▁GPIOTE	-14.609578
tune	-14.008123
▁beyond	-12.726664
▁WPS	-15.432909
blit	-14.191447
POSSEL	-15.624469
persist	-13.666233
▁UNAVAILABLE	-17.524368
Lane	-14.183647
▁abuf	-14.473818
CONDITION	-13.852043
▁exported	-14.077751
Specification	-13.875818
inode	-11.829485
▁SPIM	-15.475655
▁CWallet	-14.266315
priority	-12.653678
Scratch	-13.825637
Requires	-13.931068
Universal	-14.074129
static	-10.347322
▁portion	-12.998611
closureN	-14.680312
epoll	-14.251591
▁prefer	-13.743305
ACM	-14.032177
▁tested	-13.360913
▁sessions	-13.655672
NFA	-13.988777
ful	-12.708868
CopyFrom	-13.842679
▁oldest	-13.476064
saxpy	-14.523290
checker	-14.048849
gyro	-14.809707
▁decide	-13.340544
scsi	-12.924898
Masternode	-13.927263
typmod	-14.195539
ResultType	-14.157750
DOCUMENT	-14.302137
DY	-13.943756
▁potential	-12.455121
▁incx	-15.048735
▁sreg	-16.127975
Offsets	-14.197159
▁jclass	-14.402699
xm	-14.151928
Colors	-13.582920
Generation	-14.169265
QL	-14.023182
polynomial	-15.007702
Hal	-13.938754
ific	-14.916055
▁sexp	-15.049403
FH	-14.260879
ann	-13.776894
Energy	-14.096079
▁PyType	-15.252605
▁rend	-15.508044
Perf	-14.126001
EVCTRL	-15.318864
Clamp	-14.101765
BAD	-12.166385
DIRECTORY	-14.171514
vap	-14.547562
xmin	-14.194642
▁OAI	-14.153096
▁slist	-15.844139
▁comes	-12.361006
ewGetProcAddress	-15.061798
▁ssc	-15.381639
bearer	-14.140182
STP	-14.336166
Convolution	-14.016377
SPARSE	-14.202621
UIViewController	-13.823989
▁wparam	-16.145842
RefCount	-13.925371
▁Kevin	-12.789644
scl	-14.367062
weston	-14.215817
NOTIFICATION	-14.184052
SRGB	-14.327812
CSD	-14.464298
▁SetLastError	-13.878933
▁thrown	-13.490642
▁litest	-15.993890
▁vkCmd	-15.260385
▁attempts	-13.284021
▁succeed	-13.757764
FEATURE	-12.375616
▁PROGMEM	-14.346007
▁dtls	-14.905414
AGE	-13.466744
CENTER	-14.084903
Gateway	-13.801330
Gate	-14.206159
bsp	-14.282566
often	-15.246743
HDF	-14.270690
▁Gating	-14.003579
Foreign	-13.809419
tone	-13.455276
codec	-12.412816
ransformFeedback	-14.356377
▁reduced	-12.970829
▁PMIC	-15.486607
cutoff	-14.817943
TableView	-14.297778
Requests	-13.933935
BaseAddress	-14.238755
LEX	-13.981846
▁restrictions	-13.281944
▁accumulator	-14.317210
▁XCVR	-15.620644
▁APLOG	-15.460710
IFIED	-13.702970
GetName	-14.112969
xxxx	-14.836319
▁CAPI	-14.652254
▁safely	-13.863428
Reload	-14.075889
STICK	-14.318494
▁newnode	-14.048626
but	-12.382187
▁endptr	-15.806372
▁equation	-13.239567
inject	-14.207943
eed	-13.626712
MenuItem	-13.964625
Sh	-13.911405
Promise	-13.551752
Geom	-14.150184
comment	-12.801446
Dims	-14.313913
▁FLA	-14.639329
ets	-13.005837
Parity	-14.328713
Lists	-13.718934
▁DOXYGEN	-15.159520
▁PLLSAI	-16.170062
tss	-14.497849
Hand	-14.075310
▁TCPWM	-16.009821
STRIP	-14.277142
Phi	-13.728295
Explicit	-14.095357
▁wanted	-12.496601
ByName	-14.176743
glSecondaryColor	-14.416491
▁VISIT	-14.823611
hits	-14.495463
DNA	-13.513294
▁CInput	-17.318759
▁singleton	-14.468514
PREP	-14.108696
crit	-13.826771
▁numa	-15.367696
PLT	-14.298927
▁architecture	-11.872604
DON	-13.863443
bz	-14.181566
SAMPLES	-14.237865
Saved	-13.955086
PPROTO	-14.153829
▁regarding	-12.630164
Tbl	-14.211891
What	-11.921702
▁endp	-15.293848
▁unbox	-16.479405
▁emsg	-15.160776
▁ahc	-15.561113
▁forIn	-20.933101
PASSWORD	-14.203051
HARDWARE	-14.295524
▁pointing	-13.743160
Paths	-14.002104
include	-8.067696
Visibility	-13.900494
ATOR	-13.706805
QA	-14.341460
▁bitset	-14.998368
▁strtok	-14.573675
ach	-13.088035
BLINK	-14.255293
Arrow	-14.036051
ARCHIVE	-14.052487
dcb	-14.456332
FOCUS	-14.153320
CDR	-14.506762
vga	-14.231537
PUB	-14.303280
IZATION	-13.753807
▁matter	-12.287294
▁whenever	-13.566796
CLOSED	-14.124947
printing	-15.256084
Gfx	-14.230280
YA	-13.778821
▁MXC	-15.203160
Ma	-13.408968
Publish	-13.993247
RLC	-14.523020
▁PINCTRL	-17.775648
irectDrawSurface	-14.677574
DFU	-14.315331
report	-11.677258
▁pfree	-16.294727
Manual	-14.566745
ImageFilter	-13.992256
▁SmallVector	-14.438397
Expect	-13.915027
Fi	-13.437985
▁skel	-16.477017
▁iio	-14.818516
▁pP	-16.136135
Globals	-13.965265
▁pParse	-15.370900
SETTING	-14.273038
cop	-13.556107
▁nStates	-16.742448
NamedFramebuffer	-14.386266
ward	-12.917710
▁pState	-15.028503
tracks	-13.722082
SEP	-14.187423
▁IMPLEMENT	-14.171820
▁ITM	-15.417019
dce	-14.530109
Escape	-13.524094
regexp	-14.426020
Act	-13.784758
XI	-13.568813
pvt	-14.440749
irp	-14.350065
Ins	-13.736120
eal	-13.885912
▁DCH	-15.098292
▁boundaries	-13.432941
DRAM	-14.352640
▁primitives	-14.839559
PROJECT	-14.449929
▁commandBuffer	-14.595450
texture	-11.846536
Conflict	-13.788290
▁superclass	-13.825757
els	-13.186180
Di	-13.478187
Temperature	-13.840388
▁smu	-15.454350
ebp	-14.504028
▁CGSize	-15.008452
▁NVMCTRL	-15.518804
slices	-14.577596
Hidden	-13.608449
BUFSIZE	-14.150521
spline	-14.871942
MBC	-13.810997
▁socklen	-14.497216
▁CHPRI	-18.031328
AVAIL	-12.779275
qspi	-14.488583
Loading	-13.479054
▁earlier	-12.613469
▁WRONG	-16.076003
▁nthreads	-14.023741
thermal	-14.372957
encoding	-12.387738
▁SPA	-14.676736
PRECISION	-14.282024
▁outlen	-14.870904
CLKDIV	-14.558884
NSS	-14.222670
tos	-13.383821
nth	-14.281129
COS	-14.271634
Priv	-14.027234
▁DType	-14.584292
▁guarantee	-13.614484
BRANCH	-14.356146
TTL	-14.208534
▁GPIOB	-15.345224
rte	-12.620120
▁InvalidOid	-14.033309
XLog	-13.387932
lli	-14.078846
msc	-14.365326
allocate	-12.885355
▁STRONG	-17.445856
Zoom	-13.819324
CCA	-14.191695
▁NTI	-15.280105
cntl	-13.166236
Yes	-12.560391
typeid	-14.450482
roi	-14.184829
▁IHTML	-15.277748
MCI	-14.184393
EMBER	-14.196084
▁memviewslice	-16.082089
chg	-14.400993
▁rehashe	-20.076729
combo	-14.434344
release	-11.335441
DSL	-14.344209
contig	-14.735563
Interlocked	-14.280504
Mapper	-13.840199
▁helpers	-14.203725
▁CharT	-14.922898
▁ecb	-16.004363
Develop	-14.963393
COST	-14.630388
▁hierarchy	-13.932963
▁agreement	-12.658011
Times	-13.769609
▁HANDSHAKE	-16.960659
▁bail	-13.285798
Words	-13.924773
SUITE	-14.165190
▁pNode	-14.802180
MW	-14.115162
Dbg	-14.278473
Ni	-13.930471
▁devm	-14.657506
▁endpoints	-14.340840
Efi	-13.591025
▁fsl	-15.098063
ALLOCATOR	-14.136537
▁mappings	-14.317891
QUOTE	-14.070262
ZONA	-17.029545
Dataset	-14.018366
Coder	-13.733356
enge	-15.543059
▁GLvoid	-14.601178
Under	-13.617425
▁backing	-12.687422
Ac	-13.863759
LINES	-14.026880
Org	-14.137123
▁ensures	-13.754214
▁PORTC	-15.311761
Swift	-14.384846
Ts	-13.638328
▁filp	-15.656463
▁derive	-14.398943
▁accessing	-13.942626
frozen	-14.314260
Imp	-14.312512
Drawable	-14.115985
PTC	-14.720485
bins	-14.499141
▁FUNCNAME	-14.989460
FieldNumber	-13.962993
CONCAT	-14.572457
Vdbe	-14.297746
▁pCur	-15.120055
member	-12.258205
▁delimiter	-14.302858
ClassName	-14.015505
SAME	-14.326112
cts	-14.184383
Indicator	-13.836642
Tools	-13.308883
▁bitwise	-14.400210
▁VkImage	-14.223167
RESUME	-14.221964
sequence	-12.260427
TRUST	-14.259676
Mini	-14.264506
Vehicle	-14.156318
▁bufSize	-14.698620
Protect	-14.114990
rol	-13.923786
▁describes	-13.234940
SWREQ	-15.978333
BEA	-14.266674
▁SEXP	-14.629849
▁AIF	-16.372860
▁fiat	-14.562339
Plot	-13.824019
HashMap	-14.023495
Wo	-14.894668
Drawing	-14.060513
QU	-14.668916
cfb	-14.603553
corr	-14.263671
fk	-14.330452
LATENCY	-14.498719
lck	-14.308397
▁minimal	-13.692983
Al	-13.038401
Traceback	-14.606599
Extent	-14.070516
Bone	-14.229184
▁HDA	-15.062949
▁tparam	-19.846874
Bo	-13.702244
▁escaped	-13.925508
CIM	-14.232655
Blueprint	-14.020617
SDMA	-14.682167
▁ioaddr	-15.304965
Circle	-13.976756
▁constructed	-13.177044
▁PyMethod	-14.957821
▁peers	-13.935810
Para	-13.956588
Fire	-13.744417
▁svm	-15.253839
HALT	-14.558416
▁RDONLY	-18.708053
yb	-14.018005
▁INTRINS	-15.839890
Nr	-14.278456
ning	-13.000748
TINY	-13.969161
vh	-14.067035
IU	-14.115281
receive	-12.496836
▁PERL	-14.320931
▁RelationGet	-14.646573
▁training	-12.330237
▁affect	-13.322092
expand	-12.882050
PublicKey	-14.257260
minor	-12.815433
dia	-13.167652
▁MspInit	-15.878076
▁complain	-14.397456
ode	-13.241370
Ra	-13.829315
IndexType	-14.143424
mal	-13.193676
ALLOCATION	-14.330753
fly	-13.840913
AGENT	-14.368265
Raster	-14.137901
NDR	-14.365240
GDK	-14.361068
lWindowPos	-15.065528
Rot	-14.436482
lot	-13.780117
agged	-15.072825
lish	-14.581460
▁encap	-15.888334
▁compose	-14.839196
Recovery	-13.981091
▁brightness	-14.554187
▁endverbatim	-87.804028
▁Cef	-14.467711
▁codegen	-15.276500
DESTROY	-14.084373
NOW	-13.622710
▁ethernet	-14.686511
▁separated	-13.564303
compos	-15.764782
chall	-16.279498
▁substring	-14.586911
▁spu	-15.156557
▁TXB	-14.943356
syms	-14.195872
▁CHUSEBURST	-18.085186
rice	-14.631898
Bulk	-13.971424
Tables	-13.983416
BLT	-14.474333
Hot	-13.706726
tpm	-14.406996
warp	-14.366392
▁NOPULL	-31.129113
▁efm	-16.050388
▁daos	-15.158277
getattr	-14.062357
▁wpas	-14.915788
▁gadget	-16.083213
yuv	-14.504322
▁unreachable	-14.863791
▁cups	-13.562901
▁bootstrap	-14.576348
integration	-14.757086
dres	-14.642778
GLOBAL	-12.419387
zp	-14.471809
▁hsize	-14.995821
surface	-12.145720
▁Portions	-14.304086
Hold	-14.265369
termios	-14.228128
opus	-13.717974
▁opcodes	-14.810929
RENDERER	-14.379680
▁isspace	-15.590248
▁disconnected	-14.359972
runner	-13.784514
ARY	-13.213431
FRM	-14.570891
Suspend	-14.056538
▁luma	-15.333656
nni	-14.122195
▁LAPACKE	-14.633174
Gu	-14.255558
prune	-14.750638
cad	-14.435017
FileInfo	-14.104438
SMT	-14.316168
▁setzero	-20.549828
DSC	-14.311271
PALETTE	-14.282546
VERT	-14.292470
LPI	-14.855805
▁pixs	-15.442249
remove	-11.421852
▁opj	-14.771468
che	-12.449238
bid	-14.005274
uVar	-14.236252
STAR	-13.276011
▁semantic	-14.259860
Compact	-13.767926
Inf	-14.123324
▁sanity	-14.109338
Subject	-14.174187
MDI	-14.499371
clnt	-14.389659
inq	-14.227901
▁pFile	-14.916023
Rules	-13.866789
AFE	-14.423624
OEM	-14.017656
Neighbor	-13.921219
REVERSE	-14.270188
ANIM	-14.496550
KL	-13.846205
emac	-14.587955
▁JERRY	-14.574752
▁ListCell	-16.544654
mpfr	-14.509135
▁trampoline	-14.987188
reorder	-14.515682
▁LFCLKSEL	-18.229727
▁construction	-12.333609
vu	-13.959376
▁getNum	-14.595965
hut	-14.805190
keymap	-14.439209
dash	-13.738619
STATIC	-12.115838
▁pdw	-15.673937
▁ibuf	-15.229904
▁looks	-12.630081
presence	-14.934856
▁coverage	-13.111243
MDRV	-14.181960
cmnd	-14.444568
Pe	-14.127084
▁daddr	-15.700398
vic	-13.906827
▁CyFunction	-21.372266
wheel	-13.677042
▁knl	-16.823394
ym	-13.750105
KMS	-14.500019
Xid	-14.252869
vir	-13.513035
MPS	-14.162536
Latency	-14.306641
rsv	-14.214590
BEFORE	-14.350442
ett	-13.303923
Rhs	-14.497505
▁retVal	-14.342794
▁finally	-12.596549
Grow	-14.127923
Peers	-14.624349
▁DID	-15.283509
▁dylib	-17.226635
▁skill	-14.339921
▁efficient	-13.411246
Misc	-13.839712
▁country	-11.711317
ACTIVATE	-14.382608
Beacon	-14.000955
BOR	-13.586133
DLY	-14.777686
NH	-14.246088
▁fseek	-14.842472
HKEY	-14.167687
Closed	-13.626298
▁AVERROR	-13.679303
inch	-13.393200
ygard	-15.030761
wrk	-14.489457
Prototype	-13.933171
▁BSLS	-14.445931
Included	-15.047853
Streaming	-13.890470
▁MICROCHIP	-14.270902
▁funcname	-15.621523
▁FMOD	-15.247686
▁pDevice	-15.147569
Slots	-14.195080
ArrayType	-14.163587
FunctionType	-14.151488
generate	-12.530042
found	-11.757544
izer	-13.113040
destroy	-11.383136
Acceleration	-14.303600
RDWR	-14.468156
▁clicked	-14.636655
▁TCHAR	-14.717736
ADVANCE	-14.164119
Ping	-14.087640
effect	-13.022068
▁particles	-13.774760
▁moment	-12.569438
hosts	-14.363683
LCK	-14.584613
Acl	-14.028581
Reserve	-14.209479
▁lfs	-15.112800
pcr	-14.494478
LANE	-14.623036
OOB	-14.403254
realm	-14.485616
PROPERTIES	-14.271543
▁Bradley	-13.625969
▁remember	-12.949707
zl	-14.038718
compare	-12.413555
▁unpacklo	-19.866609
▁outstanding	-13.748641
stg	-14.376994
Invert	-14.436372
rz	-13.884516
IST	-13.667133
Dyn	-14.215906
REMAP	-14.667109
PAGES	-14.338715
ffc	-14.475978
mut	-13.642429
▁pObj	-14.996637
dfa	-14.624342
RAD	-14.416301
orth	-14.404081
▁ASSEMBLY	-16.739928
Tls	-14.302906
Drv	-14.368251
Gap	-14.311112
▁pcre	-14.924592
Subroutine	-14.361077
DSO	-14.342101
REGISTER	-12.292409
DIE	-13.598355
Started	-13.858069
▁strlcpy	-15.745588
▁dwError	-14.462731
BYPASS	-14.574244
▁qed	-14.799619
Filters	-14.032446
▁dynamically	-13.899625
▁specialization	-14.016183
tySequence	-14.919925
SRP	-14.250066
▁wolfSSL	-14.467248
Motor	-14.343059
tpl	-14.491552
Translation	-14.130856
Sci	-14.947871
rocksdb	-14.264993
▁figure	-12.828015
▁TRNG	-15.413774
Until	-14.011457
Gx	-15.087048
▁sint	-15.565769
▁WREG	-17.412100
ARROW	-14.068206
bufp	-14.256986
rsp	-12.801063
▁belongs	-13.576619
▁determines	-13.867665
zs	-13.992914
LOCALE	-14.204166
MSS	-14.407719
▁idea	-12.394894
InputStream	-13.880966
CLS	-14.344921
wish	-15.095480
lusion	-14.531790
▁pZip	-15.943718
Iterate	-14.155774
Fl	-13.944313
▁objv	-14.810012
Deep	-14.190185
▁DTCTRL	-18.936009
SDP	-14.259054
ren	-13.435426
NIF	-14.302164
INVERT	-14.394251
arith	-14.274659
▁exts	-15.968537
Pixmap	-14.217458
EventType	-14.075154
watcher	-14.293189
▁smi	-15.053654
▁SMPR	-17.486788
Edges	-14.247523
ETHER	-14.058972
Decrement	-14.141896
WPARAM	-14.448997
PARA	-13.923666
UNUSED	-11.798468
▁VkCommandBuffer	-14.879523
Utf	-14.221120
bsl	-14.120644
▁backwards	-13.943546
Critical	-13.937144
▁HFILL	-14.047791
Lost	-13.654067
SAL	-14.330120
MAPPED	-14.441294
FRAC	-14.660216
cand	-14.616179
▁nvim	-16.663934
mpeg	-14.408883
▁ocp	-15.848862
▁ffffffd	-87.804028
▁magma	-14.079080
▁kStatus	-14.236711
ton	-11.733642
fetch	-12.331232
▁CREAT	-16.604107
▁PERIPHERAL	-16.199517
▁affected	-13.178219
RTP	-14.264300
▁btc	-15.163102
RelationId	-14.071371
▁say	-11.674874
▁subquery	-15.016398
elf	-12.813140
PCB	-14.293399
▁convolution	-14.505260
▁describing	-13.602838
Classes	-13.577388
Sta	-14.267280
Typed	-14.237409
▁suspended	-13.684983
yr	-13.473220
photo	-13.966910
▁offer	-12.846031
les	-12.439500
▁getName	-14.575555
▁transferred	-13.157760
CAUSE	-14.698971
ICBOF	-15.637060
▁cstring	-15.757230
▁SST	-14.859557
elambda	-15.095211
RasterPos	-14.485275
NOTIMPL	-13.656034
▁keywords	-14.445799
▁caddr	-15.561023
ESS	-14.069091
▁swizzle	-15.356391
Deferred	-14.189226
▁xattr	-16.710608
tee	-14.000659
UNION	-14.107263
SIDL	-14.516763
▁EINTR	-14.397252
▁workaround	-14.252474
▁mojom	-15.872466
Marshal	-13.997225
▁dont	-14.154562
wrote	-14.784948
eee	-13.574008
ReadOnly	-14.122877
DescriptorProto	-14.435773
Fs	-13.865804
▁SYSCON	-15.520249
Subtract	-14.208418
▁intro	-14.608420
gfs	-14.366106
fst	-14.351559
▁jerry	-14.533254
spatial	-14.738397
▁xfree	-14.028158
blkno	-14.368405
▁LOCKS	-17.650107
CAS	-14.149250
▁DWT	-15.497289
▁rebuild	-14.360095
dof	-14.672442
▁IFORM	-18.308033
Instrument	-13.260618
ReturnType	-14.279161
▁collector	-14.097546
▁domains	-14.029171
Cu	-13.855544
▁sigaction	-14.600887
TupleDesc	-14.004102
▁recurse	-14.662236
▁Therefore	-12.941185
Rename	-14.206023
fU	-15.368233
▁accesses	-14.259786
▁subframe	-15.293369
▁pset	-15.315332
INDENT	-14.020742
▁UNITY	-14.634294
xen	-14.250527
Noise	-14.266457
▁underflow	-14.635586
DBUS	-14.397469
ground	-11.685294
▁indication	-14.117434
errstr	-14.272410
DEP	-14.029619
▁nread	-14.649883
Rsp	-14.608278
ACPI	-12.880427
eol	-13.919368
Temporary	-13.845015
TCA	-14.055643
Discard	-14.139045
aos	-14.250667
▁Ngap	-15.476225
FFF	-12.140196
▁allowing	-13.158986
rtt	-14.561380
Floating	-15.049927
UNSET	-14.287699
RCV	-14.161848
▁SetNull	-13.859451
accuracy	-14.870806
compile	-12.060473
semi	-13.884858
tiff	-14.203268
throw	-12.119030
los	-13.470574
Le	-12.112324
Gray	-13.987363
logged	-13.882267
acb	-14.640339
▁receives	-13.681156
▁FIRMWARE	-15.928940
▁TEGRA	-15.222240
Decrypt	-14.316106
ASR	-14.540449
KD	-14.159485
ire	-13.033338
ASL	-14.387519
dlg	-14.425317
▁synchronization	-14.071114
benchmark	-14.661373
▁intent	-13.390868
▁GLEXT	-17.986773
▁removing	-13.717817
reconnect	-14.771661
hg	-14.221627
▁ctypedef	-14.373060
WH	-13.938879
▁subnet	-14.778400
Initializer	-14.119781
READER	-14.235540
▁sbuf	-15.197350
STOPPED	-14.463080
▁uncompressed	-14.688384
[...]
