<unk>	0.0
<s>	0.0
</s>	0.0
<mask>	0.0
<pad>	0.0
<CLS>	0.0
<SEP>	0.0
<EOD>	0.0
▁▁▁▁▁▁▁▁▁▁▁▁▁▁▁▁▁▁▁▁▁▁▁▁	0.0
▁▁▁▁▁▁▁▁▁▁▁▁▁▁▁▁▁▁▁▁▁▁▁	0.0
▁▁▁▁▁▁▁▁▁▁▁▁▁▁▁▁▁▁▁▁▁▁	0.0
▁▁▁▁▁▁▁▁▁▁▁▁▁▁▁▁▁▁▁▁▁	0.0
▁▁▁▁▁▁▁▁▁▁▁▁▁▁▁▁▁▁▁▁	0.0
▁▁▁▁▁▁▁▁▁▁▁▁▁▁▁▁▁▁▁	0.0
▁▁▁▁▁▁▁▁▁▁▁▁▁▁▁▁▁▁	0.0
▁▁▁▁▁▁▁▁▁▁▁▁▁▁▁▁▁	0.0
▁▁▁▁▁▁▁▁▁▁▁▁▁▁▁▁	0.0
▁▁▁▁▁▁▁▁▁▁▁▁▁▁▁	0.0
▁▁▁▁▁▁▁▁▁▁▁▁▁▁	0.0
▁▁▁▁▁▁▁▁▁▁▁▁▁	0.0
▁▁▁▁▁▁▁▁▁▁▁▁	0.0
▁▁▁▁▁▁▁▁▁▁▁	0.0
▁▁▁▁▁▁▁▁▁▁	0.0
▁▁▁▁▁▁▁▁▁	0.0
▁▁▁▁▁▁▁▁	0.0
▁▁▁▁▁▁▁	0.0
▁▁▁▁▁▁	0.0
▁▁▁▁▁	0.0
▁▁▁▁	0.0
▁▁▁	0.0
▁▁	0.0
▁	0.0

	0.0
<0x00>	0.0
<0x01>	0.0
<0x02>	0.0
<0x03>	0.0
<0x04>	0.0
<0x05>	0.0
<0x06>	0.0
<0x07>	0.0
<0x08>	0.0
<0x09>	0.0
<0x0A>	0.0
<0x0B>	0.0
<0x0C>	0.0
<0x0D>	0.0
<0x0E>	0.0
<0x0F>	0.0
<0x10>	0.0
<0x11>	0.0
<0x12>	0.0
<0x13>	0.0
<0x14>	0.0
<0x15>	0.0
<0x16>	0.0
<0x17>	0.0
<0x18>	0.0
<0x19>	0.0
<0x1A>	0.0
<0x1B>	0.0
<0x1C>	0.0
<0x1D>	0.0
<0x1E>	0.0
<0x1F>	0.0
<0x20>	0.0
<0x21>	0.0
<0x22>	0.0
<0x23>	0.0
<0x24>	0.0
<0x25>	0.0
<0x26>	0.0
<0x27>	0.0
<0x28>	0.0
<0x29>	0.0
<0x2A>	0.0
<0x2B>	0.0
<0x2C>	0.0
<0x2D>	0.0
<0x2E>	0.0
<0x2F>	0.0
<0x30>	0.0
<0x31>	0.0
<0x32>	0.0
<0x33>	0.0
<0x34>	0.0
<0x35>	0.0
<0x36>	0.0
<0x37>	0.0
<0x38>	0.0
<0x39>	0.0
<0x3A>	0.0
<0x3B>	0.0
<0x3C>	0.0
<0x3D>	0.0
<0x3E>	0.0
<0x3F>	0.0
<0x40>	0.0
<0x41>	0.0
<0x42>	0.0
<0x43>	0.0
<0x44>	0.0
<0x45>	0.0
<0x46>	0.0
<0x47>	0.0
<0x48>	0.0
<0x49>	0.0
<0x4A>	0.0
<0x4B>	0.0
<0x4C>	0.0
<0x4D>	0.0
<0x4E>	0.0
<0x4F>	0.0
<0x50>	0.0
<0x51>	0.0
<0x52>	0.0
<0x53>	0.0
<0x54>	0.0
<0x55>	0.0
<0x56>	0.0
<0x57>	0.0
<0x58>	0.0
<0x59>	0.0
<0x5A>	0.0
<0x5B>	0.0
<0x5C>	0.0
<0x5D>	0.0
<0x5E>	0.0
<0x5F>	0.0
<0x60>	0.0
<0x61>	0.0
<0x62>	0.0
<0x63>	0.0
<0x64>	0.0
<0x65>	0.0
<0x66>	0.0
<0x67>	0.0
<0x68>	0.0
<0x69>	0.0
<0x6A>	0.0
<0x6B>	0.0
<0x6C>	0.0
<0x6D>	0.0
<0x6E>	0.0
<0x6F>	0.0
<0x70>	0.0
<0x71>	0.0
<0x72>	0.0
<0x73>	0.0
<0x74>	0.0
<0x75>	0.0
<0x76>	0.0
<0x77>	0.0
<0x78>	0.0
<0x79>	0.0
<0x7A>	0.0
<0x7B>	0.0
<0x7C>	0.0
<0x7D>	0.0
<0x7E>	0.0
<0x7F>	0.0
<0x80>	0.0
<0x81>	0.0
<0x82>	0.0
<0x83>	0.0
<0x84>	0.0
<0x85>	0.0
<0x86>	0.0
<0x87>	0.0
<0x88>	0.0
<0x89>	0.0
<0x8A>	0.0
<0x8B>	0.0
<0x8C>	0.0
<0x8D>	0.0
<0x8E>	0.0
<0x8F>	0.0
<0x90>	0.0
<0x91>	0.0
<0x92>	0.0
<0x93>	0.0
<0x94>	0.0
<0x95>	0.0
<0x96>	0.0
<0x97>	0.0
<0x98>	0.0
<0x99>	0.0
<0x9A>	0.0
<0x9B>	0.0
<0x9C>	0.0
<0x9D>	0.0
<0x9E>	0.0
<0x9F>	0.0
<0xA0>	0.0
<0xA1>	0.0
<0xA2>	0.0
<0xA3>	0.0
<0xA4>	0.0
<0xA5>	0.0
<0xA6>	0.0
<0xA7>	0.0
<0xA8>	0.0
<0xA9>	0.0
<0xAA>	0.0
<0xAB>	0.0
<0xAC>	0.0
<0xAD>	0.0
<0xAE>	0.0
<0xAF>	0.0
<0xB0>	0.0
<0xB1>	0.0
<0xB2>	0.0
<0xB3>	0.0
<0xB4>	0.0
<0xB5>	0.0
<0xB6>	0.0
<0xB7>	0.0
<0xB8>	0.0
<0xB9>	0.0
<0xBA>	0.0
<0xBB>	0.0
<0xBC>	0.0
<0xBD>	0.0
<0xBE>	0.0
<0xBF>	0.0
<0xC0>	0.0
<0xC1>	0.0
<0xC2>	0.0
<0xC3>	0.0
<0xC4>	0.0
<0xC5>	0.0
<0xC6>	0.0
<0xC7>	0.0
<0xC8>	0.0
<0xC9>	0.0
<0xCA>	0.0
<0xCB>	0.0
<0xCC>	0.0
<0xCD>	0.0
<0xCE>	0.0
<0xCF>	0.0
<0xD0>	0.0
<0xD1>	0.0
<0xD2>	0.0
<0xD3>	0.0
<0xD4>	0.0
<0xD5>	0.0
<0xD6>	0.0
<0xD7>	0.0
<0xD8>	0.0
<0xD9>	0.0
<0xDA>	0.0
<0xDB>	0.0
<0xDC>	0.0
<0xDD>	0.0
<0xDE>	0.0
<0xDF>	0.0
<0xE0>	0.0
<0xE1>	0.0
<0xE2>	0.0
<0xE3>	0.0
<0xE4>	0.0
<0xE5>	0.0
<0xE6>	0.0
<0xE7>	0.0
<0xE8>	0.0
<0xE9>	0.0
<0xEA>	0.0
<0xEB>	0.0
<0xEC>	0.0
<0xED>	0.0
<0xEE>	0.0
<0xEF>	0.0
<0xF0>	0.0
<0xF1>	0.0
<0xF2>	0.0
<0xF3>	0.0
<0xF4>	0.0
<0xF5>	0.0
<0xF6>	0.0
<0xF7>	0.0
<0xF8>	0.0
<0xF9>	0.0
<0xFA>	0.0
<0xFB>	0.0
<0xFC>	0.0
<0xFD>	0.0
<0xFE>	0.0
<0xFF>	0.0
0	-5.806735
1	-5.647027
2	-5.926746
▁x	-9.618273
3	-6.465873
4	-6.649467
6	-6.736373
8	-6.704759
5	-6.811452
7	-6.990606
s	-6.981189
▁the	-6.483743
9	-6.570207
▁if	-8.410699
▁t	-10.675658
▁define	-12.974298
▁int	-7.877502
▁const	-8.394165
▁return	-8.261529
▁void	-7.833129
▁a	-7.784217
▁to	-7.167167
▁i	-9.197356
d	-8.332848
▁is	-7.607351
▁of	-6.677040
▁for	-7.671294
▁struct	-8.754097
S	-8.610284
▁n	-10.073226
▁in	-7.029460
▁h	-11.613835
▁c	-9.928940
▁p	-9.767617
D	-8.682759
▁static	-8.010845
▁f	-10.610113
▁NULL	-8.447256
▁uint	-9.487195
r	-8.938760
A	-8.911797
▁char	-8.944715
▁and	-7.061489
▁include	-12.677474
C	-8.668048
▁b	-10.115136
▁get	-9.781199
p	-8.237728
▁m	-9.472469
▁else	-8.573034
▁data	-9.632191
▁size	-9.776899
▁value	-9.431052
X	-9.331213
P	-9.240124
▁this	-8.475330
I	-9.258277
▁case	-9.706317
▁endif	-10.777134
▁set	-9.720451
▁u	-10.636704
R	-9.396568
L	-9.323388
▁unsigned	-9.352450
▁be	-8.491666
▁type	-10.175020
▁v	-10.025688
▁bool	-9.273808
y	-9.073816
▁lean	-9.343396
x	-7.205008
▁std	-10.006562
▁C	-9.506604
n	-8.134592
T	-9.094782
▁e	-10.611987
M	-9.471433
i	-8.405464
e	-9.232540
F	-9.108234
t	-7.865710
▁object	-10.603481
▁T	-9.457534
▁break	-9.734956
▁The	-7.957382
E	-9.171349
f	-8.256052
▁param	-13.921297
▁that	-8.221032
ed	-8.731260
▁This	-9.230414
ID	-9.534402
Type	-9.292522
▁error	-9.889851
V	-9.706458
▁not	-8.723170
B	-9.072358
Get	-9.677721
▁with	-8.306021
▁pyx	-19.098933
▁string	-10.863974
c	-8.565009
▁from	-8.091920
▁class	-8.925379
▁by	-8.207385
▁sizeof	-9.969851
▁name	-10.187125
N	-9.864734
v	-9.099925
▁file	-9.719883
Set	-9.807588
▁or	-8.749363
▁id	-11.606137
name	-8.770018
▁new	-9.675712
id	-8.835258
▁ret	-9.890779
a	-8.882390
G	-9.816693
U	-9.337311
▁it	-8.680124
▁arg	-11.991908
ing	-8.946061
▁long	-9.752973
▁k	-10.451274
▁g	-10.649140
▁F	-10.031080
q	-9.985452
▁state	-10.360696
▁on	-8.314626
o	-9.873729
▁xff	-19.835368
▁index	-10.635445
▁U	-10.309354
▁typedef	-9.110313
W	-9.907769
▁H	-10.404358
▁buffer	-10.510791
l	-9.691951
size	-8.733787
u	-8.906911
Data	-9.695055
type	-8.655867
▁j	-10.713589
▁we	-9.353636
len	-9.305724
▁dev	-12.613429
▁out	-9.544708
▁result	-10.096281
H	-8.985019
▁are	-8.720927
▁float	-10.698251
er	-9.593119
▁key	-10.610763
▁double	-10.435195
▁B	-9.881690
▁function	-9.734644
▁inline	-9.727043
▁as	-8.357222
▁l	-10.541027
list	-9.471873
▁device	-10.802325
▁E	-10.024188
▁free	-10.825135
data	-8.771781
info	-9.382351
▁len	-10.928927
▁status	-10.494304
▁an	-9.151857
▁code	-10.264850
▁defined	-10.136748
▁goto	-10.786241
b	-8.912527
▁xFF	-22.362115
▁use	-9.770960
▁read	-10.852908
▁info	-11.861547
in	-8.972857
buf	-9.486803
or	-9.863655
▁true	-9.618503
▁flags	-11.029793
▁init	-12.123678
▁public	-8.685559
▁node	-10.977276
▁false	-9.608119
▁offset	-11.013144
▁can	-9.295294
▁mode	-10.666699
▁start	-10.857979
K	-10.049351
▁GL	-10.279932
▁virtual	-10.112626
Q	-10.138881
▁extern	-9.737261
▁end	-10.727950
▁ifndef	-13.265674
▁ctx	-12.177950
▁OF	-10.035410
m	-8.968757
O	-10.159326
▁ifdef	-12.505955
▁ptr	-12.788833
▁num	-11.217091
▁at	-8.604269
▁MAX	-12.309024
Info	-9.979220
Z	-10.202799
▁list	-10.223915
▁default	-10.441018
Value	-9.923479
▁next	-10.789027
▁add	-11.108604
▁will	-9.435459
▁buf	-11.492407
▁used	-9.762789
▁has	-9.406070
ptr	-9.463636
▁base	-11.023512
▁err	-10.305844
▁write	-11.205078
▁License	-9.839719
▁context	-11.143799
▁CONFIG	-10.970819
▁typename	-10.871222
Name	-9.856708
Y	-10.387000
String	-9.747765
▁ERROR	-13.334673
▁input	-10.701890
h	-7.843932
Size	-10.117073
▁number	-9.982948
▁bit	-10.869871
▁src	-11.286575
▁brief	-13.092676
▁count	-11.083423
w	-9.700572
set	-8.829616
▁length	-10.912352
In	-10.138497
k	-9.390435
▁DEFAULT	-12.328008
▁current	-10.499865
▁template	-9.939734
API	-9.985420
▁tmp	-11.260323
▁output	-10.765036
▁max	-11.126111
▁w	-11.178167
pos	-10.226269
▁test	-10.693925
▁all	-9.440300
▁OR	-10.216920
List	-9.915711
CTRL	-10.998371
▁entry	-11.253960
CH	-11.065257
str	-9.599875
▁handle	-11.142762
Id	-10.178481
State	-10.058794
▁vector	-11.839029
▁while	-10.202551
▁event	-10.964090
▁GPIO	-11.533192
▁copy	-10.559926
▁IS	-11.005377
▁addr	-12.370657
TYPE	-9.731063
Object	-9.962223
▁property	-12.125844
▁port	-11.573438
▁UL	-16.710233
Mode	-10.541255
▁array	-11.097670
▁block	-10.797201
To	-10.178619
▁If	-10.001524
▁check	-10.814028
EN	-10.812880
▁IN	-10.617961
▁first	-9.769148
▁address	-10.772633
▁namespace	-9.319493
out	-9.469851
▁THE	-10.085244
▁must	-10.091215
▁have	-9.160067
▁NO	-11.655719
▁PyObject	-10.504044
file	-9.669827
▁lock	-12.438397
Index	-10.339571
▁source	-10.509998
Error	-10.164443
▁time	-9.963381
val	-9.550070
Pos	-10.884563
▁INT	-11.799105
Ptr	-10.466705
IO	-10.364123
▁MASK	-13.938020
▁using	-9.929432
▁reg	-11.950709
▁may	-9.684843
▁request	-11.096320
▁register	-10.872355
▁Copyright	-10.413851
▁op	-11.976823
▁str	-11.803125
Buffer	-10.424974
▁user	-10.991698
▁only	-9.890954
▁memory	-10.796576
count	-9.720733
io	-10.053739
▁when	-9.695494
▁msg	-12.210852
Status	-10.242831
▁TYPE	-14.065621
▁last	-10.614089
▁do	-9.804912
▁self	-11.239888
▁ANY	-10.466224
map	-10.082911
▁config	-12.159188
▁mask	-11.628385
MODE	-10.679770
ip	-10.511368
▁any	-9.879681
on	-10.178232
no	-9.633481
▁which	-9.359694
Node	-10.440048
▁val	-11.578908
▁xf	-16.884687
▁private	-9.497780
code	-9.694863
g	-9.576638
state	-9.460350
▁assert	-11.534607
▁obj	-12.197100
▁z	-11.389439
Context	-10.409036
▁res	-11.277434
line	-9.658814
▁hash	-11.530032
▁should	-10.044804
▁dst	-11.726570
▁func	-11.822225
▁bytes	-11.098789
▁enum	-10.152917
▁target	-11.171544
▁Py	-11.354835
▁table	-10.859533
▁message	-10.956471
▁create	-11.084899
▁one	-9.560249
z	-9.730944
File	-10.357004
Key	-10.539346
▁tx	-12.399818
▁cmd	-12.146198
num	-9.805653
key	-9.706181
EXT	-10.496812
to	-9.403398
▁version	-10.579427
▁Pyx	-18.698438
ch	-10.419029
▁field	-10.884742
▁printf	-12.117211
J	-10.458815
▁pointer	-10.794109
IF	-10.671217
▁DMA	-11.557729
db	-10.650595
For	-10.813335
▁UINT	-11.317128
▁glad	-10.471547
▁you	-9.320963
link	-10.617566
▁header	-11.356882
▁SIZE	-15.194942
▁image	-11.263931
able	-9.820310
▁re	-11.396458
Count	-10.496468
Array	-10.522866
▁mm	-13.323213
▁other	-9.786658
Is	-10.686422
▁ADC	-11.703609
▁Lean	-14.895208
▁path	-11.427932
▁format	-11.229833
time	-9.869895
int	-7.986033
▁no	-10.037802
OUT	-10.697233
▁ctor	-17.572274
Create	-10.963534
▁NOT	-11.277446
ly	-9.835731
▁xF	-18.642312
▁operator	-10.789487
▁client	-11.707510
▁so	-9.930446
end	-7.643400
▁update	-11.450294
▁xc	-16.309252
OR	-11.081697
▁override	-10.541611
dev	-9.538223
Handle	-10.549096
▁xa	-17.410055
le	-10.396755
▁xe	-16.805984
▁under	-9.888787
▁switch	-11.490145
▁rc	-11.134401
▁module	-11.282491
▁HAL	-11.208541
▁values	-10.752260
▁but	-9.521733
UI	-10.719246
▁interface	-11.265336
lib	-10.488593
Base	-10.663406
▁iVar	-12.085752
▁frame	-11.578780
▁following	-9.919563
addr	-10.078428
Vector	-10.791048
CR	-11.178214
▁thread	-11.517541
ref	-10.139895
SIZE	-10.096833
▁internal	-11.270231
Event	-10.615139
if	-6.777660
IP	-10.919901
Image	-10.659777
of	-9.897905
dir	-10.613791
▁USE	-11.276742
▁call	-10.881687
ED	-10.178733
log	-10.284645
▁FALSE	-10.812374
▁CMU	-12.273762
sp	-10.879002
▁stream	-11.760176
▁line	-10.923320
es	-9.876673
▁DEBUG	-12.409948
All	-11.261556
mode	-10.232817
Time	-10.739660
Request	-10.786600
Register	-11.528059
▁GET	-13.159994
▁channel	-11.493066
▁sub	-11.527490
▁USB	-11.489750
▁Windows	-11.751068
al	-9.713429
table	-10.108952
Check	-11.214382
▁page	-11.018204
NAME	-10.588680
▁idx	-12.384503
▁ERR	-13.212390
▁BIT	-12.773534
▁software	-10.401701
off	-10.752617
▁REG	-13.032748
▁FOR	-10.803927
SET	-10.443507
▁byte	-11.543007
▁send	-11.683855
▁BOOL	-11.842801
op	-9.998510
▁server	-11.596607
▁callback	-11.478492
▁xb	-17.885039
▁width	-11.619626
IN	-10.061562
fd	-10.420562
▁volatile	-11.755515
▁params	-12.540542
▁CHECK	-11.888567
▁local	-11.173749
▁SHIFT	-17.094417
▁command	-11.161571
▁method	-11.037040
▁level	-11.160971
▁without	-10.270222
DATA	-10.491332
▁gl	-12.076691
ON	-10.893591
▁args	-12.041076
max	-10.168404
▁xd	-14.338603
Int	-10.788213
Map	-10.718625
it	-10.538246
Add	-11.038658
col	-10.714169
INT	-10.357257
▁queue	-12.035935
err	-9.580446
Read	-11.131787
ctx	-9.935515
System	-11.240636
Function	-10.633689
fs	-10.769599
en	-9.235334
▁old	-11.143564
▁auto	-11.383352
path	-10.273268
j	-9.876237
▁conn	-13.036377
▁attribute	-12.325421
▁map	-11.697753
▁hw	-13.514460
me	-10.992409
Init	-10.764816
re	-9.749249
Input	-10.853033
▁null	-11.598727
Result	-10.722778
▁xE	-17.623391
ERR	-10.298709
get	-8.887384
▁enable	-11.958745
▁dec	-14.401342
▁PIN	-13.656146
View	-10.669872
▁TRUE	-10.903983
▁cpu	-12.517849
▁cur	-12.292053
▁http	-11.507682
PROC	-10.891519
cp	-11.036032
is	-9.288231
▁TO	-11.191564
▁packet	-11.797132
▁left	-11.288049
▁rx	-13.148264
st	-9.734833
▁parent	-11.867964
Table	-10.825326
▁AND	-10.765907
DB	-10.931958
▁was	-8.612724
▁retval	-11.910249
▁failed	-10.991017
▁instance	-11.377368
▁text	-11.536224
hdr	-11.162497
▁mutex	-13.557264
▁ASSERT	-13.191056
reg	-10.248341
▁window	-11.461133
▁item	-11.814742
▁bits	-11.637320
▁clear	-11.573660
▁print	-11.724446
▁load	-12.197840
▁SSL	-11.928097
▁priv	-13.740936
ADDR	-11.197715
▁OK	-12.954434
▁work	-10.521205
ac	-11.011667
up	-10.088582
LOC	-12.128048
▁find	-11.094552
▁need	-10.557364
Address	-10.997813
IC	-10.926419
REG	-10.594259
ER	-11.127230
Mask	-11.237050
Stream	-10.956206
Write	-10.931387
▁DATA	-12.769494
▁Software	-10.795282
Device	-10.905515
▁into	-9.888593
Config	-11.030807
On	-11.165652
arg	-9.600409
Block	-10.979693
LOG	-10.473912
index	-9.826371
Free	-10.993167
▁options	-11.662121
▁ref	-12.842567
▁STATUS	-13.515011
NV	-11.087326
obj	-10.247129
▁Msk	-21.944293
OS	-10.934738
INFO	-10.494501
value	-9.340549
VAL	-10.486326
ent	-11.031597
Offset	-11.129504
CLK	-11.470413
word	-10.996500
buffer	-9.889203
an	-10.485127
▁see	-10.773734
No	-10.811132
port	-9.795260
▁yy	-11.117538
▁group	-11.162689
▁tag	-12.111742
▁log	-11.880270
Var	-10.104844
string	-9.179176
pc	-11.080904
▁exit	-11.075195
Item	-10.950802
Message	-10.896479
MS	-11.638396
▁non	-10.794256
▁nonatomic	-12.940352
▁TIM	-12.357156
MAC	-11.246988
▁make	-10.597414
▁temp	-11.840748
▁reserved	-10.867567
▁RX	-13.172294
Class	-10.953945
▁task	-11.806155
SEL	-11.486181
▁xC	-20.740912
▁reset	-11.810484
▁OP	-11.871748
▁XFF	-19.636173
SR	-11.695605
With	-10.922265
▁min	-11.907794
args	-10.549297
▁Returns	-10.797386
▁req	-12.782059
CFG	-11.402918
node	-10.043265
▁handler	-12.151754
▁short	-10.844130
From	-10.899577
▁height	-11.776389
mask	-10.456182
▁LL	-12.339759
cl	-11.056590
STR	-10.987753
▁color	-11.708213
▁SUCCESS	-14.109555
▁mem	-12.894546
▁flag	-11.548397
▁GLenum	-12.276942
us	-10.158761
Source	-11.188900
▁RTC	-12.162871
cs	-11.006444
▁row	-11.876962
▁ENABLED	-14.028135
▁then	-10.168018
▁argv	-12.611453
▁more	-9.836148
box	-10.957841
▁driver	-11.648533
Test	-10.999745
si	-11.028927
▁zero	-11.597134
▁USART	-12.235157
Pointer	-11.096595
▁fprintf	-11.739408
▁zend	-12.602822
▁session	-12.137116
▁VERSION	-15.557568
LEN	-11.207420
lock	-10.137954
▁SOFTWARE	-10.930083
Start	-10.949290
▁open	-11.396872
Number	-11.247799
▁TX	-12.841259
gen	-10.825190
var	-10.275671
▁alloc	-13.423632
Version	-10.873750
PTR	-11.246697
sz	-11.035417
New	-10.815425
▁after	-10.106162
RT	-11.013141
block	-10.473714
▁given	-10.575780
be	-10.813291
▁host	-11.896903
stat	-11.133829
▁found	-10.526851
▁EXPORT	-13.136938
sh	-11.136810
cm	-11.008264
▁system	-10.723273
ex	-10.682834
char	-9.333157
▁RCC	-12.714140
Callback	-11.227937
▁See	-8.525399
▁debug	-12.801376
Length	-11.065119
▁point	-11.079380
▁specific	-10.862842
cb	-10.796658
pp	-11.000697
▁import	-10.845341
Path	-10.984528
net	-10.391820
▁NSString	-11.521015
▁each	-10.595428
vm	-11.021536
Instance	-11.127682
▁element	-11.443695
base	-10.044102
▁continue	-10.691405
▁SET	-13.457821
▁above	-10.656971
Control	-11.463038
spec	-11.111600
▁range	-11.336537
▁CC	-12.885223
Client	-11.003671
▁put	-11.886784
▁child	-11.681005
▁We	-10.327096
min	-10.604845
▁shared	-12.404665
▁LOG	-13.476882
im	-10.309869
Flags	-11.174128
Color	-11.018958
▁stack	-11.729020
▁control	-11.289972
Default	-10.987942
▁called	-10.620038
▁hr	-12.052880
▁var	-11.664934
▁parameter	-11.319450
▁valid	-11.658082
▁attr	-13.013250
res	-10.104045
conf	-11.332152
▁GLuint	-12.290013
mem	-10.248805
▁ZEND	-11.652829
▁functions	-10.909281
proc	-11.255268
DMA	-11.226249
▁right	-11.032209
rel	-11.068219
Update	-11.024208
▁sys	-12.967142
▁process	-11.050244
CS	-11.334582
▁SPI	-12.100736
▁interrupt	-11.401013
▁empty	-11.811811
▁HAVE	-11.063964
Code	-11.091815
ps	-10.751014
lp	-10.874124
▁filter	-12.016901
Ref	-10.803085
▁root	-11.874060
▁position	-11.192999
▁WARRANTIES	-11.003736
CODE	-10.872401
cc	-11.125373
▁conditions	-10.711410
▁cache	-12.072677
▁INVALID	-12.903533
at	-10.547747
ms	-10.779146
down	-11.338265
Matrix	-11.269148
▁match	-11.419378
▁TEST	-12.435587
END	-10.336898
idx	-10.632667
Channel	-11.677891
Format	-11.066554
ING	-10.719582
mod	-11.107487
▁before	-10.404672
▁information	-10.420188
IS	-10.558405
▁BASE	-14.597997
▁returns	-11.199877
Text	-10.925846
OP	-10.613751
array	-10.235414
Frame	-11.198905
Command	-11.257390
cnt	-11.232078
▁connection	-11.623477
ns	-10.948890
bits	-10.918094
▁desc	-13.459130
msg	-10.251081
▁notice	-11.145865
▁done	-10.682026
▁token	-12.196995
SC	-11.492864
▁access	-11.343919
▁rights	-10.610841
▁sc	-12.423211
▁same	-10.507923
▁remove	-11.887460
End	-11.164965
sa	-10.852888
▁query	-12.050363
Global	-11.588303
▁EVENT	-12.093908
▁timer	-12.233456
fn	-11.053611
CTL	-11.530158
li	-10.662766
ST	-11.142209
▁specified	-11.151411
▁push	-12.819593
▁timeout	-12.126503
▁STM	-12.278470
Output	-11.172253
Bit	-11.768906
PC	-11.691705
▁ok	-11.929164
▁nullptr	-11.262006
Model	-11.339032
MASK	-10.520267
▁fd	-12.376920
▁program	-11.051269
▁there	-10.035055
▁iterator	-12.811926
Out	-11.179792
▁dest	-12.560825
rd	-10.837351
Memory	-11.032847
▁its	-9.969530
▁NONE	-14.047706
▁pragma	-13.657817
md	-11.313355
KEY	-10.813155
pt	-11.237585
▁env	-13.127326
ds	-11.048390
▁linux	-15.579941
Point	-11.288042
func	-10.386713
▁PFNGL	-11.333068
▁INCLUDING	-11.834885
▁than	-10.209214
▁xA	-20.419526
▁option	-11.626769
Window	-11.170730
▁un	-12.051979
LINE	-11.403323
Handler	-11.215312
mac	-11.338461
flags	-10.023985
low	-11.528128
ctrl	-11.390761
sym	-11.053777
▁provided	-10.807362
cache	-10.776471
▁irq	-13.257153
▁binary	-11.300075
▁clock	-11.772803
BUFFER	-11.329834
bit	-10.364519
▁cb	-13.108414
clk	-11.559862
ar	-10.651151
▁response	-11.373434
sign	-11.790513
▁org	-13.184616
▁delete	-11.866774
sync	-11.089629
Num	-11.299224
MP	-11.723317
GL	-10.306015
▁copyright	-11.043949
sec	-10.815495
dc	-11.421397
ev	-11.089096
▁memcpy	-12.131097
▁tree	-11.671375
▁global	-11.928131
▁per	-11.470329
▁HRESULT	-11.255201
▁fp	-13.265543
▁skb	-12.797177
ic	-10.735088
▁closed	-12.153357
MAP	-11.268804
LIB	-11.190782
rs	-10.572948
AT	-11.633598
AL	-11.247098
CALL	-11.212535
ab	-11.265981
ring	-11.355068
▁iParam	-12.698225
▁order	-10.883078
▁part	-10.622234
▁operation	-11.226377
▁my	-10.320789
▁tp	-12.879031
gl	-9.863610
▁DWORD	-11.217156
▁AS	-12.648633
LIST	-11.337559
Call	-11.544036
Max	-11.433785
Module	-11.248566
Use	-12.173457
▁FILE	-12.402482
▁parameters	-11.264409
Filter	-11.366156
▁net	-12.094331
space	-11.054553
▁structure	-10.944205
sum	-11.467191
▁distributed	-11.364503
TIME	-11.378301
▁active	-11.903039
dp	-11.327621
▁You	-10.387139
▁MIN	-13.515971
▁required	-10.973707
▁wait	-12.090038
▁filename	-12.737899
cmd	-10.463940
▁total	-11.405218
▁loop	-11.683821
pr	-11.237058
ation	-10.445492
Op	-11.479825
th	-9.445614
▁UART	-12.103244
▁unit	-11.905550
▁VALUE	-12.793971
ALL	-11.452226
Port	-11.512883
▁enabled	-11.737929
sc	-10.892355
▁available	-10.950877
free	-9.439328
CLASS	-11.419473
scale	-11.540640
ul	-10.905809
▁prev	-12.898712
▁READ	-13.929271
▁been	-9.902221
va	-11.079714
Entry	-11.251405
as	-10.322886
ce	-11.175560
DC	-11.488890
▁THIS	-11.465163
▁head	-11.792528
▁exception	-12.274838
class	-9.736149
VM	-11.556105
▁com	-13.565342
Property	-11.251233
▁ENABLE	-14.140342
PS	-11.426286
Log	-11.284968
▁xB	-17.970031
cast	-10.978301
def	-8.568624
ion	-10.986572
▁ARG	-14.834020
▁up	-10.147037
▁signal	-12.066024
▁fields	-11.546699
▁NRF	-11.568121
Expr	-11.527767
▁undef	-13.031301
ARB	-11.604938
CC	-11.224358
FS	-11.297023
tm	-11.675463
▁STATE	-13.897050
▁TIMER	-12.814730
▁move	-12.132420
cap	-11.385018
ts	-10.712901
pass	-11.467409
Position	-11.484178
start	-9.695281
os	-10.589471
▁unlock	-14.075318
▁argument	-11.417177
▁common	-11.617245
▁GLint	-12.284081
▁INFO	-16.682165
▁begin	-12.375834
EX	-11.344437
▁WRITE	-14.506601
VAR	-11.427680
Timer	-11.537107
▁inc	-14.521363
hash	-10.654101
User	-11.265137
▁either	-10.936751
▁resource	-12.262526
STATUS	-10.526039
mb	-11.466021
UL	-10.720259
▁ext	-13.362964
desc	-10.905440
▁close	-11.889413
hi	-11.454534
BLOCK	-11.486798
▁real	-11.536261
▁PRS	-13.233700
Local	-11.391756
stream	-10.355196
▁release	-11.856238
point	-10.852781
Field	-11.350313
Element	-11.306254
ld	-11.195192
▁core	-12.740321
▁Shifted	-12.466345
▁raw	-12.793459
Sub	-11.399881
▁PORT	-13.520731
▁kernel	-12.267220
▁here	-10.442384
Manager	-11.118212
Group	-11.244039
do	-10.284557
▁variable	-11.498891
▁fail	-11.234783
UN	-10.673955
per	-10.747412
▁matrix	-11.766333
▁GLAPI	-11.253788
shift	-11.871387
nr	-11.479681
CMD	-11.094315
▁cast	-12.670657
▁insert	-12.736004
Val	-11.580624
sb	-11.464372
mp	-11.151320
bt	-11.496159
PER	-11.474683
ra	-11.354188
tab	-11.563392
Options	-11.328895
STATE	-10.820199
con	-11.068422
▁pre	-11.984690
xx	-11.719050
test	-10.168092
Core	-11.341083
chan	-11.661487
tree	-10.984483
▁inode	-12.811762
Reg	-11.622770
▁SDL	-12.014086
▁opt	-13.179659
MM	-11.813791
▁does	-10.774743
▁st	-12.541284
av	-11.305064
printf	-10.309215
▁returned	-11.152430
▁rt	-12.562361
▁DEVICE	-14.773869
tag	-10.839781
▁GNU	-11.242764
error	-9.544392
pi	-11.306526
MD	-11.602581
sw	-11.428082
TAG	-11.619479
el	-10.575832
over	-10.903489
▁location	-11.696875
api	-11.398402
back	-10.427956
config	-10.294332
MC	-11.410977
▁license	-11.452221
parse	-11.243395
fc	-11.678725
DE	-11.478640
▁two	-10.077226
DEV	-11.386067
Str	-11.518789
flag	-10.979227
mm	-10.507849
are	-11.849836
PR	-11.564166
▁Foundation	-11.422418
▁cfg	-13.568335
▁xD	-19.194970
Interface	-11.239004
▁disable	-12.174845
ll	-10.704270
Enable	-11.834510
bo	-11.670922
dict	-11.494902
mc	-11.743780
rv	-11.255578
BUF	-11.546121
▁socket	-12.206818
▁www	-13.846502
AC	-11.711485
DIV	-12.136099
CB	-11.711744
NET	-11.147747
regs	-11.733009
Range	-11.350834
iv	-11.466917
SW	-11.439959
IT	-11.356466
▁WTIMER	-13.275390
▁memset	-12.135162
BYTE	-11.545568
Open	-11.608428
▁strcmp	-13.441999
▁CAN	-12.440742
and	-10.525442
▁strlen	-11.954093
▁INLINE	-14.842167
form	-10.955537
▁configuration	-11.407317
Line	-11.344645
bl	-11.889802
▁pg	-12.782079
▁errno	-12.945046
load	-10.603835
not	-10.915763
▁CMD	-13.420725
▁EFI	-11.276753
EV	-11.963128
pd	-11.573901
▁already	-11.059649
▁label	-12.461793
PM	-11.733257
Current	-11.621136
LE	-11.614294
▁FLAG	-15.300821
▁pin	-12.353043
Clear	-11.261756
▁texture	-12.780157
▁integer	-11.819807
▁where	-10.356533
rc	-10.451783
LP	-11.458503
vec	-11.349745
▁pool	-12.510496
Header	-11.438840
▁expected	-11.605839
Thread	-11.355495
req	-10.866533
PRE	-11.654414
▁IMPLIED	-11.420289
fb	-11.859025
Load	-11.466604
LOCK	-11.569644
call	-10.631820
▁STRING	-14.646643
▁APIENTRYP	-16.558549
freq	-12.080289
▁stderr	-13.457247
▁invalid	-11.914053
▁vec	-12.460531
▁elements	-11.566889
▁display	-11.859033
Queue	-11.602359
pid	-11.549026
flow	-11.411298
Obj	-11.655849
PP	-11.757628
tr	-11.016451
Query	-11.291668
ec	-11.365255
▁json	-12.620943
Hash	-11.522644
CF	-11.478430
▁xffff	-46.345939
Flag	-11.599060
our	-12.211216
FB	-11.839946
mi	-11.271942
▁change	-11.216994
PG	-11.491497
spi	-11.648988
Release	-11.309241
▁cursor	-12.606198
sub	-10.368286
COUNT	-11.590082
▁top	-11.478055
▁single	-11.063580
Service	-11.400138
▁KEY	-13.138154
RC	-11.532063
▁wpa	-12.728557
▁constexpr	-11.677736
▁main	-10.874028
▁unique	-12.241273
▁protocol	-12.081037
FORMAT	-11.689259
▁iface	-14.082996
Server	-11.400464
range	-11.177634
▁malloc	-12.676803
▁destroy	-13.554918
PARAM	-11.659111
▁argc	-11.986230
▁FUNCTION	-14.401500
offset	-10.189247
Len	-11.523306
pm	-11.545432
▁stats	-12.907826
NO	-10.094878
SP	-11.587217
▁some	-10.285573
▁once	-10.630317
▁BE	-11.776845
▁OFFSET	-16.516373
FILE	-10.871733
Param	-10.817268
Response	-11.475879
rec	-11.577048
STAT	-11.427166
▁prefix	-12.436743
▁orig	-13.145567
▁SYS	-13.413067
Cache	-11.453238
If	-11.437844
▁column	-11.986026
TX	-11.024433
sm	-11.469778
Lock	-11.435101
▁full	-11.390309
▁END	-12.331366
ad	-11.108632
Process	-11.313017
pack	-11.627934
▁LIMITED	-11.474976
py	-10.044941
Desc	-11.634140
acc	-12.036221
▁LICENSE	-11.905854
▁asn	-13.000029
co	-10.953732
▁success	-11.307050
▁stop	-12.013796
DBG	-11.816595
Char	-11.483234
TABLE	-11.531748
UP	-11.423854
Copy	-11.115844
Tx	-11.729653
▁BUT	-11.491945
OF	-11.297376
level	-10.813037
HW	-11.764891
▁RPC	-13.653571
▁epi	-15.056708
exp	-11.511130
read	-9.940885
GC	-11.605518
all	-10.883150
IR	-11.617167
AD	-11.763108
place	-12.129531
cmp	-10.997364
un	-8.957078
REF	-10.610751
▁Interrupt	-11.783789
▁mp	-12.735292
▁RETURN	-13.752626
frame	-10.737877
▁WITHOUT	-11.386411
term	-11.601550
ca	-11.201196
priv	-10.774662
▁section	-11.707724
▁implementation	-11.478653
▁AF	-12.869278
▁INIT	-14.827976
write	-10.120067
▁phy	-13.745238
▁run	-11.378724
▁action	-11.549483
NODE	-11.602187
▁mono	-12.511070
FC	-10.812357
▁don	-10.923738
▁impl	-13.128797
▁ps	-13.533339
Description	-11.915204
PORT	-11.085719
▁depth	-12.621999
▁app	-12.262432
sort	-11.842497
ob	-11.463181
Level	-11.540215
TS	-11.672153
PHY	-11.875591
sd	-11.675022
And	-11.198625
pf	-11.895491
trans	-11.058546
▁convert	-12.257857
OBJ	-11.793417
TO	-10.986168
AP	-11.549115
TC	-11.808038
▁CPU	-12.197653
▁just	-10.500540
▁service	-11.127125
GEN	-11.831099
▁descriptor	-12.320706
EP	-11.834141
▁pci	-13.175687
▁Bit	-11.634970
Task	-11.529314
▁model	-11.536798
▁chip	-13.020272
rt	-10.966722
opt	-10.997449
PLL	-12.110080
INDEX	-11.745352
▁atomic	-12.803020
loc	-11.709544
enc	-11.852639
Arg	-11.601629
▁MSG	-13.302521
▁record	-11.030239
Exception	-11.269901
Func	-11.633342
ee	-11.515926
Send	-11.555403
▁PURPOSE	-11.374247
▁supported	-11.559882
▁setup	-12.367688
alloc	-10.618786
stack	-11.103463
▁power	-11.378766
RAM	-11.895442
cfg	-11.211875
▁None	-11.296073
Target	-11.524716
CM	-10.873223
▁try	-11.297340
▁reference	-11.582700
▁entries	-12.221050
xml	-11.636986
Texture	-11.620734
SM	-11.823886
Re	-11.412236
AR	-11.723894
▁LIABILITY	-11.784207
▁connect	-13.232245
▁types	-11.629629
▁It	-9.796873
▁sk	-12.943683
▁FIELD	-14.955355
▁HANDLE	-13.887152
Page	-11.501772
FD	-11.476492
▁rhs	-12.143001
host	-10.907707
▁save	-12.069092
init	-9.754437
▁WITH	-12.308803
Of	-11.333582
chain	-12.023952
▁SHA	-13.325473
MT	-11.787774
▁FITNESS	-11.366791
▁parse	-12.277863
▁details	-11.254919
▁parser	-12.856693
add	-10.017850
dt	-11.739292
▁MERCHANTABILITY	-11.348233
▁also	-8.381886
BY	-11.540171
▁TRACE	-13.418096
▁ULONG	-11.616637
keys	-11.960142
pool	-11.261711
▁ss	-13.314074
DT	-11.930366
▁def	-13.689831
pair	-11.914655
▁union	-11.046829
help	-11.816965
▁peer	-12.423289
gc	-11.826804
Attribute	-11.646005
▁multi	-12.237131
▁sqlite	-12.284543
▁gpio	-13.523454
Resource	-11.611353
COMP	-11.873472
▁Elab	-18.889429
fe	-11.371550
tx	-10.609071
▁unlikely	-13.774126
▁General	-10.469674
▁FT	-11.972579
▁append	-13.188277
url	-11.526525
auth	-11.782291
▁because	-10.664162
▁dw	-12.590292
Reset	-11.576498
CL	-11.769749
▁ssize	-12.420410
lv	-12.017156
bb	-11.641022
CON	-11.615870
Return	-11.710643
lo	-11.288191
▁NUM	-13.965379
Debug	-11.512974
DIR	-11.714672
ast	-11.862400
se	-10.947573
FLAG	-11.247807
dd	-11.693885
▁now	-10.581919
de	-10.205247
ret	-9.275971
▁style	-10.920411
▁uParam	-14.089906
fill	-12.018398
▁prop	-13.349793
▁png	-13.016457
▁PARTICULAR	-11.394083
OK	-10.316743
OPT	-11.814427
▁final	-11.177298
FIFO	-12.032316
tc	-11.773707
em	-11.178351
main	-11.264163
BC	-11.805317
▁COLOR	-15.049674
Un	-11.436594
▁MBEDTLS	-12.140616
Internal	-11.528511
▁VK	-12.384148
NS	-10.502307
▁modify	-11.689055
▁PWM	-12.584907
▁ssl	-13.267142
▁PCI	-12.403959
▁content	-11.673742
▁adapter	-12.893373
mat	-11.694997
HTTP	-11.672921
Token	-11.638667
Method	-11.434624
▁view	-11.918126
mul	-11.977785
▁show	-11.337003
▁Public	-10.616535
Bits	-11.760533
▁received	-11.073860
PROTO	-11.367404
BASE	-11.037949
UART	-11.608761
Mem	-11.765937
Delete	-11.520903
▁snd	-12.416994
▁platform	-11.940227
▁store	-11.899341
▁win	-12.200864
▁proto	-13.674440
row	-10.859484
TDMETHODCALLTYPE	-11.682804
blocks	-12.283460
▁bad	-11.657862
▁lua	-12.896326
▁chunk	-12.620875
▁high	-11.164003
▁skip	-12.221676
As	-11.540288
core	-10.920676
SUB	-11.738361
abs	-11.895663
Msg	-11.815226
PB	-11.980171
▁PA	-12.649652
cr	-11.618328
▁events	-10.952761
SRC	-12.004049
▁php	-14.039293
status	-9.971064
script	-11.544323
▁library	-11.459395
▁heap	-12.572293
nd	-10.612692
ear	-11.818387
▁CONST	-13.264684
Float	-11.749743
▁written	-10.817777
▁GB	-12.019294
EM	-12.060429
cell	-11.853217
▁extra	-12.182612
page	-10.804028
Meta	-12.033308
▁usb	-12.680986
DR	-12.031078
AM	-12.121474
act	-11.532043
MOD	-11.866151
pad	-11.681118
▁your	-10.092491
RD	-11.820959
entry	-10.325790
sf	-11.821781
▁XF	-16.125044
Vec	-12.060062
▁WIN	-13.114950
LL	-11.241194
▁whether	-11.174599
MEM	-10.918852
MAX	-10.000102
blk	-11.993014
CHAR	-11.473860
▁otherwise	-11.421270
▁macro	-12.533971
view	-11.019618
pa	-11.235140
ui	-11.046536
Clock	-11.890520
TCP	-11.760535
LOAD	-11.895185
▁stride	-13.135858
vp	-11.976100
▁ngx	-12.146695
ION	-11.833288
ue	-11.547613
cf	-12.026461
round	-12.306735
▁always	-11.277404
pl	-11.624604
▁dma	-13.449517
attr	-11.002711
▁slot	-12.495819
cd	-11.798580
tt	-11.769436
IM	-11.842274
LA	-11.381115
Packet	-11.854490
BITS	-11.973080
▁region	-11.804332
▁Note	-11.340354
▁seq	-13.133319
card	-11.483496
▁tuple	-12.857547
dm	-11.988126
NUM	-11.248893
context	-10.277992
▁spin	-13.817915
▁BEGIN	-12.884274
rows	-11.955683
CI	-12.079821
AN	-11.858608
▁noexcept	-11.923122
▁ui	-13.124309
Params	-11.781482
▁back	-10.970061
▁PIO	-13.130264
Impl	-11.676622
Width	-11.750145
▁KIND	-11.777743
Shift	-12.127033
▁names	-11.437587
▁IRQ	-13.327572
uc	-11.824653
Invalid	-11.712967
CA	-11.908148
▁Return	-11.042231
Buf	-11.892369
ALT	-12.197663
dv	-12.381409
seq	-11.423828
PE	-11.886144
ak	-12.018111
▁ARRAY	-13.499353
▁xFFFF	-21.566065
RX	-11.082981
Rect	-11.874231
asm	-11.638426
▁Aws	-12.043387
▁NS	-12.260201
▁tcp	-13.194687
▁GLsizei	-12.750360
ma	-10.115819
oid	-11.900870
sel	-11.609594
DEFINE	-11.559944
item	-10.772957
field	-10.532237
sl	-11.421552
▁UNUSED	-13.586134
tb	-11.977933
di	-11.325077
▁Enable	-11.604447
types	-11.138511
la	-11.162123
▁USER	-12.897523
▁layer	-12.304830
▁contains	-11.473795
▁settings	-12.061867
ctl	-11.606523
Do	-11.941116
Bool	-11.710758
am	-10.558193
▁ops	-14.886924
format	-10.784380
Not	-11.836764
bin	-11.434922
Iterator	-11.708688
▁since	-11.009371
XML	-11.590668
▁AV	-12.259170
te	-10.981786
bytes	-10.916168
▁runtime	-12.745558
HASH	-11.818943
▁failure	-11.628893
▁counter	-12.202602
Failed	-11.904592
CK	-12.120430
▁readonly	-12.710951
Disable	-11.766757
Access	-11.599570
▁dump	-13.008122
bd	-11.996603
Parser	-11.945900
digit	-12.448825
graph	-11.904171
▁ap	-13.104271
IE	-11.992809
Next	-11.630296
▁ATTR	-15.069580
▁assign	-13.026558
group	-10.433649
fp	-11.029068
▁EINVAL	-13.144229
PATH	-11.731326
▁symbol	-12.401354
▁second	-10.978289
exec	-11.468539
entity	-12.368382
▁files	-11.600410
▁needed	-11.501601
doc	-11.473647
REQ	-12.032107
ia	-10.890339
▁de	-10.392669
▁note	-12.837041
▁between	-10.497706
Tag	-11.610356
▁transaction	-11.914120
bind	-11.831417
PT	-11.984778
Tensor	-12.206407
Print	-11.569353
Addr	-11.976853
Struct	-11.916140
ti	-11.569541
ok	-11.099525
▁except	-11.445284
Action	-11.629731
Store	-11.646591
▁description	-11.526950
CONTROL	-11.997738
queue	-10.766595
▁FUNC	-14.443862
Stack	-11.754865
bf	-11.858382
▁mark	-12.487977
lhs	-12.139542
▁DECL	-13.071429
▁support	-10.957894
pb	-11.917270
AA	-12.200091
px	-11.373875
▁pkt	-13.765974
tmp	-10.350873
NG	-11.824086
▁sequence	-11.951687
▁search	-11.927940
FE	-11.794217
By	-11.713168
ge	-11.251211
result	-9.869786
▁component	-12.273830
Session	-11.761040
go	-11.298604
▁elif	-13.309511
▁ff	-14.685253
FLOAT	-11.917767
▁MEM	-13.661296
da	-10.920737
ct	-11.802538
▁implied	-11.501866
▁generated	-11.724877
Initialize	-11.582504
▁expr	-13.106852
▁arguments	-11.664464
FP	-11.851809
PL	-11.826507
Descriptor	-11.805010
▁lpVtbl	-16.431790
swap	-11.768060
ib	-11.824123
Display	-11.758177
▁NEXT	-14.707340
▁space	-11.454290
nv	-11.843911
▁documentation	-11.563937
Reserved	-11.809187
CONTRACT	-13.118041
▁transfer	-12.066523
Select	-11.723169
▁font	-12.544399
ap	-10.707085
ext	-10.907101
age	-11.286191
▁reply	-12.987845
▁COPYRIGHT	-11.782265
tail	-11.949954
▁allocated	-12.127591
br	-10.517210
App	-11.721820
▁FF	-14.632708
▁surface	-12.398010
lower	-12.446661
Parameter	-11.812908
▁network	-11.731174
▁ROUTE	-16.925105
▁protected	-10.301936
▁pending	-12.725275
Parse	-11.725794
▁shape	-12.644701
direct	-12.055700
ba	-11.014191
event	-10.371393
Connection	-11.679596
less	-11.295140
STRING	-11.079208
dma	-11.377542
OC	-12.074296
▁comp	-13.317801
STACK	-11.877677
CMP	-12.198189
▁xFFFFFFFF	-87.803459
SL	-11.840567
FLAGS	-12.015240
Controller	-11.727400
CORE	-11.898127
speed	-12.203490
▁select	-12.270710
uv	-11.998506
sg	-12.150928
▁character	-11.410412
▁objects	-11.722958
side	-11.454696
ENTRY	-11.107766
▁payload	-12.617517
curr	-11.973969
ie	-11.122787
PD	-12.080325
OFF	-11.889380
SS	-11.828510
assert	-10.322027
▁ARM	-12.906344
▁associated	-11.407059
▁llvm	-12.638161
▁being	-10.622284
Find	-12.421071
TEXTURE	-11.893341
▁application	-11.476553
BIT	-10.816825
date	-11.634279
Byte	-11.889148
check	-10.510747
DS	-11.685103
Tree	-11.633684
ME	-11.848529
initialize	-11.422675
▁directory	-11.847657
▁bp	-13.497110
ES	-11.700718
win	-10.949986
ir	-11.432333
▁terms	-11.259458
Ex	-11.892391
▁remote	-12.386217
▁emit	-12.654688
rep	-12.002703
util	-11.340830
▁bcm	-12.648843
POS	-12.024062
ack	-12.115313
▁disclaimer	-11.663539
so	-11.077691
▁draw	-12.143871
pg	-11.366544
VT	-12.051457
▁container	-12.642812
align	-10.323610
mv	-12.242444
BB	-11.999432
▁storage	-12.307621
ep	-11.299852
bi	-11.297046
board	-11.743205
First	-11.836382
▁want	-11.035231
STREAM	-11.988387
▁vscale	-16.207740
son	-11.059791
▁retain	-12.116832
bar	-11.360076
CE	-11.839797
▁scan	-12.640307
▁got	-11.602647
scan	-11.481115
▁ep	-13.580060
object	-9.950799
eq	-11.592148
▁BLE	-12.854370
thread	-10.626433
▁fmt	-13.045200
Args	-11.930085
▁alpha	-12.730982
DP	-11.985585
scope	-11.965196
ci	-11.647165
mt	-12.013505
gp	-12.143346
np	-11.833169
SPI	-11.379157
▁STATIC	-12.334088
Button	-11.657884
▁about	-9.879222
▁dim	-13.338808
dbg	-12.130297
▁sock	-13.266637
Reference	-11.587462
▁os	-12.468773
rp	-11.997044
Parameters	-11.542968
src	-10.521298
div	-10.722562
▁rate	-12.171549
open	-10.727129
▁sig	-12.858279
LCD	-12.821209
cond	-11.871013
RA	-12.222297
cert	-11.950213
▁LEVEL	-16.942787
TR	-11.799329
▁MPI	-12.866430
WORD	-11.541876
DO	-11.578623
▁optional	-12.419175
▁PHP	-12.085246
▁complete	-11.911095
Host	-11.687193
YTHON	-11.960634
Kind	-11.846273
▁even	-10.874014
▁cleanup	-11.718949
mark	-11.393993
DF	-12.129309
slice	-12.326650
Min	-12.026747
▁sample	-12.317531
▁lookup	-13.061609
arm	-12.068139
▁basic	-12.190283
af	-11.869870
cons	-12.122885
vt	-12.244729
DIS	-11.948808
vector	-10.264386
seg	-12.338573
▁stbi	-12.585394
▁build	-12.007054
bc	-12.002229
▁pixel	-12.832775
width	-10.672322
Configuration	-11.831878
BE	-11.680957
CP	-11.882459
▁shader	-13.224621
▁sent	-11.684324
rule	-12.264144
length	-10.282688
Layout	-11.650164
▁scalar	-12.607882
nc	-12.009965
Bytes	-11.891674
TE	-12.140470
▁rb	-13.031474
Font	-11.888898
ho	-12.279318
▁MODULE	-13.250644
del	-11.680821
CHANNEL	-12.131716
▁iter	-13.512036
mon	-11.497679
CAP	-11.996487
▁these	-10.559571
CD	-10.908049
arr	-11.940323
join	-12.244704
LED	-11.947089
▁licenses	-13.499391
▁domain	-12.566564
▁Redistributions	-11.746930
MB	-11.665107
▁ASN	-13.325764
df	-11.984042
▁cplusplus	-18.583847
Identifier	-11.846685
▁bitmap	-13.112514
▁EXTI	-13.292273
▁LONG	-13.331910
▁bus	-12.565092
diff	-11.971378
ops	-11.237994
Change	-11.640204
text	-10.293553
▁created	-11.143422
▁could	-10.617142
▁changed	-11.733177
rm	-11.453775
▁language	-11.449795
Record	-11.867100
AB	-11.951166
Rx	-12.188454
lc	-11.985874
▁DAMAGES	-11.905765
FORM	-11.839186
Storage	-11.876427
Cmd	-11.997231
CONNECT	-12.560062
dy	-11.522524
uart	-12.074125
▁ADD	-13.821274
▁pthread	-12.435715
GP	-11.957941
AS	-11.236034
sys	-10.605341
▁permission	-11.540840
▁cannot	-11.599133
HEADER	-11.898985
CU	-12.074770
MR	-12.194433
▁decode	-13.408902
Pin	-12.396891
URL	-11.692241
Label	-11.753201
float	-10.216991
EQ	-12.076665
handle	-10.497684
meta	-11.607061
SIG	-11.870298
close	-10.561539
▁HAS	-13.839314
uct	-13.855987
Operation	-12.051780
normal	-12.349941
fl	-11.914880
gt	-12.061526
Layer	-11.966087
hal	-11.786255
RS	-11.918374
lf	-12.720673
byte	-10.980276
▁compiler	-12.438923
HOST	-12.106490
▁NI	-12.803680
rate	-11.347004
▁them	-10.406549
part	-11.392609
▁CRYPTO	-13.335738
SYNC	-12.080530
▁DEF	-13.295397
PROP	-12.240581
▁equal	-12.335346
DEF	-11.445020
TEST	-10.951162
▁they	-10.005169
ity	-10.805330
ARG	-11.023076
▁bfd	-12.410702
MSG	-11.330279
COL	-12.002203
Link	-11.704071
added	-13.261693
button	-12.173879
RNA	-12.695286
ITEM	-12.132419
pages	-12.283964
tile	-11.277237
CONTEXT	-12.110494
▁EVP	-12.647614
▁FROM	-12.255676
▁vertex	-12.957721
▁Inc	-11.364658
est	-11.508710
IMAGE	-12.046423
ai	-11.868172
RGB	-12.115885
Media	-12.049811
Library	-12.133650
▁google	-14.373264
OPEN	-11.790844
CLIENT	-12.119939
▁through	-10.638615
ERROR	-9.888110
▁tv	-13.604407
▁friend	-11.768477
opts	-12.146716
bus	-11.469995
Transform	-11.993008
ml	-11.856349
PAD	-12.385259
▁generic	-12.517636
▁trace	-12.864370
▁RESET	-14.719786
▁LENGTH	-17.120948
▁opcode	-12.884534
▁expression	-11.720088
▁EXPRESS	-11.974974
▁metadata	-12.659557
RF	-12.161771
▁extension	-12.186224
drv	-11.992720
ht	-12.179148
▁allow	-11.885211
Enum	-12.021626
CLOCK	-12.164291
ro	-11.482971
▁AES	-13.484121
▁DECLARE	-12.472915
▁OTHER	-12.237044
Audio	-11.816288
Draw	-11.283413
▁writing	-11.487845
Null	-11.986157
OID	-11.949049
lu	-11.918193
SH	-11.928808
▁based	-10.650352
▁mk	-14.181660
▁drm	-12.559327
COPY	-11.874821
▁controller	-12.280186
FILTER	-12.118857
store	-11.335107
▁START	-13.831944
iter	-11.386254
▁priority	-12.455981
▁pipe	-12.954315
▁INTERFACE	-16.173381
menu	-12.197155
eb	-12.138031
arch	-11.725268
▁td	-14.312981
BR	-11.924881
disk	-12.581093
Decl	-12.062741
Space	-11.853517
vi	-11.954581
PF	-11.640811
▁ARGS	-15.838582
nl	-11.873344
ft	-11.767892
MEMORY	-11.926833
head	-10.678397
FRAME	-12.237997
img	-12.286115
▁codec	-13.473612
▁inst	-14.071322
FREE	-11.892228
▁TLS	-13.194675
FIX	-12.323544
FMT	-12.199416
▁winrt	-13.600895
Template	-11.943909
▁selected	-11.798178
▁setting	-11.903152
▁verify	-12.709279
Match	-12.350801
Idx	-12.253268
TMP	-12.762051
par	-11.578266
▁body	-11.818770
Async	-12.203716
SI	-11.963666
▁member	-11.441289
ix	-11.865965
▁pattern	-12.427815
Last	-11.891466
ni	-11.549008
▁fast	-12.609548
▁distribution	-11.355823
ARRAY	-11.476722
Make	-12.681135
▁limit	-12.330276
ri	-11.527663
▁FLASH	-13.102728
new	-9.900739
▁compare	-12.803132
ACTION	-11.983971
▁passed	-11.702610
▁recv	-13.639553
trigger	-12.645996
Remove	-11.854742
▁LIABLE	-11.962098
▁PROVIDED	-12.027334
prod	-13.375088
print	-10.943802
RES	-12.117363
▁explicit	-12.067060
▁CTX	-15.547356
▁GLfloat	-12.875691
complex	-12.330571
aa	-12.187596
lines	-12.025654
▁SHALL	-11.984534
com	-10.044986
▁netdev	-13.048095
▁instead	-11.539789
▁RE	-12.622496
▁later	-10.882890
RM	-12.503594
▁transform	-12.526808
▁DISABLE	-15.212719
▁wx	-12.601099
At	-11.830091
▁pdev	-14.303517
COM	-11.820139
GROUP	-12.132672
il	-11.615454
▁channels	-12.272793
LOW	-12.304591
▁allocate	-12.292987
RE	-11.298377
Multi	-11.807611
▁errors	-12.097328
▁WHETHER	-11.999897
param	-9.186902
▁BT	-13.059070
like	-11.330826
▁AUTO	-14.515117
HI	-12.257212
wr	-12.155630
fi	-11.550810
Or	-11.716628
STRUCT	-12.096060
▁DECREF	-17.505531
▁maximum	-11.919191
▁such	-10.560758
▁INPUT	-14.215993
DA	-11.909760
tls	-12.036072
▁master	-12.539812
VA	-12.092487
▁FAILURE	-13.188481
▁buff	-14.328470
▁delta	-12.947402
ea	-11.867429
CONF	-12.206564
IL	-11.869268
▁delay	-12.852771
AF	-11.618712
red	-11.399857
FUNC	-11.271608
CSR	-12.511210
▁methods	-11.589955
ature	-12.699003
Container	-11.906577
▁previous	-11.690848
TEXT	-12.074352
▁actual	-11.945361
Protocol	-11.785359
▁ABI	-13.212711
ins	-11.348692
aw	-12.439857
wl	-12.179701
split	-12.069521
SEC	-11.763303
ust	-13.045414
CNT	-12.571236
INIT	-11.141921
▁PYX	-18.718752
qp	-12.495862
Only	-12.425785
GE	-12.028513
▁possible	-11.340411
sv	-12.069922
▁OBJECT	-14.979281
comp	-11.259716
ADDRESS	-12.219264
▁flush	-13.170083
Component	-11.839464
▁timestamp	-12.639256
▁encoding	-12.619438
sig	-11.559818
▁ARISING	-12.155108
▁both	-10.844840
▁Apache	-11.979039
ram	-11.851606
ost	-12.927776
PA	-11.930866
CT	-12.014951
dx	-12.320061
LINK	-12.053408
▁kind	-12.080577
Style	-11.668769
Row	-11.872092
vl	-12.479725
MI	-11.820017
MUX	-12.209733
RB	-12.129404
TIMEOUT	-12.198752
LD	-12.126970
▁METHOD	-15.767478
EXIT	-11.774866
NL	-12.141720
▁sin	-13.550342
▁different	-11.027016
▁step	-12.122810
vars	-12.250085
MA	-11.920202
▁points	-11.568905
▁keep	-11.676200
Settings	-12.010894
▁simple	-12.065051
work	-11.209284
dl	-11.942382
▁too	-11.238753
▁screen	-12.380777
▁uni	-14.086453
Height	-11.959670
VER	-12.092356
US	-11.396635
face	-12.222214
BF	-12.162988
▁FAIL	-12.917761
▁async	-12.931480
▁builtin	-13.692589
Term	-12.306352
▁mapping	-12.692350
adj	-13.002105
manager	-12.245297
EW	-12.445913
GET	-10.648402
▁post	-11.844387
▁segment	-12.591653
JS	-11.966051
CACHE	-12.162503
▁WINAPI	-11.875813
snprintf	-12.356631
sem	-12.075199
by	-10.825938
▁INTERNAL	-15.373795
receive	-12.377506
▁CONTRIBUTORS	-12.036212
ort	-11.951451
proxy	-12.416927
▁safe	-12.533969
▁elem	-13.750310
▁including	-10.920001
▁present	-11.560447
aux	-11.998580
NC	-11.983664
Socket	-12.068058
IV	-12.047411
▁crypto	-12.829243
▁items	-12.368328
▁multiple	-11.450277
Network	-12.133382
ind	-12.067960
RANGE	-12.222587
bio	-12.129841
rea	-12.389030
NR	-11.979223
▁would	-10.177641
RESULT	-11.975386
▁TODO	-12.013836
SA	-12.245596
cycle	-12.516782
▁compute	-12.333975
bot	-12.059506
▁machine	-12.362931
▁area	-11.178548
bucket	-12.478564
Option	-12.088494
▁xFE	-19.236634
rpc	-12.166217
WS	-12.298826
Auto	-12.132287
▁YY	-12.381157
▁apache	-14.615200
way	-11.862717
Close	-11.649303
▁merge	-12.615108
▁layout	-12.531601
▁original	-11.272302
sta	-12.087860
ment	-10.762887
ot	-11.884710
▁edge	-12.401221
▁external	-12.180967
Video	-11.982665
Cell	-11.735056
NT	-11.931583
Box	-11.585865
▁ipv	-13.590784
job	-12.636301
▁ROM	-13.281207
▁caller	-12.151405
▁example	-11.245302
▁warning	-12.382728
ae	-11.567973
fr	-12.199459
Location	-11.327852
ice	-12.093968
▁what	-10.423305
sensor	-12.556760
▁https	-12.019792
▁report	-12.018966
▁execute	-12.301108
fw	-12.038719
limit	-11.402751
copy	-10.758367
sr	-12.029168
▁nb	-13.288619
GR	-12.309082
Compare	-12.193789
tp	-11.084321
wm	-12.199820
▁APP	-12.615770
ii	-11.702839
family	-12.133044
▁factor	-12.227147
▁signed	-13.317587
Pool	-11.755925
WIDTH	-12.224583
profile	-12.283072
▁PyErr	-12.301825
▁database	-12.046643
pe	-11.444665
Double	-12.135022
▁OTHERWISE	-12.192636
▁attributes	-12.240510
Active	-11.875076
WAIT	-12.233504
ARE	-11.598491
Render	-12.053423
▁vtk	-12.168644
dot	-12.012857
ise	-12.266859
▁copies	-11.769484
▁video	-10.958273
▁Tcl	-12.405555
Def	-11.941685
phy	-11.676208
MESSAGE	-12.196957
compress	-12.341444
▁endpoint	-12.590770
▁zval	-14.000226
wp	-11.823817
conv	-12.283058
▁registers	-12.170633
SOURCE	-12.230583
owner	-12.151635
unused	-12.593152
BACK	-12.112977
ids	-11.912033
case	-8.549394
Sync	-12.104471
AND	-11.706373
Real	-12.312219
BN	-12.182271
half	-12.736816
▁stmt	-14.284286
▁cluster	-12.554104
bound	-11.833723
▁until	-11.062199
loop	-11.520815
cu	-12.033184
Counter	-12.094223
▁TORT	-12.152209
POINT	-12.114513
Vk	-11.945911
tk	-12.361139
▁instruction	-12.190786
TH	-11.752602
▁calls	-12.023865
▁DAC	-13.390901
PI	-11.913568
▁custom	-12.573514
next	-10.122030
▁constant	-12.324003
EE	-12.396255
▁APB	-14.252104
eth	-12.003097
▁PAGE	-13.535451
POWER	-12.196177
▁BAD	-14.690244
DD	-12.173082
poll	-12.044307
▁wchar	-13.050013
expr	-11.658143
▁NRFX	-12.050663
▁encode	-13.730141
THREAD	-12.043579
▁during	-10.683137
▁apply	-12.166979
▁SOC	-13.502453
Private	-12.363097
Inst	-12.398131
FR	-12.407522
boolean	-12.034974
▁WARRANTY	-11.947965
axis	-12.696950
▁initial	-12.098258
LT	-12.465945
bm	-12.353830
SYMBOL	-12.092407
JSON	-11.961493
plane	-12.538114
▁rect	-13.467980
▁policy	-12.059082
Variable	-12.109579
▁EXTERN	-12.651887
et	-11.093369
flash	-12.654355
pix	-12.411997
Sample	-12.066274
angle	-12.208151
FN	-11.930790
lt	-12.131850
▁usage	-12.234212
STOP	-12.367354
bool	-9.634414
REGISTER	-12.224034
▁When	-11.163697
▁mbedtls	-12.644679
LOCAL	-12.156490
ept	-13.369827
▁force	-12.147083
▁pixels	-12.765723
grid	-12.608888
zone	-12.374986
Wait	-11.959578
generate	-12.607298
DESC	-12.239480
media	-12.018329
ALIGN	-12.198966
▁running	-11.748099
▁within	-11.107510
NEW	-12.067643
▁ETH	-13.206212
notify	-12.138332
▁sprintf	-12.876205
temp	-11.110834
▁OUTPUT	-14.633248
ADC	-11.778715
edit	-12.501736
hook	-12.231955
▁doesn	-11.651365
▁audio	-12.612493
conn	-10.906734
light	-12.008025
Stmt	-12.079219
Content	-11.687353
▁below	-11.380097
▁engine	-12.660390
lineno	-12.928915
Define	-13.905267
▁track	-12.019759
sock	-11.470833
pw	-12.473655
▁direction	-12.204820
Pre	-12.254639
Region	-12.251607
Interrupt	-12.770867
▁obtain	-11.636140
UTF	-12.280475
▁DIRECT	-12.557461
cv	-12.228336
▁serial	-12.797621
fix	-12.230280
▁fixed	-12.379647
Stop	-11.912456
LONG	-11.366749
ff	-10.968162
EC	-11.686953
▁slave	-12.839731
▁glGet	-13.281305
Run	-12.338082
▁protobuf	-14.321771
Assert	-11.964529
▁TARGET	-13.528390
ISR	-12.601136
world	-12.248008
mu	-11.890073
▁eval	-13.701355
partition	-12.673861
ls	-11.623993
▁best	-11.343178
pic	-12.423131
frames	-12.675678
▁ESP	-12.830339
Build	-11.928813
UInt	-12.306061
CLR	-12.573298
HasBeenSet	-12.436692
PRINT	-12.246508
trace	-11.640270
▁random	-12.431274
cipher	-12.238909
▁results	-10.787376
▁feature	-12.126166
dist	-11.848945
▁take	-11.233794
▁NVIC	-12.774377
▁identifier	-12.532830
▁CRC	-13.182001
▁avoid	-11.949403
rq	-12.420917
Destroy	-11.890158
Enabled	-12.177290
▁WARNING	-13.681036
Has	-12.308658
WR	-12.242267
▁disabled	-12.314872
▁pop	-12.292661
crypt	-11.618655
▁sure	-11.550552
render	-12.097556
disp	-12.491492
mx	-12.581125
FEATURE	-12.313133
▁variables	-11.892691
▁MONO	-12.868298
FA	-12.058255
RO	-12.087218
EB	-12.257198
plan	-12.131971
oc	-11.567811
own	-12.475136
Common	-12.239822
upper	-12.734563
COMMAND	-12.379734
nk	-12.259726
▁nodes	-12.520579
▁insn	-13.443417
vc	-12.214909
▁unknown	-11.812997
ANT	-12.182383
▁throw	-12.475205
RST	-12.755501
▁SQLITE	-12.521814
font	-11.679492
math	-10.812212
socket	-11.475455
Builder	-11.978964
▁QString	-12.470504
▁SPECIAL	-12.313787
Oid	-12.156667
top	-11.086898
cx	-12.382210
▁stored	-12.135983
▁needs	-11.814902
PWR	-12.640652
ABLE	-11.745154
▁APIENTRY	-12.454007
ator	-11.349043
▁none	-11.954176
▁forward	-12.192283
support	-12.153834
ws	-12.125577
ha	-11.618046
▁definition	-12.096684
▁NAMESPACE	-15.076833
Word	-12.353114
▁synthesize	-15.900270
ency	-12.119322
Generic	-12.062438
▁properties	-11.845439
▁permissions	-11.822947
▁interval	-12.977456
▁special	-11.625705
▁sha	-14.013342
bs	-11.932324
▁stdio	-15.064911
Net	-11.804563
DM	-12.246508
CLEAR	-12.354538
hp	-12.106752
probe	-12.487501
boot	-11.956281
BA	-12.206243
▁xfe	-20.959187
Spec	-12.051476
▁fetch	-13.401783
▁buffers	-12.577378
stats	-11.378918
alias	-12.744026
STD	-12.025302
USB	-11.381797
ACTIVE	-12.309758
CREATE	-12.367230
Vertex	-12.154858
Scan	-12.108537
Shader	-12.225161
ance	-11.396819
ACCESS	-12.225297
Graph	-12.111979
root	-11.208857
fa	-11.897980
KERNEL	-12.259992
LABEL	-12.328297
ren	-12.133839
Unit	-12.252339
▁fff	-20.750771
ive	-11.492894
▁native	-12.275894
PK	-12.585137
▁FAR	-13.704357
ENUM	-12.285294
abi	-12.270322
▁DEFINED	-16.303321
▁allowed	-11.950699
title	-11.877112
TI	-12.326679
wrapper	-12.209653
dynamic	-12.542902
▁subject	-11.645813
GPU	-12.251628
▁ACPI	-12.522680
Loc	-12.196883
▁operations	-11.735390
ble	-11.973322
html	-11.553204
Shape	-12.262682
slot	-11.610429
CPU	-11.699012
alt	-11.975259
▁mesh	-13.242252
SUPPORT	-11.486540
HIGH	-12.454464
▁WM	-12.513770
resp	-12.411079
AV	-11.654184
Up	-11.989685
NOT	-10.941867
▁StringCopy	-17.575913
▁transport	-12.118819
CONFIG	-10.188258
tom	-12.360373
Any	-12.588832
CO	-12.246211
MOVE	-12.462984
SB	-12.275556
IMPL	-12.315158
▁threads	-12.688404
ULL	-12.610675
True	-12.271572
drop	-12.273500
sk	-10.873623
Web	-12.032743
tty	-12.227428
nt	-11.758967
ger	-11.883606
▁destination	-12.314753
INDIRECT	-12.222078
▁columns	-12.501050
one	-10.845756
▁allocator	-13.019607
▁stm	-13.225876
Search	-12.241226
▁overflow	-12.444757
Power	-12.515219
tbl	-12.418404
BUS	-12.381485
filter	-11.239685
▁dispatch	-13.025927
ant	-11.489550
▁how	-10.862414
Setup	-12.221061
tor	-11.353246
operand	-12.660090
▁initialized	-12.411405
guard	-13.017797
▁uses	-11.395778
blob	-12.697374
MIN	-11.181085
PARAMETER	-12.263596
▁xffffff	-44.437698
Widget	-11.988212
▁PY	-13.300637
mouse	-12.674651
Mesh	-12.278886
most	-12.561581
▁express	-11.959508
Cluster	-12.303947
IA	-12.242996
ADD	-11.626078
Non	-12.128929
Save	-11.985239
ONLY	-12.135324
BSD	-12.079365
Driver	-12.070554
rb	-11.652757
man	-10.197226
BD	-12.139410
cpp	-12.281599
txt	-12.196987
number	-10.918091
Convert	-12.082284
HP	-12.053718
mf	-12.536935
Surface	-12.231126
SAM	-12.933677
rand	-12.409326
sup	-12.612254
Can	-12.436820
rx	-11.002130
▁headers	-12.684711
ready	-12.442945
▁lambda	-13.908950
Step	-12.312016
sql	-12.183758
Column	-12.140749
imm	-12.542890
Delegate	-12.268874
ole	-12.122581
EA	-12.450304
MF	-12.136632
▁aws	-15.427059
AE	-12.325897
NF	-12.736391
▁backend	-12.918285
gre	-13.170675
▁derived	-12.016947
SYSTEM	-12.333056
Capture	-12.433766
Alloc	-12.323763
weight	-11.929822
Pass	-12.396610
SE	-11.631588
TREE	-12.388628
Err	-11.953418
ver	-11.283062
Proc	-12.207451
CHECK	-11.020794
fmt	-11.717352
pv	-12.020299
▁STRICT	-12.398298
▁soc	-13.780595
Properties	-12.011411
LV	-12.355599
HD	-12.104580
DL	-12.278626
Policy	-12.227784
Lib	-12.024430
Reader	-12.094516
Script	-12.048953
WARN	-11.807509
DEBUG	-10.509310
iod	-13.429499
dr	-11.770839
▁esp	-13.425816
Application	-11.871332
LY	-11.978892
ctxt	-12.379634
long	-10.625447
rank	-12.585937
condition	-12.529265
cost	-12.581851
wc	-12.420031
RET	-12.101261
fifo	-12.510141
vf	-12.649906
IX	-11.936341
CAL	-12.859807
tid	-12.409205
DI	-12.288524
ization	-11.581382
VPROC	-12.387138
▁uuid	-13.883596
Program	-12.180051
Insert	-12.237160
que	-11.786175
hw	-10.954446
▁fini	-15.617878
▁prior	-11.621039
Types	-11.806488
▁completion	-12.542727
indices	-13.033080
▁amount	-11.950778
constr	-12.798777
rr	-12.308606
reader	-12.546603
inner	-12.517182
▁might	-11.338150
Left	-12.213173
UPDATE	-12.383420
Allocator	-12.287725
BT	-11.783966
▁means	-11.567729
ne	-11.113194
Helper	-12.118948
ATTRIBUTE	-12.445326
RSA	-12.437868
▁included	-11.362559
TIMER	-11.864805
dummy	-12.786245
dec	-10.159769
batch	-12.800512
QUEUE	-12.366119
nor	-12.675450
Factory	-12.011952
▁applicable	-11.826462
tuple	-11.667296
run	-11.011834
match	-11.122219
unk	-12.797011
mov	-12.041657
dns	-12.538058
ACC	-12.638439
prop	-11.500696
Date	-12.049324
routine	-13.733159
SG	-12.355148
color	-10.846112
SQL	-11.980348
NUMBER	-12.355856
ig	-11.651735
▁threshold	-12.757211
REQUEST	-12.320130
▁utf	-13.385893
▁XK	-13.333241
return	-7.315944
▁compliance	-12.026446
KHR	-12.574270
FAILED	-12.189112
Used	-12.219801
It	-11.553369
▁uintptr	-13.400178
client	-10.765458
▁contents	-12.400734
▁grpc	-13.263248
Move	-12.140597
▁via	-11.788783
rl	-12.210350
ssl	-11.445973
timer	-11.333473
▁EC	-12.794272
Win	-11.707519
▁ignore	-12.461941
▁strong	-11.999472
typ	-12.460355
▁least	-11.508744
mr	-12.314378
NI	-11.520198
fname	-12.447798
De	-12.036163
PNG	-12.304481
LO	-12.341546
FL	-12.143299
Loop	-12.173801
SOCKET	-12.284176
▁currently	-11.655176
▁ieee	-13.044460
uid	-12.121391
Long	-11.793640
Attributes	-12.214730
decl	-11.878232
VALUE	-11.163802
cookie	-12.705064
CY	-12.371458
▁modification	-11.965756
DEC	-11.141538
Pixel	-12.356361
sets	-12.767624
SERVER	-12.034823
▁sockaddr	-12.481083
Scalar	-12.351834
▁xmm	-13.666981
Values	-12.145742
▁AWS	-12.960220
ize	-11.623971
RATE	-12.370236
play	-12.039264
Trigger	-12.362476
COLOR	-11.272728
center	-10.722210
Begin	-12.140018
aint	-12.930311
RING	-12.307111
params	-10.948275
Src	-12.430256
▁strings	-12.406628
▁Licensed	-12.328668
EVENT	-11.344668
Raw	-12.191538
SF	-11.719241
▁stage	-11.540554
▁isl	-13.295186
crc	-12.643127
▁useful	-11.913650
▁exists	-12.236438
utils	-12.111572
One	-12.028042
▁allocation	-12.333289
selection	-13.024354
▁messages	-12.233154
closure	-12.581258
FW	-11.897093
▁OPENSSL	-12.408676
IB	-12.186770
ACK	-12.428071
version	-10.941549
ENC	-12.603436
Allocate	-12.270226
▁small	-11.454918
▁yych	-16.320709
▁BCM	-12.747954
START	-11.580084
BM	-12.540975
dh	-12.557898
▁features	-11.774699
LEVEL	-11.504143
▁distance	-12.251716
Priority	-12.438149
DONE	-12.593847
OBJECT	-11.426845
Dir	-12.227880
Root	-12.231690
writer	-11.967779
ut	-11.661509
DLL	-12.366076
ck	-11.799073
▁requested	-12.269768
struct	-8.514426
uri	-11.996217
▁jl	-13.779635
AST	-12.300125
▁characters	-11.269828
WAY	-12.415324
ZERO	-12.288910
ve	-11.221382
▁RV	-15.563347
Section	-12.402037
nat	-12.406486
Export	-12.375412
Ext	-12.397263
Extension	-12.178616
sleep	-12.264331
Integer	-11.975344
Profile	-12.265606
Off	-12.579461
left	-10.265891
SELECT	-12.417459
Instruction	-12.028713
player	-12.392048
▁GPL	-13.322663
▁met	-11.461076
DOUBLE	-12.403038
▁UNKNOWN	-14.604516
PH	-12.407220
▁VOID	-11.382385
bp	-11.564232
bh	-12.334520
Native	-12.413837
▁UNICODE	-13.305005
Low	-12.737124
MIT	-11.948182
Information	-12.286406
TOP	-12.306752
▁secp	-13.182510
lx	-12.955825
exc	-12.574415
lex	-12.801896
Const	-12.346623
GLOBAL	-12.318746
hex	-12.381305
▁standard	-11.885787
▁still	-11.064653
Compute	-12.308728
▁did	-10.871732
digest	-12.529529
att	-12.347842
▁hardware	-12.194938
SCAN	-12.495323
ALLOC	-12.363467
route	-12.701396
IDX	-12.640365
NE	-11.826616
clip	-12.306123
project	-12.635574
BL	-12.078336
device	-10.176825
gr	-12.123343
ECC	-12.760708
tables	-12.792013
CG	-11.897301
inc	-10.579588
maj	-14.348137
▁prepare	-12.965428
Tuple	-12.264689
CV	-12.294028
▁materials	-11.802354
▁samples	-12.590468
ND	-12.105791
Proxy	-12.316406
Sequence	-12.311091
SO	-11.832264
ping	-12.117580
NB	-12.545697
strdup	-12.479619
attach	-12.549563
warn	-12.021801
Screen	-12.070302
Transaction	-12.196613
▁algorithm	-12.385329
▁WINED	-12.981893
Parent	-12.225393
▁xffffffff	-22.027928
▁negative	-12.223804
Trace	-12.375548
Expression	-12.147618
▁HOLDERS	-12.263163
▁LOSS	-12.466596
SYS	-11.148991
▁limitations	-11.480715
tensor	-12.616974
MPU	-12.973809
exist	-12.399474
mutable	-12.732146
cos	-12.460428
mux	-12.654759
DIO	-12.938817
target	-10.926448
ting	-11.441834
INTEGER	-12.480829
▁calling	-12.133354
▁PyLong	-13.153616
External	-12.641182
commit	-12.645612
Scale	-12.257125
sn	-11.946755
▁constructor	-12.164714
▁extract	-12.861854
POINTER	-12.451873
expand	-12.841820
Changed	-12.263589
inv	-12.281820
ef	-10.215617
Child	-12.207398
▁IRQn	-14.764908
ty	-11.136382
bg	-12.112301
▁soap	-12.974432
phase	-12.850662
DOWN	-12.440563
Transfer	-12.372991
▁encoder	-13.398548
leaf	-12.741218
▁governing	-11.878914
we	-12.164578
ATOM	-12.564921
▁additional	-11.483263
detail	-11.924331
▁BASIS	-12.307605
tl	-12.215063
PART	-12.448390
big	-12.265101
Valid	-12.269012
TypeDef	-12.042253
▁aligned	-13.791672
HDR	-12.603334
SEQ	-12.762204
None	-11.539139
High	-12.622921
▁RESERVED	-13.189697
Metadata	-12.377841
sched	-12.460567
Scope	-12.296559
ga	-11.758710
Rate	-12.367215
Provider	-12.376619
▁devices	-12.242580
fv	-12.601841
▁large	-11.514089
TT	-12.381738
▁their	-9.983071
schema	-12.680734
MU	-12.723357
▁SYSCTL	-13.024193
▁alignment	-12.618932
TF	-12.464650
Edge	-12.309203
ICAL	-12.322346
Ch	-12.579535
zip	-12.543617
use	-9.882266
EMPTY	-12.429761
TP	-12.076311
Zero	-12.186571
TA	-12.436708
Right	-12.296464
▁CONSEQUENTIAL	-12.373451
▁bounds	-12.915413
Engine	-12.093438
▁restrict	-13.643599
IEN	-13.446240
▁USBD	-13.296359
▁another	-11.137824
wait	-11.294320
PID	-12.656178
Menu	-12.152440
HT	-12.549256
Ret	-12.383793
PRIVATE	-12.535040
na	-11.100969
Report	-12.565117
bv	-12.785689
▁permitted	-11.997578
wrap	-12.419537
acl	-12.602657
▁intel	-13.570187
▁CONDITIONS	-12.212557
cy	-11.984312
FORCE	-12.505607
frag	-12.280430
label	-10.889571
Kernel	-12.413246
EF	-12.007827
RUN	-12.566045
nn	-12.348544
FFF	-11.952773
iov	-12.803656
TEMPLATE	-12.809597
http	-10.830490
opa	-13.094869
▁psz	-13.124785
Standard	-13.151640
▁These	-11.416707
ML	-12.166565
volume	-12.966683
▁hwnd	-13.418474
Attr	-12.522339
VP	-12.277799
RW	-12.524200
Created	-12.398676
▁PyUnicode	-13.101239
▁vacc	-13.822125
ACT	-12.304832
Selection	-12.268690
Slot	-12.504192
Temp	-12.368036
CHIP	-12.658208
Scene	-12.317982
▁relation	-12.788203
scsi	-12.630106
▁INCIDENTAL	-12.415532
TRACE	-11.578152
▁interp	-14.190443
▁kInstruction	-13.067211
comm	-12.552507
EL	-12.172823
Structure	-11.884645
hut	-13.514221
TASK	-12.525839
XXX	-12.373812
▁padding	-12.845122
Timeout	-12.424873
dup	-12.574135
vert	-12.333129
security	-12.717916
▁collection	-12.033619
▁progress	-12.453426
▁CWindows	-23.130555
ng	-11.665337
Main	-12.235310
Cursor	-12.408838
CONN	-12.513145
▁IEEE	-13.141212
Receive	-12.576360
INSTANCE	-12.686761
▁summary	-11.743605
prog	-12.338036
MATRIX	-12.727947
GT	-12.197923
adc	-12.667698
DRIVER	-12.505618
names	-11.847326
▁BIO	-12.968878
image	-10.836728
ag	-11.908731
AUDIO	-12.594335
compile	-11.783957
FULL	-12.599392
READ	-11.206244
PASS	-12.271051
matrix	-11.768326
▁errmsg	-13.069364
▁scene	-12.532187
mgr	-12.664886
dis	-10.514959
▁xdc	-14.931847
▁ioctl	-13.830354
cont	-12.212118
sq	-12.506905
atom	-11.802974
step	-11.941577
▁never	-11.336621
DRV	-12.740276
▁PROFIT	-12.525531
SV	-12.426256
mg	-12.819732
▁saved	-12.650957
▁GTEST	-13.058789
vk	-12.565088
ph	-11.935321
▁forms	-11.867352
band	-11.950148
select	-11.496262
ers	-10.381626
hf	-12.785384
rev	-12.347503
▁changes	-11.609320
▁clang	-12.657673
FUN	-12.504856
Heap	-12.444901
alg	-12.586119
▁wined	-12.953446
▁IDirect	-12.902850
tick	-12.418185
pu	-12.320264
server	-10.999579
SZ	-12.617940
Document	-12.183202
EQUAL	-12.666057
▁commands	-12.489486
GS	-12.304025
js	-11.845646
gpu	-12.545471
EXTPROC	-12.699298
tok	-12.477268
glyph	-12.637570
hold	-12.979736
stride	-11.801990
create	-10.746805
tex	-12.628302
▁SUCH	-12.022795
ter	-11.629546
Static	-12.359948
vb	-12.727161
env	-11.324037
▁removed	-12.089661
cancel	-12.559876
led	-11.565520
tri	-12.553710
GUI	-12.351705
BUTTON	-12.630221
Endpoint	-12.606560
▁SECTION	-14.147529
▁PROTOBUF	-13.770610
ave	-12.620748
DEVICE	-11.349232
pn	-12.663445
rw	-12.522339
comment	-12.746485
attrs	-12.579024
Devices	-12.912769
▁FEAT	-12.206564
▁NON	-14.980113
▁ImGui	-12.756642
Usage	-12.144702
Dynamic	-12.412326
Limit	-12.471210
▁IPV	-14.111471
Constant	-12.427132
pdu	-12.958566
Uint	-12.520640
hs	-12.191376
Part	-12.415860
Append	-12.430277
▁Unless	-12.155877
▁inputs	-12.734478
▁SERVICES	-12.546713
▁WINRT	-13.239913
This	-10.438874
monitor	-12.859692
MULTI	-12.295855
▁ostream	-14.991901
dim	-11.870506
▁shall	-11.791315
LS	-12.357840
Simple	-12.217321
effect	-12.747085
Shared	-12.360924
ONE	-11.754301
MX	-12.250393
▁conversion	-12.389291
patch	-12.228958
ATION	-11.966531
dump	-11.673048
header	-10.807654
▁mrb	-13.142183
OB	-12.101558
eat	-12.763063
ax	-12.639100
PRIORITY	-12.583204
▁apr	-12.842714
SEND	-12.601749
ei	-12.371898
icon	-12.370405
▁xfc	-16.522144
um	-11.315413
Mac	-12.624691
▁reinterpret	-13.337428
Mark	-12.547501
▁NEGLIGENCE	-12.599893
▁POSSIBILITY	-12.225958
▁ADVISED	-12.550441
Order	-12.207412
Mono	-12.156303
▁DAMAGE	-12.006522
▁etc	-12.079801
▁password	-12.788310
Macro	-12.258082
Player	-12.424605
▁DISCLAIME	-12.426886
NA	-12.180571
▁capacity	-12.714626
SK	-12.017113
unit	-11.537823
ASSERT	-10.808946
OT	-12.391413
escape	-13.125828
sample	-11.543952
▁many	-10.842568
Fill	-12.453188
HEAD	-12.320872
Full	-12.533864
VIDEO	-12.496353
rtc	-12.335405
STA	-12.491388
SPACE	-11.666909
magic	-12.573650
Stats	-12.300866
rf	-12.487215
▁NSObject	-12.597736
cpu	-10.973188
▁correct	-12.171087
only	-10.984111
▁agreed	-11.910799
▁statement	-11.997504
Mat	-12.923290
save	-11.328904
web	-12.068489
▁good	-11.191441
border	-12.583996
sid	-12.205042
▁WCHAR	-12.982752
▁tests	-12.309067
▁ecs	-12.776596
caps	-12.678763
HS	-12.405723
▁containing	-12.018643
PRI	-12.616796
Custom	-12.275810
PROPERTY	-12.596901
right	-10.468502
AUTH	-12.412144
VALID	-11.130619
▁again	-11.232043
▁PUBLIC	-13.700435
LC	-12.359824
der	-11.804947
Ctx	-12.528813
CAN	-12.130259
▁packets	-12.876566
Collection	-12.354450
Light	-12.509902
visit	-12.965827
▁Redistribution	-12.351029
double	-10.337156
bn	-12.573611
hd	-12.439495
▁reproduce	-12.326713
MATCH	-12.636254
ub	-12.362369
ALPHA	-12.657714
DSP	-12.761246
Entity	-12.340226
▁resources	-12.168230
Game	-12.542226
zx	-13.302827
cause	-13.014184
action	-11.123742
STORE	-12.681689
▁xaa	-20.590098
▁catch	-12.132984
▁times	-11.598787
SYM	-12.705087
LIMIT	-12.608776
input	-10.609109
CASE	-12.390305
▁corresponding	-12.189986
FF	-10.247055
▁enough	-11.701591
Res	-12.710972
Switch	-12.287709
▁peripheral	-12.613264
rgb	-12.840733
▁mlx	-13.258268
EXP	-11.958540
Form	-12.067463
▁arena	-13.745260
gate	-11.969199
tv	-11.759825
Col	-12.502531
Post	-12.407748
▁HOWEVER	-12.519705
▁seconds	-12.493111
BU	-12.670152
TOKEN	-12.573066
lb	-12.483222
▁Sk	-12.468618
Push	-12.389826
▁framework	-13.008691
GUID	-12.659412
Io	-12.527751
▁PFNGLGET	-12.618587
om	-12.103463
▁ensure	-12.344346
document	-12.203250
words	-12.662060
▁xcb	-13.741935
MODULE	-11.528160
strcpy	-12.492032
SIMD	-12.725212
Symbol	-12.484850
Show	-12.438265
▁ENOMEM	-14.161769
RPC	-11.549257
Body	-12.188157
▁restore	-12.834693
OSC	-13.066108
hard	-12.475036
perf	-12.667110
neg	-12.222759
OFFSET	-11.586844
▁CAUSED	-12.537224
MODEL	-12.736778
PACKET	-12.691607
aff	-12.945265
Mod	-12.450873
inter	-10.914099
Edit	-12.069626
day	-11.672356
nx	-12.757508
▁interrupts	-12.679855
cg	-12.728787
▁modified	-12.409240
▁defines	-12.227899
td	-11.294377
curve	-13.039664
Boolean	-12.376544
▁XDECREF	-20.755549
clean	-11.811974
pow	-13.102693
soft	-12.314895
qual	-12.438139
CFGR	-13.394216
consume	-12.939472
can	-11.356080
Depth	-12.478502
▁matches	-11.985633
fg	-12.674250
DNS	-12.541690
po	-11.874693
▁future	-11.898365
CAST	-12.573943
vlan	-12.850544
REGION	-13.032114
GO	-11.954897
▁know	-11.006276
UC	-12.466305
app	-11.190533
▁BUSINESS	-12.587045
▁SUBSTITUTE	-12.579056
UE	-12.448772
▁existing	-12.183600
MENT	-12.335652
▁yet	-11.728285
grp	-12.609393
My	-11.917010
▁packed	-13.443370
▁nothing	-11.744852
▁processing	-12.265218
PKT	-12.871869
▁contain	-12.300403
LEFT	-12.562178
▁GOODS	-12.579856
nil	-12.713179
lnum	-12.801739
▁NGX	-12.635828
Empty	-12.283144
last	-10.751398
cli	-12.617624
PATCH	-12.611013
WIN	-11.206990
norm	-12.693746
▁extent	-12.801610
▁PROCUREMENT	-12.560703
RESOURCE	-12.615011
RIGHT	-12.407049
Co	-11.983127
Req	-12.755234
linear	-12.879969
Permission	-12.501939
VIEW	-12.488866
NORMAL	-12.599860
WINDOW	-12.147268
▁necessary	-11.897630
export	-12.438831
Material	-12.237098
Normal	-12.403459
inf	-12.248203
SHADER	-12.745254
▁relative	-12.411475
pred	-12.719336
FX	-12.524601
MISC	-12.957059
▁INTERRUPTION	-12.600461
▁along	-11.487527
let	-11.740753
hand	-11.979880
▁offsetof	-13.324869
TK	-12.429870
hr	-11.665978
scroll	-12.786595
eap	-12.784489
▁THEORY	-12.512130
QUERY	-12.590994
Dev	-12.428971
ln	-12.328490
FAST	-12.573224
udp	-12.770239
▁ZVAL	-15.914334
VECTOR	-12.686022
dst	-11.014988
▁validate	-13.034773
ARCH	-12.446111
SN	-12.327789
▁duration	-12.835585
▁stdout	-13.439124
▁dirty	-13.332033
reduce	-13.011812
su	-12.051391
rect	-12.049409
VL	-12.954575
Xaml	-13.622571
gid	-12.841756
▁sctp	-13.357946
▁redistribute	-12.416406
method	-11.184377
score	-12.686420
▁remaining	-12.385446
Binary	-12.504060
▁callbacks	-12.902152
AMD	-12.664394
▁initialization	-12.507905
UV	-12.610160
▁lapack	-13.151464
calloc	-12.970297
cn	-12.697002
const	-8.720517
DX	-12.414010
▁EXEMPLARY	-12.556184
span	-11.685291
minor	-12.820872
VS	-12.224465
Operand	-12.781325
builder	-12.464522
▁successful	-12.043926
Platform	-12.138971
tf	-12.500449
MAKE	-12.640137
▁granted	-12.147105
user	-10.709296
▁pointers	-12.576193
kw	-12.515912
Rec	-12.452025
Success	-12.213860
▁published	-11.146034
BYTES	-12.863099
mount	-12.073109
▁products	-11.808573
▁expect	-12.987857
debug	-11.028628
LAST	-12.572384
verse	-12.590598
▁cached	-13.139533
Sys	-12.371554
FM	-11.883870
Notify	-12.531765
VR	-12.245161
▁PLAT	-13.932982
▁were	-9.784618
Dialog	-12.326997
Json	-12.471108
rial	-14.487563
▁APORT	-14.853994
Remote	-12.551819
eric	-12.305742
SSL	-11.178092
Iter	-12.550250
source	-11.008020
▁requires	-12.282181
TB	-12.725042
▁INET	-13.964165
agg	-12.746357
game	-12.611744
Fixed	-12.548309
▁windows	-13.150573
groups	-12.717276
Tab	-12.468867
Total	-12.526102
Work	-12.696529
order	-11.415317
CIPHER	-12.755811
plus	-11.139149
Pattern	-12.481926
au	-11.899233
Http	-12.443918
cols	-12.483938
pub	-12.296331
Bitmap	-12.607986
Mutex	-12.539772
points	-12.222771
put	-10.887390
▁rdev	-14.887357
dn	-12.593699
▁listener	-13.454736
visible	-13.062128
STATS	-12.641982
Track	-12.537426
hint	-13.097588
▁glUniform	-13.885554
clone	-12.638110
logical	-12.334282
LAB	-12.392895
well	-12.053818
▁rtl	-14.209337
factor	-12.447792
▁xFC	-87.803459
Feature	-12.340961
▁requests	-12.501150
VERIFY	-12.845410
UDP	-13.003964
archive	-12.832371
INTR	-12.764062
Face	-12.374885
▁promote	-12.334737
role	-12.843795
ary	-10.657776
Unknown	-12.092076
▁encoded	-12.947863
tool	-12.703670
sim	-12.378267
old	-10.780509
Dictionary	-12.202566
mit	-11.744163
ORDER	-12.380010
rn	-12.389193
Exit	-12.122586
▁author	-11.684268
known	-12.029123
Support	-12.766132
▁FIXME	-12.746671
▁xFFFE	-87.803459
BS	-11.709313
Import	-12.488518
HANDLE	-11.375459
HCI	-12.731450
widget	-12.404020
▁xef	-25.107500
▁limits	-13.155257
▁AHB	-14.729024
▁every	-11.425690
REAL	-12.602293
pk	-12.675691
▁PyTuple	-13.270025
pcb	-12.935693
buff	-11.852687
▁erase	-13.378062
Comp	-12.562538
▁dpy	-15.136202
▁SERCOM	-14.355938
Fn	-12.872522
Project	-12.641429
▁directly	-12.004988
▁camera	-12.954059
Configure	-12.524310
▁insertion	-13.852519
Security	-12.648716
wd	-12.659340
Graphics	-12.522183
CONST	-11.793137
MV	-12.442843
ANS	-13.540639
fold	-12.567993
▁pname	-13.024266
urb	-12.722194
PIPE	-12.722751
ath	-12.451025
Red	-12.871324
category	-12.902207
▁updated	-12.428709
FT	-12.001913
ru	-12.090991
ident	-12.096951
OPTION	-12.506962
PRESC	-14.192395
Runtime	-12.421834
indent	-12.600811
Member	-12.533621
elem	-11.955772
▁gnu	-14.971544
Camera	-12.448941
▁retry	-12.710817
ating	-11.983230
gui	-12.396135
▁decoder	-13.462432
▁persistent	-13.768576
TEMP	-12.780941
schedule	-12.547239
Single	-12.645458
▁xbf	-22.681310
MARK	-12.673782
CURRENT	-12.795404
FIRST	-12.650362
▁BPF	-13.832154
VC	-12.573276
hid	-12.342502
dims	-12.894747
▁GOTRE	-20.603411
▁nullable	-13.219059
▁mpi	-14.785500
Account	-12.514775
configure	-12.948082
mid	-12.632121
Signature	-12.520260
capture	-13.138468
▁CWE	-13.146048
local	-10.925963
▁vcpu	-14.514158
traits	-12.709257
▁Amazon	-12.540643
mapped	-13.249992
jump	-13.186125
Generator	-12.571477
▁SWIFT	-13.317036
SAMPLE	-12.848786
▁IID	-13.774425
▁svn	-13.129456
▁warranty	-12.278540
▁assignment	-12.665988
VERTEX	-12.718848
PACK	-12.281508
▁slots	-12.614637
publish	-12.433541
NU	-13.095346
ApplicationModel	-13.402140
gap	-12.899245
▁spdk	-13.288428
▁primary	-11.895382
ISO	-12.290726
bss	-12.840685
▁SCTP	-13.480220
nic	-12.619425
Functions	-12.223710
Master	-12.693044
cq	-12.983852
Maximum	-12.620229
std	-9.412257
Back	-12.412258
Argument	-12.507669
sink	-13.036643
Domain	-12.503897
▁rtx	-13.277028
Top	-12.376148
▁HandleTypeDef	-87.803459
▁TCC	-14.565471
malloc	-11.703650
▁SCB	-13.950901
Down	-12.424299
Void	-12.950767
PLAYER	-13.470084
shell	-12.791427
ling	-11.525348
Basic	-12.322146
INC	-11.197207
▁dimension	-12.839598
▁ACMP	-14.407888
▁verbose	-13.402805
▁likely	-12.353513
Tile	-12.851094
ASM	-12.628917
VI	-12.298124
ENT	-11.873678
precision	-13.183338
Job	-12.472612
▁minimum	-12.502122
options	-11.176913
▁distribute	-12.621914
mail	-12.621936
▁kvm	-13.507894
▁starting	-12.205760
bridge	-12.334276
tyObject	-13.711186
clear	-10.804816
▁glVertexAttrib	-13.854935
PU	-12.505781
ify	-11.765372
Gen	-12.343502
bank	-12.643714
pipe	-11.840141
Writer	-12.292205
UNIT	-12.729916
▁ignored	-12.598251
hci	-12.652409
▁outer	-12.922585
poly	-12.960448
gs	-11.923481
WDT	-13.214165
branch	-13.013937
▁LESENSE	-14.362356
▁git	-14.189654
Per	-12.496576
pkt	-11.891263
Relation	-12.357218
fault	-12.881869
vis	-12.513862
address	-11.034783
EVT	-12.958137
ness	-11.424715
nm	-12.949851
fm	-12.643410
▁certificate	-12.943749
SOCK	-12.757456
RR	-12.644435
inet	-12.483228
Segment	-12.731573
Constraint	-12.654916
kind	-11.871964
zero	-11.361415
▁background	-11.682546
FLT	-13.155113
TV	-11.450182
DH	-12.673630
Std	-13.013459
scratch	-13.313638
rk	-12.556912
Optional	-12.585108
DELAY	-12.845467
Interval	-12.683925
▁GLdouble	-13.546826
▁reading	-10.285427
Gr	-12.706818
▁BOOLEAN	-12.296989
▁MHz	-14.227694
bw	-12.962644
diag	-12.856954
hit	-12.956787
guid	-13.013339
FO	-13.074880
▁invoke	-13.273277
ur	-11.959221
intr	-12.691004
Other	-12.791668
ence	-11.992362
▁SUPPORTED	-15.335714
ah	-12.042148
fit	-12.957955
pll	-13.156547
▁dtype	-13.654195
cred	-12.879264
PAGE	-12.037839
SCALE	-12.930766
▁rarg	-19.116633
plugin	-12.670714
dat	-12.788779
IPv	-12.853395
SSE	-12.813180
Generated	-12.644843
Virtual	-12.408459
▁KERN	-14.430973
▁riid	-13.420582
▁execution	-12.466078
bias	-13.175189
▁kfree	-15.529136
▁sfr	-13.420823
▁OTG	-14.561116
LAN	-12.596588
gamma	-12.748180
DEPTH	-12.693784
des	-11.923132
Bus	-12.843776
realloc	-13.004873
IRQ	-11.537089
pat	-12.593616
After	-12.654504
▁GLAD	-13.114602
Direct	-12.343472
Skip	-12.562034
ud	-12.161470
INV	-13.035301
Put	-13.011627
Bar	-12.201725
MAIN	-12.676618
ies	-11.399982
dw	-11.605064
ux	-12.636831
IMGUI	-13.168268
he	-12.087772
▁PyExc	-14.632928
fx	-12.805361
NVPROC	-12.984676
Elements	-12.478267
ov	-11.703317
▁charge	-12.334904
handler	-11.217629
Exp	-12.773273
gfx	-12.802622
Notification	-12.650726
sector	-13.046684
WM	-12.352916
look	-13.161574
▁There	-11.014614
▁actually	-11.850772
cur	-10.892710
▁fragment	-13.155942
MON	-12.679130
Generate	-12.595119
WT	-12.744951
coeff	-13.133447
TRANS	-12.786340
Decode	-12.803701
Plugin	-12.585643
▁macros	-12.767116
pin	-11.588899
ELEMENT	-12.789762
Seq	-12.879485
INPUT	-11.922799
cat	-11.942514
instr	-12.798693
uint	-9.038362
mo	-11.599892
BUSY	-12.457176
Peripheral	-12.872104
▁definitions	-12.364363
▁defgroup	-18.436600
HC	-12.554945
channel	-11.066829
tz	-12.245880
▁endian	-13.795788
gain	-13.293306
ry	-11.273244
Be	-12.345300
POST	-12.651521
▁perform	-12.413557
▁implemented	-12.479947
BIG	-12.453256
SDK	-12.761328
Chunk	-12.815053
▁IFS	-15.603214
lm	-12.710108
shadow	-12.922027
ual	-10.867498
SPEED	-12.718045
cls	-12.797329
Complete	-12.265257
▁classdump	-12.919372
▁Otherwise	-12.643936
codes	-13.117679
bdev	-13.199716
▁INCREF	-18.469291
RAW	-12.828427
vd	-12.897933
gu	-11.813891
front	-12.539564
PARAMS	-12.771273
▁Sets	-12.603045
exit	-10.913754
thr	-12.894716
USE	-11.054902
Verify	-12.649207
Expected	-12.920222
Try	-13.343635
▁PyArray	-13.322418
▁refcount	-13.482385
cam	-12.635838
▁wasm	-13.758668
vx	-13.096879
▁stdcall	-17.431248
INTEL	-12.977602
Operator	-12.545194
dep	-12.716073
EOF	-12.557023
False	-12.513718
▁PKEY	-16.356624
Signal	-12.547966
▁xAA	-26.362672
Delay	-12.677154
▁parallel	-12.650348
DataType	-12.753780
▁So	-11.057674
edge	-12.167093
▁SWIG	-13.130770
▁environment	-12.234774
▁dyld	-16.965942
dens	-13.780095
▁curwin	-13.474324
▁VENDOR	-15.734721
SPEC	-12.327884
▁inside	-12.016627
Clause	-12.609704
ture	-12.579242
Animation	-12.419717
Auth	-12.708267
gb	-12.761344
ber	-12.141444
▁contributors	-12.596528
ATI	-12.964257
▁nfs	-13.279984
▁crtc	-14.695126
Grid	-12.473143
Connect	-12.576694
▁exclusive	-13.364304
chars	-12.758507
sound	-12.823108
▁NSArray	-13.403348
▁partial	-12.826274
Exec	-12.672554
Variant	-12.399629
resume	-13.013462
BOX	-12.438037
▁deal	-12.046225
▁components	-12.479485
SHORT	-12.806622
irq	-11.152820
HANDLER	-12.760436
increment	-12.737911
wide	-12.668371
APPLE	-12.816733
Wrapper	-12.678810
ACL	-12.849466
tg	-12.956731
wallet	-13.499775
beta	-12.601042
rest	-12.514304
Condition	-12.627112
function	-10.705744
Constructor	-12.472961
INCLUDE	-12.260719
CCR	-13.479802
Old	-12.697976
Rel	-12.551020
PROT	-13.469379
Fast	-12.995073
its	-12.114497
ine	-11.570506
tract	-12.576116
RI	-12.550033
FI	-12.219637
▁MAJOR	-15.688991
Abstract	-12.112408
rhs	-12.381351
▁loaded	-12.810361
SIM	-12.907874
TSRML	-13.327291
send	-11.056151
QT	-12.457391
clause	-13.530317
Icon	-12.542924
processor	-12.534244
▁netif	-13.991901
▁GFP	-13.198830
▁deleted	-12.843246
used	-11.601900
VERSION	-11.000670
values	-11.648127
▁allows	-12.295975
IDLE	-12.903259
NULL	-9.851554
srv	-13.054732
▁those	-11.057359
sis	-12.682542
Traits	-12.816007
TIM	-11.799747
arity	-13.537532
fh	-13.125324
wire	-12.929472
▁UIKit	-14.646183
SQ	-12.875481
Direction	-12.564888
now	-12.122114
nf	-12.636161
height	-11.192064
radius	-13.158631
▁ingroup	-19.923799
Datum	-11.948142
Bind	-12.763839
▁offsets	-13.428085
▁NPY	-13.083191
mate	-13.231922
touch	-13.121849
literal	-13.080098
RED	-12.496223
▁endorse	-12.648622
Prop	-12.636839
Slice	-12.829580
▁extended	-12.594651
calc	-12.439325
▁snapshot	-13.245218
SINGLE	-12.902845
fds	-12.956178
▁outputs	-13.153206
binding	-12.774530
wt	-12.902867
Lookup	-12.779493
COUNTER	-13.010024
▁hypre	-13.133471
▁wrong	-12.208927
move	-11.384744
locale	-13.095783
▁geometry	-13.020409
▁isn	-12.315890
▁supports	-12.596358
WRITE	-11.254679
Directory	-12.471101
▁fxp	-13.535865
▁checksum	-13.338899
wi	-12.487255
LF	-12.584262
Enter	-12.412415
nodes	-12.269024
▁restart	-13.043046
ratio	-13.227449
PARSE	-12.781180
ate	-11.401176
begin	-10.798600
SHIFT	-11.124451
UT	-12.509569
od	-11.926384
▁pfn	-13.903039
catalog	-12.993136
tup	-12.860691
vol	-11.504196
▁construct	-13.598706
▁GrB	-12.896094
eg	-12.438267
▁LWIP	-13.007856
Volume	-12.798782
stub	-13.327767
▁ndim	-13.888918
MAGIC	-12.756290
▁memcmp	-14.461334
Speed	-12.371204
BOOT	-12.829749
▁cases	-11.625088
rem	-12.240454
▁pins	-13.280029
rot	-12.633483
▁iteration	-13.247316
▁Corporation	-11.973812
Warning	-12.395025
lang	-11.991323
Alpha	-12.587666
sse	-12.940602
tion	-11.365414
glProgramUniform	-13.150798
fatal	-13.022347
bx	-13.291508
▁RefNanny	-87.803459
IER	-13.057140
Ctrl	-12.854401
coll	-12.790324
backup	-13.305837
token	-11.362163
CERT	-12.943703
ian	-11.121991
▁ssid	-14.251577
ET	-12.281553
▁hope	-12.076698
deprecated	-13.233400
prot	-12.954271
DDR	-13.140705
UUID	-13.009395
▁testing	-12.391318
Py	-9.925167
Force	-13.102123
TD	-12.454023
Describe	-13.234854
hc	-13.075972
▁missing	-11.077850
▁xfd	-18.741081
TIFF	-12.914538
Geometry	-12.759964
from	-10.535885
▁completed	-11.560379
CALLBACK	-12.641993
▁related	-11.879693
▁usr	-14.968953
▁foo	-13.052525
Head	-12.710804
▁renderer	-13.604658
ios	-12.641581
Equal	-12.407227
▁handling	-12.531988
▁generator	-13.162912
ta	-11.402448
PRIO	-12.837396
module	-11.020137
▁constraints	-13.055160
▁lane	-14.506518
FREQ	-13.171273
COMMON	-12.848368
▁logging	-13.138769
for	-9.767260
St	-12.533084
▁WINDOWS	-13.995289
Pack	-12.601787
EDGE	-13.065049
real	-11.582080
ist	-11.391233
NK	-12.415269
live	-12.840816
BAR	-12.747668
▁addresses	-12.766495
prom	-13.024029
elt	-12.944505
BLE	-12.180032
detect	-13.096398
▁licensed	-12.764351
Ty	-13.096197
CRC	-12.792082
RL	-12.808336
BP	-12.576109
members	-13.257185
coord	-13.005265
Fetch	-12.818922
sqrt	-12.384338
FileName	-12.791019
press	-12.664996
PV	-12.036699
FUNCTION	-11.200685
Serial	-12.753715
▁GLboolean	-13.041897
HAL	-11.438585
nb	-12.106521
Flow	-12.653227
mix	-12.941837
share	-13.098670
Swap	-12.768272
▁READWRITE	-12.503011
▁errcode	-14.725785
vr	-12.749850
dom	-12.421265
grad	-12.754895
SESSION	-12.878462
arginfo	-13.264927
▁transmit	-13.250060
Ready	-12.761364
▁delegate	-13.212136
usb	-11.826416
▁PCNT	-14.800475
▁IFC	-15.224399
▁xbd	-19.523751
Title	-12.058718
declaration	-13.832303
fid	-13.057051
Allocation	-12.793602
Pair	-12.764369
sat	-13.025269
▁pull	-13.114090
XC	-13.072158
pixel	-11.863309
▁Also	-12.076648
TION	-12.395644
▁QSPI	-13.713996
metric	-12.583849
Api	-12.736051
sep	-12.679330
▁UnityEngine	-13.834625
VEC	-13.032580
CODEC	-13.028316
ser	-11.979951
reference	-11.919654
PIXEL	-12.901028
▁registered	-12.625766
CRYPT	-12.091790
message	-10.937920
Sort	-12.463699
▁behavior	-12.363566
▁Lesser	-12.409931
Dest	-12.954899
▁constants	-12.949797
▁guint	-13.223080
PCM	-12.928964
avail	-12.548023
OVERRIDE	-12.841089
ENV	-12.850102
VF	-12.992383
cid	-12.880786
▁checks	-12.693978
▁numbers	-12.034692
▁GCC	-13.232146
▁rotation	-13.068686
BSP	-13.097237
Events	-12.610730
▁due	-11.517912
SCRIPT	-12.635076
ENDIAN	-12.767979
ENTER	-12.582976
ENABLE	-10.446673
▁nrf	-13.481244
LDAP	-12.836925
IND	-12.729638
UINT	-10.994757
FAIL	-11.244746
body	-11.472209
▁itself	-11.932787
READY	-12.752734
MK	-12.815713
STORAGE	-13.021549
ctr	-13.106244
classes	-13.291797
Green	-13.267897
▁shim	-15.618782
CRIT	-12.741940
CN	-12.818648
rg	-12.674884
▁matching	-12.769576
Author	-13.411234
suspend	-12.937641
▁appropriate	-12.307565
▁dentry	-13.651638
IVPROC	-12.899814
MSK	-13.412588
Adapter	-12.698680
RG	-12.792473
Monitor	-12.558269
CPP	-12.800983
Case	-12.707619
IOC	-12.862082
▁waiting	-12.620539
▁btrfs	-13.284557
ROW	-12.462493
▁history	-10.486120
▁xbe	-17.921816
▁purpose	-12.217765
BUILD	-12.727962
Batch	-12.851253
white	-11.952177
Now	-13.030631
room	-12.489272
ized	-11.717716
XT	-13.287037
pwm	-13.211015
Card	-12.867274
CTX	-11.916619
bu	-12.604959
▁xfb	-17.432652
Failure	-12.682902
Rule	-12.688665
vo	-12.131220
scheme	-13.467294
MG	-12.796366
▁HYPRE	-13.154699
PUSH	-12.762805
SWAP	-13.055891
AI	-12.426174
change	-11.509655
busy	-13.139227
mz	-13.373783
Env	-12.442662
Unicode	-12.445454
DST	-13.182137
Called	-12.705338
▁indicates	-12.507657
EST	-12.827501
Dump	-12.669571
▁ownership	-12.809436
Definition	-12.391424
INST	-13.049512
▁uLocal	-12.645700
URI	-12.798801
idl	-13.216247
kv	-12.974535
GRP	-13.178274
LB	-12.833780
REL	-12.676483
GPIO	-11.317995
LUA	-12.896902
BLK	-13.155113
lr	-12.688086
▁physical	-12.414491
FLOW	-12.957891
vertices	-13.558135
▁glew	-17.671764
walk	-12.990754
site	-12.727325
GA	-12.587547
▁radio	-11.914200
▁intptr	-13.908218
POOL	-12.914059
ViewController	-12.875643
▁made	-10.779675
search	-11.869845
EG	-12.725533
drive	-12.990326
jit	-12.819690
eed	-13.043880
avg	-13.188762
▁npy	-13.377034
Mouse	-12.745188
Cancel	-12.673502
SAVE	-12.849201
mbuf	-13.055363
BO	-12.660276
inst	-12.057754
▁started	-11.808973
MO	-12.413118
Binding	-12.740122
Outcome	-13.416791
DECL	-11.334504
▁href	-12.670016
▁detach	-13.670219
klass	-13.156164
SMP	-13.111864
▁specify	-12.842230
Blue	-13.130529
broadcast	-13.362656
▁NUL	-12.987616
LIGHT	-12.734896
▁provide	-11.769386
EDIT	-12.400742
Character	-12.657829
▁pData	-13.942054
ASCII	-12.959841
colors	-13.271430
▁secret	-13.103305
Plan	-12.735266
Cast	-12.815792
▁hereby	-12.753125
Bad	-12.978830
Cfg	-13.125203
nu	-12.233075
trap	-12.759544
delay	-11.707262
quote	-13.074434
Results	-12.552469
APP	-12.210671
FONT	-12.955097
REV	-13.175636
PRO	-12.634185
▁calculate	-12.832744
lat	-12.701610
Short	-12.736131
edges	-13.393525
▁cdef	-13.069920
Area	-12.785116
▁finished	-12.276044
▁EMIT	-13.865268
SERVICE	-12.854635
TL	-12.535348
graphic	-12.736900
SLEEP	-13.146480
▁numpy	-14.391118
Forward	-12.429455
blocking	-13.300935
▁curl	-13.282891
STEP	-12.921407
process	-11.536041
HF	-12.662400
▁named	-11.227062
arc	-13.098672
▁notification	-13.094352
SCR	-13.320666
cho	-12.920295
CX	-12.505638
ability	-11.806331
Chain	-12.558109
▁carry	-12.715238
▁xcc	-18.129221
▁ZEPHIR	-14.802562
▁Neither	-12.806203
Allow	-12.815129
▁listen	-13.308790
Flush	-12.704496
para	-12.338197
▁handlers	-13.396528
pte	-13.350039
MEDIA	-12.915943
loader	-12.832299
variant	-13.016931
▁require	-12.175092
▁general	-11.567903
svc	-13.111590
clock	-11.877729
AG	-12.645834
▁strerror	-13.471622
▁Rights	-12.332899
Tick	-12.914445
quad	-12.475434
▁FOUNDATION	-12.945744
RELEASE	-12.920006
seek	-12.970586
▁extensions	-12.984892
Self	-12.895188
Encoding	-12.866937
tot	-13.024828
PRESENT	-13.008043
Public	-13.071373
White	-13.161186
RDY	-13.522289
Listener	-12.624050
▁pipeline	-13.160866
▁representation	-12.454821
ASSIGN	-12.859145
Stat	-12.743494
INS	-12.691431
Kit	-11.991753
▁configured	-12.887872
▁palette	-13.687011
PQ	-12.788400
phi	-12.377138
ull	-12.791218
cursor	-11.646163
ulong	-12.957704
Utils	-12.497482
▁unregister	-14.175766
▁handles	-13.012611
packet	-11.420138
▁xdf	-21.539300
provider	-13.225435
TAB	-12.988654
INTERRUPT	-12.886042
Calculate	-14.333046
kb	-11.955399
▁EXPECT	-13.109622
verifier	-13.485123
▁permit	-12.681232
proto	-10.809794
▁flatbuffers	-13.587482
focus	-12.736959
▁AddRef	-14.335270
amp	-12.859411
▁startup	-13.217827
SEG	-13.189028
model	-11.569206
▁sizes	-13.099328
▁Intel	-12.812565
nid	-13.096226
vid	-12.746180
vals	-13.072334
UNLOCK	-12.693985
POSITION	-13.076264
CHANGE	-12.947824
▁strncmp	-14.827918
OSE	-12.705366
router	-13.344393
kill	-12.718666
▁unexpected	-13.353818
motion	-13.075163
Effect	-12.696105
SPD	-13.367429
ROUND	-13.033839
MIPS	-13.085024
▁protoc	-16.115520
files	-12.323923
▁PERI	-14.958766
region	-11.685385
cal	-12.001964
Complex	-13.180802
DOM	-12.802578
Database	-12.230931
ATTR	-11.633987
Qt	-13.146362
▁docs	-14.468760
TRIGGER	-13.081817
window	-11.379022
IMP	-12.802415
request	-10.819450
ToString	-12.834670
▁includes	-11.821038
▁GNUC	-16.959931
ean	-11.979719
▁restriction	-12.647691
Names	-12.430952
parent	-11.021838
ticks	-12.978120
▁TPM	-13.350882
RESET	-11.904023
kp	-13.311088
Setting	-12.729802
▁person	-11.760829
CNTL	-13.273519
▁NIM	-13.677786
valid	-11.139957
▁actions	-12.596530
Progress	-12.638614
Random	-12.599421
Initial	-12.626870
ASYNC	-13.139162
query	-11.308588
INTER	-12.756066
▁memoryview	-15.343768
HTML	-12.232145
Processor	-12.819188
mmc	-13.168607
▁undefined	-12.909376
▁initWith	-15.059490
Drop	-12.696043
LOOP	-12.980817
▁automatically	-12.576430
Should	-13.661884
ino	-11.996332
TERM	-12.914139
pitch	-13.453538
mach	-12.926662
▁cpi	-14.110965
funcs	-13.159648
▁CLAIM	-12.929528
refresh	-13.187276
layout	-11.739612
MOV	-13.098133
fun	-13.009994
Cy	-13.092815
Black	-12.954371
Named	-13.011084
▁reserve	-13.242676
NAN	-13.490608
Eigen	-13.059538
▁successfully	-12.537816
CLOSE	-12.880765
Cost	-12.810137
Sig	-12.872095
MESH	-13.147509
▁wake	-13.538709
OV	-12.895584
▁firmware	-13.288210
▁unless	-12.547482
ENCODE	-13.069504
▁ereport	-15.369837
▁QueryInterface	-14.871722
resolution	-13.663958
xe	-11.682570
DRAW	-12.781634
rom	-12.708219
domain	-11.964761
▁hresult	-17.105366
INSERT	-13.125148
syntax	-13.398792
Pro	-12.711413
▁checking	-12.776174
ki	-11.977416
ted	-11.742052
erts	-13.023906
extend	-12.800440
▁syscall	-13.472709
Background	-12.775498
Abort	-12.897674
SERIAL	-12.148838
▁rcu	-14.171573
BANK	-13.312649
ICON	-13.032271
bug	-13.223810
descr	-13.089708
▁joaa	-13.234488
▁CURL	-13.279249
Nt	-12.980529
resolve	-12.846247
DES	-12.986878
▁opline	-15.052423
MASTER	-13.048838
▁Don	-11.703670
▁modes	-13.078510
BOOL	-10.685348
urn	-14.474685
Sec	-11.636900
TYPES	-12.562982
MACRO	-13.042226
ks	-11.910946
UNDEF	-12.853556
sion	-12.623665
Flash	-13.383905
▁AUTHORS	-12.858254
▁globals	-14.431607
▁University	-9.647863
Python	-12.537597
VARIANT	-13.069268
heap	-11.998133
▁processed	-12.982574
mesh	-12.293485
ROM	-12.409008
Inc	-13.558000
den	-11.648882
Arguments	-12.285311
ipc	-13.180418
HEX	-13.373481
▁iLocal	-14.508468
SAFE	-12.949570
die	-12.408877
Db	-12.912786
thrift	-13.430686
▁vendor	-13.807985
tw	-12.738865
▁copied	-12.981682
VERB	-12.996329
▁xaf	-22.378614
CHAN	-13.115934
OVER	-12.741003
interface	-10.841335
prim	-12.172319
dq	-13.356693
▁desired	-12.764621
WL	-12.810549
PEN	-13.568196
HL	-12.833386
Product	-12.417941
ical	-12.320765
▁xfa	-19.559469
SLOT	-13.214117
hl	-12.571125
ephir	-13.250126
HEAP	-13.048103
RNG	-13.099618
▁SPH	-13.918734
Partition	-12.869774
Invoke	-13.096687
▁uchar	-13.991296
▁LLU	-19.078178
PIX	-13.151520
mult	-13.199997
AZ	-12.843152
Aux	-13.481766
SU	-12.621961
Transmit	-13.276515
Category	-12.486645
issue	-13.042356
▁fails	-12.784686
lan	-11.997382
Mapping	-12.829030
wb	-13.115535
screen	-12.078766
paths	-13.225028
tra	-12.528609
Opt	-12.976927
install	-13.048470
USER	-11.793321
▁openssl	-15.052422
pol	-12.973622
▁rtw	-14.201156
SGIX	-13.195887
far	-13.064990
Encode	-13.001784
PERF	-13.338449
iso	-12.620630
Assign	-13.039874
OM	-12.538359
▁stdint	-17.385796
MUL	-13.231186
MENU	-12.921164
Pending	-12.979562
▁MemoryView	-19.832220
Language	-13.008314
RGBA	-13.130651
Extra	-12.559081
chunk	-11.899385
TMR	-13.287821
smp	-13.115897
▁FWD	-16.181019
rna	-12.674824
xfer	-13.203441
▁portions	-12.452527
▁connector	-13.942890
▁modules	-13.175435
Cur	-12.541363
rules	-13.348009
PROGRAM	-12.907413
▁NimString	-14.232083
UNI	-12.003233
Dst	-13.171852
Tactic	-14.222366
Uniform	-12.194028
▁sell	-12.722865
Prefix	-12.933222
FFFFFF	-12.020222
▁interfaces	-13.124471
CLI	-13.015338
▁indicate	-12.622673
BI	-12.773537
▁pdata	-14.522392
Validate	-12.647874
TLS	-11.727356
▁TCL	-12.982352
stop	-11.464596
wifi	-13.158378
secure	-13.380345
watch	-12.743127
LM	-12.778949
UR	-12.991108
Con	-12.555437
SENSOR	-13.119373
▁chartInstance	-14.024617
ray	-11.940451
▁pSrc	-13.597283
csr	-13.338934
bundle	-13.461431
▁XE	-15.738170
▁IDS	-13.333008
▁something	-11.455776
▁linked	-12.843761
▁xFD	-31.787791
Com	-13.001468
Factor	-12.602168
▁SND	-13.781930
▁give	-11.775372
Java	-13.413206
fu	-12.752483
wise	-12.511185
DISPLAY	-13.061612
Statement	-12.596595
▁temporary	-12.766566
Payload	-13.030601
OD	-13.200123
▁pubkey	-14.561260
▁determine	-12.372149
ATT	-13.199416
Done	-12.678444
Renderer	-12.886175
dll	-13.016876
lw	-12.682095
fle	-14.383845
fork	-13.359021
GU	-13.529749
▁LEAN	-14.291187
▁DISABLED	-15.384716
fffff	-12.907710
dialog	-13.368729
virt	-11.165217
ssa	-13.095636
MZ	-13.131217
SCSI	-13.070593
cross	-13.025160
▁provides	-12.085354
Doc	-12.626508
FATAL	-13.010326
reload	-13.406281
UND	-14.622704
INTEN	-13.331504
gi	-12.317842
symbols	-13.716537
problem	-14.044339
▁assume	-12.809966
MALLOC	-13.085544
DSI	-13.389806
Keys	-12.836301
buflen	-13.047090
Fields	-12.699824
xy	-12.932180
LastError	-13.148034
Points	-12.480477
▁dimensions	-13.033018
PIC	-13.235377
assoc	-13.262715
▁EXTENSION	-15.416531
ao	-12.229639
RECORD	-13.071248
control	-11.086207
Math	-12.976250
Supported	-12.940266
Go	-12.800984
▁shm	-14.330990
Observer	-12.761652
DU	-13.118634
▁INCLUDED	-14.719307
DELETE	-12.948634
IVE	-13.109674
Each	-13.758487
reloc	-13.044723
▁xfs	-13.543445
puts	-12.816884
▁datatype	-13.848507
gd	-12.939796
RTL	-13.096548
EXPR	-12.854017
yn	-12.712026
COMPARE	-13.056879
▁intern	-16.129681
AUX	-13.181395
Si	-13.287868
topic	-13.294628
Sampler	-13.110805
enum	-10.817648
tlv	-13.339943
scr	-12.921100
▁versions	-12.203997
▁appear	-12.390648
▁boundary	-12.881547
▁handshake	-13.775183
DV	-13.021866
style	-10.982569
BINARY	-12.989181
default	-9.844443
strip	-13.343153
ErrorCode	-12.917013
▁statistics	-11.095514
stmt	-12.054333
▁parsed	-13.328929
counter	-11.926371
maps	-13.130173
gf	-13.293846
agent	-13.255790
▁greater	-12.416455
Asset	-13.110314
▁BKE	-13.593085
▁nVersion	-13.259036
Foundation	-12.057628
TRI	-12.925753
ABI	-12.349107
▁checked	-13.028416
pmd	-13.592752
▁coordinates	-12.949269
NP	-12.893131
child	-11.336856
ified	-12.289870
▁slow	-12.910465
▁blen	-15.072346
Sign	-13.141489
▁serialize	-13.770991
zz	-12.951537
Dec	-13.042931
▁terminated	-13.467290
jpeg	-13.161579
rcv	-13.288923
EXCEPTION	-12.861492
BG	-12.948917
SHA	-11.878118
PUT	-13.105430
micro	-13.217717
SWITCH	-13.155493
Items	-12.782948
ADV	-13.096974
▁happen	-12.516266
LR	-12.945615
Pipeline	-12.928985
Lo	-12.921754
▁semaphore	-13.550807
▁amazon	-17.252833
SIL	-12.853567
Compiler	-13.054360
▁compressed	-13.419286
section	-11.582199
▁TWI	-13.784179
mgmt	-13.357579
BOARD	-12.984959
EGL	-13.206468
dio	-12.373327
▁vectors	-13.096373
Ignore	-12.871273
▁particular	-11.998277
lin	-11.875010
BREAK	-12.626615
▁timing	-13.381162
XA	-13.559359
Semaphore	-13.136839
relid	-13.211681
vif	-13.771428
Must	-14.025168
Atom	-13.003466
sense	-13.479182
CAM	-12.861452
INSN	-13.548761
wk	-13.140473
cloud	-13.049906
RP	-12.834379
▁writel	-17.154507
tcp	-11.889656
▁NONINFRINGEMENT	-12.899465
SETUP	-12.831907
▁arrays	-13.133718
▁NID	-13.407876
▁anon	-13.438418
▁nested	-13.485290
▁ovs	-13.452600
▁detected	-12.948088
GMAC	-14.036775
METHOD	-11.488361
▁generation	-12.570368
PAIR	-13.232792
GF	-13.125920
SHARED	-13.160918
EXEC	-12.840279
▁regular	-12.299763
Schema	-12.831498
Elem	-13.151996
Unlock	-12.775056
du	-11.974363
late	-12.324693
Cnt	-13.097922
▁mmap	-14.149795
Bucket	-13.188164
▁xbb	-18.706728
▁atoi	-13.251692
Desktop	-13.349695
▁FOREACH	-15.353392
shape	-11.824470
▁creation	-12.563063
ol	-11.915030
Apply	-12.962968
Dict	-12.820834
SEQUENCE	-12.946567
▁obtaining	-12.864908
▁whole	-11.979767
Execute	-12.692319
SAI	-13.323891
ACE	-13.007715
▁HWND	-13.414129
little	-13.924546
rad	-12.957384
▁substantial	-12.363069
props	-12.991323
ang	-12.401400
Scroll	-12.967005
pro	-11.705650
▁structures	-11.475181
DEPRECATED	-13.067631
parser	-11.796100
ABORT	-12.966103
tools	-12.874841
▁tasks	-12.924556
Statics	-13.750696
ppc	-13.236958
▁very	-11.054149
Atomic	-13.306465
lcd	-13.218723
▁strcasecmp	-15.214994
imag	-13.396528
Hz	-13.749058
▁xab	-20.050661
▁hidden	-13.087788
GD	-13.227640
▁whom	-12.202455
NATIVE	-13.179315
sess	-13.118790
▁according	-12.013627
IsValid	-12.905647
▁parsing	-13.050343
Worker	-12.910816
Package	-12.831274
▁Authors	-12.532116
▁compatible	-13.360793
▁held	-11.418618
▁critical	-12.810830
Sum	-12.861633
LU	-11.534558
Stub	-12.949664
stuff	-13.847187
ible	-11.906557
PROCESS	-13.006878
▁longer	-12.144410
▁limitation	-12.716736
NETWORK	-13.203023
uni	-11.452882
DOT	-13.311796
Reply	-12.911617
gcc	-13.173762
STS	-13.311279
PERIPH	-13.305608
Route	-12.974109
Example	-12.069784
▁prevent	-12.517959
▁hpp	-16.565765
REGS	-13.320738
RTC	-12.003101
▁executed	-12.618482
▁floating	-13.062127
vfs	-13.245041
ascii	-13.302488
terminal	-13.579005
connect	-11.513185
raw	-11.505439
AK	-12.819864
ROOT	-13.173977
▁ENTITY	-15.510577
▁msgs	-15.547634
python	-13.158334
▁immediately	-12.335844
Proto	-12.809602
ALG	-13.268000
▁PMC	-14.645215
acquire	-13.291261
neighbor	-13.747344
TEX	-13.149319
Alignment	-13.031896
suffix	-13.575244
▁DEALINGS	-12.914129
Split	-12.801024
Windows	-11.234500
RECT	-13.107746
▁MAY	-14.315036
▁finalize	-14.153968
POP	-12.707618
CFE	-13.517628
▁xBF	-24.370204
▁SKIP	-14.382833
▁operands	-13.755431
Decoder	-13.107439
WORK	-12.804840
SSI	-13.563480
▁primitive	-13.459992
Fail	-12.880131
▁txid	-14.869870
▁wine	-13.253702
DUMP	-13.141336
position	-11.427675
output	-10.761673
system	-11.529198
XD	-13.266735
▁unordered	-15.137988
ql	-13.206666
KS	-12.781072
chk	-13.127951
DISP	-13.054832
▁PPU	-16.342510
▁instructions	-12.757786
toggle	-13.474173
PIN	-11.196619
Cert	-13.174978
tim	-12.198835
CUR	-13.021531
Blob	-13.102597
▁WPA	-13.761199
Glyph	-13.208130
▁furnished	-12.826620
Sym	-12.738740
xxx	-13.154713
Services	-12.926428
▁tokens	-13.526069
Distance	-12.792085
▁instances	-13.003690
Transport	-12.956185
Pop	-12.895244
RFC	-13.911869
▁weights	-13.627577
LIT	-14.213363
ioc	-13.086864
Safe	-12.878383
▁anything	-12.033156
panel	-13.183541
Url	-12.822808
ier	-12.155586
▁SYSCFG	-14.345255
Dim	-12.847860
▁performance	-11.466599
SUN	-12.890150
▁fopen	-13.491059
Pad	-12.835933
area	-12.183400
▁persons	-12.524474
▁clients	-12.969436
MOCK	-13.300790
CDC	-13.128646
Wallet	-12.980433
▁utility	-13.249583
draw	-11.718312
Blocks	-13.052846
▁aom	-14.107165
ssh	-13.141420
▁diagnostic	-12.774669
PROFILE	-13.153980
Same	-13.605429
▁pkey	-14.639566
IPROC	-13.166439
MQTT	-13.262591
COMPONENT	-12.854044
mtx	-13.303680
first	-10.883206
Required	-12.866585
LSB	-13.408602
ERTS	-13.209395
BW	-13.354011
qos	-13.483782
▁legacy	-12.647317
Lower	-13.132101
META	-13.164767
▁FMC	-13.973206
misc	-12.881059
Identity	-12.911874
ally	-12.038426
Restore	-12.928390
lit	-12.708373
▁sender	-13.589140
sect	-13.176773
Sink	-12.939370
DIM	-13.182148
Play	-12.863868
MSI	-13.325100
▁RADIO	-13.978625
dsp	-13.309448
EEPROM	-13.256138
▁PED	-16.135271
COMM	-13.120730
▁fclose	-12.923308
Magick	-12.391756
Since	-14.113718
barrier	-13.323738
eh	-12.671557
Bound	-13.029675
ffe	-13.380047
CTR	-13.468938
refs	-13.105280
fence	-13.365126
TICK	-13.431218
Overflow	-13.128858
Disabled	-13.168068
Machine	-13.115341
pq	-13.059400
Pipe	-13.039032
sprite	-13.612121
Cached	-12.933714
Side	-13.085658
the	-10.517461
Blend	-13.027806
▁AUTHOR	-13.326493
GB	-12.071442
xp	-12.893691
sy	-11.680749
Received	-13.141524
cuda	-13.133312
wa	-12.239109
▁CGAL	-13.339890
Focus	-12.866460
▁selmon	-14.490747
this	-9.960638
CHK	-13.348144
FAULT	-12.580526
logic	-13.518798
▁mca	-14.074568
ValueType	-13.128185
ELEM	-13.334540
TOR	-12.632923
DER	-12.985027
HR	-12.566956
Ip	-13.114491
LENGTH	-11.894647
▁cinfo	-14.012105
▁dataset	-13.373956
xl	-13.062720
null	-11.095396
▁xba	-22.836856
Stage	-13.050336
Some	-13.316715
▁PFNGLUNIFORM	-13.406992
WIFI	-13.316436
▁keyword	-13.552017
Ver	-13.003713
PWM	-12.609839
USAGE	-13.177340
Sensor	-13.156793
XL	-12.971148
▁really	-11.640964
World	-12.496603
RN	-13.057340
▁LPTIM	-14.302973
Throw	-12.931491
▁ctype	-14.746868
▁sx	-14.188369
▁counters	-13.639594
Destination	-12.923366
ENGINE	-13.129188
vn	-13.073944
NumberOf	-13.148534
her	-12.355099
ABS	-13.079156
noise	-13.556102
bulk	-13.467499
IMR	-13.984316
ini	-11.661517
Zone	-13.000601
▁freed	-13.092442
TILE	-13.375116
Weight	-12.833869
ens	-12.090641
▁boxed	-15.480532
mtu	-13.418717
KB	-13.013661
TRIG	-13.716260
Objects	-12.932222
▁sptr	-14.273860
Available	-12.837806
translate	-13.367533
ay	-12.129214
▁queues	-13.849187
hm	-12.700316
Snapshot	-13.090616
SHR	-13.195016
Sound	-12.969150
▁routines	-12.927616
▁ImVec	-14.208513
▁assigned	-12.702333
QP	-13.370976
▁dictionary	-13.180915
Contact	-12.710717
▁OPCODE	-14.544068
empty	-11.450562
Center	-13.045687
MANAGER	-13.195941
TW	-12.672700
Trans	-13.203536
nxt	-13.461409
terminate	-13.070904
VE	-12.630952
▁REDIS	-13.388220
ros	-12.208037
Rep	-13.153131
Threshold	-13.157202
MOUSE	-13.181114
UA	-13.013122
solver	-13.155195
roll	-12.848599
tap	-12.981010
▁Creates	-13.065129
clamp	-13.621555
Cannot	-13.493553
gg	-12.920109
emu	-13.287448
perm	-13.186886
▁QSTR	-18.649715
Cb	-13.440707
icmp	-13.447320
POL	-13.457290
lists	-13.280302
FNGLVERTEXATTRIB	-13.190536
book	-12.428607
▁xce	-18.406929
ata	-11.954031
rdp	-13.387392
acp	-13.386588
Retrieve	-13.076478
xor	-13.211945
▁transpose	-13.681240
Align	-13.252330
▁images	-12.588209
▁IOM	-16.344732
track	-11.875478
▁streams	-13.500343
nh	-13.109354
ELF	-13.136067
gm	-12.007402
POLL	-13.061425
seen	-13.522769
Details	-12.469638
rop	-13.597150
dead	-12.579893
PHYS	-13.327451
wakeup	-13.155506
KA	-12.891394
▁IUnknown	-13.444743
▁sublicense	-13.282511
TER	-12.728367
alpha	-11.832469
The	-9.879370
▁PFN	-14.002173
WD	-12.903071
▁SERIALIZE	-16.472825
▁references	-11.968168
DateTime	-13.100090
mip	-13.338744
▁connections	-12.922379
mic	-12.298963
▁capnp	-17.840847
baud	-13.227109
▁endl	-14.529063
▁receiver	-13.177566
MAN	-12.402036
Cloud	-12.439191
accel	-13.292876
advance	-13.383259
NX	-13.127953
▁PyDict	-14.131626
dg	-13.152065
▁transition	-12.892352
▁FreeRTOS	-13.598966
▁getter	-14.551135
▁voltage	-13.393863
chip	-11.798433
VLAN	-13.361024
▁xcd	-18.265112
flip	-13.443646
DEN	-12.895907
ICR	-13.536632
▁MODEM	-14.878101
▁jint	-13.906407
Replace	-13.067339
▁sqInt	-13.035501
▁third	-11.699241
▁latest	-12.988662
IDs	-13.099726
symbol	-12.059656
register	-10.898133
repl	-13.294487
▁strchr	-13.825529
SEM	-13.246441
ofs	-13.287710
element	-11.403059
PRINTF	-13.210501
fail	-11.164663
▁SetString	-15.674354
▁NTSTATUS	-12.173852
ele	-12.653355
Google	-13.478597
▁GLubyte	-14.027665
Util	-12.925463
az	-12.470458
miss	-12.581928
▁usec	-15.132182
AH	-12.664884
unnel	-13.753878
mn	-13.144412
JIT	-13.249237
▁overlap	-13.610571
DN	-13.162804
Files	-12.629035
▁declspec	-18.160946
▁disconnect	-13.897155
Clip	-12.859776
UF	-13.686735
GI	-12.802430
Fault	-13.243387
▁opal	-13.815375
MY	-12.433492
▁positive	-12.307033
pre	-10.932272
Conversion	-13.072530
task	-11.359061
compat	-12.726020
▁DUK	-13.939710
▁HRTIM	-14.470025
Timestamp	-13.006273
ated	-11.615036
▁much	-11.168888
simd	-13.463056
har	-12.500490
DESCRIPTOR	-13.278973
AX	-12.885545
CODING	-13.251251
Join	-12.772900
▁assembly	-13.299587
tic	-12.231019
Angle	-13.095299
CONV	-13.134864
▁starts	-12.805657
ENA	-13.576855
SIGNAL	-13.064172
JPEG	-13.241660
▁inp	-14.818434
Environment	-12.478038
plain	-13.274726
Vtbl	-11.904646
▁STBI	-13.336181
▁records	-11.996764
Linux	-13.680446
mq	-13.055556
KV	-12.863342
car	-12.147301
Derived	-12.960649
▁LFA	-16.562422
DHCP	-13.262201
▁sending	-12.951905
▁handled	-13.008435
erate	-13.727344
filled	-13.866866
▁keyboard	-13.450735
▁redis	-13.559148
▁formats	-13.236902
▁incoming	-13.294177
ever	-12.752488
depth	-11.749436
REC	-13.165756
specs	-13.460256
IW	-12.842619
shuf	-15.449509
▁ERRCODE	-16.426503
Merge	-12.960503
WAKE	-13.481955
▁recovery	-13.076185
REPORT	-13.191333
isc	-12.994334
MOS	-13.073623
latency	-13.726603
INF	-13.095270
filename	-11.515194
Owner	-13.012695
Archive	-12.865206
Bounds	-13.200262
▁GLFW	-13.472688
▁takes	-12.286725
▁ecma	-13.813465
FLUSH	-13.214173
CSS	-12.784456
fall	-12.783278
impl	-11.728470
UG	-12.869716
▁nla	-13.813893
NOTIFY	-13.203603
vg	-13.352638
MCU	-13.382039
MII	-13.479802
DYNAMIC	-13.183246
compatibility	-12.970881
Buffers	-13.151590
WC	-12.926180
▁marked	-12.822045
ecc	-13.423757
Nodes	-13.096313
SIGN	-13.144722
▁writes	-13.005131
▁BLI	-13.690170
MAT	-13.281516
DROP	-13.044273
ute	-11.858214
Ad	-12.764171
rng	-13.415230
▁coordinate	-13.219446
Opcode	-13.240110
Present	-12.576937
fee	-13.748078
Linear	-12.869673
Primitive	-13.197658
mag	-12.831917
▁HFXO	-15.651351
mysql	-13.124705
En	-12.841881
▁xee	-23.198335
ial	-11.750541
▁unlink	-13.817057
command	-11.297856
▁avx	-16.468176
GFX	-13.343553
▁tif	-16.383667
PO	-12.739079
▁curbuf	-13.962676
tell	-13.621087
▁lpfc	-13.926876
▁xFB	-21.253319
COMPLETE	-12.950769
▁xac	-19.872899
iw	-13.242873
active	-11.363135
conflict	-13.845500
suit	-13.402924
▁difference	-12.489461
protect	-12.407346
datum	-13.260810
BIND	-13.258641
Delta	-12.744901
▁xbc	-21.054388
Im	-12.872467
▁strides	-14.480695
▁absolute	-12.920150
hist	-13.141055
UTIL	-13.163158
WP	-13.184895
▁underlying	-12.863476
▁hres	-13.488558
▁PINMUX	-14.889754
iph	-13.542782
Matcher	-13.299570
EVENTS	-13.593399
MATH	-13.220786
▁compiled	-13.235317
Boot	-12.973062
▁lda	-13.792828
msi	-13.223727
▁METH	-13.889966
▁specifies	-13.196246
DAC	-12.753292
DATE	-13.077678
CARD	-12.858353
ips	-12.889364
DAT	-13.593841
▁tstate	-14.005040
pal	-12.569606
Management	-13.480688
▁filters	-13.534414
fol	-14.606982
Literal	-13.227689
▁chunks	-13.605221
Algorithm	-12.980965
Conv	-13.315841
▁separate	-12.436691
MSB	-13.521578
Special	-13.187240
pause	-12.897998
Callable	-13.634507
PDU	-13.486032
LINUX	-13.120800
▁beginning	-12.280578
parm	-13.401456
ZIP	-13.088405
undo	-12.866981
Extract	-13.084291
UB	-13.156907
▁quic	-15.025387
▁PyInt	-14.005920
▁discard	-13.549375
▁LEUART	-14.889190
▁SUCCEEDED	-16.761058
lg	-13.124439
▁duk	-14.497771
▁IGNORE	-15.391904
tu	-12.470179
PDF	-12.881371
▁three	-10.871069
Stride	-13.448510
ALLOW	-12.746247
▁xdd	-19.700844
▁radeon	-13.872939
TY	-12.872886
Syntax	-13.211133
▁Whether	-12.937828
▁xea	-26.829586
pri	-13.107413
▁nbytes	-13.717481
ftp	-13.415580
lua	-11.894293
FIXED	-13.313195
floor	-13.506544
▁krb	-13.707378
jj	-13.460756
ell	-12.120050
▁foreach	-13.771354
▁gets	-12.463835
REMOVE	-13.273609
sol	-12.815998
Duration	-13.073678
switch	-10.485636
RTS	-13.266287
PULLUP	-13.699640
Namespace	-13.059741
ile	-12.032899
Serialize	-13.094179
folder	-13.633261
usart	-13.425461
ARGS	-11.763786
Peer	-13.059357
▁cairo	-13.779512
Construct	-13.012063
Completion	-13.261817
AU	-13.168619
mer	-12.186410
▁MUST	-13.635670
prime	-13.197299
Axis	-13.127940
▁xad	-17.953979
pick	-13.802234
Hook	-12.966915
Wrap	-13.169274
Console	-12.866659
SER	-12.933983
Arena	-13.114173
Curve	-13.220999
SSP	-13.458340
INTERVAL	-13.360336
BITMAP	-13.068199
ih	-13.177839
vtable	-13.584008
▁won	-11.362676
BINDING	-13.295209
display	-11.676133
▁xBB	-22.531957
▁However	-11.580230
collect	-12.688210
ARP	-13.302216
layer	-12.149002
Entries	-13.156421
arp	-13.343626
Break	-12.723284
SourceLocation	-13.046268
▁against	-11.017605
VX	-13.288040
Features	-13.097465
▁OVS	-13.688698
team	-13.007144
▁EIC	-14.975261
OWNER	-13.253447
▁simde	-13.820531
Crypto	-12.956748
▁segments	-13.309115
chr	-13.029432
▁omap	-13.967104
▁xde	-20.070605
▁represents	-12.700877
Sleep	-13.335260
qh	-13.642774
ans	-12.084759
HEIGHT	-13.398122
lab	-12.013344
Prepare	-13.011205
Slave	-13.711061
PLUS	-13.237843
MEMBER	-13.242579
▁MIDL	-14.778874
SCAL	-13.342434
serv	-12.898483
PROGRAMUNIFORM	-13.434552
▁Gets	-12.943711
wq	-13.440264
RESPONSE	-13.319657
PCIE	-13.690995
DOMAIN	-13.365142
▁mavlink	-14.222754
NM	-13.164670
▁IOCTL	-14.504818
echo	-12.886932
hints	-13.522583
decimal	-13.743503
PULSE	-14.295100
Dispatch	-12.994573
written	-12.680777
Visual	-13.390366
Filename	-13.282731
Cpu	-13.351935
sun	-12.963359
cut	-12.849948
▁fib	-14.417583
Lim	-14.790344
PARAMETERS	-13.081840
▁DDevice	-87.803459
unpack	-13.143707
▁scheduler	-13.646999
Period	-13.039589
▁NSNumber	-13.579249
Idle	-13.256183
Updated	-13.136638
DEL	-13.343319
▁SCIP	-13.447267
OPTIONS	-13.214102
Particle	-13.168202
pts	-13.387187
▁uiv	-19.797260
▁attached	-12.845115
Plane	-13.218319
attrib	-13.396058
Tk	-13.272644
▁opened	-11.888991
▁gboolean	-12.384065
▁salt	-12.800630
▁COPYING	-13.466141
Comm	-13.152837
▁UNSIGNED	-16.084793
NN	-13.107855
Disk	-13.012899
Border	-12.828798
mk	-12.159536
qf	-13.751523
frm	-13.623643
▁doing	-11.997599
management	-14.000098
Extended	-13.541301
▁dealloc	-15.131860
ARM	-12.112268
▁RID	-14.610740
enable	-10.853111
ether	-12.699313
GOTO	-13.446853
▁reflection	-14.100791
FU	-13.061788
PARSER	-13.239351
uf	-12.833016
prob	-13.277322
REFERENCE	-13.276697
RESP	-13.505077
quant	-12.840224
Tmp	-13.399945
Comment	-12.676285
WU	-13.842570
loss	-13.276538
ny	-11.665497
Rows	-13.223708
instance	-11.339791
CW	-13.089713
▁mock	-13.929096
▁Includes	-13.580200
▁declare	-12.890612
safe	-12.128300
▁ifp	-15.140862
▁entire	-12.301142
Origin	-12.492180
Certificate	-13.131983
WF	-13.455754
cvt	-13.473704
implicit	-13.986746
minus	-13.440482
PRT	-13.832007
▁iwl	-13.891491
▁rectangle	-13.488036
HY	-13.158724
ze	-11.865113
Xml	-13.147350
qs	-13.256176
Definitions	-12.759789
ICE	-12.813521
omp	-12.923700
▁comparison	-12.854301
▁xEF	-23.546191
LOCATION	-13.270987
Will	-13.262355
▁larger	-12.541039
lim	-12.671973
fully	-13.174061
▁xdb	-19.387734
▁exact	-12.995240
paint	-13.568038
option	-11.352187
▁reuse	-13.358668
procedure	-14.550278
ess	-12.129036
▁xFA	-30.429306
QC	-13.246276
mmu	-13.080978
▁XMC	-14.422898
Note	-12.826598
cpy	-11.966674
sch	-12.382684
Yellow	-14.707154
▁xcf	-19.127001
▁retrieve	-13.198121
History	-12.780204
▁sampler	-13.987342
▁RAC	-14.986124
Download	-12.836879
▁UINTN	-12.865601
Cap	-13.289871
BAND	-13.366180
▁slab	-14.350806
DICT	-13.309249
Encoder	-13.266286
▁ucs	-13.867779
Unique	-13.136394
▁absl	-13.752336
Revision	-13.105560
Finish	-12.997229
Emit	-13.347809
pwr	-13.546691
qc	-13.746982
coords	-13.478318
▁sam	-14.070913
FLD	-13.576074
▁isolate	-13.565647
second	-11.577968
RENDER	-13.386880
syn	-12.857358
▁journal	-13.480477
SOFT	-13.099696
▁xeb	-27.061348
▁uniform	-13.427896
▁xae	-19.302271
BV	-13.328353
▁elog	-15.861440
USED	-12.881022
Malloc	-13.446175
▁attempt	-12.559414
▁metrics	-13.683249
▁MAVLINK	-14.203325
▁vch	-13.989166
▁had	-9.922257
▁tvb	-14.488147
links	-13.131913
abilities	-13.377655
▁BSTR	-13.818311
General	-12.687773
Selected	-12.956938
nonce	-13.542309
alarm	-13.718379
Frequency	-13.232442
done	-11.568707
Constants	-13.093903
tgt	-13.595487
Implementation	-12.714185
▁instancetype	-15.053190
▁objc	-14.265526
▁tensorflow	-14.200408
▁tsk	-14.037944
Folder	-13.208054
▁returning	-12.845483
og	-12.402097
▁Operating	-13.222445
▁mini	-13.621898
▁SDMMC	-14.310559
▁NONNULL	-17.332047
CUDA	-13.262406
Inputs	-13.254749
▁pmix	-13.966923
equal	-11.961063
▁selector	-13.501288
reset	-11.278189
SEEK	-13.370470
▁UCHAR	-13.668595
▁Please	-12.480002
ped	-12.284372
▁workspace	-14.073694
eps	-13.304512
circ	-12.948959
▁CSL	-13.923027
Role	-12.543888
▁indexes	-13.579313
▁outside	-12.110905
ox	-12.999435
duplicate	-13.990204
▁fake	-13.570344
Guid	-13.249058
ism	-11.177328
LARGE	-13.171004
When	-12.779235
CONTENT	-13.473311
▁Enables	-13.471061
BUILTIN	-13.428156
Registry	-13.060382
Marker	-13.294168
xc	-11.562434
▁Cyan	-12.606608
art	-12.427411
TLV	-13.551597
RK	-13.068069
Loader	-13.124069
gemm	-13.807929
zy	-12.838611
▁ZAP	-14.563777
Compile	-13.015135
Selector	-13.168004
Accept	-13.041083
▁USA	-12.194982
STRUCTURE	-13.601590
prov	-12.902886
Purpose	-14.441351
▁framebuffer	-14.216466
STYLE	-13.156543
Reason	-12.927392
Alias	-13.298547
EXPORT	-10.965097
rotate	-13.849863
ez	-12.144824
Fragment	-13.027083
ker	-12.399741
▁sds	-13.848408
ler	-11.600944
Family	-12.601008
▁developers	-13.094107
json	-11.665683
▁controls	-13.130046
▁previously	-12.274804
mont	-12.608956
Password	-13.004060
strncpy	-13.515539
bea	-13.740723
InitStruct	-13.215279
WRAP	-13.406192
CXX	-12.913832
claim	-13.488495
holder	-13.057461
Freq	-13.543197
prio	-13.334635
UM	-12.924722
▁xabababab	-87.803459
vari	-12.140345
▁ppvObject	-15.310906
▁htim	-14.289601
blank	-13.357613
LI	-12.858662
odd	-12.507983
▁deref	-15.558382
Keyboard	-12.750536
vq	-13.700054
obs	-13.539645
▁recursive	-13.769076
SUM	-13.234757
▁IMF	-13.864476
Authentication	-13.484014
▁OBSERVER	-18.411195
BX	-13.204012
BIN	-13.485033
GAIN	-13.746531
dk	-12.776408
▁makes	-12.076272
▁bmc	-16.592991
Editor	-12.422437
Logger	-13.144113
HA	-12.680306
GM	-12.888497
Resize	-13.313682
SX	-13.271693
pan	-12.243264
isr	-13.301062
▁hdc	-14.085521
hz	-13.481699
pda	-14.184003
▁cout	-14.398546
clr	-13.449327
tuples	-13.411427
▁transactions	-13.018922
▁occurred	-12.600266
▁glfw	-14.575901
Numeric	-13.397372
▁xed	-15.589598
lun	-13.392880
HE	-13.259376
▁counts	-13.315175
oo	-12.131554
gw	-13.617305
▁cells	-12.450851
▁better	-11.675741
Two	-13.022278
candidate	-13.571063
HashTable	-13.273283
▁VkDevice	-13.580472
BLEND	-13.289598
oe	-12.639702
▁cJSON	-13.921470
▁going	-11.531427
▁vertical	-13.455972
ALWAYS	-13.203679
▁vout	-14.266827
▁LETIMER	-15.226350
▁gint	-13.335796
HERE	-13.831469
THRESHOLD	-13.535055
steps	-13.780929
▁implement	-12.887664
▁reads	-13.094330
ong	-12.331077
Using	-13.683686
void	-8.446890
▁accompanying	-12.936710
▁YYCURSOR	-15.322182
▁scoped	-13.747922
GTK	-13.483751
qt	-13.439018
▁Magenta	-12.663110
▁delayed	-13.685581
Before	-13.138306
DESCRIPTION	-13.480090
▁revision	-13.432747
COND	-13.405243
▁DECLSPEC	-13.702595
SIMPLE	-13.420168
rnd	-13.577915
▁UCS	-13.931088
ite	-12.183995
▁OSSL	-13.766150
FFFF	-12.138296
▁xnn	-14.459155
▁creating	-12.644401
▁easy	-12.710606
▁addtogroup	-16.989501
smart	-13.326116
Branch	-13.353527
disc	-12.913147
IGSEL	-15.446869
sections	-13.754086
LAT	-12.878974
pj	-13.475063
LN	-13.449340
CAPS	-13.460619
▁invoked	-13.235124
pdf	-13.161484
SCI	-13.325771
Big	-12.529916
registry	-13.729594
layers	-13.572460
POLICY	-13.439493
Shadow	-12.865420
FLASH	-12.483135
Declaration	-13.008340
timeout	-11.599071
actor	-13.348228
IG	-12.660252
XOR	-13.587151
MMU	-13.508317
Paint	-13.039279
tal	-12.350650
EventArgs	-13.714601
CHUNK	-13.488984
▁strcat	-13.778082
SCOPE	-13.360239
bond	-13.709311
ANCE	-13.025106
pulse	-13.293087
nand	-13.488262
▁reached	-12.427552
Framework	-12.979197
LAYER	-13.449550
▁signals	-12.728581
PW	-13.108820
Execution	-13.173117
▁SIZEOF	-14.094550
▁ctrlr	-15.957179
regex	-13.539787
▁rename	-14.160027
Px	-13.665945
▁applied	-12.522716
▁integr	-15.649921
▁xec	-19.913494
rdma	-13.586719
▁contact	-12.526276
▁MLX	-14.225737
browser	-13.543170
SECURITY	-13.373504
▁Microsoft	-12.534244
▁AVAILABLE	-15.600315
oss	-13.122394
▁EXTERNAL	-15.038682
▁detection	-13.008105
LESS	-13.264344
pointer	-11.619748
mnt	-13.621910
▁OPA	-16.147716
▁softc	-17.047120
▁username	-13.688210
wnd	-12.987465
Touch	-12.851069
thing	-12.852610
ivity	-13.637069
▁NSDictionary	-14.059742
LFXO	-14.563021
Sparse	-13.466168
recv	-12.189515
hub	-12.351971
PN	-13.266972
mh	-13.567602
▁addition	-12.052974
spawn	-13.459014
▁converted	-12.960154
vel	-12.800035
▁destructor	-13.468785
TG	-12.994205
prec	-13.234034
prompt	-13.603700
bmp	-13.592198
▁nonnull	-15.928897
strm	-13.427036
▁GTLR	-13.592875
AO	-13.206997
OA	-13.383072
FACE	-13.309999
COMPILE	-12.827945
org	-10.766213
Second	-13.178809
▁mtd	-14.472313
THREADS	-13.005709
prt	-13.754229
Codec	-13.268817
▁animation	-12.908345
▁supplied	-13.145413
iq	-13.053824
▁gdb	-14.099587
▁rettv	-14.363111
▁EIGEN	-13.466186
with	-11.174416
▁Unable	-14.747645
ALIAS	-13.447636
flush	-11.881041
NVM	-13.459298
nz	-13.106151
square	-13.497358
▁ENR	-17.631584
▁sph	-13.998064
▁itk	-13.108434
▁equivalent	-12.675370
my	-11.105913
Hdr	-13.521275
▁governed	-13.154841
sens	-13.417849
Hit	-13.084427
▁avctx	-14.765270
NEG	-13.438905
▁NEED	-15.081840
FILL	-13.510027
assign	-11.898996
SSH	-13.267572
Secure	-13.155698
▁xda	-20.257354
▁gpointer	-13.393105
▁performed	-12.146671
Logical	-13.277385
MUTEX	-13.316585
▁kafka	-16.662242
▁circuit	-13.019261
▁PGUID	-14.905085
ka	-11.376565
TRY	-13.046756
FRC	-14.141406
Bin	-13.572263
parms	-13.636219
Receiver	-13.251506
▁users	-12.605777
Over	-13.053718
II	-11.719163
TAILQ	-13.537419
short	-11.696692
crt	-13.302434
Channels	-13.340621
▁whose	-12.229539
FIELD	-11.449423
▁exponent	-13.639362
HZ	-13.305710
▁CUI	-15.905695
ide	-12.749192
RULE	-12.984237
intf	-13.563268
But	-12.609369
fin	-12.292459
ative	-11.620032
▁notifier	-14.601722
pci	-11.938473
coin	-12.987722
pairs	-14.001706
▁lws	-14.200991
hu	-12.731021
MGMT	-13.548310
▁ASSUME	-16.712572
▁todo	-13.601523
Apple	-13.760986
CTS	-13.574746
XR	-13.508849
pose	-12.754293
Acquire	-13.162165
Conn	-12.829247
▁viewport	-14.146384
star	-12.511634
SVC	-13.551905
lvl	-13.627656
update	-10.896857
eu	-12.711321
fld	-13.581410
HARD	-13.353462
SOL	-13.281781
▁working	-11.782573
defs	-13.188934
Ok	-12.895317
Browser	-12.858545
prev	-11.327334
PROXY	-13.439595
▁contained	-12.796728
▁interpret	-14.239123
YUV	-13.608524
▁Could	-13.697531
Tail	-13.192407
▁PURE	-13.518052
snap	-12.915279
scaling	-13.285065
▁encryption	-13.488767
▁ofproto	-14.368304
INFORMATION	-13.305223
CUSTOM	-13.370887
Coord	-13.472048
BufferSize	-13.322192
OVR	-14.030048
▁invalidate	-13.925687
unmap	-13.196610
XM	-13.214103
Increment	-13.259040
multiply	-14.299596
IVEREF	-13.581047
▁EXPECTED	-15.442845
▁fffffff	-19.345535
▁fout	-14.472909
PSK	-13.587318
FUL	-13.667068
ik	-12.297075
XS	-13.194374
Sp	-13.043631
DIG	-13.712050
FLEX	-13.847677
Final	-13.014380
vuint	-13.866693
authentication	-14.430998
Agent	-12.909869
▁masked	-14.256019
GPR	-13.682879
prefix	-11.936655
grow	-13.614611
▁glm	-14.148404
▁OpenSSL	-13.612965
▁ISC	-14.177141
▁HSE	-14.416543
hole	-12.738953
FUSE	-14.018451
pop	-11.607181
WI	-12.983119
▁drivers	-12.130479
▁illegal	-13.289706
strict	-12.227326
▁computed	-13.298261
thresh	-12.710103
▁abfd	-15.508445
Eq	-13.600605
▁phalcon	-16.109617
xw	-13.792874
▁submit	-13.563072
random	-12.306198
Alarm	-13.758636
▁declarations	-12.976885
qi	-13.228908
▁IPT	-13.832588
FETCH	-13.520044
msr	-13.736432
tun	-13.318032
total	-11.695081
▁DESCR	-13.155166
OpenGL	-13.199029
reach	-12.867062
▁flat	-13.314356
SPROC	-13.317568
inherit	-13.377860
GNSP	-14.929685
tol	-13.398006
▁dobj	-16.235843
▁higher	-12.206332
Eval	-13.387924
▁rval	-13.861451
ldap	-13.547807
▁descriptors	-13.512273
Phase	-12.813899
Workspace	-14.136758
CHAIN	-13.437751
▁bitwidth	-17.249236
ATTRIB	-13.490338
COR	-13.350616
Motion	-13.416548
▁LSM	-13.781544
Ar	-12.920564
SLAVE	-13.610782
▁things	-11.674825
pend	-13.661996
wave	-13.221586
spaces	-13.593315
▁referenced	-13.352432
OL	-12.807130
▁WOLFSSL	-13.569342
geo	-13.314584
click	-12.839931
PENDING	-13.485628
SEARCH	-13.352183
Seg	-13.304301
OE	-13.235679
Perform	-13.181087
fbb	-12.796344
▁UNIX	-14.299030
UID	-13.347651
▁highest	-12.428240
Prev	-13.275831
choose	-14.047801
piece	-13.416308
ccb	-13.945317
▁xdr	-14.441365
Added	-13.156495
Enc	-13.355006
▁OPERAND	-15.856490
▁unistd	-17.709832
▁certain	-12.162117
imp	-12.047097
modifier	-13.547352
▁produce	-12.777173
▁github	-15.126228
▁PMIX	-13.591593
Me	-12.521649
▁anchor	-13.464750
BIAS	-13.904482
ENCLR	-14.447225
▁hri	-14.740177
TU	-13.075799
▁sysbio	-87.803459
dac	-13.474726
▁isset	-16.892926
PAR	-13.288098
STRLEN	-13.670152
eal	-13.060370
fixed	-12.429315
Div	-13.086143
STAMP	-13.499974
usage	-12.275947
▁velocity	-13.532692
▁rather	-12.045602
▁spinlock	-14.413835
▁updates	-13.067312
Backend	-13.342402
NOR	-13.434960
▁loading	-13.390087
Original	-13.349412
Overlay	-13.585807
▁pbuf	-13.909363
▁temperature	-12.830896
Did	-12.849205
hdl	-13.647866
HB	-13.096025
audio	-12.363710
combine	-13.585077
▁quality	-12.466994
kl	-13.263637
Found	-12.961479
▁swift	-13.980226
Sel	-13.413020
▁hWnd	-14.440511
ke	-11.958918
OPERATION	-13.480459
stp	-13.654141
brush	-13.311439
Place	-13.630330
YES	-13.610013
dai	-13.273658
hb	-13.505782
oh	-12.642536
▁xCC	-22.053310
▁occurs	-12.723828
mw	-13.637944
post	-11.708261
printer	-13.755734
BLUE	-13.090988
VB	-13.341624
Need	-13.874423
▁CRYP	-14.210711
▁filesystem	-13.815282
▁Mountain	-12.223032
answer	-13.753693
ko	-11.872553
iff	-13.404932
prof	-13.035312
Look	-13.558699
▁hmac	-15.071160
▁predicate	-13.653836
Patch	-13.263647
▁mex	-16.260564
▁separator	-13.714422
multi	-11.697115
▁please	-12.470964
▁translation	-12.774731
▁APR	-13.408033
Inline	-13.322512
intra	-13.757542
gsl	-13.893369
PJ	-13.431493
FORWARD	-13.405502
Visible	-13.190493
Viewport	-13.537244
hot	-13.440295
▁DCHECK	-13.630628
TOOL	-13.376947
▁Specifies	-13.748197
▁milliseconds	-13.624064
cbmc	-14.393673
Inter	-13.208273
▁xca	-20.042356
▁unable	-13.232703
come	-13.749068
WK	-13.445530
▁btree	-14.282674
jmp	-13.350770
Amount	-13.285555
NIC	-13.342871
PEND	-14.165868
▁pybuffer	-17.452291
Gui	-12.770685
▁consider	-12.497888
xi	-12.730085
COMPRESSED	-13.527991
tran	-13.408539
GH	-13.407223
iz	-12.530801
Clk	-13.776424
admin	-12.964183
▁taken	-11.963663
▁ffd	-17.487752
XY	-13.212116
▁optarg	-14.245333
RUNTIME	-13.270021
ern	-12.563280
break	-8.303144
mbox	-13.323321
▁tcg	-13.844252
▁resolver	-14.922859
Composition	-13.799070
master	-11.916107
Include	-12.795453
ous	-11.726374
Geo	-13.449590
▁various	-11.832354
RHS	-13.647960
lst	-13.452572
inity	-14.064275
SMB	-13.548271
cw	-13.591127
Install	-12.874956
▁vsi	-14.859539
burst	-13.336579
▁inserted	-13.341986
▁FSL	-13.949262
▁owned	-12.678814
GRAPH	-13.383005
▁odp	-14.569030
fwd	-13.586132
Comparator	-13.655775
▁ENET	-14.121104
mpz	-13.867232
Shell	-12.943612
▁rewrite	-13.855712
Qual	-13.239117
Modify	-13.559245
▁SIMDE	-14.095727
▁dtor	-15.599157
Mgr	-13.460587
▁ETM	-15.349559
▁LIBXSMM	-14.129062
estimate	-14.092632
signal	-11.780459
▁hdev	-15.672848
SORT	-13.440671
▁smaller	-12.640303
BK	-13.131817
Cleanup	-13.045150
insert	-11.525790
Pixels	-13.568036
Sprite	-13.346211
▁vdev	-15.116999
Elf	-13.963071
▁glColor	-14.598243
▁sad	-13.961534
FPU	-13.781760
SCL	-13.867508
TARGET	-12.137232
▁BLAZE	-13.849449
▁irqrestore	-17.850956
Quad	-13.190741
Distributed	-14.862738
Drive	-13.587068
Band	-13.384245
Transition	-13.192552
▁srna	-15.919218
HO	-13.202729
Take	-13.423578
Pt	-13.466150
TRANSFORM	-13.543194
Given	-14.324334
alert	-13.553936
Round	-13.416565
access	-11.638983
▁blaze	-13.996544
▁built	-11.801303
Fix	-13.184741
▁posix	-14.085841
grab	-13.733817
▁mdb	-14.424509
▁overlay	-14.055506
▁decoded	-13.810790
▁xEE	-87.803459
push	-11.140595
DDS	-13.511634
▁USING	-14.714467
targets	-13.901833
ffff	-12.454261
lk	-13.114160
▁RELOC	-15.671078
WA	-12.800319
Super	-12.998819
neos	-14.005642
▁horizontal	-13.528002
▁epoch	-13.941137
ATA	-13.285957
Indirect	-13.546577
Override	-11.922733
SCREEN	-13.453206
Ensure	-14.731812
▁initializer	-13.858956
cas	-13.184574
Sz	-13.458104
▁COMPILER	-15.186331
Methods	-13.429117
TLE	-14.856014
Recv	-13.505779
ArrayRef	-13.393669
▁TypeError	-14.959413
Unsigned	-13.343732
▁GLAPIENTRY	-14.169339
▁topology	-14.000670
trim	-13.453972
delta	-12.101594
Digital	-14.127345
▁octet	-14.240485
ark	-13.775018
rss	-13.695936
rid	-12.735704
▁services	-11.469773
▁evaluate	-13.322919
▁ACTIONS	-13.455189
IMG	-13.508772
Drag	-13.272756
▁glVertex	-14.404560
Keep	-13.814300
fine	-14.002312
▁buckets	-14.334907
vv	-13.693695
Minimum	-13.331207
▁SOAP	-14.021830
▁phba	-15.852107
gpr	-13.776527
CLKSEL	-14.172188
ash	-12.875953
GATE	-13.473609
buttons	-13.848584
any	-12.019319
axi	-13.729231
Cut	-13.605238
▁sidl	-13.898017
rst	-13.167346
CURSOR	-12.596158
▁EIO	-15.091466
lic	-11.693503
ick	-12.885255
▁IDC	-13.493288
Tex	-12.828992
▁vget	-14.798533
▁upb	-14.273128
▁dart	-13.326557
▁cleared	-13.342552
ZCL	-13.792780
SAMPLER	-13.503044
fac	-13.489776
sbmc	-14.521004
▁upload	-13.737107
CAT	-13.278676
nav	-12.892279
LW	-12.929572
▁setter	-14.376528
IMPORT	-13.204867
Bank	-13.374015
balance	-13.445350
Bi	-13.026174
▁drvdata	-17.319421
▁adding	-12.839993
▁debugging	-13.296144
meth	-13.475794
sigma	-12.985049
Cycle	-13.146497
cube	-13.292114
strategy	-13.839019
Capacity	-13.385069
▁validation	-13.333166
▁Elias	-13.700329
▁probably	-12.254433
ashcho	-14.532273
Ids	-13.540495
Registers	-13.443330
FRAMEBUFFER	-13.479248
▁SFD	-17.108091
TIMING	-13.908439
structure	-13.043312
▁spl	-14.295382
▁CAmount	-13.506254
xid	-13.323387
▁further	-11.768493
shared	-11.365183
▁StatusTypeDef	-87.803459
grant	-13.478018
SENSE	-13.645770
LJIT	-14.295305
May	-12.949547
tn	-13.331470
Actor	-13.507187
flt	-13.829960
▁protection	-12.634668
▁bVar	-14.313468
ew	-12.412776
Bridge	-13.257567
▁STDMETHOD	-13.650718
Clone	-13.334441
▁TNode	-14.375246
▁leading	-12.402140
▁refer	-11.078006
demo	-12.958682
LVL	-13.907335
▁PPI	-14.083161
HOOK	-13.358716
▁explicitly	-13.119704
▁solution	-12.530870
▁trailing	-13.536327
memory	-11.033499
▁endcode	-17.258559
▁ovld	-22.172706
frac	-11.867212
ITER	-13.563608
ENSET	-14.959000
▁elab	-18.269094
offs	-13.027441
Hint	-13.470878
▁mqtt	-14.492596
▁adds	-13.484978
RQ	-13.677222
oy	-12.681602
▁ptrdiff	-13.970388
Analog	-14.406948
ana	-11.846535
▁VDAC	-15.152338
▁HSI	-14.685062
CLUSTER	-13.626820
Expand	-13.949017
anal	-14.691244
▁sources	-12.023099
Specific	-12.797517
▁THROW	-15.090948
▁SDH	-16.481847
dbus	-13.535532
activate	-13.487275
Arr	-13.450426
Multiple	-13.618159
BER	-13.350581
▁pxd	-18.090941
ard	-12.065533
▁DEVINFO	-15.375687
IFG	-14.350245
Lite	-13.370673
▁Nonnull	-16.126146
panic	-13.404607
Man	-12.522860
Span	-13.311505
GAME	-13.235399
fptr	-13.684988
land	-10.977601
Vars	-13.523476
bk	-13.654251
Rpc	-13.683329
Micro	-13.475829
Small	-13.314830
▁vld	-14.424279
subscribe	-13.849926
Pa	-13.006310
Maybe	-13.601113
▁OPTIONAL	-14.130577
Tool	-12.911378
QM	-13.669184
▁ZSTR	-14.650944
▁HFCLK	-15.646382
Pr	-13.367345
wind	-13.073306
STENCIL	-13.440607
SUPP	-13.210698
mmio	-13.725686
▁cospi	-15.181503
Photo	-13.121298
Panel	-12.902441
margin	-12.428053
DIFF	-13.370616
▁PyCFunction	-15.497285
▁GATT	-14.709333
ANY	-12.368860
xt	-13.277683
▁middle	-12.519014
▁NOTICE	-13.697016
hop	-13.444722
▁PVOID	-13.353539
▁regval	-13.868947
VertexAttrib	-12.308730
▁folly	-13.839962
Hi	-13.163187
Diff	-13.319497
▁party	-11.995347
▁decrypt	-14.572739
▁yyvs	-15.649170
GLX	-13.476965
Intrinsic	-13.722694
km	-11.531382
Board	-13.528005
VO	-12.765552
TBL	-13.625397
Isolate	-13.399808
Unsafe	-14.251394
MIC	-12.843610
stencil	-13.632996
peek	-13.785229
▁regmap	-14.794668
▁capability	-13.682697
gz	-13.487794
mii	-13.749117
fat	-13.625467
stroke	-13.491435
have	-12.767823
napi	-13.797101
fire	-12.958707
Initialization	-13.277807
IDE	-13.247431
pseudo	-14.099252
anim	-13.066976
Attrib	-13.659203
▁indicating	-13.136451
Indices	-13.557065
▁exchange	-13.033346
PHASE	-13.593203
login	-13.382936
▁BORINGSSL	-14.818654
▁vport	-15.040693
Scheme	-13.256351
StringRef	-13.387925
INSTR	-13.716738
items	-12.191888
▁nSize	-13.757857
plt	-13.542567
Collections	-13.546452
Half	-13.619801
session	-11.352179
HeapTuple	-13.007846
▁queued	-13.930264
unlock	-11.031035
▁opensource	-15.897468
MSP	-13.632364
▁CCP	-14.092601
ONCE	-13.696351
▁readl	-14.425451
fuse	-13.571781
define	-7.564576
TRIM	-14.164411
Columns	-13.398433
Visitor	-13.172635
SPC	-13.491458
▁occur	-12.896342
Samples	-13.379678
pkg	-13.346320
PCI	-12.488439
launch	-13.765177
Summary	-11.899455
truncate	-13.380048
WEB	-12.404077
SECOND	-13.368203
mixer	-13.774165
NOP	-13.244943
spell	-13.314086
▁though	-11.830905
oper	-12.074152
▁hyg	-17.124536
mirr	-14.014007
TOK	-13.458787
▁lost	-12.050926
oston	-17.501799
Based	-13.568111
USHORT	-13.317077
bson	-13.505009
LANG	-13.238176
lut	-13.435228
▁SFR	-16.410883
Upper	-13.454301
AXIS	-13.745784
Preview	-13.617844
sib	-14.417258
Demo	-12.702884
▁scaled	-14.084928
OLD	-13.477927
▁jiffies	-14.175285
Fee	-13.400347
▁REQUIRED	-15.534054
▁MagickFalse	-13.732045
algo	-12.652037
TransactionId	-13.377248
nop	-13.286612
▁SPDK	-14.328487
ppp	-13.894858
RND	-14.226352
CRL	-13.867543
▁regulator	-13.983703
▁INPUTSEL	-19.189316
▁across	-11.931721
java	-12.291679
dest	-11.448814
▁ValueError	-14.593033
PCR	-13.464830
Controls	-13.553884
air	-12.458787
▁resulting	-12.723824
theta	-13.088360
▁NEON	-14.901884
geom	-13.606223
Dimension	-13.341637
▁neon	-15.130304
REP	-13.738752
Pg	-13.559073
▁substream	-15.280041
away	-13.075990
▁immediate	-13.225766
Collision	-13.513816
▁matched	-13.546911
Hex	-13.357571
Determine	-15.409617
Ethernet	-13.431537
hh	-13.642635
normalize	-13.514109
csum	-13.780042
DMI	-15.229890
GEO	-13.907579
COLUMN	-13.454522
▁positions	-12.450447
▁YCH	-18.918595
Visit	-13.115899
Mutable	-12.972078
▁XED	-13.904752
EI	-12.915361
▁BITCOIN	-13.179478
KEEP	-13.519195
Cx	-13.648179
▁holding	-12.740260
Routine	-12.946392
TRA	-13.166595
callback	-11.315661
Outputs	-13.470868
sPer	-13.714168
Team	-13.349343
▁average	-12.409349
▁released	-11.582818
PERIOD	-13.824803
▁xCD	-23.405733
▁bnx	-14.219124
MIX	-13.269519
Share	-12.501379
Headers	-13.393722
force	-12.114523
wo	-12.917862
Additional	-14.094607
▁fixup	-14.611816
ISP	-13.609068
UD	-12.971759
fact	-13.706287
▁IXGBE	-14.024857
▁computation	-13.318027
▁SINGLECTRL	-19.387100
Rtl	-13.463952
chrono	-13.502535
IRQHandler	-13.283095
▁FTM	-14.464852
▁holds	-12.769797
▁deep	-12.863052
accum	-13.516284
isa	-12.820153
userdata	-13.620262
MPEG	-13.628180
GCM	-13.833783
eax	-13.425727
▁ROR	-15.552343
VID	-13.536238
▁DOCTEST	-13.808570
MemoryContext	-13.174196
▁gatt	-15.151808
IQ	-13.602675
BLAS	-13.881831
det	-12.916898
libc	-13.541919
▁riscv	-15.474017
▁simply	-12.379408
▁representing	-12.888093
common	-11.278580
Modifier	-13.439902
ObjC	-13.512686
Adjust	-13.377684
Analysis	-13.439155
▁traverse	-14.154006
Variables	-13.126996
NORM	-13.177952
▁fabs	-14.537963
▁packages	-13.913084
SHOW	-13.283307
oa	-12.641201
▁IInspectable	-15.275646
▁inverse	-13.639160
Usb	-13.662754
ug	-12.977967
IPSETTING	-13.879307
▁correctly	-13.017162
Rotation	-13.397579
▁SHIM	-16.729132
▁managed	-12.868298
engine	-12.209310
Disp	-13.575260
▁orientation	-13.529032
ek	-12.232566
subtype	-13.922149
Cpp	-13.340364
▁multiplication	-13.544685
PROBE	-13.620377
Score	-12.899090
rtp	-13.729436
mempool	-13.721507
MN	-13.281732
DK	-13.240097
Modified	-13.348816
▁chroma	-14.656243
WB	-13.434917
Sim	-13.575137
INLINE	-11.418389
▁GENERATED	-13.605620
gather	-13.625244
Always	-14.083966
Site	-13.314433
ODR	-14.176860
ESC	-13.652010
Leave	-13.585957
▁popup	-14.191176
Floor	-14.686854
WE	-12.771013
LEAVE	-13.280725
cmds	-13.601122
FFI	-13.725229
concat	-13.619241
▁CTransaction	-13.566993
PARM	-13.662831
▁EBI	-14.855693
CPL	-13.771385
▁glMultiTexCoord	-14.662643
CLIP	-13.402158
▁GST	-13.736938
TRACK	-13.491766
▁memmove	-14.450610
QUIC	-13.587761
ities	-12.347704
▁adev	-16.035214
ass	-12.710963
▁PCD	-14.879492
▁scanner	-14.133401
letter	-14.052160
Builtin	-13.307070
nw	-13.695931
Par	-13.130658
▁implements	-13.147572
▁nxv	-16.918838
crash	-14.319786
Caps	-13.691668
rho	-12.941516
Mon	-13.463836
Instr	-13.623982
That	-12.621385
▁everything	-12.303634
HINT	-13.691537
▁regions	-12.805813
cxt	-13.642751
canvas	-13.800435
▁stdin	-14.119191
▁prototype	-13.570559
▁exactly	-12.666572
percent	-13.727678
Dis	-13.200435
▁estate	-13.063200
DECODE	-12.852596
▁GLshort	-14.343108
▁having	-11.689932
▁past	-12.114763
Locale	-13.493612
PTE	-13.997166
cent	-12.561196
ITY	-12.450480
try	-11.468488
▁padapter	-16.014590
CONTROLLER	-13.755689
voice	-13.373336
▁dependent	-13.379438
Pull	-13.498724
gst	-13.769348
▁SMU	-14.431144
other	-11.695793
CELL	-13.622236
▁similar	-11.975423
lite	-13.230302
gpio	-11.928597
REMOTE	-13.719231
Raise	-13.407792
cdb	-13.848227
Tr	-13.118643
▁WMI	-14.360964
cdev	-13.705014
▁moved	-12.089461
Spatial	-13.739338
▁individual	-12.196102
▁luaL	-13.922972
make	-11.742088
eval	-12.436215
▁upstream	-14.221548
OW	-13.466311
Once	-13.770464
Poly	-13.153902
EU	-13.576741
Checks	-13.464202
Ro	-12.864306
▁irqsave	-17.383889
cch	-13.735979
OMP	-13.529000
▁ldb	-14.156910
dna	-13.928606
▁depending	-13.070384
▁VMA	-13.857809
Sock	-13.432262
▁libxsmm	-14.370000
rivateFrameworks	-13.865693
▁daemon	-14.082299
rates	-13.407308
▁PyTypeObject	-14.014604
▁xCE	-31.248689
ged	-12.764418
btn	-13.433984
bone	-13.693744
gradient	-14.116382
▁obliv	-16.934408
▁timeval	-13.262567
Holder	-13.254592
LZ	-13.863859
cpus	-13.768099
▁strstr	-14.610160
▁backward	-13.767536
global	-11.467336
TXT	-13.627819
▁consumer	-13.526474
Cond	-13.395994
BaseType	-13.616460
DSA	-13.762890
Protection	-14.098836
▁glVertexAttribI	-14.875722
▁ordered	-12.893230
Mock	-13.140276
▁vint	-15.134871
Orientation	-13.493812
UserData	-13.807290
Hardware	-13.947956
▁reject	-13.638246
DIGEST	-13.713235
▁XCH	-17.067557
▁watchdog	-14.019623
hx	-14.189326
▁unref	-16.140364
drag	-13.216305
rh	-13.372360
▁bandwidth	-14.067910
exe	-13.428912
GetCurrent	-13.428267
GENERAL	-13.599472
▁stopped	-12.951163
WX	-13.509574
▁vlib	-14.174501
EXCEPT	-13.690821
template	-11.117135
slash	-13.500482
▁CCMR	-15.891124
ord	-12.960276
▁DISPID	-14.080391
▁stores	-12.999297
anti	-12.909199
yield	-13.783206
vin	-12.576904
elm	-13.714358
NDRV	-13.876405
preferred	-14.204775
BIOS	-13.605147
AQ	-13.839221
MAG	-13.592779
▁typval	-14.262822
Jump	-13.591056
EXIST	-13.469642
DOG	-13.909244
▁compl	-14.746277
▁sbitmap	-13.313924
Callbacks	-13.511986
▁observer	-14.080442
hv	-13.578794
power	-11.823549
Backup	-13.538050
▁xAB	-28.800466
dsi	-13.951616
Indexed	-13.600208
IBM	-13.711994
▁yes	-13.091307
iot	-13.404161
divide	-13.759355
Parallel	-13.355301
wh	-13.440348
▁checkpoint	-13.857028
SYN	-13.906871
zu	-13.000866
wall	-13.210474
▁MKL	-15.083966
tyEnum	-14.478599
▁ofp	-14.123604
▁secondary	-12.909922
▁REFI	-13.597533
Unexpected	-13.612283
CRT	-13.490190
esc	-13.404843
▁lsm	-14.272161
Chars	-13.708959
▁specification	-13.399942
▁considered	-12.029244
HUB	-13.657971
CTRLA	-14.764886
▁follows	-12.052016
NDIS	-13.714417
Navigation	-13.181405
fft	-13.875232
hide	-13.038001
BasicBlock	-13.510168
▁VTSS	-14.745456
ATTACHMENT	-13.601593
Toggle	-13.551664
Acpi	-13.251702
▁redraw	-13.992600
Spi	-13.495791
arrow	-12.924769
▁blocked	-13.668553
Dummy	-13.541190
▁encrypted	-13.910098
▁bParam	-14.735962
Buff	-13.594521
ERASE	-13.945072
CONT	-12.971108
fan	-13.235837
Bundle	-13.174402
MCS	-13.788007
ward	-12.513284
Anim	-13.584014
visibility	-13.858350
▁OPAL	-13.759285
▁pstate	-15.168224
▁fcntl	-15.254279
hcd	-13.809590
▁enqueue	-14.311625
ERATOR	-13.451142
qu	-12.457496
Xfer	-13.686883
OVERFLOW	-13.622589
▁PRIu	-14.786293
netlink	-13.660714
OO	-13.448449
GetAttr	-14.090774
charset	-13.874465
▁JNIEnv	-15.254308
ten	-12.068422
FAT	-13.708486
PPP	-13.585534
RSP	-13.790873
LITERAL	-13.903790
▁dropped	-13.085978
extra	-11.982182
Interp	-13.743864
CScript	-13.531204
▁jlong	-14.311988
▁qla	-14.485561
Physical	-13.703636
INITIAL	-13.636491
Wire	-13.332268
iterate	-14.263949
▁xBD	-87.803459
ZONE	-13.556554
WHITE	-13.512597
▁DECODER	-16.990594
Returned	-13.192565
Picker	-13.657475
PRODUCT	-13.565147
ory	-13.096648
Ring	-13.602465
true	-11.134994
LAYOUT	-13.754102
▁SYNCBUSY	-16.989673
Signed	-13.561148
ACCEPT	-13.591324
Major	-13.389644
Running	-12.938409
Del	-13.308546
gram	-13.113025
tau	-13.041506
NaN	-14.195338
TCB	-13.742353
got	-12.282245
STMT	-13.607520
▁xBE	-31.007910
PAUSE	-13.605097
▁amdgpu	-14.113812
siz	-13.874762
▁FSMC	-14.560230
TRANSFER	-13.756079
find	-11.439473
▁bitfield	-14.109280
▁upon	-11.729820
column	-11.834362
zlib	-13.655353
Inner	-13.164338
RTT	-13.849732
Then	-13.574746
FAMILY	-13.728523
ries	-12.338842
▁EFM	-14.265245
▁Il	-12.959390
▁stb	-14.117865
Commit	-13.234520
▁ENODEV	-16.141041
CreateInfo	-13.626102
▁LPCWSTR	-13.882327
▁fallback	-13.954266
gx	-13.899771
sci	-13.324206
DAY	-12.999649
bufs	-13.633535
▁executable	-13.744673
▁effects	-12.114536
cstr	-13.770752
▁emlrt	-14.667122
▁normalized	-13.817924
CONVERT	-13.906051
▁processes	-12.802662
ake	-12.966267
Frames	-13.647292
Sup	-13.808958
integer	-12.263426
storage	-12.152302
Automation	-14.212407
Chip	-13.336975
WRAPPER	-13.607557
FRAGMENT	-13.751102
Activity	-12.814041
▁few	-11.635821
MTU	-13.792223
registration	-14.070663
▁rendering	-13.508290
CString	-13.576776
Refresh	-13.391698
Printer	-13.360891
▁nlmsg	-14.766545
▁coap	-14.311650
▁xBC	-18.853242
▁elapsed	-13.889667
gettext	-13.760593
Disconnect	-13.524976
itive	-12.554798
Resources	-13.277085
Help	-12.831282
Tracker	-13.495829
PRSSEL	-14.997669
Pose	-13.787502
MCR	-14.077026
▁NSInteger	-14.483065
Accessor	-13.386331
Suite	-13.365900
Gp	-13.751881
TRANSPORT	-13.770112
PMU	-14.007072
▁RESETVALUE	-87.803459
▁gevent	-17.264756
Gradient	-13.594289
▁nTime	-13.794636
ARN	-13.946328
▁EFAULT	-15.763227
adr	-12.874048
Imm	-13.685168
cgroup	-13.782508
▁serialized	-13.511959
Gain	-13.565893
▁dpif	-14.536355
AMP	-13.413491
LINEAR	-13.566189
DRIVE	-13.773975
VTK	-13.661543
quit	-12.860222
xyz	-13.786067
▁subsystem	-14.006945
Ray	-13.277399
Hub	-13.317693
▁nType	-13.955564
GREEN	-13.525456
CONSTRAINT	-13.709959
boxes	-13.424683
Dist	-13.366902
Cmp	-13.829629
Picture	-13.669704
BIF	-13.802066
▁divider	-14.105168
Closure	-13.303578
ou	-12.652436
Solver	-13.674120
Attachment	-13.598258
▁perror	-14.091208
plot	-13.385769
SIGNATURE	-13.822203
REPLY	-13.707306
▁ompi	-14.320090
▁ticket	-13.801012
Gpu	-13.735064
VERIFIER	-13.756819
cbc	-13.906303
attack	-13.757648
mapping	-12.372460
mpc	-14.156303
VARIABLE	-13.560151
surf	-13.683551
▁HFPERCLK	-17.962218
sur	-12.726793
meter	-12.919851
SRS	-14.157797
▁mongoc	-14.069159
VG	-13.632837
VISIBLE	-13.741809
▁mvm	-15.979533
xact	-13.378539
Contains	-13.494256
▁TOO	-15.763068
sil	-13.298082
BOOST	-13.853750
▁htons	-13.879922
Os	-13.146105
SOF	-13.858946
▁NIMCALL	-87.803459
allocated	-12.559983
▁assertion	-13.720460
▁indic	-15.643588
Shutdown	-13.365631
▁possibly	-13.024474
xa	-11.501832
Day	-13.105651
Declarations	-13.190619
WSA	-13.513582
▁xDD	-21.301079
▁dwFlags	-14.129819
IZE	-12.377659
full	-11.963818
Radio	-13.115133
tbtt	-14.405302
scanf	-13.279340
mass	-13.764909
gray	-13.585130
▁calculation	-13.421965
▁smb	-14.306427
GAP	-13.749097
▁DISALLOW	-13.911048
argv	-11.270862
▁transparent	-13.655711
▁ucp	-14.195670
DataSize	-13.643541
Chat	-13.321746
▁UNSUPPORTED	-16.448158
SURFACE	-13.662557
psk	-13.927277
Payment	-13.476659
XP	-13.166569
BROWSE	-13.836088
FINAL	-13.169967
serial	-11.907481
ldr	-13.928504
OPS	-13.444604
▁decoding	-13.600520
clauses	-13.621748
asoc	-13.885827
MONITOR	-13.735411
nim	-13.685387
IES	-12.909284
Utility	-13.445912
COMPRESS	-13.707431
tar	-12.680345
Tests	-13.247264
TAIL	-13.835047
nan	-12.681946
indx	-13.884368
lh	-13.919390
▁pindex	-14.190561
stl	-13.709627
RECV	-13.668167
optimize	-13.592408
yp	-13.127273
▁described	-10.967199
setup	-11.801731
dpi	-13.825333
CAR	-12.936325
BSS	-13.859246
Printf	-13.754272
▁Indicates	-13.747648
▁comments	-12.572006
false	-11.191847
Errors	-13.325771
JUMP	-13.488727
Android	-13.405081
convert	-12.256875
▁OSPEED	-19.354153
CAPTURE	-13.897597
▁vreinterpret	-14.740467
Arc	-13.468037
Commands	-13.493836
iy	-13.524175
ua	-12.690153
ja	-12.052854
NAT	-13.698501
▁RTCC	-15.103953
▁Phalcon	-15.330734
▁executor	-14.084334
▁asset	-13.783753
GetDatum	-13.749670
Inv	-13.487204
LOOKUP	-13.834682
IFF	-13.785177
Partial	-13.069708
▁SYSCALL	-15.068702
▁functionality	-13.215599
▁operators	-12.972451
Dense	-13.679090
▁matcher	-14.291855
contiguous	-13.682007
Plus	-13.047708
▁expressions	-13.353171
▁represent	-12.854271
Metrics	-13.467529
▁transformation	-13.388676
smooth	-14.160472
BODY	-13.320191
Weak	-13.439429
nmp	-14.059442
▁increase	-12.504127
▁dependency	-13.743765
▁identify	-13.062001
JOIN	-13.952070
HALF	-13.823320
GOT	-12.362748
▁declared	-12.782944
Bottom	-12.738702
service	-11.741979
repr	-13.957649
mission	-12.798835
vect	-13.920346
nam	-13.025052
TXD	-14.124380
LOWER	-13.964159
▁pkcs	-14.773145
GetItem	-13.858890
LK	-13.492565
Joint	-13.667790
Broadcast	-12.990659
▁equals	-14.093315
▁fsm	-14.930390
ISA	-13.521533
DIAG	-13.564660
ris	-12.566648
water	-12.594113
▁helpstring	-19.459363
TAP	-13.859179
Cookie	-13.314957
coef	-13.792958
▁properly	-12.824497
FLG	-14.051359
ushort	-13.823681
FIND	-13.620110
ations	-11.993330
xxxx	-14.841540
▁locals	-14.230453
Erase	-13.715190
Seconds	-13.572954
▁xBA	-25.695889
REASON	-13.726306
▁GenTree	-14.301457
CCU	-14.135525
ARR	-13.848479
Statistics	-13.481820
RH	-13.572537
peak	-14.283112
▁fileName	-14.256409
PRIV	-13.786157
▁CBlockIndex	-13.475781
AIN	-14.023749
RLE	-14.018179
▁pA	-15.909722
▁repeated	-13.305990
▁broken	-13.007167
Capabilities	-13.716979
Parameteriv	-13.845404
CHG	-14.175752
Rectangle	-13.592716
stamp	-12.476394
jo	-12.300645
Predicate	-13.609321
ow	-12.637072
oi	-12.891678
▁BIGNUM	-14.172937
UIView	-13.464222
dsa	-13.450339
▁ndev	-15.957650
PARENT	-13.735320
▁reported	-12.237767
SOUND	-13.497479
Reduce	-13.622120
ttl	-13.740386
ill	-12.603136
States	-13.228648
OFS	-14.124123
Dot	-13.405715
Prim	-13.632473
▁PyList	-14.265037
station	-13.726562
Vi	-13.366937
Networking	-13.843841
polygon	-14.335697
sky	-12.138298
bde	-15.646696
hashtable	-13.748433
pnt	-14.151237
ect	-13.405644
cover	-13.125833
▁resolved	-13.583755
▁applications	-12.519931
ful	-12.270056
IOS	-13.355604
leak	-14.360212
▁dreg	-15.484811
▁xfff	-27.002741
wcs	-13.799079
Subscription	-13.525164
▁sbi	-15.452256
Live	-12.847504
▁MINT	-14.753300
▁significant	-12.339729
▁xAC	-28.119016
phone	-13.024222
mime	-13.431517
▁warnings	-13.442518
SDA	-14.060743
errno	-11.326982
high	-11.923513
ACCEL	-13.802164
Brush	-13.612205
Watch	-13.232392
Mul	-13.706708
DEST	-13.894937
▁IRDA	-14.656510
Representation	-13.240767
DG	-13.161668
vaddr	-13.836724
RAND	-13.709715
ose	-12.290515
COMPAT	-13.511938
▁cdecl	-17.116013
Transpose	-13.680115
QOS	-14.048005
solve	-13.963392
LITE	-13.315781
▁pDst	-14.276038
proj	-13.741574
XB	-14.257992
Timing	-13.629686
Ti	-13.277323
VOL	-13.421558
Caller	-13.593178
alter	-13.175213
glob	-13.404182
Pred	-13.823158
Detail	-13.487596
▁css	-15.144535
Nb	-13.872333
lpc	-13.997439
ace	-12.927935
▁EID	-15.328779
Severity	-13.822910
bios	-13.252034
driver	-11.480233
SETTINGS	-13.704953
sdl	-13.942629
CEC	-14.023827
Extensions	-13.394173
namespace	-11.931476
WAL	-13.635086
ish	-11.819162
▁analog	-13.895114
▁envoy	-14.751187
pending	-12.045713
Pause	-13.528046
▁advertising	-13.153042
▁nghttp	-14.015767
GX	-13.566502
MOUNT	-13.856169
STB	-13.808488
Ind	-13.518805
learn	-13.799855
▁efx	-14.679089
ANGLE	-13.656145
DBL	-13.885240
UAL	-13.449714
scal	-12.545495
SIDE	-13.130710
▁njs	-14.020396
▁predictor	-15.253853
Requested	-13.779424
PLAY	-13.421862
here	-13.242793
▁dpp	-15.447182
▁gchar	-13.628372
Alter	-14.093084
▁lifetime	-13.594438
cor	-12.814259
Future	-13.631197
sdp	-14.014657
eng	-12.982312
Palette	-13.732551
corner	-14.158927
tlb	-13.770741
SCHEMA	-13.805317
▁gasnet	-14.390104
SCH	-13.904705
CSI	-13.476300
▁nothrow	-16.663292
▁lld	-16.758505
FINISH	-13.256469
CHILD	-13.713163
Sent	-13.288575
▁DTLS	-14.491371
ku	-12.741786
▁VEHICLE	-16.331640
foreign	-14.055174
▁iommu	-14.913917
compound	-14.236762
▁CDTI	-18.989786
skip	-11.989790
▁triggers	-13.792048
▁measurement	-13.419701
▁aarch	-15.422038
Quic	-13.439651
VD	-13.512645
Fmt	-13.918613
RECEIVE	-13.854245
▁thus	-12.379567
TAMP	-14.439816
cmap	-13.925947
Sh	-13.380431
sTo	-13.540315
ntDefaultHandler	-13.571889
CANCEL	-13.552548
arb	-13.738695
EH	-13.615059
PLANE	-13.928356
DISK	-13.712240
CONSOLE	-13.629336
merge	-12.632071
▁hyper	-13.388559
delete	-11.487145
izing	-12.628736
Voice	-13.523844
ention	-14.886974
▁acado	-15.300633
dsc	-14.141758
PATTERN	-13.759979
lz	-13.655212
egl	-13.956435
▁glTexCoord	-14.813496
hello	-13.496723
PMD	-13.849387
Defines	-13.563542
▁zeros	-14.056682
MULT	-13.935024
macro	-11.998596
Front	-13.364910
▁MHZ	-17.185709
FALSE	-11.240374
sdk	-13.694079
wal	-13.127632
Reverse	-13.318167
dB	-13.947594
Xt	-13.799825
▁bsize	-14.687991
▁tiles	-14.428517
▁llu	-17.810645
▁sentinel	-14.020654
colour	-14.112938
▁destroyed	-12.989434
trig	-13.726735
feed	-13.309849
▁RADEON	-14.338480
destruct	-13.223498
ning	-12.058905
ndx	-13.955351
PQExpBuffer	-12.996877
Radius	-13.665832
FPROC	-13.673040
ves	-12.778088
▁hstring	-15.221943
▁mismatch	-13.927213
Secret	-13.428335
EO	-13.553262
LUT	-14.067846
basis	-14.350567
▁decompress	-14.567703
▁smartlist	-13.832339
▁xAD	-23.640974
Seek	-13.693749
▁fflush	-13.593792
SCHED	-13.740876
ADAPTER	-13.741409
MESA	-14.019102
Missing	-13.225291
Behavior	-13.206257
circle	-13.888276
Alert	-13.463296
Alternate	-13.540235
▁imx	-14.709523
▁accessor	-14.453081
Ob	-13.550973
LSR	-14.307968
Attempt	-13.495034
gh	-13.157483
ural	-13.343517
zi	-12.836490
itor	-14.331162
even	-12.800930
encode	-11.833447
RANDOM	-13.729906
hip	-13.309481
crl	-14.059664
MODIFY	-13.962883
BTN	-13.890862
Uri	-13.594483
dig	-13.251657
▁ANALOG	-16.089746
Soft	-13.189248
Launch	-13.215841
note	-11.248583
Alt	-13.265041
▁nodiscard	-20.132155
▁INITIALIZER	-18.377155
AES	-12.478204
Bluetooth	-13.573598
TOTAL	-13.810290
▁happens	-12.962552
▁fVar	-14.352100
Framebuffer	-13.270789
▁sectors	-14.062879
Scoped	-13.651940
SECURE	-13.885908
Mux	-14.169239
energy	-13.857585
SysTick	-13.994430
▁clinic	-16.031381
runs	-14.470876
KE	-12.877244
▁UniValue	-14.109522
▁SECP	-15.773281
self	-10.481777
▁xhci	-14.837419
▁sampling	-13.958255
vw	-13.762081
FilePath	-13.612370
tip	-13.637004
ji	-12.304611
Mo	-13.039526
THR	-13.522566
Previous	-13.809115
▁Ltd	-12.630919
WAVE	-13.335387
▁hdma	-14.757047
▁lpsz	-14.372632
series	-13.423796
repo	-13.818751
Popup	-13.847880
Turn	-13.903399
ATOR	-13.462629
MIS	-13.935390
▁MICROPY	-13.725445
PDM	-13.915024
ade	-12.760948
BASIC	-13.534030
mmask	-14.274331
fo	-12.662757
▁NSError	-14.714254
RETURN	-11.224307
ering	-13.142496
▁manage	-13.478816
STUB	-13.780315
DET	-14.273341
▁LFRCO	-15.819924
Velocity	-13.729520
Ali	-13.869411
JOY	-13.720934
eff	-13.617726
ANDROID	-13.657504
highlight	-13.973834
mpt	-14.112298
▁SMARTCARD	-14.677835
Best	-12.711449
▁histogram	-14.107047
VOLUME	-13.798981
HV	-13.704282
▁flb	-13.923945
▁newly	-13.038626
kk	-13.625020
PSR	-14.085490
▁sysctl	-14.671682
▁noop	-15.464950
located	-14.627598
VIRTUAL	-13.736384
▁scb	-15.181933
lay	-12.441137
GG	-13.655375
OU	-14.143687
▁EXTINT	-16.648263
Crypt	-13.480129
incr	-13.697988
Coll	-13.787253
▁alive	-13.536762
TLB	-14.002034
bufsize	-13.765704
JL	-13.912612
▁upgrade	-13.939196
mxArray	-13.885643
Wide	-13.921691
▁msm	-14.500825
▁replaced	-12.621401
DOC	-12.996904
Like	-13.592602
▁wlan	-14.674511
ey	-11.803275
▁proper	-12.760054
PING	-13.643961
droid	-15.901365
locations	-14.007795
motor	-14.056423
▁indexed	-13.993966
istic	-12.874254
▁udev	-15.115952
damage	-14.128434
ina	-11.900917
Padding	-13.685202
ECDSA	-13.943542
▁xAF	-29.474752
ETH	-12.576863
kt	-13.346691
POLY	-13.855401
RIS	-13.904050
Just	-13.413736
raid	-13.727322
▁hashmap	-14.039647
pen	-12.897421
CLOUD	-13.944312
lexer	-13.841533
FFT	-13.971931
ATTRIBUTES	-13.557270
Resolution	-13.277629
IOT	-13.750103
▁triggered	-13.643206
▁GCLK	-15.703873
▁alloca	-14.661875
▁iomem	-17.223074
▁xCF	-23.504898
Leaf	-13.498009
don	-11.991021
surface	-12.136147
▁communication	-12.821271
zoom	-14.089138
▁CLKOUT	-16.983116
Click	-13.009098
▁buffered	-14.260395
NAMED	-13.690314
Canvas	-13.567165
supply	-14.310411
wild	-13.684608
JA	-13.056810
writ	-13.846992
Rank	-13.348709
OUS	-13.630231
STAGE	-13.455295
Unsupported	-13.733184
▁pNext	-14.368346
decode	-11.929936
▁SiS	-15.293709
collation	-13.828886
▁ASF	-14.030179
Smi	-13.814929
▁EVSYS	-14.773728
Contents	-12.701440
sheet	-13.060204
SPLIT	-13.800220
Rotate	-13.736951
JOB	-13.759710
Uni	-13.955754
Macros	-13.516679
▁authors	-12.447843
ics	-12.841963
Registration	-13.421550
emp	-13.296709
Converter	-13.574285
Destructor	-13.347509
Persistent	-13.588323
▁Ipp	-14.680322
ular	-12.917147
▁others	-11.894859
Finished	-13.445987
Translate	-13.634425
record	-11.799712
Connected	-13.470001
▁sas	-15.022113
Recursive	-13.609773
OGR	-14.151345
▁unsafe	-13.950915
MACHINE	-13.538929
▁succeeded	-13.158255
▁bssid	-15.438889
deferred	-14.131931
Printing	-14.472140
▁deinit	-15.462405
▁ddraw	-14.857180
▁ndarray	-15.825990
EXPAND	-13.875185
Legacy	-13.936886
AREA	-13.936080
▁opc	-14.960114
fraction	-14.063717
train	-13.163108
monst	-14.234447
Undefined	-13.589980
COMPUTE	-13.833520
RETRY	-13.862819
HELPER	-13.813415
INI	-13.898391
▁IDA	-14.859222
ned	-12.693616
current	-10.739846
Remaining	-13.395178
Tasks	-13.553554
SPL	-13.823403
Arm	-13.647866
Arn	-13.948020
▁wmi	-14.807928
ADR	-14.027883
KR	-13.408637
SON	-13.128771
Occurred	-13.951039
SGIS	-13.961394
▁NoneT	-15.935478
▁who	-10.110040
▁ecere	-16.733364
LHS	-14.126321
▁views	-12.948924
sRequest	-13.983095
FIT	-13.920132
Under	-13.457854
▁sockets	-14.086394
nbr	-14.046497
Polygon	-13.601079
EACH	-13.272098
mut	-13.369338
REQUIRE	-13.002006
▁overload	-13.875073
DUP	-13.685056
ane	-12.561696
▁digital	-12.757547
RU	-13.163638
FG	-13.303932
▁subset	-13.808863
▁MONS	-14.583083
TZ	-13.610931
Ops	-13.678978
▁ixgbe	-14.307251
BLOB	-13.834894
▁xAE	-87.803459
▁pC	-14.620358
planes	-13.549014
▁GETARG	-16.494853
hy	-12.647297
▁TIMx	-14.295634
▁sysfs	-14.704958
ANA	-13.140647
cdc	-14.054058
Opaque	-13.800352
▁ovsdb	-14.009347
Fire	-13.532973
PAN	-13.774884
DQ	-13.765272
▁cctx	-15.112715
PARITY	-14.019805
Validation	-13.457545
pattern	-12.220839
▁expansion	-12.929861
Dependency	-13.649924
Dlg	-13.589414
▁didn	-12.020442
▁rspamd	-14.395359
▁usually	-12.428259
▁anyway	-13.107780
upd	-13.840556
cst	-13.870949
content	-11.485901
▁SYSCLK	-15.119921
▁DFMT	-20.020934
Functor	-13.716122
Playback	-13.891042
build	-12.061034
Components	-13.328463
Oc	-14.605131
apic	-13.854993
▁drw	-15.182938
pmc	-13.949406
cnfn	-14.004816
STL	-13.630252
gn	-12.682539
Have	-13.386174
AUTO	-12.182568
▁loadu	-17.859161
leader	-13.803533
kh	-13.116193
Pick	-14.081746
▁building	-11.913045
Strings	-13.143204
mos	-13.137201
Tags	-13.528618
vote	-14.232632
Seed	-13.610843
▁dual	-13.663871
▁trying	-12.255501
▁offload	-14.798284
UNDER	-13.632266
bitmap	-12.322978
SHELL	-13.682906
▁testcase	-14.236290
audit	-14.052574
▁exceptions	-13.626800
CLEAN	-13.609854
TypeInfo	-13.569773
Groups	-13.227818
ROT	-13.934506
Home	-13.095450
▁QWidget	-14.072279
Vendor	-13.731733
cil	-13.226079
▁lParam	-14.339294
▁XFS	-14.295103
PCLK	-14.292376
▁ALC	-14.536667
efi	-13.835363
cgi	-13.804404
▁represented	-12.516139
MULTITEXCOORD	-13.929650
▁printLine	-13.534598
▁hwloc	-14.407723
▁followed	-12.364595
qm	-14.090920
Immediate	-13.713637
▁swig	-14.840889
oct	-13.635592
ure	-11.810903
particle	-13.980128
UARTE	-13.940566
Mass	-13.579187
fpu	-14.026257
▁supplicant	-16.947124
Lua	-13.622581
verb	-11.937360
▁TSS	-14.056804
▁PULL	-15.803326
▁depends	-13.212956
▁ALTER	-14.240106
▁bindings	-14.537413
Calc	-13.556753
▁FORCEINLINE	-14.009294
Tri	-13.352746
▁replacement	-12.627334
▁FUNCTIONS	-14.207409
Theme	-13.062299
▁limited	-12.507935
DIGIT	-13.906206
lrd	-14.577395
Processing	-13.461393
BMP	-13.862601
CTRLB	-14.903370
HU	-13.674965
CQ	-13.837412
Wave	-13.067524
deflate	-14.425337
Ui	-13.243997
▁vkGet	-15.130641
multiplier	-14.360779
Schedule	-13.900933
▁PDC	-14.538829
▁drawing	-13.258726
Relative	-13.402256
tiny	-13.651402
Instances	-14.073427
SVG	-13.713179
▁UNEXPECTED	-16.318955
LIN	-13.550840
FLAC	-14.021920
▁HOLDER	-13.783326
PDX	-13.108807
Interaction	-13.444145
Assignment	-13.363027
beg	-13.671613
▁platforms	-13.164028
mar	-12.252442
AW	-13.621384
ObjectType	-13.729076
Let	-13.201084
qd	-14.005914
KEYS	-13.781391
CUBE	-13.763182
STANDARD	-13.564874
VkPhysicalDevice	-13.728919
WG	-13.806504
▁overwrite	-13.981081
ada	-12.209113
▁creates	-13.233310
rwlock	-14.000883
▁jobject	-13.958174
AsyncCaller	-14.922673
▁KEYWORD	-15.713013
▁sli	-15.338004
lease	-14.033220
▁obtained	-12.602368
TUPLE	-13.996136
AFTER	-13.936188
ead	-14.158340
ahead	-13.497823
DCT	-14.017419
▁UNIVERSAL	-15.889584
▁alternative	-12.835556
Br	-13.322278
XV	-13.589317
getenv	-13.899930
AGE	-13.043125
aio	-13.923970
▁ATTRS	-17.438727
Rev	-13.610701
SSD	-14.119568
▁changing	-13.024806
COMPLEX	-13.592997
SEED	-13.893675
Performance	-13.814694
DXGI	-13.591618
Children	-13.110479
Agg	-13.508799
lead	-13.814910
race	-13.584003
▁CGFloat	-14.176146
Resume	-13.616924
DEFAULT	-11.117604
FROM	-12.373049
Declare	-13.388458
▁spirit	-13.562273
▁inflate	-14.213407
Coin	-13.337516
nes	-12.271306
propagate	-14.687931
▁subclass	-14.011793
LIC	-11.630457
▁HSTRING	-14.768667
Conf	-13.229600
Candidate	-13.644244
▁plat	-16.188938
facet	-14.172367
release	-11.273534
EAP	-13.913014
nest	-13.049395
▁xDB	-21.884739
ium	-12.567643
▁newline	-14.082542
▁DTFC	-18.539098
▁TORSO	-18.815026
Fc	-13.363207
MGR	-14.075045
NMI	-14.151693
▁SPIS	-14.329094
Compressed	-13.545767
mis	-12.998374
Steam	-14.154886
Calling	-13.994765
ptp	-14.104091
division	-14.494871
▁relocation	-13.771366
▁ATL	-14.386044
▁PyBytes	-14.535231
▁timed	-14.329225
Histogram	-13.822906
▁OMX	-14.016372
▁sscanf	-14.903731
Smart	-13.853437
mad	-13.150773
VREF	-14.488343
RSTR	-14.813544
▁pst	-15.022142
▁getting	-12.296970
Norm	-13.739049
Bias	-13.853616
Packed	-14.003689
▁crop	-14.112792
ww	-13.964405
▁vval	-18.667746
bor	-13.343508
▁embedded	-13.636587
▁vwsn	-19.711115
credentials	-14.310106
Upload	-13.665800
▁XXH	-14.464681
▁SELF	-15.609919
RUNNING	-13.869345
Primary	-13.636799
▁prefetch	-14.580187
▁xEB	-23.187289
▁PyThreadState	-14.842471
▁online	-12.297300
▁assumed	-13.249072
lru	-14.034854
FTP	-13.644182
STALL	-14.215161
Attach	-13.658303
INTFLAG	-15.082894
▁manual	-13.452943
intrinsic	-14.545517
ival	-13.667296
ending	-13.327520
USR	-13.751463
BPROC	-13.850457
PLUGIN	-13.764461
IPP	-13.976513
Union	-13.439550
vers	-13.129382
ZX	-13.725451
EventHandler	-13.897484
bat	-12.860372
▁mDNS	-14.359804
HELP	-13.744324
IAM	-13.813146
COEF	-14.525944
SCU	-14.440538
qe	-13.942302
Ctor	-14.102244
Metric	-13.677002
El	-12.512382
expose	-15.150959
isnull	-13.622177
ROLE	-13.836889
▁conditional	-13.870647
Credit	-13.377255
▁compilation	-12.593376
▁itemsize	-14.912339
▁purposes	-12.786952
▁feedback	-13.602756
▁ICU	-14.247037
lon	-12.723043
▁IOTHUB	-14.842216
MPL	-13.899542
▁accessed	-13.477355
▁NSURL	-14.544491
tle	-12.919068
▁dnx	-15.118549
osc	-13.882516
Collect	-14.156895
comma	-14.310993
OES	-13.652818
REPLACE	-13.744071
Sector	-14.080161
▁xEC	-25.750674
▁hcryp	-14.775402
▁composite	-13.104132
Lines	-13.527946
RefPtr	-13.900240
each	-11.857647
stddef	-13.210860
ceil	-14.132286
▁projection	-13.785967
dif	-9.973399
▁vpx	-14.680622
ware	-12.554839
Ns	-13.706369
OWN	-13.717668
SAS	-13.711868
FREQUENCY	-14.037619
▁serialization	-13.851321
UTILS	-13.821745
▁dirent	-14.451115
ERRNO	-13.758818
▁integers	-13.660077
raster	-14.242706
▁wParam	-14.447425
▁bitmask	-14.298235
▁ordering	-13.668272
▁dct	-14.452081
ORIG	-14.947229
verts	-13.942096
SRV	-14.025349
strength	-14.220227
occ	-13.714841
▁psa	-14.385489
Clean	-13.949558
Nv	-14.036908
GetValue	-13.907517
▁replication	-13.830443
▁PSM	-14.400827
▁xEA	-25.672080
QS	-13.682897
samp	-14.244520
License	-11.650091
Pi	-13.369514
▁loops	-13.874371
COORD	-13.830719
▁transmission	-13.120370
coding	-13.315401
PTP	-13.993394
GetString	-13.813635
▁email	-12.928416
Logging	-13.630005
Repeat	-13.549140
MH	-13.527741
SDHC	-14.387261
tracing	-14.265796
icroelectronics	-14.139114
TTY	-13.442029
▁outline	-13.811876
sequence	-12.254027
Car	-13.150204
▁XMM	-15.777960
LDO	-14.367169
qr	-13.933882
OTA	-13.917893
▁glIs	-14.808773
INITIALIZE	-13.073345
▁XDMAC	-15.824833
Capability	-13.841889
constant	-12.493246
feat	-13.388773
Acc	-13.714129
▁dependencies	-13.436189
RenderTarget	-14.037418
▁COBJMACROS	-12.909368
▁IHTML	-14.815106
drain	-14.128037
bed	-13.045338
thd	-14.587443
Unary	-13.875394
Walk	-13.846192
Messages	-13.551450
▁incorrect	-13.791351
▁recover	-13.820331
Ms	-12.550297
reorder	-13.891627
Thr	-14.136065
matrices	-15.540912
Ctl	-13.770408
▁ymm	-15.273067
Poll	-13.909686
▁enumeration	-13.780846
PIPELINE	-14.047665
unload	-13.936684
▁debugstr	-14.508715
Executor	-13.609665
Parameterfv	-14.098499
EZ	-13.721801
ctiva	-17.305078
appendStringInfo	-13.784596
▁xDC	-22.728553
▁clib	-14.068799
delim	-13.774453
iu	-13.231790
city	-12.684979
QE	-14.197163
▁altivec	-17.622266
▁glClear	-14.784094
eo	-12.072806
Activation	-13.839449
▁ENOENT	-14.448388
encoding	-12.374563
Ax	-13.434737
▁IMX	-14.899682
Encryption	-13.790943
▁combination	-13.012612
lev	-13.093392
CHANGED	-13.958270
▁nRF	-14.830638
ij	-12.824423
▁coefficients	-13.680416
cpl	-13.444865
BLACK	-13.674151
▁LLC	-13.341128
Dead	-13.878814
DEAD	-13.733734
RCV	-14.048295
▁deserialize	-14.317141
Ack	-13.864858
IDL	-13.652716
▁hapd	-15.631290
rou	-13.829309
▁NSData	-14.525587
MORE	-13.345081
ya	-11.701606
▁xCB	-26.547273
Gtk	-13.537182
Msp	-13.650655
▁wrapped	-13.868052
QUE	-13.764963
▁pinfo	-15.074265
Rendering	-13.885496
VERTEXATTRIBI	-14.087606
more	-11.997314
▁kcontrol	-16.527601
▁subdev	-16.170525
ero	-12.478606
TWO	-13.946886
ask	-13.327065
itr	-13.779587
TableView	-14.054592
Where	-13.208978
▁Does	-12.752522
VDD	-14.450566
▁orx	-14.809792
Sa	-13.003989
▁SWI	-15.263376
▁xFFF	-42.318377
▁stable	-13.410270
▁making	-11.966406
Fun	-13.216865
uck	-13.377068
iscsi	-14.025048
intersect	-14.383757
Gpio	-14.281992
▁outgoing	-14.107379
▁locking	-13.827212
ddr	-13.770870
same	-12.940738
VFS	-13.932700
Resolve	-13.754807
Locked	-13.631927
ASS	-12.362863
SEGMENT	-13.968018
policy	-12.372667
More	-13.491134
depend	-12.451441
FV	-13.648741
▁pure	-13.556355
RSSI	-14.226636
med	-12.675898
▁lgl	-14.729453
Enumerator	-14.312365
Finalize	-13.761641
▁nHeight	-14.117233
▁suppress	-14.065074
enet	-14.017677
Completed	-13.719395
Own	-13.397161
IST	-13.195698
ron	-12.440742
GUARD	-13.661670
ZC	-14.291302
allocate	-12.875208
STK	-14.034409
Dll	-13.801857
hang	-13.097511
▁cython	-16.434782
CENT	-13.925069
COIN	-13.703503
finite	-13.798997
▁calibration	-14.028222
▁kzalloc	-14.233249
DYN	-14.014716
resource	-11.594252
SAT	-13.724229
▁affiliates	-13.345973
▁remap	-14.860689
▁KVM	-14.268810
kc	-13.974935
Polarity	-14.198237
SHADOW	-13.872423
mutex	-11.070005
Suspend	-13.754417
Deriving	-14.954825
CTLR	-14.025245
days	-13.687203
▁glDelete	-14.781688
Annotation	-13.659013
▁Perl	-14.240701
▁affect	-13.316356
▁masks	-13.978298
Pages	-12.957608
▁battery	-13.592837
▁unset	-14.210093
ball	-12.354337
Dma	-14.237253
Scheduler	-13.589886
shr	-13.801812
JP	-13.242887
▁kmp	-14.869884
▁vhost	-14.869729
BOUND	-13.924786
ALIGNMENT	-13.932954
Bitcoin	-14.469369
pkts	-13.996740
▁palloc	-14.308678
ECS	-13.854694
▁pIn	-14.538508
FIAsyncOperation	-14.612312
MST	-14.316347
abc	-13.965828
Strip	-13.605500
aml	-14.141889
Stencil	-13.635379
TOUCH	-13.869587
PixelFormat	-14.099333
video	-12.167590
▁commercial	-12.532127
ili	-12.878608
Phone	-13.234404
Diagnostics	-13.908288
APIC	-14.018084
instantiate	-14.877493
▁numberOf	-14.350686
TRAP	-13.914223
Guide	-14.399235
passwd	-13.844215
Balance	-13.487767
Hold	-14.150770
▁USBC	-15.457312
mpd	-14.195701
Undo	-13.635253
ste	-13.127458
Catalog	-13.488355
▁DCDC	-15.747438
▁unaligned	-14.772204
aj	-12.754527
▁UPB	-14.742509
Physics	-13.841798
Cross	-13.474848
CONTAINER	-13.974992
▁guarantee	-13.628448
▁exceed	-14.219308
Critical	-13.622594
▁LETTER	-14.648182
▁ABCDEF	-18.341673
▁CYCLES	-17.053916
Digest	-13.682159
▁ukernel	-19.031743
▁lcid	-14.559302
UChar	-14.036576
Detect	-13.832190
WiFi	-14.171543
FromString	-13.703312
Here	-13.811873
Admin	-13.577404
tape	-13.936071
Unix	-13.552882
▁IGNORED	-15.923410
▁subsequent	-13.071193
▁MAYBE	-15.207804
ARI	-13.716422
ASH	-13.898225
SAR	-13.919653
und	-12.440101
Measurement	-13.999497
qpair	-14.392405
HOT	-13.623765
Large	-13.612604
ENTRIES	-13.952089
diagonal	-14.518612
DIF	-14.097249
HOLD	-13.951543
▁pCtx	-15.511941
periodic	-13.655570
FEC	-14.204365
uh	-13.430249
DataSource	-13.790478
▁internally	-13.687373
▁exclude	-13.973000
▁TEE	-14.299168
FACTOR	-13.976296
EXCLUSIVE	-14.011116
▁inout	-15.603200
blas	-13.613204
Written	-13.913046
▁MYSQL	-14.374496
▁PCRE	-14.379944
imap	-14.155348
Fence	-13.931360
ifier	-12.458497
▁accepted	-12.925948
▁infoPtr	-15.011072
SIZ	-14.310387
gateway	-14.361280
wn	-13.773058
IMU	-14.191678
▁Ifx	-14.577738
▁ends	-12.923013
ale	-12.358484
wf	-13.946620
NEGSEL	-15.521975
trie	-14.089791
▁gfp	-14.617328
lsn	-14.144883
dz	-13.559607
STRIDE	-14.228353
▁visitor	-14.020191
▁pio	-16.364075
midi	-13.914911
Email	-12.884817
GN	-13.450553
marks	-12.886224
▁calculated	-13.242649
prep	-13.168548
oap	-13.132523
SHUTDOWN	-13.800141
Gt	-13.946831
▁OBJC	-14.865114
Tracking	-13.740064
Guard	-13.685188
USCI	-14.366842
Implicit	-13.839760
Busy	-13.923131
▁assemble	-14.109519
▁They	-11.233814
▁timers	-14.236783
▁SPECIES	-15.707450
INTERFACE	-11.659889
▁ceph	-14.459235
Limited	-14.954720
▁reflect	-13.429436
XYZ	-13.894876
▁OMAP	-14.432774
rain	-13.429840
Lang	-13.683540
JNI	-13.280446
▁why	-11.981265
▁marshall	-16.101779
▁lookahead	-14.709294
dfs	-14.061545
aq	-13.336906
▁expire	-14.533330
Ratio	-13.734243
▁CURLE	-13.609761
▁important	-11.826292
▁Adds	-13.844126
▁TWIS	-14.338896
▁guaranteed	-13.596709
▁lowest	-13.382427
Software	-12.806950
▁wstring	-15.893354
Phy	-13.483436
Cont	-13.718003
ions	-12.193756
vy	-13.122942
▁xdeadbeef	-87.803459
nary	-13.614195
▁kwds	-16.178153
PCH	-14.137721
CST	-14.198844
▁SQR	-16.150206
Abs	-13.681329
▁APIs	-13.562469
Probe	-13.766262
▁xDE	-35.456177
Descr	-14.029948
TexSubImage	-14.249829
BRIDGE	-13.873081
locate	-14.131796
APPLICATION	-13.881552
▁looking	-12.254125
▁tegra	-14.452523
BUFFERS	-13.828840
XFER	-14.173446
SUPER	-13.447947
▁copying	-13.713574
ATE	-13.021870
CAMERA	-13.920206
TRUE	-11.595142
▁UDMA	-14.370284
Vert	-13.722592
▁verification	-13.815636
plug	-14.010094
lot	-13.412905
▁typed	-14.205290
Multiply	-13.768616
▁IWL	-14.864879
▁SMBUS	-15.089552
BURST	-14.065534
▁skipped	-14.012246
▁fts	-14.371838
Sw	-13.353566
SCROLL	-13.914858
▁Initializes	-13.748440
▁usbd	-15.182929
procs	-14.008943
Nested	-13.813855
Mix	-13.750418
private	-10.604733
keylen	-13.975987
UPD	-14.259949
▁architecture	-11.850152
Nav	-13.355409
Ap	-13.426526
▁design	-11.951965
aspect	-14.482689
Assertion	-13.818190
▁pathname	-14.644292
DETECT	-14.044326
▁PyArg	-16.890725
▁aead	-15.246400
nss	-14.118020
tracker	-13.881600
vga	-14.165437
▁goodG	-13.799849
mega	-13.199933
▁EAGAIN	-14.669719
▁PyString	-14.390262
confirm	-13.578318
LOCKED	-14.168993
▁largest	-12.583029
wsi	-14.162769
PROG	-13.925803
▁subs	-14.559299
ALERT	-14.045649
stand	-13.605493
▁xfffffffe	-87.803459
ple	-12.276301
throw	-12.119058
▁QDEC	-14.274782
▁reduction	-13.126830
uring	-13.204860
▁emm	-14.943288
Renderbuffer	-13.932291
desktop	-14.081590
Flex	-13.545660
ZZ	-13.717684
Unregister	-13.771549
faces	-13.796542
▁xaaaaaaaa	-87.803459
RAS	-14.137130
DPLL	-14.383756
Pkt	-14.130516
Fi	-13.082377
CDF	-14.159291
▁lwip	-14.828239
degree	-14.001574
▁several	-11.433287
ITS	-13.737675
iocb	-14.324107
▁outb	-15.708051
AKE	-13.403601
▁fread	-14.748296
REPEAT	-14.079094
property	-10.259647
Managed	-13.689403
uu	-13.256938
EFFECT	-13.858827
quota	-14.297151
▁shouldn	-13.467921
trunc	-13.862655
Triangle	-13.643316
bsd	-13.957687
uk	-12.211371
▁pretty	-12.789003
▁QObject	-14.301381
▁consumed	-13.903101
analyze	-14.472365
▁become	-11.915410
KW	-13.876571
rfc	-14.248108
▁fwrite	-14.675042
HK	-13.342042
IZATION	-13.647225
▁xmlChar	-13.896398
▁treat	-13.566006
QR	-13.531987
UPPER	-14.129970
▁xfffffffd	-87.803459
determined	-15.157684
▁divisor	-13.470385
smc	-14.114061
plist	-13.889075
Retry	-13.882212
▁debugfs	-15.375452
onto	-14.550794
▁requirements	-12.708133
Quantum	-13.725813
MIME	-13.916323
shrink	-14.389223
▁pBuffer	-14.549298
▁OPC	-14.798420
passes	-14.777364
▁receiving	-13.039082
▁quiet	-13.562466
How	-12.749831
▁wps	-15.318043
▁clocks	-14.177136
▁fmadd	-18.809461
Divide	-14.624542
bfa	-14.408033
▁nondet	-14.934560
▁CMedia	-17.498393
▁rxq	-15.698175
cdf	-14.328069
Reflection	-13.497898
▁NSMutable	-14.339538
GetProcAddress	-14.386802
▁blocksize	-14.811048
▁intended	-12.794737
MINI	-14.078724
LJ	-13.814993
▁describe	-13.214420
▁together	-11.912108
workers	-13.917948
▁nonzero	-14.089248
▁addrs	-15.571035
DSS	-14.122704
vmx	-14.166935
limb	-13.808537
puc	-14.200949
▁decltype	-14.695749
ARC	-13.608158
Quaternion	-14.039124
Defaults	-13.727910
▁portal	-13.989105
Di	-13.189608
▁statements	-13.042933
Hw	-14.014764
ARGB	-14.141554
RAD	-13.922338
ROUTE	-13.019723
Attrs	-14.010015
▁Franklin	-12.920030
tan	-12.748646
kit	-12.924714
Cm	-14.139134
▁ALEN	-19.323609
Sql	-13.612221
Le	-11.926039
stk	-14.093110
Quick	-13.131971
IGN	-12.623001
▁stcb	-15.558483
conc	-14.293845
Tf	-13.972671
Blk	-14.158382
PRIMITIVE	-14.088541
rmtol	-14.303382
GRAPHICS	-14.090909
OLE	-13.648347
Changes	-13.705265
▁responsible	-12.739514
stripe	-13.998543
Th	-13.676093
decrement	-13.876735
DIST	-13.753745
▁subtract	-14.157597
▁Fifth	-13.045345
Regs	-14.063889
APPEND	-13.846094
LEGACY	-13.955219
Technology	-15.627290
Cr	-13.715213
mib	-13.983130
iop	-13.931233
▁SDRAM	-14.675639
FinishContext	-13.729602
▁CBlock	-13.508217
ransformFeedback	-14.301345
efree	-13.469249
Tp	-13.924572
▁emplace	-15.796656
ode	-12.890979
Quality	-13.794826
Perf	-14.019375
▁btl	-16.279681
his	-13.248425
agged	-14.133368
▁streaming	-13.707194
mtime	-14.204277
compos	-13.631675
kin	-12.504423
▁huart	-14.628677
secs	-13.784024
auto	-11.326141
zv	-13.539954
▁EMR	-15.369038
▁extents	-14.626538
FRAG	-13.973608
fec	-14.193149
▁slen	-14.380903
▁spa	-14.236987
association	-14.369461
Foo	-13.515902
preview	-14.222258
Gl	-13.379512
Imp	-13.568913
tfm	-14.190135
lval	-14.151511
▁faster	-13.242948
lid	-13.650240
SECTOR	-14.218575
▁ntohs	-14.412173
CONNECTED	-13.673541
▁addReply	-13.757833
▁gmail	-17.526139
shmem	-14.134471
▁breakpoint	-14.489067
ocfs	-14.119838
pressure	-14.276160
▁lengths	-13.982058
AIR	-13.532653
▁JNICALL	-13.738494
Diag	-13.881987
under	-12.546034
Mult	-14.014826
Known	-13.443169
▁FIVector	-87.803459
Cat	-13.025180
▁LDMA	-15.360240
▁bstr	-14.859084
ESS	-13.524134
▁MASKWRITE	-87.803459
FSR	-14.494999
entities	-14.322515
Dirty	-13.603996
OFP	-13.875519
▁usize	-15.622837
vertex	-12.356105
▁LSE	-15.589221
▁terminator	-14.116751
VISION	-13.819009
cdata	-14.130796
ndr	-14.189795
CHANNELS	-14.081306
▁effective	-12.811059
▁adap	-16.220837
▁paddr	-15.110842
Aligned	-13.972236
▁className	-14.252253
Calibration	-14.056437
▁queries	-13.831923
FILENAME	-13.830578
▁fputs	-14.136191
▁getType	-14.715603
▁payment	-13.489264
MMIO	-14.190119
Sep	-13.983719
▁toString	-14.367121
Te	-13.751436
Trust	-14.048680
Activate	-13.858539
▁xCA	-28.514360
▁glsl	-15.378959
HUD	-13.990586
ran	-12.358228
zf	-14.412446
ipp	-13.971838
udata	-14.164622
▁alternate	-13.513260
WEIGHT	-14.044671
olar	-14.686260
HX	-13.702237
rio	-13.088807
▁RESTRICT	-15.244155
Assembly	-13.586205
▁operating	-12.804888
▁ptype	-15.914099
▁wiphy	-15.193304
▁hspi	-14.808220
wqe	-14.364323
▁however	-11.991394
▁OCI	-14.504049
▁chosen	-13.144404
els	-12.686040
▁modifiers	-14.343675
Units	-13.810626
ATH	-13.948303
prm	-14.266795
AML	-13.903170
▁seat	-12.904137
SLOTS	-13.604151
zh	-13.182605
RECOVER	-14.088303
Jit	-13.987398
▁displayed	-13.317386
▁VARARGS	-17.482882
Coins	-13.557015
hack	-13.418787
▁nearest	-12.604744
PPS	-14.034105
Rot	-14.285987
▁prediction	-13.855485
Vertical	-13.590389
LONGLONG	-13.795716
QUAD	-13.894595
▁vnet	-14.837039
Communication	-14.678519
SNMP	-13.962895
▁normally	-13.346613
ECP	-14.136758
Too	-13.790395
life	-12.761144
TYP	-14.248626
OUTPUT	-12.195468
Ni	-13.116654
izer	-12.928762
XO	-13.429854
RESTART	-13.903997
NPC	-13.879528
▁WEAK	-14.677672
▁protocols	-13.828258
PCTL	-14.343667
▁robj	-14.279496
Iteration	-13.847949
consensus	-14.372111
XLog	-13.357470
Fd	-13.911847
mute	-13.866926
lag	-13.226116
Ca	-12.912476
Vm	-14.041298
▁Cortex	-14.286052
Startup	-13.735266
symtab	-14.123827
Defined	-13.900834
roi	-13.897533
▁UNORM	-18.324269
▁closing	-13.440576
entries	-12.149665
hashes	-14.101149
connection	-11.645967
▁maxlen	-14.559896
colon	-13.574956
vic	-13.436615
MINUS	-14.097201
▁scanline	-14.682843
▁MCG	-14.491144
Negative	-13.549378
cop	-13.391959
dvb	-14.179002
PUPDR	-14.970195
shl	-14.242661
▁NSMutableArray	-14.222058
▁CONTINUE	-15.229522
Matches	-12.658634
Bulk	-13.838028
▁globus	-14.013042
KI	-13.217081
ich	-12.757920
complete	-12.023111
HM	-13.401100
VV	-13.988431
fil	-13.370022
independent	-14.182454
guess	-14.671929
▁orte	-15.604021
TN	-13.201760
▁Chromium	-13.867098
▁LPWSTR	-14.124731
printed	-14.500319
Composite	-13.540932
▁darkskin	-19.834684
▁COMPONENTS	-15.412109
Assume	-15.274351
STICK	-14.146130
▁meaning	-12.695348
axes	-13.584175
Redis	-13.626159
locator	-13.360513
Simd	-14.263069
Fl	-13.546612
QU	-14.600380
Are	-13.240726
▁TCG	-14.603783
recur	-13.512376
▁xDA	-27.033923
AWD	-14.711625
Implement	-13.707683
▁Napi	-14.725848
PUB	-12.506883
▁uplo	-14.615837
Constraints	-13.791775
▁bounding	-14.066287
Horizontal	-13.679425
joystick	-14.002673
▁AVR	-14.776632
SHAPE	-13.991207
▁qemu	-14.374504
▁seems	-12.446176
▁consistent	-13.189049
Advanced	-14.271753
ner	-11.694091
Feedback	-13.749816
▁combined	-12.945144
▁xED	-25.644836
shader	-12.326365
▁contexts	-14.008657
▁qed	-14.687681
ByteArray	-13.890082
Cipher	-13.909985
SetupContext	-14.319842
objs	-14.006539
▁strto	-14.347203
SPELL	-14.017553
WORLD	-13.361152
gra	-13.051614
ipaddr	-14.246747
Operations	-14.011618
SharedPtr	-14.028562
KILL	-13.746405
UDB	-14.915263
SIGNED	-13.023328
Allowed	-13.899418
▁DFSDM	-15.105209
Stroke	-13.806611
EAR	-13.888319
kn	-13.605045
Anchor	-13.667092
CEE	-13.988765
Enumeration	-14.001880
shot	-12.634229
los	-12.895202
▁GetArena	-14.630201
▁EXTENDED	-16.007456
▁moves	-13.533678
▁passing	-13.091785
psi	-13.314695
RENDERBUFFER	-13.961442
Codes	-13.988119
▁PROTOTYPES	-15.622829
sts	-13.244535
found	-11.687101
▁evaluation	-13.145869
guide	-14.120328
DELTA	-14.221597
Secondary	-14.094339
ras	-12.823186
Po	-13.113953
▁central	-12.652740
IPS	-13.649755
pivot	-14.653888
Systems	-14.626862
ena	-12.382240
Creation	-13.209740
CURVE	-14.106020
fy	-13.594924
Pci	-13.998711
▁lfirst	-14.266928
Calendar	-13.212427
Compression	-13.711251
▁heal	-15.183828
Threads	-13.740197
▁assumes	-13.740478
▁PACKED	-15.039750
qui	-12.351152
StringInfo	-13.636382
kbd	-14.150158
Extent	-13.904040
▁EFIAPI	-11.839173
SCK	-14.233798
MIDI	-13.771555
▁populate	-14.162428
▁cpuid	-14.950822
GEMM	-14.160171
▁TASKS	-16.016456
▁recent	-12.526104
msp	-14.383766
SLICE	-14.208695
▁outfile	-15.232367
SHARE	-13.982997
IsA	-13.934593
tst	-14.082932
▁decay	-14.145447
▁functor	-14.200356
▁question	-11.983668
ObjectId	-13.909974
Hal	-13.901872
Continue	-13.367886
but	-12.292740
▁goes	-12.665556
pay	-12.208613
msk	-14.051837
▁optimized	-13.906655
TSEL	-14.677228
▁CURLOPT	-14.017769
Tools	-13.239856
BUFF	-14.194673
▁ecdsa	-16.059828
IEs	-14.256215
Comparison	-13.146936
Cols	-13.968470
IK	-13.434166
▁grib	-14.741303
PSC	-14.277437
vst	-14.464416
▁bfin	-15.023226
▁identical	-13.404402
CONFIGURATION	-14.010899
▁gives	-12.592017
OCSP	-14.236762
placeholder	-14.227701
TreeNode	-14.121436
TypeName	-13.944177
▁WASM	-14.226327
dissect	-15.612915
Sg	-14.211089
▁sctx	-15.592640
▁DATATYPE	-14.949228
Asm	-14.012312
HH	-13.896662
▁XPAR	-14.322732
als	-12.236961
Slider	-13.900568
rA	-13.925503
kernel	-11.745663
CORR	-13.966384
▁METHODS	-14.349809
▁BITFIELD	-15.421285
▁deque	-15.029362
▁FreeBSD	-15.438740
▁dwc	-15.010740
Lambda	-13.715257
▁CGRect	-14.736527
ious	-12.535551
MIB	-14.109420
WGL	-13.921836
▁reports	-12.751105
Tcp	-13.934788
▁CANT	-16.872628
PRESCALER	-14.689920
▁partitions	-14.335391
msc	-14.318451
PROTECT	-13.793834
putc	-13.695840
RANK	-14.052608
▁blockSize	-14.146795
▁pointed	-13.267080
PACKAGE	-13.989307
inject	-13.777822
Updates	-13.642759
rgba	-14.451647
Se	-13.371933
ighbd	-14.915191
▁DMAMUX	-15.378534
▁LWS	-14.367762
measure	-13.871511
▁applies	-13.428708
▁Fint	-18.772984
Diagnostic	-13.845318
JMP	-13.988050
OptionsT	-14.093247
Advance	-14.473640
▁ORTE	-14.292669
Exists	-13.793624
▁implementations	-13.525972
eta	-12.639664
▁concurrent	-14.028531
Cor	-13.700919
▁executing	-13.805250
▁PORTB	-15.096451
La	-12.515101
Prescaler	-14.352039
sai	-13.387721
▁scheduled	-13.267924
Separate	-14.133730
▁arbitrary	-13.526112
BAT	-14.097069
▁PRIMARY	-15.086407
interval	-12.499158
Dispatcher	-13.931580
▁internalformat	-14.648533
TINY	-13.989098
CriticalSection	-13.760098
▁expanded	-13.354714
Detection	-13.816285
getc	-13.736976
▁pOut	-14.781668
SWP	-15.039134
AGC	-14.343154
▁preserve	-13.680806
ule	-13.610307
MQ	-14.071671
FSM	-14.166180
▁mddev	-15.369921
WIDE	-13.994776
▁PHYMOD	-14.305653
GTM	-14.308952
▁unformat	-15.291716
▁nsI	-14.609618
vio	-13.662128
▁relevant	-12.809530
SPIRV	-14.204795
Margin	-13.682171
▁doublereal	-14.469353
DIRECTION	-13.885190
GOOGLE	-14.938696
▁AOM	-14.453847
NW	-13.701418
madd	-13.974829
▁SVN	-14.107155
Most	-14.021546
▁PFNGLVERTEX	-14.215432
▁hostapd	-14.505599
▁ntohl	-14.469925
▁UNPACK	-16.231579
Terminal	-14.069811
Coordinate	-13.956601
AXI	-14.259142
▁algorithms	-13.471668
▁therefore	-12.456507
▁bases	-13.919456
jp	-13.226985
Strategy	-13.397674
▁UIColor	-14.524568
EXECUTE	-14.095569
▁iovec	-14.389925
Curr	-13.697121
zd	-13.661994
▁OMITBAD	-13.196757
DUMMY	-13.963584
▁recommended	-13.275421
STARTED	-14.222472
▁legal	-12.411542
Inf	-13.632104
ination	-12.910442
▁vnode	-14.394283
CYCLE	-13.720400
WN	-13.904649
Rd	-13.898442
SENT	-13.948451
▁symlink	-14.949956
▁NVME	-15.211468
▁HFCORECLKDIV	-17.788812
▁unlocked	-14.466878
▁RXF	-14.993527
ution	-13.309889
attnum	-14.098562
Consumer	-13.878304
INSTRUCTION	-13.853812
▁sdata	-15.727475
provision	-14.887181
RDMA	-14.191733
▁EZRADIO	-14.339256
ifa	-14.077069
PROGRESS	-13.974475
▁expired	-14.013832
▁garbage	-13.905408
trust	-13.772310
Topic	-13.565955
MIXER	-14.233861
▁severity	-14.143592
huge	-14.166460
gv	-14.237168
▁nfc	-15.152452
ific	-13.236098
CLKSOURCE	-14.429161
▁GRPC	-14.164582
sweep	-14.125700
▁Reads	-13.924634
Decimal	-13.926573
▁encap	-15.878223
Duplicate	-13.802894
DSR	-14.748582
▁PyNumber	-14.628042
fullscreen	-14.044630
VALIDATE	-13.733393
▁BTA	-14.402947
marshal	-13.395654
▁BNX	-14.707393
▁DCH	-15.028390
spc	-14.240796
Ne	-13.243330
sphere	-13.375944
INSTALL	-14.027786
▁DAPM	-17.143908
DAG	-14.254896
correction	-14.860858
▁MICR	-15.572063
▁WANT	-14.640735
Uses	-12.931075
▁moving	-12.800514
mds	-14.409407
SizeOf	-14.165037
safety	-14.505378
FIL	-14.078768
vtx	-14.256317
▁WWDG	-15.014974
▁vha	-15.253374
▁BTRFS	-14.526372
DEP	-14.107256
▁RCT	-15.180673
▁completely	-12.732452
tmr	-14.182581
▁iid	-15.630637
ICM	-14.108373
flight	-13.780862
Na	-13.056311
typmod	-14.180925
▁pmap	-14.972264
ANIM	-14.122671
iation	-13.509030
enge	-15.103885
▁derivative	-12.990865
▁typeof	-14.896869
Cube	-13.590290
▁wants	-13.045350
Invalidate	-13.677710
notes	-13.634762
▁CYDEV	-14.355242
▁polling	-13.908893
▁tablet	-14.410348
▁hda	-14.878260
Invert	-14.069586
Notes	-13.958886
BZ	-13.981297
▁intermediate	-13.643771
ali	-12.761835
ZY	-13.985011
▁DBGMCU	-15.656963
uio	-14.235559
ALARM	-14.267104
▁forced	-13.026350
Compact	-13.632798
▁OPAMP	-15.120110
Ac	-13.620623
KL	-13.701288
NAMES	-13.952756
Actual	-13.875128
Router	-13.770192
▁DTPRS	-21.871973
filt	-14.272955
▁arithmetic	-13.875839
▁corresponds	-13.717954
GW	-13.516746
▁PyDoc	-14.138358
▁PAYLOAD	-16.337135
Press	-13.549516
FOCUS	-13.959329
▁sdev	-15.940154
ough	-12.882376
LING	-13.369214
Aggregate	-14.015133
Explicit	-13.950172
ubi	-13.591679
Firmware	-14.019728
ano	-12.485842
namelen	-14.037918
BlockSize	-14.169928
▁causes	-12.978453
Fifo	-14.238279
opr	-14.087718
OTH	-14.491479
▁CheckExact	-87.803459
VGA	-13.997127
Lsp	-15.437868
Sender	-13.904513
▁MODER	-17.552548
DCR	-14.809364
AGG	-13.905341
rela	-13.749994
Expect	-13.933627
kr	-13.263778
TID	-14.094378
▁PQget	-15.170071
Neg	-13.521084
Streaming	-13.896761
blit	-14.216097
Wi	-14.166653
ADI	-14.111603
Ins	-13.275492
NAK	-14.339416
tone	-13.038412
▁shown	-12.304865
Pitch	-13.537842
▁GMP	-16.055547
WebAPI	-14.840287
RISE	-14.328372
CALC	-14.221232
▁gss	-14.784087
pps	-13.787436
▁ffffffe	-23.163352
▁htonl	-14.358525
show	-11.668612
Colour	-13.528051
LIBRARY	-13.832984
Ranges	-13.815634
WORDS	-13.750787
inode	-11.837209
▁kGTLR	-14.285611
duplex	-14.055365
lea	-13.234900
Streams	-14.087778
predict	-13.692090
onical	-13.872460
CATEGORY	-14.100013
SQLite	-13.846616
TRG	-14.467949
BEA	-14.005880
LPM	-14.457944
▁deallocate	-14.474719
IsNull	-13.892244
▁HASHMAP	-17.982805
DevicePath	-14.063643
▁cifs	-14.747000
Internet	-13.898989
feature	-12.100434
ike	-13.456628
discovery	-14.254077
pcap	-14.211141
▁kobj	-15.470648
VECT	-14.587956
▁msec	-15.045514
GEOMETRY	-14.126722
Convolution	-14.036393
WIDGET	-14.042499
▁rmi	-16.470103
Actions	-13.597690
▁relaxed	-14.962203
spot	-13.664356
reporting	-14.770389
lba	-14.131277
RTP	-14.093225
▁EXTIPSEL	-19.251567
Mapped	-13.991628
▁PyModule	-14.225848
▁Eterm	-13.983454
▁SEE	-14.218117
QL	-13.839123
Coeff	-14.279101
retries	-13.986104
mesa	-14.091583
lj	-13.761990
proof	-13.969885
ICS	-13.490338
▁IMXRT	-15.680470
▁kmem	-14.748745
▁PTHREAD	-14.799712
MPC	-14.141874
Fp	-14.001811
Extend	-13.900180
▁llx	-17.746634
▁virtio	-14.546768
▁istream	-16.069860
Maps	-14.145067
Projection	-13.965730
BARRIER	-13.994437
▁interpolation	-14.014710
distinct	-14.396584
Developer	-15.165582
▁models	-12.302533
STARTUP	-14.277897
NSS	-14.098437
GetDevice	-14.183932
▁dso	-15.784709
Reject	-14.036082
Chan	-13.871407
Below	-14.884528
Gate	-14.199199
Flat	-14.107492
▁ossl	-14.778874
IDENTIFIER	-13.979739
dwarf	-14.649487
SEPARATE	-14.260188
PCS	-14.418410
EML	-14.479605
quat	-13.886774
mtk	-14.237211
FALL	-13.290719
▁tsc	-15.510117
MID	-13.480689
FPGA	-14.105472
LG	-13.512597
YA	-13.406192
▁bta	-14.734305
Good	-13.216080
Jo	-13.734720
▁radix	-14.635336
wg	-13.940989
unt	-13.295688
ECDH	-13.836461
▁bitrate	-14.880130
QI	-14.249667
QA	-14.188264
▁nats	-14.034972
▁GetEmptyString	-20.398711
Eb	-13.682434
FIELDS	-13.930371
MARKER	-13.767550
Irp	-13.999346
ida	-12.570506
Spacing	-14.060913
Para	-13.837643
Watchdog	-14.234648
VALUES	-14.096807
▁swapchain	-15.224247
nulls	-14.009615
▁typically	-13.074328
▁intersection	-13.856648
flg	-14.196544
▁automatic	-13.590645
Nothing	-13.999107
BLOCKS	-14.159890
▁BTM	-14.561769
▁btf	-15.391115
Credentials	-14.024634
epsilon	-13.170234
▁magick	-15.441913
▁specifier	-14.496244
▁fgets	-15.115324
glBind	-13.500637
BOLD	-14.458564
Measure	-13.757319
▁ecx	-14.680050
lement	-14.070214
ulation	-13.031732
▁installed	-13.098963
je	-12.109713
▁EOP	-15.421988
▁bli	-14.852316
GetWindow	-14.086201
▁patterns	-13.357100
▁maintain	-13.231555
RPT	-14.516312
ric	-12.470602
▁suitable	-13.314377
HCLK	-14.551473
HOME	-13.709505
FREEZE	-14.981856
CLAMP	-14.089361
▁OMITGOOD	-13.256501
▁Steve	-12.394861
SSID	-14.254772
LOS	-13.844403
tune	-13.601571
Calls	-13.862949
wdt	-14.146371
FileSystem	-13.861923
▁becomes	-12.719966
▁MSVCRT	-14.656993
AlreadyInit	-14.701773
ElementType	-14.066551
Magic	-13.865067
TRANSACTION	-14.052234
FILES	-13.874816
neigh	-14.092921
FCR	-14.609361
HIT	-13.966658
▁PFNGLCOLOR	-14.218991
▁loff	-14.606663
dset	-14.445820
Org	-14.052593
▁plen	-14.539930
▁vprod	-15.257957
ptrs	-14.106371
ADE	-13.621741
deg	-13.926231
▁IMETHOD	-21.232227
▁IFX	-14.310153
POLARITY	-14.595936
weapon	-14.321876
scatter	-14.406434
FZ	-14.811426
▁htab	-14.858598
Login	-13.545365
Logic	-13.616951
Foreign	-13.672347
Ja	-13.612565
▁PrettyPrinte	-20.149581
▁herr	-13.507233
Scaling	-14.146307
Nx	-14.540946
MULTISAMPLE	-14.243704
▁robot	-14.062751
▁SLI	-14.793540
▁fHelp	-14.189283
▁NVIDIA	-14.522290
SERV	-13.918012
▁dout	-15.411232
GPS	-14.117063
▁functional	-13.742828
Cl	-13.093309
Instrument	-13.054017
▁inactive	-14.294667
RpcChannelBuffer	-14.472037
TCR	-14.386677
ORINFO	-14.367720
Periph	-14.419240
ABC	-12.857021
ADT	-14.037045
Xact	-13.790762
▁Liftoff	-14.230125
▁ethtool	-14.583533
tablespace	-14.182286
▁xffffffe	-22.336828
TITLE	-13.752539
Voltage	-14.141141
ire	-12.725370
brk	-14.245692
SUSPEND	-13.884606
Pulse	-13.946515
LIVE	-12.679819
ght	-14.638849
avl	-14.309635
▁cstate	-15.365622
SDR	-14.592753
▁performs	-13.666486
WaitFor	-13.933081
mess	-14.398255
nal	-11.855909
RESTORE	-13.927458
MISS	-13.502397
▁sequences	-13.531675
▁overhead	-13.890793
getopt	-14.112341
mch	-14.086719
SIDL	-14.237282
▁DEXT	-20.469864
▁mtmp	-15.469198
PhysicalDevice	-14.606879
Handles	-13.864277
▁tga	-14.921617
Grab	-14.333809
ification	-12.453573
vh	-13.884167
Boundary	-13.811109
▁MODKEY	-14.647774
Uart	-14.341443
utation	-14.146134
▁xcccccccc	-87.803459
▁DTYPE	-15.130825
clazz	-14.113030
Restart	-13.922071
▁coefficient	-13.811435
ECHO	-13.911725
lint	-13.943233
mech	-14.178238
ETHER	-13.909692
FK	-12.678819
wid	-14.166700
▁memview	-15.633174
Divider	-14.382627
BAUD	-13.965855
Vulkan	-14.015506
DISABLE	-11.797931
▁problems	-12.290880
DCB	-14.430549
▁RedisModule	-14.551795
RDS	-14.444396
▁ShiftMask	-15.249220
Vehicle	-13.481457
Clamp	-14.118841
cad	-14.241713
yo	-12.739582
Checked	-13.897978
Bo	-13.286756
STRIP	-14.111915
▁PERSISTENT	-17.385247
igen	-14.601071
ert	-12.873326
Ho	-13.544202
▁offer	-12.892060
▁prefer	-13.619526
Starting	-14.318096
Colors	-13.577414
parameter	-11.923736
▁ddrc	-18.381432
▁BKP	-15.790672
CDB	-14.195365
degrees	-15.126548
▁storing	-13.843253
Unused	-13.960275
ota	-13.040377
Terminate	-13.857723
▁PORTA	-15.274982
Masternode	-13.952773
▁California	-10.761136
tupdesc	-14.063889
lsb	-14.366016
LX	-13.757395
▁tabs	-14.558380
Allocated	-14.093856
▁frontend	-14.872643
Phi	-13.718116
segment	-12.440839
▁clipboard	-14.475509
Exchange	-13.998778
longlong	-14.433540
NOW	-13.562890
▁stereo	-14.303697
▁manually	-13.646886
▁filtered	-14.346331
IAR	-14.322989
aac	-14.359249
Equals	-13.800322
han	-12.316632
▁MFP	-16.364074
▁remember	-12.887547
ECT	-12.751173
▁NSUInteger	-14.956557
SLOW	-14.144264
Outer	-13.768556
EXCHANGE	-14.149704
▁yyval	-15.379336
▁Semiconductor	-13.786473
Paths	-13.916549
mpl	-13.350227
licon	-15.744026
▁textures	-14.455616
▁vkCmd	-15.280698
cff	-14.376678
▁CALLBACKS	-18.109080
▁infinite	-13.734469
Hide	-13.273457
SetWindow	-14.236164
Characteristic	-14.187736
priority	-12.664591
Vote	-13.442517
▁SLCR	-16.181507
Arch	-13.622827
think	-14.214097
otg	-14.119900
▁NETIF	-14.994218
Checksum	-14.107174
ReceivedHandler	-15.259856
ARY	-12.972292
▁ftnlen	-15.778141
ToJson	-14.856118
SHM	-14.139629
dos	-13.225857
▁synchronous	-14.163968
che	-12.111211
▁GPIOA	-15.306225
ERS	-12.975419
pB	-13.868037
▁formatted	-14.314433
APC	-14.237168
LEX	-13.838060
DY	-13.629961
EFR	-14.753365
Star	-12.839349
Formatter	-14.062073
▁ierr	-14.723348
Sha	-13.551076
▁JNIEXPORT	-13.733014
DISC	-13.148443
CUT	-13.886451
mal	-12.827392
cef	-14.383417
Encoded	-14.095551
mcast	-14.301390
▁twice	-13.021671
aaaa	-15.092385
targ	-14.204561
Plot	-13.830422
▁nvmf	-16.087836
▁NTI	-15.458046
Tbl	-14.230758
ended	-13.470151
▁FromLong	-21.294328
OUR	-13.675160
MATERIAL	-13.798468
redo	-13.680581
Wasm	-14.037014
▁SSC	-15.158283
COS	-14.008737
OG	-13.358572
▁attention	-12.847542
Effects	-13.780795
NACK	-14.166085
▁ECMA	-14.431656
▁libinput	-14.624766
▁residual	-14.166986
▁dapm	-16.778999
▁filtering	-13.915356
OVF	-14.431924
▁prototypes	-13.737106
▁vrf	-15.522507
▁remarks	-14.423959
▁xbfff	-87.803459
▁LFB	-16.917462
GIF	-13.885506
▁truncated	-14.120757
TUNE	-14.338025
IPA	-14.063075
mcu	-14.335025
Needed	-13.910005
Possible	-14.485468
DSL	-14.337801
PREV	-14.180298
PAT	-14.033539
CLSID	-14.402694
▁EPWM	-15.197545
Debugger	-13.902517
▁CBigNum	-14.322837
BLANK	-14.217766
Initialized	-13.802027
▁GxB	-15.066004
ompletionHandler	-14.807232
gcm	-14.401219
▁dequeue	-15.040584
Barrier	-13.857371
lusion	-13.890018
subst	-14.174572
▁aborted	-14.327824
▁GLchar	-14.504034
Hot	-13.736896
fcp	-14.424264
sqr	-14.435266
FAN	-13.887071
ised	-12.740312
TUN	-13.987822
mpu	-14.213910
Acceleration	-14.191848
FIR	-13.875535
Serializer	-13.864909
▁GenericClass	-17.959550
datetime	-14.177045
Testing	-13.978482
PLT	-14.313124
▁evict	-15.638512
BOT	-14.161024
ari	-12.665085
▁GetProcessHeap	-15.509350
Reading	-14.169015
Writes	-14.034644
▁subtree	-14.729418
spacing	-14.275236
▁VkResult	-14.116041
▁cij	-14.301224
erg	-13.692861
GetType	-13.949774
Vertices	-14.157258
▁coded	-14.624239
▁MonoMethod	-14.601672
▁setsockopt	-15.472185
broker	-13.899268
▁sand	-14.043179
Mailbox	-14.424823
MenuItem	-13.971679
hdf	-14.457668
PORTS	-13.959756
▁COMPILING	-16.814189
▁LPCSTR	-14.630073
Wo	-13.742965
NUMERIC	-14.148930
▁kept	-12.846029
mcp	-14.310677
▁efficient	-13.433714
nth	-13.883482
Lex	-14.072163
toc	-13.790383
GLES	-14.029913
▁pNew	-14.606173
▁CHROME	-14.538705
Absolute	-13.746584
▁glCopy	-15.383155
EXTRACT	-14.303362
quo	-14.410810
▁vehicle	-12.871468
mss	-14.250590
esis	-13.467719
BORDER	-14.136692
▁verbatim	-15.755823
Chart	-13.805615
Assembler	-14.025202
Joystick	-14.104331
Ice	-14.022065
▁allocations	-14.074700
▁MCO	-15.642401
▁updating	-13.877563
committed	-14.585483
latch	-14.061440
chart	-13.036680
Geom	-14.184580
While	-14.194445
MAPPING	-14.245853
▁ahd	-15.551533
Mega	-14.626171
▁enables	-13.768078
eNB	-14.657821
FEATURES	-14.108585
wan	-12.955705
WIRE	-14.238060
COMMIT	-13.931762
▁trivial	-14.263367
ASSOC	-13.973783
cart	-13.551305
Resp	-13.867284
DSC	-14.245358
roots	-14.273508
transfer	-12.518145
east	-12.754250
TPC	-14.343187
configUSE	-14.175091
ppi	-14.101084
hat	-12.808768
AADC	-14.716719
Translation	-13.028629
cwd	-14.148432
door	-13.553659
SSA	-14.071300
ECB	-14.381113
▁cpustate	-16.037565
BIP	-14.242302
clusters	-14.555830
Compress	-13.868544
Img	-14.197476
nas	-13.209724
▁INVALC	-25.982912
▁sst	-15.265438
FIN	-13.800045
▁uninitialized	-14.369400
traceback	-14.120622
outbuf	-14.174907
▁EBUSY	-15.600701
LCDC	-15.080626
DISCARD	-14.149655
▁evaluated	-13.672926
▁quantize	-14.876408
lWindowPos	-14.369285
urse	-14.609525
bracket	-13.687455
DON	-13.874882
▁regBuiltin	-87.803459
Decrypt	-14.138779
▁ehci	-15.339988
rewind	-13.878953
Led	-14.330131
RTOS	-13.555726
▁NSDate	-14.635826
▁CMSIS	-14.347264
PROPS	-14.388585
▁QLA	-14.776074
HDC	-14.048653
cqe	-14.556110
PDO	-14.185836
▁ecount	-15.992390
▁kHz	-15.018815
▁vfloat	-15.197511
Loaded	-13.854467
Vpn	-14.668949
modem	-14.649462
▁transfers	-13.661814
ado	-12.852284
sqlite	-12.514013
Health	-13.718241
▁tmpreg	-14.460102
DPI	-14.231202
▁afs	-14.563001
STP	-14.347067
GetNext	-14.142737
ral	-13.209641
▁sParam	-15.547756
▁LPVOID	-14.469908
Marshal	-14.024348
SendMessage	-14.323395
MUTE	-14.539374
WH	-13.754954
▁hadc	-15.214486
uw	-13.823525
chat	-13.282509
▁decision	-12.268288
mdev	-14.228217
MetaData	-14.101053
LBL	-13.883255
ender	-13.048976
▁IWDG	-15.061807
PREF	-13.498534
eral	-13.516513
▁PyMem	-14.264377
jobs	-14.371672
Dimensions	-13.797896
ima	-12.875597
▁xsi	-14.398578
CERTIFICATE	-14.170800
Issue	-13.188509
aps	-13.241612
HISTORY	-13.663082
▁MCA	-14.228320
EQAN	-14.687516
ann	-13.528500
semantics	-13.925208
segs	-14.266824
tmpl	-14.081326
▁UNLIKELY	-17.479066
GRID	-14.179449
▁FLA	-14.709419
fly	-13.598294
udc	-14.241147
▁plaintext	-14.718181
▁Cmm	-15.325484
Encrypt	-14.132635
▁issues	-12.012555
▁saddr	-15.594669
▁callee	-14.711237
▁Anum	-15.316668
Precision	-13.946858
FILT	-14.648922
Indent	-14.025983
mng	-14.383398
▁milvus	-16.893629
FRONT	-13.909898
Ep	-14.126862
carrier	-14.200113
DIALOG	-13.817333
ors	-12.056479
▁bignum	-14.802475
▁retrieved	-13.901986
▁IEnum	-14.334444
PERM	-13.572821
SYNTAX	-14.100342
SGI	-14.202137
lookup	-12.285057
adapt	-12.198432
IU	-13.906926
invocation	-13.991435
▁reasons	-12.711118
fk	-14.212622
▁uip	-14.678015
▁respect	-12.751549
Simp	-14.893982
ART	-12.815984
Wnd	-13.397034
▁TCPIP	-14.859608
Detach	-14.026204
He	-12.311543
QUAL	-14.141111
Js	-14.094018
KF	-13.768125
lldb	-14.097888
atoms	-14.503574
▁iostream	-17.056036
▁opening	-12.707038
VN	-13.961123
Typed	-14.090143
▁colormap	-14.910933
talk	-13.729031
crit	-13.819105
▁DID	-14.783168
Wake	-14.442853
▁XEvent	-15.531825
CSD	-14.485014
MISMATCH	-14.205730
UTC	-13.552388
▁aren	-13.252741
datalen	-14.115764
COMMENT	-14.043329
Dims	-14.316864
za	-12.316514
KM	-13.680187
ilt	-14.234315
trusted	-14.337818
ppendPQExpBuffer	-14.385042
msa	-14.485909
eye	-13.635780
MEDIUM	-14.158660
Coder	-13.742705
NamedFramebuffer	-14.404126
Am	-12.857003
purge	-14.268823
PROCESSOR	-13.947466
FOG	-14.070761
▁asynchronous	-13.980963
▁FALLTHROUGH	-14.690188
SYNTH	-14.862270
▁HFPERCLKDIV	-17.971721
member	-12.223198
Lists	-13.693647
Records	-13.894575
ADJ	-14.184907
putchar	-13.828219
Sun	-13.934322
aliases	-13.981891
Pic	-14.033346
▁libraries	-13.183687
▁newval	-15.027566
Keyword	-14.057402
▁validity	-13.877930
atan	-13.887140
METADATA	-14.213832
LATE	-13.647887
Gx	-14.946412
▁saving	-13.800449
dbl	-14.249452
uttx	-14.133292
DOS	-13.380496
Both	-14.624581
Lit	-13.574719
addrlen	-14.112589
Mean	-14.074973
rex	-14.164925
Evaluate	-14.688206
PARTIAL	-14.183967
▁inplace	-15.794160
MBC	-13.817897
ACM	-14.053194
texture	-11.856134
ASR	-14.501699
denom	-14.166314
▁epu	-19.246850
▁umock	-14.828376
Lazy	-13.969817
▁STDC	-15.419759
Vol	-13.144532
IFY	-14.063205
INE	-13.057604
▁Microchip	-13.837956
▁kmalloc	-14.492786
▁oscillator	-14.196597
Street	-14.409930
les	-11.696984
Removed	-14.039642
report	-11.666158
uch	-12.730957
▁srs	-16.360935
OCTET	-14.316865
▁expires	-14.614487
▁timezone	-14.619275
sapi	-14.172991
▁directive	-14.151304
Parm	-14.265298
conj	-14.384047
attribute	-11.091131
ResultType	-14.169329
reclaim	-14.622420
▁beyond	-12.752623
▁GPIOTE	-14.612461
▁dpm	-16.399212
▁sends	-13.800578
Lane	-14.182965
POSSEL	-15.625285
persist	-13.633029
▁UNAVAILABLE	-17.530596
aries	-12.741848
CONDITION	-13.867839
Specification	-13.895813
▁exported	-14.093833
▁CWallet	-14.276688
▁SPIM	-15.487933
Scratch	-13.842120
hon	-13.410346
Requires	-13.948167
CommandList	-14.224637
Universal	-13.984821
Offsets	-14.203158
ith	-13.812136
▁portion	-13.026653
closureN	-14.701742
Rt	-14.135932
abb	-14.187174
HER	-13.903606
▁shost	-16.075061
▁decide	-13.339149
CopyFrom	-13.850856
▁oldest	-13.500643
gyro	-14.689390
DOCUMENT	-13.974108
NFA	-13.991125
saxpy	-14.531541
▁potential	-12.424542
ZE	-12.648797
Pressed	-14.012479
Generation	-14.187405
▁jclass	-14.428353
rtm	-14.552338
polynomial	-15.018305
EVCTRL	-15.323498
Energy	-14.114088
ewGetProcAddress	-15.095857
▁incx	-15.055491
COMBINE	-14.026016
eid	-14.145026
DIRECTORY	-14.188276
RefCount	-13.612191
XI	-13.009754
PARA	-13.789230
▁PyType	-15.263990
▁VkImage	-14.245055
▁tested	-13.330063
lac	-13.653499
epoll	-14.266600
bearer	-14.172090
▁comes	-12.386748
aggr	-14.537721
include	-8.078589
UIViewController	-13.841306
gene	-12.782668
▁Kevin	-12.823358
▁wparam	-16.164522
SPARSE	-14.203125
▁OAI	-14.163622
Lu	-13.432068
Hand	-13.807935
SRGB	-14.332835
NOTIFICATION	-14.197322
checker	-14.063351
weston	-14.226072
FH	-14.145212
▁SetLastError	-13.891431
Ma	-13.005557
▁succeed	-13.771816
▁litest	-16.007354
▁thrown	-13.511513
▁PROGMEM	-14.357001
CENTER	-14.105652
Gateway	-13.824431
▁attempts	-13.314128
lum	-13.189306
spr	-13.932849
RLC	-14.494668
ImageFilter	-14.026343
Plain	-14.119772
Pen	-13.882857
SAMPLES	-14.242319
Att	-13.757482
▁sessions	-13.680692
aid	-13.645617
▁Gating	-14.028909
GetName	-14.125796
DNA	-13.508286
BaseAddress	-14.253177
often	-15.252723
cutoff	-14.832328
▁superclass	-13.828908
▁PMIC	-15.506455
▁accumulator	-14.330698
▁XCVR	-15.637550
vap	-14.491754
tiff	-14.162802
▁getNum	-14.563955
▁APLOG	-15.472922
IFIED	-13.722072
▁dtls	-14.921749
▁restrictions	-13.298145
Hello	-13.356193
▁reduced	-13.000433
rip	-13.367860
CDR	-14.523784
Reload	-14.098140
▁safely	-13.880943
Pe	-12.973118
▁equation	-13.186426
ancestor	-14.979810
▁ssc	-15.454414
▁glGetProgram	-15.389494
▁newnode	-14.049057
asc	-13.819637
▁rend	-15.221325
▁abuf	-14.493829
Promise	-13.520614
▁endp	-15.353184
HDF	-14.268793
MPS	-14.113925
▁endptr	-15.819672
ung	-12.330176
bz	-14.159181
Parity	-14.345322
▁wgl	-15.341010
hk	-13.975657
▁DOXYGEN	-15.190086
▁PLLSAI	-16.188218
▁sexp	-15.038818
▁logs	-13.967305
▁ahc	-15.570264
▁TCPWM	-16.024684
Al	-12.485984
ByName	-14.195403
volve	-14.154024
▁WPS	-14.999312
glSecondaryColor	-14.422034
▁VISIT	-14.845474
▁singleton	-14.478976
▁wanted	-12.519014
Raster	-14.153087
SDP	-14.253050
Rules	-13.883562
AUD	-14.007370
dcb	-14.448894
DEMO	-14.099941
▁pCur	-15.110031
Gu	-13.568067
tee	-13.770798
lam	-11.990642
▁CInput	-17.333419
Mar	-13.134853
▁regarding	-12.649420
What	-11.916032
hits	-14.511606
Ident	-13.915894
PREP	-14.015972
▁unbox	-16.495038
▁numa	-14.844862
PASSWORD	-14.151883
ein	-13.441933
HARDWARE	-14.309541
▁CAPI	-14.692659
Saved	-13.968942
xen	-14.019354
Visibility	-13.841001
lap	-12.971451
BUFSIZE	-14.138480
▁pParse	-15.381029
▁emsg	-15.175723
▁strtok	-14.578822
▁TXB	-14.970869
▁pointing	-13.764356
Requests	-13.954991
ARCHIVE	-14.036021
▁MXC	-15.210641
ori	-12.503084
▁forIn	-20.826177
Minor	-14.082030
Arrow	-13.568288
BLINK	-14.173405
CLOSED	-14.143092
▁matter	-12.271671
▁ITM	-15.168528
▁bitset	-15.009660
▁whenever	-13.587432
Gfx	-14.243645
Sta	-14.153453
Publish	-13.940180
Neighbor	-13.806831
▁PINCTRL	-17.787654
xmin	-14.211324
▁skel	-16.486412
ents	-12.817066
Manual	-14.570906
DRAM	-14.078251
DFU	-14.321728
▁SmallVector	-14.451769
▁helpers	-14.219890
chi	-12.183234
dce	-14.531162
ClassName	-14.008346
DDI	-14.385487
leg	-12.748039
▁nStates	-16.743031
Globals	-13.981820
stall	-13.861150
SETTING	-14.320192
▁smu	-15.372106
Trait	-14.066258
printing	-15.252941
Subroutine	-14.387469
Pcd	-14.657969
SCENE	-14.183670
pel	-13.536633
▁IMPLEMENT	-14.179318
irectDrawSurface	-14.693797
▁pfree	-16.336273
Escape	-13.541703
Solution	-13.526919
Formats	-13.840971
▁boundaries	-13.450073
PROJECT	-14.467955
tss	-14.549917
zo	-12.647159
▁pNode	-14.802389
▁commandBuffer	-14.607610
Conflict	-13.279226
regexp	-14.432456
▁SPA	-14.659334
Cal	-13.676389
ets	-12.401259
UNUSED	-11.813390
Act	-13.647378
tracks	-13.656669
Temperature	-13.817616
▁primitives	-14.857281
▁CGSize	-15.020064
YG	-13.995870
▁NVMCTRL	-15.534895
Loading	-13.491518
Hidden	-13.628493
Repr	-14.435625
▁CHPRI	-18.040501
AVAIL	-12.786924
cntl	-13.169714
▁socklen	-14.504262
CLKDIV	-14.566340
▁earlier	-12.639251
▁WRONG	-16.091414
ration	-12.841874
thermal	-14.125302
▁nthreads	-14.024976
Dataset	-14.020639
tcl	-14.294384
PRECISION	-14.295464
Priv	-14.060435
synchro	-16.099062
▁iio	-14.825994
slices	-14.591644
▁differ	-14.050509
BRANCH	-14.231372
▁pState	-15.048200
chg	-14.361134
▁ecb	-16.054504
▁InvalidOid	-14.041851
Dyn	-14.280431
scl	-14.360382
▁STRONG	-17.488170
fetch	-12.328369
Zoom	-13.834535
▁outlen	-14.881039
▁CharT	-14.910711
TTL	-14.220538
Develop	-14.590272
INTERP	-14.241967
▁memviewslice	-16.092800
qspi	-14.500864
Yes	-12.574053
EMBER	-14.222513
▁rehashe	-19.531832
contig	-14.749358
Mapper	-13.867493
combo	-14.444746
lli	-13.747435
▁agreement	-12.680206
▁hierarchy	-13.953491
MDI	-14.513372
▁GPIOB	-15.356292
pvt	-14.459034
▁HANDSHAKE	-16.970089
▁bail	-13.260299
rz	-13.579699
COST	-14.311020
SUITE	-14.198264
▁TESS	-15.919161
avi	-13.033695
nni	-14.042532
▁sreg	-16.152235
ALLOCATOR	-14.155237
▁slist	-15.878619
▁IWM	-14.485948
Efi	-13.592426
QUOTE	-14.082639
ZONA	-14.497040
Interlocked	-14.278673
ora	-12.691647
▁GLvoid	-14.612583
OSX	-14.190528
SEP	-14.123878
spline	-14.486286
▁SCE	-14.524427
▁derive	-14.417159
Swift	-14.389176
Dbg	-13.783818
irp	-14.310292
▁backing	-12.713053
▁filp	-15.664659
frozen	-14.330140
Cv	-14.242968
NDR	-14.375218
UNION	-13.844116
FieldNumber	-13.974267
▁endpoints	-14.359301
Drawable	-14.130255
▁FUNCNAME	-15.063179
▁pdw	-15.673258
CONCAT	-14.507239
▁accessing	-13.956181
▁ensures	-13.766460
Vdbe	-14.145144
▁delimiter	-14.141617
Words	-13.519341
DLY	-14.809112
▁fsl	-15.115693
▁mappings	-14.335979
SAME	-14.345754
▁devm	-14.665913
▁bitwise	-14.409738
tro	-12.909814
uration	-12.669367
Mini	-14.208011
through	-13.062164
RESUME	-14.233280
▁PORTC	-15.320805
TRUST	-14.284467
LINES	-14.027284
NH	-13.626051
▁pcre	-14.833923
Tables	-13.696992
Subsystem	-14.634542
ably	-13.243496
Protect	-14.043028
typeid	-14.460008
XN	-14.336988
▁AIF	-16.317022
Indicator	-13.858821
SWREQ	-15.981647
▁describes	-13.260775
▁fiat	-14.568530
Nr	-14.090488
▁bufSize	-14.711923
▁SEXP	-14.642912
HashMap	-14.036220
gal	-12.952051
CCA	-14.064298
Drawing	-14.060997
Confirm	-13.936668
▁PFNGLTEX	-14.415525
remove	-11.430676
LATENCY	-14.519304
▁minimal	-13.615215
gos	-13.695778
Traceback	-14.513840
CIM	-14.231081
lck	-14.342170
kg	-12.225172
Circle	-14.002879
VertexBuffer	-14.273425
MW	-13.690975
▁ioaddr	-15.312120
▁constructed	-13.202972
▁PyMethod	-15.017337
corr	-14.039060
Bone	-14.254826
CONS	-13.824468
▁HDA	-14.884340
GetObject	-14.314355
Subject	-13.194600
Blueprint	-14.035469
ups	-13.013416
▁escaped	-13.949205
binfo	-14.720246
ImageInfo	-14.293091
ump	-14.048488
▁tparam	-19.919707
▁INTRINS	-15.789196
▁DType	-14.598700
▁RDONLY	-18.719097
▁glX	-15.582986
▁RelationGet	-14.647610
BMC	-14.594995
tpl	-14.462322
PublicKey	-14.259690
dae	-13.647765
▁training	-12.327581
Times	-13.793846
▁PERL	-14.324666
plic	-14.185940
lish	-13.328895
pot	-13.114169
▁MspInit	-15.889445
ALGO	-14.382656
ALLOCATION	-14.345624
NOTIMPL	-13.658201
ITK	-14.175407
warp	-14.367336
AGENT	-14.384968
▁peers	-13.955907
SDMA	-14.684275
Ra	-13.341768
yb	-13.974503
IndexType	-14.153261
Design	-13.986740
Recovery	-13.995878
CDEF	-15.393347
STAR	-13.173943
▁brightness	-14.573342
Ser	-13.727047
AFE	-14.405777
▁endverbatim	-87.803459
EK	-13.996524
Ke	-13.882614
GDK	-14.372860
chall	-15.882960
append	-11.632138
▁smi	-14.955968
DESTROY	-14.102409
sanitize	-14.387379
▁complain	-14.190481
▁ethernet	-14.700279
▁Cef	-14.489235
nsp	-14.370452
ain	-12.303432
vu	-13.656115
▁substring	-14.575426
▁spu	-15.110357
▁CHUSEBURST	-18.092738
▁separated	-13.590693
HALT	-14.566186
rol	-13.718691
tpm	-14.420832
▁codegen	-15.283275
▁PFNGLIS	-14.296678
▁pFile	-14.913285
▁NOPULL	-31.525261
▁daos	-15.166458
ArrayType	-14.154272
▁gadget	-15.247421
▁compose	-14.862948
Redirect	-14.142482
itter	-13.485775
▁unreachable	-14.874405
getattr	-14.038129
destroy	-11.388550
▁bootstrap	-14.469583
▁cups	-13.604426
bsp	-14.148345
integration	-14.662256
rsv	-14.205205
▁glGen	-15.094521
BGR	-14.475396
▁efm	-16.076855
ffc	-14.362022
RATIO	-14.570417
▁Portions	-14.321460
PSE	-14.164027
termios	-14.234668
cess	-13.764728
kd	-14.204016
ebp	-14.384515
opus	-13.582314
RENDERER	-14.398205
Rand	-14.238301
runner	-13.525327
▁disconnected	-14.373048
syms	-14.208830
Listen	-14.095588
▁luma	-15.347642
▁svm	-15.269764
cfb	-14.613277
▁LAPACKE	-14.647136
Sv	-13.957062
prune	-14.280870
ELL	-13.773361
PALETTE	-14.295528
bins	-14.198330
▁semantic	-14.270268
▁wpas	-14.931293
▁setzero	-20.578026
GIC	-14.391681
▁btc	-15.160330
▁opcodes	-14.822303
MCI	-14.209960
LIM	-14.113137
▁isspace	-15.609808
setattr	-14.319231
Tls	-14.290600
ett	-12.753583
▁sanity	-14.120095
clnt	-14.402987
yuv	-14.525248
dash	-13.585569
iterator	-11.486464
compare	-12.426119
Unpack	-14.281845
▁opj	-14.781743
VERT	-14.159880
REVERSE	-14.137121
▁pDevice	-15.131030
OEM	-14.035845
CHARACTER	-14.132123
▁JERRY	-14.587311
▁pixs	-15.446608
▁ListCell	-16.544772
KU	-14.017219
mpfr	-14.516696
EventType	-14.082553
▁trampoline	-15.003809
uVar	-14.248901
BLT	-14.501581
rice	-13.539265
Typ	-14.089647
▁LFCLKSEL	-18.257670
LPI	-14.849508
SMT	-14.321288
▁construction	-12.327217
Slots	-14.208693
coder	-13.438241
ARD	-14.200907
MDRV	-14.188517
▁getName	-14.556442
presence	-14.948496
▁coverage	-13.132419
▁ogg	-15.716505
▁MAV	-14.898288
keymap	-14.445482
SAL	-14.311319
Endian	-13.830795
cmnd	-14.465933
Interpreter	-14.073935
dam	-13.506494
▁CyFunction	-21.445467
▁looks	-12.655351
wheel	-13.663451
orth	-14.196630
gas	-13.011329
BOR	-13.624011
PTC	-14.746076
Privilege	-14.170762
▁knl	-16.831978
rtt	-14.253947
KMS	-14.518274
Latency	-14.321745
BEFORE	-14.365723
▁daddr	-15.701326
Rhs	-14.518652
FRM	-14.575432
SRP	-14.252354
▁retVal	-14.348696
▁finally	-12.617959
zp	-14.453264
FunctionType	-14.164379
▁dylib	-17.224566
▁mongo	-14.745105
Jet	-13.547702
ACTIVATE	-14.402180
Beacon	-14.017895
inq	-14.215057
▁country	-11.653496
Misc	-13.832780
Peers	-14.643699
DSO	-14.358751
▁skill	-14.119668
HKEY	-14.169891
Closed	-13.642576
IDENT	-13.363012
unc	-13.634541
GetData	-14.181899
wrk	-14.502645
▁AVERROR	-13.723772
▁fseek	-14.848592
dfa	-14.511131
Prototype	-13.949277
pgm	-14.620616
ygard	-15.045696
▁BSLS	-14.449646
FOLD	-14.078201
EFF	-13.287785
▁MICROCHIP	-14.380997
Grow	-14.001373
LCK	-14.582977
eve	-13.572877
Sci	-14.955985
▁FMOD	-15.257062
vir	-13.250633
ulate	-12.944501
Included	-15.063928
Choose	-14.405403
dres	-14.550769
Nu	-13.927120
Notifications	-14.246643
ROS	-13.791473
RDWR	-14.479812
DIE	-13.520393
▁clicked	-14.650155
▁hsize	-15.019048
Reserve	-14.032855
ADVANCE	-14.177390
CLS	-14.358877
ach	-12.617969
Spl	-14.569575
▁funcname	-15.630319
AFF	-14.038887
Dep	-14.189026
MAIL	-14.072891
▁TCHAR	-14.732362
▁moment	-12.533737
OOB	-14.402596
gin	-13.336517
REMAP	-14.684674
▁particles	-13.804485
ons	-12.393786
LPD	-14.459701
▁LIS	-14.613066
ym	-13.195179
rds	-13.742698
PROPERTIES	-14.286175
▁Bradley	-13.622871
▁continuous	-13.547852
PAGES	-14.351067
▁unpacklo	-19.881309
MSS	-14.413228
Sorted	-14.179112
▁outstanding	-13.769987
eee	-13.604281
era	-12.118777
cade	-13.885797
tie	-13.030691
▁movs	-15.805881
stg	-14.393744
hosts	-14.254563
▁ASSEMBLY	-16.774488
fst	-14.364244
mbs	-14.174829
InputStream	-13.761738
LANE	-14.660723
bra	-13.086441
▁lfs	-15.106434
CNF	-14.826842
▁pObj	-15.023555
▁strlcpy	-15.754484
BYPASS	-14.590359
▁dynamically	-13.915246
▁specialization	-14.044586
tySequence	-14.986881
zl	-13.990199
▁dwError	-14.482417
▁wolfSSL	-14.491794
Motor	-14.275545
▁ibuf	-15.247914
DescriptorProto	-14.441629
ARROW	-14.079117
qq	-14.164026
rocksdb	-14.275767
▁figure	-12.669417
Until	-14.028732
▁TRNG	-15.428947
MIR	-14.480841
Started	-13.874128
▁belongs	-13.599819
▁LDK	-15.432173
▁pZip	-15.949450
▁WREG	-17.433850
realm	-14.505402
wish	-13.852057
Iterate	-14.167017
LAP	-13.837485
LOCALE	-14.216182
▁determines	-13.884725
Conditional	-13.859232
▁tolerance	-14.067542
NIF	-14.259669
▁DTCTRL	-18.941659
ore	-12.269079
Deep	-14.201349
INVERT	-14.407738
▁CREAT	-15.622949
iOS	-14.133085
arith	-14.036007
Pixmap	-14.228477
ACR	-14.772343
▁SMPR	-17.492247
cha	-12.400069
FRAC	-14.636250
pcr	-14.521368
Decrement	-14.153665
Ge	-13.484591
▁subnet	-14.796998
▁objv	-14.817732
mand	-13.857809
MISSION	-13.894666
watcher	-14.319508
Drv	-14.227355
idr	-14.348060
OOO	-15.166028
▁VkCommandBuffer	-14.887214
Surf	-14.056375
▁strtoul	-14.983461
▁nvim	-16.684989
PCB	-14.249871
Utf	-14.239994
▁HFILL	-14.052816
mpeg	-14.286675
RelationId	-14.082664
MAPPED	-14.441134
▁backwards	-13.960153
Edges	-14.263163
WPARAM	-14.465889
RAY	-14.045930
Filters	-14.048432
LoRa	-14.486054
▁ffffffd	-87.803459
▁magma	-14.093997
Classes	-13.534202
RDP	-14.322206
Ascii	-14.251874
Gap	-13.932919
Acl	-14.077975
wy	-13.609768
▁PERIPHERAL	-16.210147
nch	-13.406501
▁ocp	-15.863877
▁affected	-13.203935
▁subquery	-15.031764
Lost	-13.670391
▁convolution	-14.520206
▁describing	-13.626489
road	-13.822138
▁kStatus	-14.244492
emac	-14.312526
Specifier	-14.328535
photo	-13.985683
▁Erts	-14.526510
▁suspended	-13.706100
FileInfo	-14.112801
▁exts	-16.014020
▁transferred	-13.181717
IME	-13.994213
Ev	-13.655759
EEP	-14.715168
UGE	-14.324609
emb	-14.216712
gif	-14.340655
▁say	-11.704348
▁SYSCON	-15.530345
CAUSE	-14.330319
ICBOF	-15.656362
ior	-13.184358
▁MEGA	-14.647584
semi	-13.730749
RasterPos	-14.490544
elambda	-15.117310
▁DWT	-15.504607
Ping	-13.747701
DBUS	-14.414307
▁swizzle	-15.364750
Deferred	-14.204424
reconnect	-14.754472
BUCKET	-14.453866
▁workaround	-14.268717
▁SST	-14.575759
▁keywords	-14.460666
▁mojom	-15.881258
▁EINTR	-14.400882
wrote	-14.803594
Subtract	-14.253875
ura	-12.436628
ACP	-13.794749
ReadOnly	-14.134823
▁jerry	-14.540944
spatial	-14.650514
eep	-13.505180
Sch	-13.618127
blkno	-14.376704
Enumerate	-14.137232
▁cra	-15.236164
▁nread	-14.649313
▁cstring	-15.771461
▁rebuild	-14.375790
acked	-13.374337
▁intro	-14.429274
IIC	-14.649861
▁collector	-14.116224
gfs	-14.378311
ReturnType	-14.291812
▁sigaction	-14.622204
TupleDesc	-14.013063
▁dont	-14.176347
▁Therefore	-12.961366
Locator	-13.849855
▁IFORM	-18.407137
▁recurse	-14.680275
▁accesses	-14.271957
SMI	-14.453041
INDENT	-14.024645
▁UNITY	-14.645024
SFT	-14.672330
▁caddr	-15.586232
fcn	-14.410263
Noise	-14.285334
Ticks	-14.131805
▁indication	-14.137802
dirs	-14.159840
Quote	-13.204197
▁SetNull	-13.860614
▁AUXHFRCO	-16.366968
▁underflow	-14.645376
bsl	-14.066021
Temporary	-13.864004
Rename	-14.062816
synth	-12.758029
Discard	-14.151913
anc	-14.198105
▁Ngap	-15.504849
orient	-13.210177
las	-12.519998
Floating	-13.844322
errstr	-14.279551
eol	-13.852839
▁allowing	-13.185199
Pref	-13.931685
Refer	-15.202837
accuracy	-14.742215
▁receives	-13.705399
Was	-13.840477
LAND	-13.629873
▁domains	-14.052708
sgn	-14.974928
▁sint	-15.672958
bufp	-14.268154
▁pstr	-15.320734
gy	-13.050237
UNSET	-14.247131
Gray	-14.006331
ground	-11.712715
▁xfree	-14.034175
▁FIRMWARE	-15.972202
▁TEGRA	-15.233429
Xid	-14.172344
logged	-13.871414
▁defer	-14.551872
SetError	-14.280004
▁synchronization	-14.089351
benchmark	-14.665301
▁removing	-13.741073
▁ctypedef	-14.367648
succ	-12.541350
▁xattr	-15.716608
pools	-14.596140
READER	-14.250117
STOPPED	-14.473466
▁uncompressed	-14.700407
▁GLEXT	-18.060757
▁idea	-12.423963
collid	-14.672875
ImageType	-14.244527
Structs	-14.097853
Waiting	-14.266403
▁HSMCI	-15.753894
NZ	-13.643642
Fake	-13.809040
Spin	-14.047817
Toolkit	-14.121339
Qu	-14.086310
Pal	-13.906029
Unity	-14.098745
Mc	-14.141360
TexImage	-13.971465
▁ftrace	-14.855828
Rsp	-14.605676
cts	-14.115401
resh	-15.284068
IAL	-13.897931
MERGE	-14.254261
PrivateData	-14.474477
TCA	-14.026662
▁stay	-12.875129
pac	-13.549822
shoulder	-15.712318
▁bytecode	-14.771887
CAS	-13.999363
dlg	-14.439083
acb	-14.656005
▁dispatched	-14.255421
dial	-14.109983
▁VOLTAGE	-16.476709
Adaptive	-14.888667
Users	-13.971873
MBR	-14.288028
GPT	-14.588208
▁LOCKS	-16.279285
Deprecated	-14.034984
▁microseconds	-14.484253
▁mysqlnd	-15.663109
utter	-13.571262
GK	-13.485198
Flip	-13.878298
▁repository	-14.013185
Rad	-14.748937
▁incomplete	-13.885647
Without	-14.036223
▁unchanged	-13.980054
Corrupt	-14.441204
▁CONSTEXPR	-17.464992
▁msix	-16.053291
Dock	-14.098840
▁vxlan	-15.256678
▁DRW	-14.606031
LSI	-14.512239
▁comparator	-14.582329
TypeId	-14.301978
Initializer	-14.147062
bid	-13.379187
Distribution	-14.378443
IOMUXC	-15.012267
InitTypeDef	-14.121864
Needs	-13.948343
▁wxString	-14.309565
FIRE	-13.939493
BATCH	-14.373199
▁pset	-15.360272
NAS	-14.004731
dia	-12.549252
BULK	-14.434381
▁YYDEBUG	-15.240863
▁subframe	-15.301392
▁refptr	-18.578688
Superclass	-14.111439
Qualifier	-13.733354
▁SCRIPTABLE	-21.636841
Submit	-13.954504
TXN	-14.232056
lip	-13.165621
▁PRAGMA	-15.401564
LogError	-14.385129
▁encountered	-13.751494
BRK	-14.810112
▁VTABLE	-15.753082
sons	-13.695784
Sm	-14.094683
▁mpls	-15.841895
TestCase	-13.917458
OOM	-14.153398
▁allocating	-14.341460
sResponse	-14.459742
▁deletion	-14.085322
▁defining	-13.840145
▁intent	-13.384706
Fs	-13.848685
SELECTION	-14.313634
▁COAP	-14.705373
Ta	-13.559711
▁spent	-12.790758
▁AFIO	-15.684286
▁TYPEDEF	-16.235005
lq	-14.220315
▁discussion	-13.225341
INTERNAL	-11.968378
BlockIndex	-14.193771
Replication	-14.199819
Interrupts	-14.195039
GENERATE	-13.613398
▁CRS	-15.936077
slider	-14.546718
fdw	-14.480147
Cu	-13.456033
TST	-14.593851
Pm	-14.711697
DeviceMemory	-14.307073
medium	-14.335700
MOTION	-14.024860
▁dereference	-15.114181
amqp	-14.785752
UX	-13.862703
▁inherited	-13.899101
Iot	-14.522333
AdjustorThunk	-15.387113
Replica	-14.131571
Bg	-14.325859
▁srp	-15.186551
fq	-14.361726
RASTER	-14.387714
▁rbuf	-15.437284
Sheet	-13.599614
Opts	-14.237797
latter	-15.014971
▁PGC	-14.509275
zs	-13.954609
ottle	-14.575153
vacuum	-14.391488
▁convenience	-13.794918
Sphere	-14.059157
PGA	-13.702306
[...]
