<unk>	-2.494480
<s>	-85.317751
</s>	-20.480658
<mask>	0.0
<pad>	0.0
▁▁▁▁▁▁▁▁▁▁▁▁▁▁▁▁▁▁▁▁▁▁▁▁	0.0
▁▁▁▁▁▁▁▁▁▁▁▁▁▁▁▁▁▁▁▁▁▁▁	0.0
▁▁▁▁▁▁▁▁▁▁▁▁▁▁▁▁▁▁▁▁▁▁	0.0
▁▁▁▁▁▁▁▁▁▁▁▁▁▁▁▁▁▁▁▁▁	0.0
▁▁▁▁▁▁▁▁▁▁▁▁▁▁▁▁▁▁▁▁	0.0
▁▁▁▁▁▁▁▁▁▁▁▁▁▁▁▁▁▁▁	0.0
▁▁▁▁▁▁▁▁▁▁▁▁▁▁▁▁▁▁	0.0
▁▁▁▁▁▁▁▁▁▁▁▁▁▁▁▁▁	0.0
▁▁▁▁▁▁▁▁▁▁▁▁▁▁▁▁	0.0
▁▁▁▁▁▁▁▁▁▁▁▁▁▁▁	0.0
▁▁▁▁▁▁▁▁▁▁▁▁▁▁	0.0
▁▁▁▁▁▁▁▁▁▁▁▁▁	0.0
▁▁▁▁▁▁▁▁▁▁▁▁	0.0
▁▁▁▁▁▁▁▁▁▁▁	0.0
▁▁▁▁▁▁▁▁▁▁	0.0
▁▁▁▁▁▁▁▁▁	0.0
▁▁▁▁▁▁▁▁	0.0
▁▁▁▁▁▁▁	0.0
▁▁▁▁▁▁	0.0
▁▁▁▁▁	0.0
▁▁▁▁	0.0
▁▁▁	0.0
▁▁	0.0

	0
<CLS>	0
<SEP>	0
<EOD>	0
<0x00>	-85.317751
<0x01>	-85.317751
<0x02>	-85.317751
<0x03>	-85.317751
<0x04>	-85.317751
<0x05>	-85.317751
<0x06>	-85.317751
<0x07>	-85.317751
<0x08>	-85.317751
<0x09>	-85.317751
<0x0A>	-85.317751
<0x0B>	-85.317751
<0x0C>	-85.317751
<0x0D>	-85.317751
<0x0E>	-85.317751
<0x0F>	-85.317751
<0x10>	-85.317751
<0x11>	-85.317751
<0x12>	-85.317751
<0x13>	-85.317751
<0x14>	-85.317751
<0x15>	-85.317751
<0x16>	-85.317751
<0x17>	-85.317751
<0x18>	-85.317751
<0x19>	-85.317751
<0x1A>	-85.317751
<0x1B>	-85.317751
<0x1C>	-85.317751
<0x1D>	-85.317751
<0x1E>	-85.317751
<0x1F>	-85.317751
<0x20>	-85.317751
<0x21>	-85.317751
<0x22>	-85.317751
<0x23>	-85.317751
<0x24>	-85.317751
<0x25>	-85.317751
<0x26>	-85.317751
<0x27>	-85.317751
<0x28>	-85.317751
<0x29>	-85.317751
<0x2A>	-85.317751
<0x2B>	-85.317751
<0x2C>	-85.317751
<0x2D>	-85.317751
<0x2E>	-85.317751
<0x2F>	-85.317751
<0x30>	-85.317751
<0x31>	-85.317751
<0x32>	-85.317751
<0x33>	-85.317751
<0x34>	-85.317751
<0x35>	-85.317751
<0x36>	-85.317751
<0x37>	-85.317751
<0x38>	-85.317751
<0x39>	-85.317751
<0x3A>	-85.317751
<0x3B>	-85.317751
<0x3C>	-85.317751
<0x3D>	-85.317751
<0x3E>	-85.317751
<0x3F>	-85.317751
<0x40>	-85.317751
<0x41>	-85.317751
<0x42>	-85.317751
<0x43>	-85.317751
<0x44>	-85.317751
<0x45>	-85.317751
<0x46>	-85.317751
<0x47>	-85.317751
<0x48>	-85.317751
<0x49>	-85.317751
<0x4A>	-85.317751
<0x4B>	-85.317751
<0x4C>	-85.317751
<0x4D>	-85.317751
<0x4E>	-85.317751
<0x4F>	-85.317751
<0x50>	-85.317751
<0x51>	-85.317751
<0x52>	-85.317751
<0x53>	-85.317751
<0x54>	-85.317751
<0x55>	-85.317751
<0x56>	-85.317751
<0x57>	-85.317751
<0x58>	-85.317751
<0x59>	-85.317751
<0x5A>	-85.317751
<0x5B>	-85.317751
<0x5C>	-85.317751
<0x5D>	-85.317751
<0x5E>	-85.317751
<0x5F>	-85.317751
<0x60>	-85.317751
<0x61>	-85.317751
<0x62>	-85.317751
<0x63>	-85.317751
<0x64>	-85.317751
<0x65>	-85.317751
<0x66>	-85.317751
<0x67>	-85.317751
<0x68>	-85.317751
<0x69>	-85.317751
<0x6A>	-85.317751
<0x6B>	-85.317751
<0x6C>	-85.317751
<0x6D>	-85.317751
<0x6E>	-85.317751
<0x6F>	-85.317751
<0x70>	-85.317751
<0x71>	-85.317751
<0x72>	-85.317751
<0x73>	-85.317751
<0x74>	-85.317751
<0x75>	-85.317751
<0x76>	-85.317751
<0x77>	-85.317751
<0x78>	-85.317751
<0x79>	-85.317751
<0x7A>	-85.317751
<0x7B>	-85.317751
<0x7C>	-85.317751
<0x7D>	-85.317751
<0x7E>	-85.317751
<0x7F>	-85.317751
<0x80>	-85.317751
<0x81>	-85.317751
<0x82>	-85.317751
<0x83>	-85.317751
<0x84>	-85.317751
<0x85>	-85.317751
<0x86>	-85.317751
<0x87>	-85.317751
<0x88>	-85.317751
<0x89>	-85.317751
<0x8A>	-85.317751
<0x8B>	-85.317751
<0x8C>	-85.317751
<0x8D>	-85.317751
<0x8E>	-85.317751
<0x8F>	-85.317751
<0x90>	-85.317751
<0x91>	-85.317751
<0x92>	-85.317751
<0x93>	-85.317751
<0x94>	-85.317751
<0x95>	-85.317751
<0x96>	-85.317751
<0x97>	-85.317751
<0x98>	-85.317751
<0x99>	-85.317751
<0x9A>	-85.317751
<0x9B>	-85.317751
<0x9C>	-85.317751
<0x9D>	-85.317751
<0x9E>	-85.317751
<0x9F>	-85.317751
<0xA0>	-85.317751
<0xA1>	-85.317751
<0xA2>	-85.317751
<0xA3>	-85.317751
<0xA4>	-85.317751
<0xA5>	-85.317751
<0xA6>	-85.317751
<0xA7>	-85.317751
<0xA8>	-85.317751
<0xA9>	-85.317751
<0xAA>	-85.317751
<0xAB>	-85.317751
<0xAC>	-85.317751
<0xAD>	-85.317751
<0xAE>	-85.317751
<0xAF>	-85.317751
<0xB0>	-85.317751
<0xB1>	-85.317751
<0xB2>	-85.317751
<0xB3>	-85.317751
<0xB4>	-85.317751
<0xB5>	-85.317751
<0xB6>	-85.317751
<0xB7>	-85.317751
<0xB8>	-85.317751
<0xB9>	-85.317751
<0xBA>	-85.317751
<0xBB>	-85.317751
<0xBC>	-85.317751
<0xBD>	-85.317751
<0xBE>	-85.317751
<0xBF>	-85.317751
<0xC0>	-85.317751
<0xC1>	-85.317751
<0xC2>	-85.317751
<0xC3>	-85.317751
<0xC4>	-85.317751
<0xC5>	-85.317751
<0xC6>	-85.317751
<0xC7>	-85.317751
<0xC8>	-85.317751
<0xC9>	-85.317751
<0xCA>	-85.317751
<0xCB>	-85.317751
<0xCC>	-85.317751
<0xCD>	-85.317751
<0xCE>	-85.317751
<0xCF>	-85.317751
<0xD0>	-85.317751
<0xD1>	-85.317751
<0xD2>	-85.317751
<0xD3>	-85.317751
<0xD4>	-85.317751
<0xD5>	-85.317751
<0xD6>	-85.317751
<0xD7>	-85.317751
<0xD8>	-85.317751
<0xD9>	-85.317751
<0xDA>	-85.317751
<0xDB>	-85.317751
<0xDC>	-85.317751
<0xDD>	-85.317751
<0xDE>	-85.317751
<0xDF>	-85.317751
<0xE0>	-85.317751
<0xE1>	-85.317751
<0xE2>	-85.317751
<0xE3>	-85.317751
<0xE4>	-85.317751
<0xE5>	-85.317751
<0xE6>	-85.317751
<0xE7>	-85.317751
<0xE8>	-85.317751
<0xE9>	-85.317751
<0xEA>	-85.317751
<0xEB>	-85.317751
<0xEC>	-85.317751
<0xED>	-85.317751
<0xEE>	-85.317751
<0xEF>	-85.317751
<0xF0>	-85.317751
<0xF1>	-85.317751
<0xF2>	-85.317751
<0xF3>	-85.317751
<0xF4>	-85.317751
<0xF5>	-85.317751
<0xF6>	-85.317751
<0xF7>	-85.317751
<0xF8>	-85.317751
<0xF9>	-85.317751
<0xFA>	-85.317751
<0xFB>	-85.317751
<0xFC>	-85.317751
<0xFD>	-85.317751
<0xFE>	-85.317751
<0xFF>	-85.317751
の	-4.733450
、	-4.490801
。	-4.440423
に	-4.810735
て	-5.434584
が	-4.869149
を	-4.779796
▁	-2.848266
は	-4.923567
た	-5.987126
で	-5.641732
し	-6.782343
と	-5.488432
ます	-5.268150
も	-6.000732
です	-5.839155
な	-6.163326
こと	-5.831863
ない	-6.002088
い	-6.718475
いる	-6.086804
する	-6.203696
「	-6.232695
」	-6.229065
まし	-10.322506
1	-5.639448
か	-6.565483
から	-6.309898
0	-5.880185
さ	-6.493552
れ	-6.583420
ん	-8.683156
よう	-6.419342
2	-5.870934
・	-6.871272
ある	-6.589377
ので	-6.266921
お	-6.721143
あり	-6.615334
人	-6.803688
う	-9.049059
や	-6.723079
という	-6.684315
だ	-7.112611
っ	-8.554367
（	-6.902511
）	-6.891568
ませ	-9.744164
日	-7.251398
ご	-6.944979
なっ	-7.434763
この	-6.903352
ば	-7.098624
！	-6.972885
その	-7.068467
方	-6.999757
年	-7.169973
.	-4.079985
でき	-7.071750
的	-7.151819
など	-7.247306
なり	-7.076834
3	-6.377668
もの	-7.324400
思い	-7.154406
ため	-7.291120
ね	-7.245304
なる	-7.293125
まで	-7.247952
私	-7.292308
？	-7.184845
たい	-7.560386
なく	-7.511825
場合	-7.391850
5	-6.494968
中	-7.359676
自分	-7.417979
ください	-7.165537
者	-7.587804
として	-7.474489
時	-7.869118
れる	-7.666646
(	-6.193785
月	-7.354979
4	-6.649381
でしょ	-10.437996
できる	-7.542986
だけ	-7.552807
１	-7.696055
)	-6.109015
一	-8.095136
それ	-7.792728
き	-9.221802
さん	-7.844990
何	-7.797471
よ	-7.530543
たら	-7.683796
8	-6.853003
　	-7.793755
でも	-7.193292
これ	-7.660400
そう	-7.639990
見	-7.623585
たり	-8.339611
おり	-7.664187
また	-7.707432
せ	-8.873496
時間	-7.752976
…	-7.108116
6	-6.881663
み	-7.510653
9	-6.946853
必要	-7.802899
る	-8.311799
前	-7.709611
なら	-7.758992
られ	-7.548600
今	-7.741922
へ	-7.796751
いい	-7.727108
事	-7.716461
より	-7.818138
7	-6.957200
思っ	-7.921624
でし	-9.210276
あっ	-7.915202
利用	-7.935166
２	-7.947875
情報	-8.008070
気	-7.815135
ず	-8.164074
について	-7.888496
考え	-7.977196
性	-8.016464
だっ	-7.957922
０	-8.359143
日本	-8.154804
可能	-8.060969
けど	-8.017681
かも	-7.958791
たち	-8.220034
上	-8.282646
なかっ	-8.028047
感じ	-8.101532
『	-8.239543
』	-8.243416
円	-8.396256
/	-7.402466
後	-8.144015
って	-6.273841
ら	-8.485199
多く	-8.291081
良い	-8.164974
行っ	-8.320318
-	-5.710865
目	-8.496225
しまう	-8.286555
出	-8.008942
サイト	-8.294419
ところ	-8.472616
本	-8.356878
り	-8.790195
どう	-8.606788
多い	-8.291389
しれ	-8.209731
紹介	-8.185685
分	-8.354698
くれ	-9.583831
とき	-8.399055
仕事	-8.400412
ましょ	-10.479469
３	-8.327344
市	-8.458067
思う	-8.240885
ござい	-8.046006
会	-8.457616
～	-8.375287
ながら	-8.313078
第	-8.659678
てる	-8.325721
店	-8.492592
回	-8.300438
方法	-8.425931
他	-8.394688
今回	-8.314423
県	-8.612581
手	-8.543117
問題	-8.542731
しまい	-8.381348
以上	-8.450404
だろ	-10.119537
いく	-8.482635
いただき	-8.246139
使用	-8.488782
女性	-8.616916
家	-8.519975
そして	-8.428521
ここ	-8.371379
等	-8.574712
言っ	-8.584435
によって	-8.574794
会社	-8.692284
確認	-8.455811
度	-8.515873
話	-8.411471
数	-8.552662
あれ	-8.527806
大	-8.561816
万	-8.832609
しまっ	-8.707932
しかし	-8.498327
あなた	-8.598985
，	-9.297042
来	-8.453440
同じ	-8.570088
られる	-8.433554
よく	-8.552786
参加	-8.548656
サービス	-8.702081
いき	-8.473657
言わ	-8.755660
世界	-8.748946
商品	-8.695097
そんな	-8.507636
使っ	-8.831226
とても	-8.593170
持っ	-8.894638
じゃ	-9.609471
わけ	-8.612806
^	-8.885256
：	-8.665466
ほど	-8.633310
化	-8.772348
購入	-8.697933
写真	-8.656654
少し	-8.595416
出来	-8.590813
お願い	-8.438994
,	-4.384753
個人	-8.844042
く	-9.033118
体	-8.645525
効果	-8.786778
なけれ	-8.773982
お客様	-8.684899
生活	-8.825234
力	-8.531804
内容	-8.703949
いたし	-8.536698
やっ	-9.600992
関係	-8.794742
先	-8.648922
こちら	-8.528352
:	-6.028429
５	-8.780405
好き	-8.741095
受け	-8.828227
下さい	-8.558392
実際	-8.816249
相談	-8.854199
様	-8.721254
くる	-8.770257
”	-6.741763
内	-8.662399
現在	-8.853813
開催	-8.774983
今日	-8.651430
記事	-8.754321
いう	-10.748595
車	-8.981143
くらい	-8.755356
際	-8.815070
状態	-8.883804
水	-8.847585
高	-8.998776
※	-8.572844
４	-8.863856
_	-8.404890
言う	-8.801664
高い	-8.927328
対応	-8.865593
とか	-8.892712
結果	-8.889068
くれる	-8.868933
次	-8.867877
点	-8.869598
により	-8.922125
場所	-8.900631
二	-9.051318
心	-8.674611
名	-8.856233
無料	-8.934975
どの	-8.878582
ありがとう	-8.565642
食べ	-8.923709
子供	-8.964189
歳	-9.114971
ブログ	-8.818427
メール	-8.941147
たくさん	-8.848595
本当に	-8.845236
もう	-8.779021
登録	-9.035905
しか	-8.983300
東京	-9.166939
企業	-9.264305
活動	-9.128908
誰	-8.971524
提供	-9.109277
いっ	-9.280041
電話	-9.007458
駅	-9.194060
場	-8.980638
以下	-8.880362
間	-9.263520
所	-8.798051
大切	-9.040695
物	-8.559059
いけ	-9.036601
表示	-8.966085
相手	-9.100896
得	-9.012775
見る	-8.995362
一緒	-8.940067
気持ち	-8.965635
〜	-9.041490
金	-9.059030
入れ	-8.864378
のに	-9.077902
入っ	-9.238505
かっ	-8.952862
【	-8.959252
ただ	-9.029379
】	-8.964042
すれ	-14.225361
感	-9.038526
すぐ	-9.020439
設定	-9.061344
そこ	-9.136832
最近	-9.025559
肌	-9.299063
みる	-9.023065
社会	-9.312714
まだ	-8.964508
管理	-9.220175
説明	-9.068767
環境	-9.207344
書い	-9.118530
つ	-8.684000
状況	-9.149120
べき	-9.185287
国	-9.156300
意味	-9.081132
経験	-9.186325
ちょっと	-8.929412
約	-9.266829
特に	-9.168515
どこ	-9.081066
新	-9.158227
言葉	-9.143068
簡単	-9.076599
作品	-9.216879
販売	-9.168400
人間	-9.186652
ページ	-9.042372
機能	-9.235218
僕	-9.131705
による	-9.072688
!	-6.324747
男性	-9.287386
下	-8.975119
書	-9.138855
せる	-10.013428
理由	-9.170581
重要	-9.282126
当	-9.213907
行く	-9.141655
もちろん	-9.166272
注意	-9.092383
理解	-9.192271
連絡	-9.093273
大きな	-9.238714
聞い	-9.204172
治療	-9.461635
行う	-9.309938
始め	-9.192669
いただい	-9.174902
地域	-9.430202
うち	-9.122276
笑	-8.934824
町	-9.278771
様々	-9.267067
外	-8.967537
時代	-9.363594
にとって	-9.304623
彼	-9.389196
安心	-9.171584
さらに	-9.295388
６	-9.242193
自身	-9.261709
一般	-9.292139
代	-9.361963
やすい	-9.221334
部分	-9.275172
しっかり	-9.187207
にて	-9.333625
イベント	-9.125209
事業	-9.595888
かなり	-9.193851
ポイント	-9.244180
予約	-9.222321
変更	-9.187948
あまり	-9.115017
知っ	-9.513055
頃	-9.205039
一番	-9.153052
なんて	-9.138063
お金	-9.353615
知ら	-9.401485
今年	-9.150606
みたい	-8.766298
予定	-9.188765
法	-9.369433
頂き	-9.074129
存在	-9.327365
希望	-9.221190
最初	-9.242735
以外	-9.212031
これから	-9.113370
家族	-9.322282
一つ	-9.349804
いつも	-9.143431
区	-9.301074
系	-9.364983
価格	-9.425994
行わ	-9.756740
こんな	-9.060966
大変	-9.221979
人気	-9.359622
基本	-9.306979
おすすめ	-9.244294
目的	-9.435182
ぜひ	-9.144388
続け	-9.324857
非常	-9.382651
８	-9.344196
データ	-9.472965
に関する	-9.286410
地	-9.153413
研究	-9.626990
作っ	-9.531476
期間	-9.366614
ネット	-9.316148
ー	-9.250265
映画	-9.483905
において	-9.529456
技術	-9.528583
つけ	-9.238428
カード	-9.549447
今後	-9.296770
どんな	-9.270405
先生	-9.398290
言え	-9.352173
楽しみ	-9.158819
子ども	-9.492604
しよ	-15.351330
７	-9.375040
わ	-9.596854
声	-9.233281
向け	-9.375516
用	-9.201613
たく	-9.350139
初めて	-9.291378
原因	-9.411785
色	-9.236352
教え	-9.197875
出会い	-9.632032
使う	-9.348051
頭	-9.220214
かけ	-9.329241
思わ	-9.678386
健康	-9.488931
９	-9.472702
％	-9.697845
ほとんど	-9.385800
品	-9.346382
新しい	-9.373785
はず	-9.383634
ゲーム	-9.387380
通り	-9.256805
出来る	-9.312452
別	-9.373203
保険	-9.773983
子	-9.105080
♪	-9.137714
最後	-9.303523
おく	-9.394378
部	-9.392278
*	-8.559051
使い	-9.360704
結婚	-9.576935
行き	-9.278680
増え	-9.499427
考える	-9.451014
掲載	-9.350340
]	-8.233962
[	-8.236409
もっと	-9.397627
に対して	-9.533213
学校	-9.656562
すべて	-9.464664
影響	-9.453647
勉強	-9.484030
ま	-8.793647
彼女	-9.492017
専門	-9.592933
探し	-9.627501
平成	-9.492501
各	-9.484608
無	-9.488331
“	-6.746602
顔	-9.436440
皆様	-9.329130
為	-9.415841
チェック	-9.364624
問い合わせ	-9.218377
動画	-9.456834
毎日	-9.458739
体験	-9.481946
それぞれ	-9.472654
業者	-9.656980
おき	-9.351388
ほう	-9.452323
わかり	-9.365292
．	-9.682991
あと	-9.321490
全て	-9.452266
主	-9.386016
見え	-9.443542
調査	-9.810433
のみ	-9.482404
量	-9.308675
用意	-9.384932
システム	-9.557996
出し	-9.659400
違い	-9.487146
>	-8.768661
作	-9.206194
自然	-9.603737
達	-9.224843
す	-7.886375
期待	-9.506950
発表	-9.601018
行い	-9.547283
検索	-9.575332
大きく	-9.537294
契約	-9.776460
良く	-9.482839
わから	-9.389754
致し	-9.308930
開発	-9.725427
通	-9.514510
デザイン	-9.497812
合わせ	-9.406094
足	-9.380243
違う	-9.482753
作成	-9.507895
夜	-9.296749
程度	-9.610961
発生	-9.632484
作業	-9.595264
皆さん	-9.431641
ばかり	-9.528878
生	-9.350012
選択	-9.534826
対象	-9.632120
以前	-9.533127
元	-9.227955
いえ	-9.578561
読ん	-9.685782
三	-9.737805
普通	-9.536968
長	-9.445866
安全	-9.689155
スタッフ	-9.505251
種類	-9.566684
名前	-9.528270
不	-9.700707
食事	-9.647462
まず	-9.517775
口	-9.366646
無い	-9.444442
部屋	-9.632704
公開	-9.578801
アップ	-9.571619
参考	-9.449623
朝	-9.351782
持ち	-9.433076
近く	-9.571075
色々	-9.481045
料金	-9.709752
大学	-9.664125
言い	-9.630376
質問	-9.541527
同	-9.834085
ヶ月	-9.579578
いろいろ	-9.493536
みんな	-9.480847
興味	-9.557422
形	-9.478867
A	-8.824044
支援	-9.795189
まま	-9.665042
営業	-9.649453
いただけ	-9.331632
画像	-9.560051
行動	-9.696563
意識	-9.578754
または	-9.698260
更新	-9.493301
々	-9.554728
料理	-9.706295
実施	-9.727491
是非	-9.427782
アプリ	-9.618995
気軽	-9.484893
機会	-9.609182
なかなか	-9.555694
いただく	-9.556959
注文	-9.608250
英語	-9.856286
当社	-9.870030
ご覧	-9.372992
イメージ	-9.632716
使わ	-9.800692
読む	-9.764910
撮影	-9.668366
もらっ	-9.634651
機	-9.677975
中心	-9.775560
側	-9.732082
近	-9.685585
判断	-9.754491
もし	-9.287592
＾	-10.018698
なぜ	-9.656982
施設	-9.897316
病院	-9.809576
よい	-9.691358
全	-9.675895
そういう	-9.604796
不安	-9.723665
対策	-9.781027
評価	-9.829335
買っ	-9.695880
難しい	-9.678305
時期	-9.676285
といった	-9.829361
改善	-9.753313
一部	-9.702399
クリック	-9.433069
続き	-9.720439
限り	-9.669984
海外	-9.819485
悪い	-9.653043
必ず	-9.652733
ホテル	-9.782354
開始	-9.682346
花	-9.636645
活用	-9.798169
風	-9.512886
条件	-9.784824
人生	-9.723433
身	-9.535695
実は	-9.680859
保護	-9.883043
愛	-9.629926
ろ	-10.849145
脱毛	-10.146506
親	-9.503587
詳細	-9.570962
もらい	-9.679000
医療	-10.027624
アメリカ	-9.859637
試し	-9.835507
製品	-9.834673
コメント	-9.557467
その後	-9.746275
ちゃん	-9.499869
全く	-9.700322
忘れ	-9.621478
教育	-10.006752
会員	-9.847135
まとめ	-9.628119
もらう	-9.786153
友達	-9.663006
付け	-9.625371
やすく	-9.707250
男	-9.747468
テレビ	-9.802452
解決	-9.815529
変化	-9.833752
高く	-9.844597
週間	-9.694813
大事	-9.738471
土	-9.690688
ファイル	-9.664897
型	-9.711161
旅行	-9.859633
年間	-9.846655
投稿	-9.763294
街	-9.888636
小	-9.800221
成長	-9.873078
欲しい	-9.678246
食	-9.620452
感じる	-9.783353
終了	-9.640559
再	-9.824583
作り	-9.697956
調べ	-9.697753
指定	-9.802313
こう	-9.113934
発売	-9.764228
やはり	-9.760270
決め	-9.799502
心配	-9.755675
これら	-9.856763
十	-10.220574
求め	-9.897439
価値	-9.893944
版	-9.757868
大阪	-9.926993
音	-9.784520
知識	-9.890781
準備	-9.766345
道	-9.402237
よろしく	-9.468609
全国	-9.888239
意見	-9.823959
画面	-9.708054
夏	-9.687547
インターネット	-9.821940
観	-9.568087
サポート	-9.751557
そこで	-9.660116
C	-9.122284
まずは	-9.688497
下記	-9.505270
薬	-9.825203
あの	-9.760462
ユーザー	-9.912081
学	-9.936879
音楽	-9.927308
氏	-10.118543
その他	-9.766631
中国	-10.147779
m	-7.846621
分かり	-9.723406
着	-9.264721
依頼	-9.904615
持つ	-9.927909
曲	-9.996191
夢	-9.852440
作る	-9.809950
どれ	-9.781832
に関して	-9.823824
身体	-9.869657
号	-9.795918
つい	-10.750038
担当	-9.902097
費用	-10.032727
入力	-9.758267
すぎ	-9.846098
特徴	-9.887739
なお	-9.531624
サイズ	-9.844181
自由	-9.833815
店舗	-9.939374
最大	-9.923535
面	-9.282450
魅力	-9.892509
過去	-9.858861
位	-9.707665
ケース	-9.915296
枚	-9.896464
率	-9.861073
追加	-9.742758
姿	-9.858702
社	-9.843762
アクセス	-9.826311
逆	-9.843563
けれど	-9.820389
全体	-9.935613
十分	-9.851646
及び	-9.994706
症状	-9.965141
便利	-9.855773
感謝	-9.768586
"	-6.351516
昔	-9.817065
料	-9.728773
こそ	-10.021622
通常	-9.883447
台	-9.776836
消費	-10.109792
方々	-9.875907
分から	-9.688511
学生	-10.043291
投資	-10.155680
特別	-9.904737
了承	-9.652663
報告	-9.913865
いつ	-9.587884
取引	-10.098079
業務	-10.066655
実	-9.859235
検討	-9.947377
ほしい	-9.841508
女	-9.863996
責任	-9.991983
過ぎ	-9.826886
とも	-9.182115
比較	-10.037392
員	-9.764139
早く	-9.767693
語	-10.124719
定	-9.696324
読み	-9.932218
機関	-10.105738
生き	-9.837158
なぁ	-9.697322
運営	-9.996181
例	-9.837122
ホームページ	-9.751555
発	-9.764064
歩	-9.909000
頂い	-9.905570
流れ	-9.908864
金額	-10.033176
含ま	-10.008240
話し	-10.415038
強い	-9.941687
日本人	-9.989456
経済	-10.196416
やる	-9.831119
良かっ	-9.770973
あげ	-9.824833
事故	-10.122022
経営	-10.160505
雰囲気	-9.876085
患者	-10.155081
タイプ	-9.945096
大会	-9.965749
変わっ	-9.963649
経	-9.964669
急	-9.881500
満足	-9.904162
印象	-9.966037
大人	-9.897646
センター	-9.838774
見つけ	-9.870623
例えば	-10.089840
線	-9.506850
自己	-10.049290
ビジネス	-10.002069
楽しい	-9.786100
つまり	-9.939124
ずっと	-9.875823
リンク	-9.800737
額	-9.843554
真	-9.963157
観光	-10.116234
ローン	-10.697442
友人	-9.971681
計画	-10.126841
絶対	-9.904279
ス	-10.032733
ただし	-9.943412
神	-10.102184
出る	-9.901379
運動	-10.135750
確か	-9.901635
かかる	-9.967410
少ない	-9.969363
こ	-9.676995
案内	-9.817988
受ける	-10.025650
費	-10.001033
普段	-9.935751
交換	-9.967552
伝え	-9.522189
生まれ	-9.970414
限定	-9.906199
空	-9.771336
少なく	-10.048127
関連	-9.958729
住宅	-10.185377
プロ	-9.917054
様子	-9.904188
山	-9.644665
取得	-10.046020
初	-10.026678
海	-9.982219
無理	-9.928285
事前	-9.946398
昨日	-9.767362
ケア	-10.343177
最も	-10.113878
☆	-9.874226
木	-10.025958
不動産	-10.297652
選手	-10.110860
値	-10.058237
なれ	-9.957858
協力	-9.961648
買取	-10.406272
選	-9.950149
雨	-9.935047
やり	-9.803642
ダイエット	-10.070283
歯	-10.239444
文化	-10.199408
に対する	-10.128286
浮気	-10.696350
歴史	-10.184976
知り	-9.909224
頑張	-9.827070
入り	-9.837646
チーム	-10.111850
決定	-10.033367
新た	-10.080638
与え	-10.064075
処理	-10.108309
障害	-10.233714
室	-9.906318
以降	-10.019483
悩み	-10.056849
パソコン	-9.988800
当時	-10.146718
?	-6.022686
成功	-10.067007
負担	-10.100430
幸せ	-9.942889
代表	-10.164103
屋	-9.828678
呼ば	-10.116657
覚え	-9.961829
いれ	-10.041764
どちら	-9.959019
嬉しい	-9.835900
レベル	-10.035277
はじめ	-10.122438
本人	-10.089366
査定	-10.528217
さて	-10.035478
直接	-10.035942
募集	-10.005578
コース	-10.050495
コ	-9.727826
複数	-10.089321
周り	-9.988832
B	-9.239407
実現	-10.148334
年齢	-10.133278
完全	-10.026285
S	-8.658469
家庭	-10.189834
表現	-10.116365
上記	-9.885950
バス	-10.085568
練習	-10.044054
多	-10.263502
´	-9.627566
審査	-10.349897
詳しく	-9.844899
だから	-8.916049
間違い	-9.967999
おい	-10.344959
T	-9.419771
両	-10.156452
書き	-9.794633
戦	-9.957267
症	-9.935061
放送	-10.125773
階	-10.206628
ト	-10.325001
一方	-10.254899
具体	-10.084533
公式	-9.898040
質	-9.566455
最終	-10.054087
都	-10.525329
記載	-10.041389
○	-10.520476
移動	-10.067045
め	-10.169639
ほか	-10.153194
ひとつ	-10.055279
つつ	-10.116318
そのまま	-9.978826
日々	-10.049944
いくつ	-10.219991
記念	-10.032798
自宅	-10.117461
グループ	-10.090220
電子	-10.241395
金融	-10.391288
大丈夫	-9.928640
ごと	-10.143486
制度	-10.331281
病	-10.022151
聞き	-10.003184
被害	-10.221334
変え	-10.057603
能力	-10.220608
いただける	-9.910700
事務所	-10.202500
お知らせ	-9.812952
検査	-10.312457
国際	-10.321987
整理	-10.314348
素敵	-9.914762
番号	-10.129060
テーマ	-10.112576
式	-9.994645
光	-10.030171
話題	-10.111800
書か	-10.065949
残念	-9.995808
登場	-10.101369
半	-10.015957
割	-10.240395
文字	-10.117451
起き	-10.048484
痛み	-10.217504
飲み	-10.085337
有	-10.024043
お話	-10.166981
銀行	-10.246407
メニュー	-9.971823
件	-10.107944
ストレス	-10.183253
ぐらい	-10.035960
法人	-10.217414
当然	-10.170170
会場	-10.057922
つき	-10.662166
成分	-10.246822
有効	-10.151999
いか	-9.676380
年度	-10.119359
最高	-10.085234
調	-9.783021
ファン	-10.038623
活	-10.281366
目標	-10.230168
最新	-10.061321
らしい	-9.987836
本日	-9.943323
結構	-10.016638
客	-9.780389
精神	-10.214901
明日	-9.937955
%	-8.522483
病気	-10.231794
なん	-9.358976
師	-10.209859
設置	-10.219183
勧め	-10.102429
権	-10.298618
事実	-10.227974
込ん	-10.453192
韓国	-10.222266
終わっ	-10.080729
における	-10.309817
京都	-9.956778
広告	-10.358109
徒歩	-10.176008
指導	-10.279417
有名	-10.209075
取り	-9.803776
アニメ	-10.199868
注目	-10.198342
選ぶ	-10.211753
条	-10.422571
届け	-10.042977
毛	-10.013437
人々	-10.382529
入る	-10.096136
美容	-10.281856
ショップ	-10.061667
差	-9.932259
合っ	-10.235884
M	-9.473759
労働	-10.569483
こういう	-10.026366
さまざま	-10.275502
および	-10.295945
母	-10.118838
酒	-10.241807
s	-6.178203
美	-10.037763
味	-9.737984
すでに	-10.180620
最	-10.427559
認め	-10.285424
申し込み	-10.084502
展開	-10.236186
事件	-10.372582
妻	-10.234020
メンバー	-10.127497
試験	-10.375495
行為	-10.295242
自体	-10.210135
プレゼント	-9.967538
わかっ	-10.232502
携帯	-10.195789
メッセージ	-10.069400
来る	-10.125269
む	-10.249696
自	-10.281918
現実	-10.253921
市場	-10.404615
いかが	-9.976939
ボタン	-10.015964
働き	-10.271324
漫画	-10.459729
元気	-10.063034
重	-10.095188
弊社	-10.185514
ちなみに	-10.036631
位置	-10.265596
寝	-10.084899
士	-10.108907
特定	-10.281299
白	-10.099948
スタート	-10.144131
入	-9.510347
お待ち	-9.923269
手続き	-10.281130
介護	-10.560094
危険	-10.279819
ニュース	-10.163810
ン	-10.779363
セット	-10.095012
法律	-10.399111
うまく	-10.173534
委員	-10.450494
採用	-10.322213
;	-7.162564
信頼	-10.298356
絵	-10.165133
ずつ	-10.137156
強く	-10.223069
熱	-9.973495
提案	-10.245686
先日	-10.088538
日常	-10.305836
彼ら	-10.434571
実行	-10.204222
周辺	-10.240882
答え	-10.192806
続ける	-10.228653
期	-9.908919
比べ	-10.308169
／	-10.235133
外国	-10.416317
メリット	-10.434776
当日	-10.093136
請求	-10.374410
ダウンロード	-9.998203
お客	-10.230650
血	-10.199248
モデル	-10.245195
D	-9.084383
資格	-10.417167
―	-10.659791
やっぱり	-10.043690
F	-9.466864
長い	-10.226480
イン	-10.257832
良	-10.014878
食べる	-10.191212
定期	-10.211353
ちゃんと	-10.039890
もらえ	-10.166740
常に	-10.247248
株式会社	-10.268201
それでも	-10.172307
落ち	-10.181479
不倫	-10.877693
努力	-10.270258
娘	-10.188428
国内	-10.420464
動き	-10.226067
行	-8.904527
よかっ	-10.048271
仕方	-10.152091
わたし	-10.206343
遊び	-10.091524
番	-9.970542
住	-10.161931
活躍	-10.253939
億	-10.631851
導入	-10.396660
→	-9.991376
基準	-10.420673
プラン	-10.271751
運転	-10.373372
メーカー	-10.300204
火	-10.097212
院	-10.078454
転職	-10.532374
トラブル	-10.315017
米	-10.256782
帰っ	-10.261422
認識	-10.352998
悪	-10.073215
みなさん	-10.087441
強	-10.216302
一度	-9.394106
残っ	-10.694756
将来	-10.349076
バランス	-10.266191
ズ	-10.257570
見せ	-10.196444
継続	-10.330780
誕生	-10.218814
リ	-10.091252
学習	-10.460981
プログラム	-10.267117
知る	-10.324685
想像	-10.236430
●	-10.139818
北	-10.244671
選び	-10.200398
楽しん	-10.419842
応援	-10.155172
支払い	-10.270088
保存	-10.282322
申し上げ	-10.110438
思え	-10.241110
制限	-10.333389
上げ	-10.131164
解説	-10.217718
猫	-10.313371
入れる	-10.193687
明らか	-10.397692
配信	-10.307879
スポーツ	-10.368508
楽しく	-10.139110
午後	-10.285343
置い	-10.298676
加え	-10.382649
犬	-10.189010
税	-10.558316
ル	-10.540843
あ	-9.670213
気分	-10.225840
展示	-10.335392
違っ	-10.416083
範囲	-10.323181
オープン	-10.219003
きっと	-10.150651
高校	-10.439193
応じ	-10.328897
進め	-10.341020
交通	-10.382269
リスク	-10.435456
丁寧	-10.238512
失敗	-10.326341
目指し	-10.566743
カメラ	-10.285571
結局	-10.236384
工事	-10.462046
記録	-10.431486
なし	-10.272204
若い	-10.374456
予想	-10.313279
制作	-10.342396
物件	-10.587799
激	-10.220628
過ごし	-10.399192
賞	-10.905727
同様	-10.372999
含め	-10.368913
番組	-10.393913
きちんと	-10.333895
悪く	-10.259248
向上	-10.459153
とともに	-10.493628
休み	-10.076599
日間	-10.288169
化粧	-10.485590
売	-10.247683
君	-10.228040
発見	-10.370972
業界	-10.499844
生徒	-10.442112
小さな	-10.311789
剤	-10.392173
企画	-10.345596
なんか	-10.089339
大き	-10.373809
求人	-10.579373
駐車	-10.411217
途中	-10.257180
低	-10.472610
使え	-10.251659
田	-10.376779
ものの	-10.216298
かかり	-10.251020
ω	-9.993097
現場	-10.477666
見える	-10.289754
ク	-10.427688
綺麗	-10.246844
マンション	-10.519065
オススメ	-10.166286
早	-10.325011
積極	-10.435022
御	-10.289699
通信	-10.508385
表	-10.216601
以内	-10.298209
収入	-10.539070
社員	-10.492278
まあ	-10.200077
出演	-10.364750
日本語	-10.402133
訳	-10.228953
地方	-10.541214
もらえる	-10.311915
試合	-10.403251
近い	-10.369156
com	-8.687962
土地	-10.605155
東	-9.981840
だって	-10.415114
長く	-10.298047
サロン	-10.435438
婚	-10.498093
倍	-10.468846
動物	-10.492689
個	-10.398329
弁護士	-10.616384
わかる	-10.278644
ライブ	-10.246506
春	-10.050655
乗っ	-10.574231
嫌	-10.145325
余	-10.356537
受付	-10.248981
南	-10.250931
感覚	-10.379985
値段	-10.384451
生産	-10.561822
すごく	-10.297110
しかも	-10.370117
売却	-10.722995
冬	-10.293814
＆	-10.218890
申請	-10.484121
授業	-10.560285
聞く	-10.353444
疲れ	-10.321538
昨年	-10.408121
買う	-10.383728
効率	-10.448529
どうぞ	-10.081706
ほぼ	-10.382638
国民	-10.572990
いずれ	-10.369808
@	-9.125237
させ	-7.965144
多数	-10.406331
大きい	-10.383539
分かっ	-10.317887
素晴らしい	-10.330902
証明	-10.495012
かかっ	-10.318941
いっぱい	-10.201278
政府	-10.665972
異なる	-10.448868
未	-10.434573
言える	-10.420975
使える	-10.319085
豊富	-10.435305
髪	-10.387176
夫	-10.400340
得る	-10.478127
医師	-10.622949
充実	-10.397488
課題	-10.596797
さま	-10.325140
飲ん	-10.473412
脳	-10.423883
楽しむ	-10.394719
続い	-10.614597
恋愛	-10.559770
ちゃ	-11.104682
連れ	-10.253704
似	-10.194151
集め	-10.453385
旅	-10.461551
｀	-10.078758
調整	-10.394446
つもり	-10.310884
席	-10.305965
季節	-10.313509
出す	-10.148139
建物	-10.564303
天	-10.236975
時点	-10.403197
右	-10.363556
維持	-10.507310
クレジットカード	-10.385695
きっかけ	-10.426501
買い	-10.263409
自動	-10.447887
特	-10.244313
アイテム	-10.273705
取っ	-10.465238
看護	-10.698212
■	-10.282860
確実	-10.462541
文	-10.317099
キャンペーン	-10.275041
どうしても	-10.342515
ゆっくり	-10.260767
科学	-10.557616
安定	-10.483856
オンライン	-10.332977
団体	-10.574638
応募	-10.448916
＞	-10.266001
あたり	-10.405325
記憶	-10.451062
異な	-11.826243
おら	-13.404574
一覧	-10.134657
村	-10.384928
シリーズ	-10.333915
待っ	-10.601994
直	-10.175095
施術	-10.534345
なんと	-10.519067
資料	-10.487381
やら	-10.489651
ドラマ	-10.399590
ソフト	-10.392313
制	-10.499751
開	-10.348788
終わり	-10.307249
保証	-10.576935
知れ	-10.354608
みよ	-13.987991
種	-10.284128
いろんな	-10.305532
居	-9.974200
自信	-10.430633
エネルギー	-10.552414
同時に	-10.504009
視	-10.423540
組織	-10.693813
よる	-12.811119
刺	-10.473648
予防	-10.533926
返済	-10.774906
頂け	-10.273477
器	-10.163742
大好き	-10.330532
段階	-10.515360
横	-10.409189
くださっ	-10.301091
残	-10.059280
沢山	-10.292899
分野	-10.706943
口コミ	-10.543118
完成	-10.400699
まだまだ	-10.294687
しばらく	-10.254926
P	-9.558422
仲間	-10.424999
撮	-10.364710
信じ	-10.435237
書く	-10.409779
非	-10.527725
職場	-10.567599
迷惑	-10.297121
レッスン	-10.383489
Web	-10.620882
地元	-10.539307
毎年	-10.466785
距離	-10.413077
操作	-10.492578
書籍	-10.696972
公園	-10.400808
午前	-10.435374
探	-10.251527
適切	-10.620177
耳	-10.472877
傾向	-10.608895
ブランド	-10.520841
★	-10.513005
素材	-10.520310
又は	-10.718022
PC	-10.384114
発行	-10.531126
コード	-10.408283
限ら	-10.824434
どんどん	-10.385823
にくい	-10.470058
役	-10.617314
赤	-10.503867
超	-10.536093
迎え	-10.460838
完了	-10.379139
接続	-10.477417
卒業	-10.581680
映像	-10.557181
専用	-10.428552
集中	-10.518175
訪問	-10.568661
昼	-10.189420
安い	-10.535443
おかげ	-10.344420
借り	-10.578381
ミュニケーション	-10.551917
聞か	-10.768766
正しい	-10.454962
会議	-10.667381
習慣	-10.608579
公	-10.658024
郡	-10.602326
さえ	-10.508658
実感	-10.466772
券	-10.407768
教室	-10.487645
秋	-10.430407
離れ	-10.479755
不足	-10.554630
事項	-10.451519
もと	-10.699739
原	-10.216621
一切	-10.499439
最適	-10.543119
とにかく	-10.414804
ア	-10.180317
千	-10.675213
計算	-10.603661
プロジェクト	-10.589631
ホ	-11.193743
空間	-10.551347
面白い	-10.420983
全部	-10.429707
書類	-10.614319
コンテンツ	-10.558003
高齢	-10.751510
妊娠	-10.651805
変わり	-10.370138
そもそも	-10.480460
方向	-10.533339
会話	-10.560623
美味しい	-10.349147
手術	-10.753499
相場	-10.810222
規模	-10.562671
野	-10.224989
利益	-10.641295
いま	-7.880307
ラ	-10.438721
局	-10.330789
総合	-10.529296
え	-10.426748
保	-10.462538
笑顔	-10.451704
未来	-10.542859
科	-10.576440
スタイル	-10.468840
エリア	-10.596689
川	-10.287871
産	-10.189322
クラス	-10.438394
安く	-10.511725
食品	-10.707445
再生	-10.646902
早め	-10.384621
ダメ	-10.432446
確保	-10.638483
暮らし	-10.427564
申し訳	-10.241672
がち	-10.736319
セミナー	-10.415615
づくり	-10.595005
削除	-10.478118
感想	-10.393549
iPhone	-10.690444
探す	-10.535878
息子	-10.526386
交流	-10.629215
W	-9.719713
北海道	-10.568944
中央	-10.515292
ナ	-10.535247
摂取	-10.667323
楽し	-9.982982
戻っ	-10.620330
考え方	-10.619452
野菜	-10.617880
証拠	-10.842079
借金	-10.812791
破	-10.653521
正直	-10.468253
既に	-10.530946
フォーム	-10.243394
いわ	-11.612097
当たり前	-10.531061
把握	-10.636989
要素	-10.637238
項目	-10.507247
楽	-10.156042
都合	-10.416619
反応	-10.552923
西	-10.505167
悩	-10.475190
インストール	-10.356014
軍	-10.701381
現状	-10.634436
疑問	-10.547608
規定	-10.806803
買い物	-10.501259
付き	-10.480298
他人	-10.482413
感情	-10.616040
減	-10.598950
図	-10.561897
研修	-10.669139
旦那	-10.688402
共有	-10.642971
編集	-10.576831
女子	-10.596507
トップ	-10.723651
超え	-10.643145
#	-9.338787
相続	-11.008941
働い	-10.736948
納得	-10.550766
早い	-10.509505
政治	-10.795015
変	-10.404647
赤ちゃん	-10.571112
到着	-10.517301
全員	-10.548182
タイミング	-10.524936
ツール	-10.521471
自動車	-10.693610
せい	-10.567380
カ	-10.521492
本当	-10.486494
対	-10.657177
それら	-10.695212
女の子	-10.597848
安	-10.544730
監督	-10.780915
提出	-10.684580
すぎる	-10.540645
回答	-10.607191
実践	-10.606743
とりあえず	-10.343529
スマート	-11.961872
筋肉	-10.705650
会い	-10.475259
診断	-10.702842
紙	-10.471815
ランキング	-10.570218
流	-10.065127
行か	-10.508177
五	-10.883024
増加	-10.857986
カラー	-10.456079
送信	-10.504919
本来	-10.656028
進ん	-10.921970
格	-10.321071
押し	-10.398028
年生	-10.705421
ホーム	-10.478009
勝手	-10.264593
スーパー	-10.536340
設計	-10.758319
左	-10.544552
昭和	-10.793960
職	-10.450777
G	-9.785431
島	-10.211994
あるいは	-10.811506
小さい	-10.557843
建築	-10.871993
軽	-10.573646
お互い	-10.623444
都市	-10.877703
スペース	-10.512729
ママ	-10.538388
K	-9.743243
乾燥	-10.721235
スマホ	-10.117589
送っ	-10.856452
やめ	-10.553490
アドバイス	-10.535399
メディア	-10.566718
汗	-10.605805
平均	-10.814504
E	-9.635207
ﾟ	-10.680194
誤	-10.654496
快適	-10.634184
始める	-10.610150
不思議	-10.543332
付い	-10.782834
地震	-10.777502
好み	-10.513207
発展	-10.807203
栄養	-10.761567
構成	-10.715221
父	-10.666813
こうした	-10.796834
余裕	-10.571916
ぬ	-10.554887
死	-10.507332
演奏	-10.684805
止め	-10.486146
いや	-10.434285
現代	-10.761206
分析	-10.840741
胸	-10.674938
文章	-10.663010
きれい	-10.575139
適用	-10.736749
返	-10.535437
トイレ	-10.715364
ド	-10.414509
－	-10.815642
テスト	-10.668527
業	-10.393858
福岡	-10.781827
繰り返し	-10.721039
苦手	-10.661891
座	-10.425242
資金	-10.842721
かつ	-10.776627
J	-10.003287
立場	-10.761022
週	-10.069130
順	-10.532699
修正	-10.573431
R	-9.903806
タイトル	-10.554436
自ら	-10.795067
講座	-10.647672
現地	-10.758518
命	-10.352337
タ	-10.640972
立て	-10.668082
四	-10.859091
ツアー	-10.638280
帯	-10.449367
要望	-10.611341
天気	-10.705381
百	-10.914536
お世話	-10.490762
出会	-10.912428
フリー	-10.571356
基礎	-10.776532
沖縄	-10.843818
末	-11.089356
級	-10.330931
働く	-10.799566
ある程度	-10.636601
役割	-10.812947
なか	-10.802316
警察	-10.763188
攻撃	-10.780839
勤務	-10.869986
発送	-10.617548
豊か	-10.819665
スキル	-10.703981
府	-10.691473
過	-10.840839
帰り	-10.315583
なあ	-10.822585
年代	-10.881248
断	-10.448092
品質	-10.798542
裏	-10.578458
石	-10.327239
総	-10.797111
事情	-10.688244
コーヒー	-10.692901
立ち	-10.388962
暗	-10.651587
まったく	-10.636402
決して	-10.687317
達成	-10.746192
ﾞ	-11.044064
付	-10.499471
やか	-11.224758
壁	-10.501436
Google	-10.816124
もしくは	-10.664449
就職	-10.846373
挑戦	-10.664625
ルール	-10.718680
無事	-10.527935
共	-10.896983
利	-10.693372
住所	-10.641142
始まり	-10.636010
訪れ	-10.770291
用い	-10.984237
正確	-10.750454
理想	-10.769904
糖	-10.748993
展	-10.830931
低い	-10.766463
指摘	-10.833723
取る	-10.623239
解消	-10.718059
産業	-10.925667
視聴	-10.734110
桜	-10.718760
チケット	-10.622493
立	-10.163851
運用	-10.852479
困っ	-10.870032
館	-10.560913
次回	-10.493130
支払	-10.866247
ぶり	-10.619227
つける	-10.566164
決まっ	-10.795996
プレイ	-10.572319
オリジナル	-10.553595
周年	-10.645979
そ	-11.288278
分かる	-10.621093
トレーニング	-10.656365
市民	-10.898060
あろ	-12.650730
離婚	-10.915555
不明	-10.615748
慣れ	-10.579753
全然	-10.573348
債務	-11.121610
通貨	-10.900058
奥	-10.593022
電車	-10.756098
中古	-10.879740
コスト	-10.823151
上がっ	-10.510168
メイン	-10.627800
参照	-10.566752
cm	-10.848470
電気	-10.826869
新規	-10.700272
記入	-10.539786
では	-6.825621
来店	-10.540230
我々	-10.894352
戦争	-10.929907
バック	-10.590857
美しい	-10.755880
クリスマス	-10.542829
掛け	-10.544067
福祉	-10.931390
売る	-10.986695
幸い	-10.566763
感染	-10.990151
け	-10.799243
&	-8.770290
与える	-10.760431
雪	-10.613265
マ	-10.509970
当店	-10.629475
変わら	-10.668506
シーン	-10.707180
手段	-10.824246
とっても	-10.268475
リリース	-10.654417
首	-10.632491
肉	-10.473560
次第	-10.590834
服	-10.614140
深	-10.747987
今度	-10.580287
製造	-10.922907
含む	-10.859168
宿泊	-10.826621
ぞ	-10.422356
アカウント	-10.583957
ちゃっ	-10.630226
姿勢	-10.853173
地球	-10.885173
祭	-10.719828
初心者	-10.640513
多かっ	-10.726843
いくら	-10.853718
使い方	-10.634757
道路	-10.864759
飲む	-10.756034
皮膚	-10.905505
腰	-10.732516
レストラン	-10.736385
カフェ	-10.642418
協会	-10.801190
回復	-10.809067
どういう	-10.661642
人物	-10.849286
事務	-10.818627
睡眠	-10.970288
風呂	-10.737428
価	-10.875977
米国	-11.060997
シンプル	-10.627787
を通して	-10.741724
H	-9.768068
改めて	-10.659999
優先	-10.803911
変わる	-10.678410
通販	-10.726143
明確	-10.842757
名古屋	-10.775522
夫婦	-10.816009
自転車	-10.836990
仕組み	-10.841705
被	-10.990802
頂く	-10.643335
面倒	-10.742032
歯科	-11.039622
そういった	-10.797929
なくなっ	-9.416880
述べ	-10.944353
趣味	-10.814025
＝	-10.973992
青	-10.753313
ロ	-10.657182
動	-10.543462
スポット	-10.717486
けれ	-10.924605
物語	-10.826593
次に	-10.701833
；	-10.682597
世代	-10.798098
無駄	-10.746575
脂肪	-10.970343
モノ	-10.715771
受験	-11.046048
ち	-10.337691
優れ	-10.849840
リスト	-10.524254
瞬間	-10.749689
キャンセル	-10.691376
加	-10.467994
フォン	-12.519481
困難	-10.919967
パン	-10.522369
楽しめる	-10.716089
ム	-10.789499
頼	-10.741581
×	-10.819368
修理	-10.866589
合	-10.366563
皆	-10.727826
歌	-10.671268
細	-10.438287
来年	-10.682713
ッ	-10.895305
許可	-10.870926
更に	-10.787234
伝える	-10.815710
通知	-10.856262
はっきり	-10.728864
機器	-10.941530
弾	-10.701639
Windows	-11.034469
整備	-10.985429
程	-10.493531
挙げ	-10.835800
民	-10.591918
人数	-10.817008
お越し	-10.337208
感動	-10.752790
落ち着	-10.691756
黒	-10.706727
パパ	-11.063595
セックス	-10.994091
触れ	-10.768540
すごい	-10.692698
口座	-10.899673
申込	-10.843080
構築	-10.918866
ネットワーク	-10.842867
まぁ	-10.557291
ライン	-10.619128
拡大	-10.943062
便	-10.616798
大量	-10.851914
合格	-10.925014
スマ	-13.082409
示し	-11.104225
I	-7.926438
っていう	-10.448374
L	-9.841456
向かっ	-11.044948
顧	-11.089400
連携	-10.977821
引	-10.620353
集	-10.654042
サーバー	-10.798687
構造	-10.963590
久しぶり	-10.590500
成果	-10.926407
横浜	-10.866914
端	-10.503834
動作	-10.756060
学び	-10.885189
もう少し	-10.642006
取り組み	-10.956398
起動	-10.659088
温泉	-10.909568
類	-10.610332
発信	-10.836106
主義	-11.125820
行け	-10.708046
証	-10.798267
指	-10.665677
抱え	-10.878466
獲得	-10.892086
ドル	-10.961355
うえ	-10.825400
香り	-10.837644
周囲	-10.903758
守る	-10.865958
OK	-10.495332
社長	-10.983699
喜ん	-10.876082
勝	-10.745662
常	-10.736596
なに	-12.022260
大手	-11.008667
神経	-10.851627
一時	-10.838264
引き	-10.420072
合う	-10.626550
ビル	-10.637478
緊張	-10.835647
舞台	-10.896032
に対し	-11.010299
シーズン	-10.742381
jp	-10.738126
運	-10.476146
実績	-10.931843
装	-10.511397
とおり	-10.796218
バー	-10.466380
避け	-10.845821
項	-11.020221
送料	-10.797125
設備	-11.041292
痛	-10.650758
始ま	-10.866362
を通じて	-10.962193
認定	-11.032704
手数料	-10.860429
空気	-10.866330
融資	-11.271085
遠	-10.544311
相当	-10.940396
取れ	-10.786311
こんなに	-10.695399
まいり	-10.734760
変える	-10.810604
キャラクター	-10.769267
見学	-10.914568
そんなに	-10.761744
メールアドレス	-10.635047
続く	-10.882422
＊	-10.805791
以来	-10.934728
精	-10.885211
理	-10.726235
掃除	-10.875054
新聞	-10.973325
思い出	-10.517288
共通	-10.893916
足り	-10.798690
あげる	-10.761848
園	-10.706148
反	-10.840165
平	-10.518899
シ	-10.445550
クラブ	-10.765831
路	-10.632378
レ	-10.557799
極	-10.627962
いただけれ	-10.635275
いらっしゃる	-10.740021
権利	-11.080068
チャンス	-10.799411
バ	-10.735487
貢献	-10.982348
だり	-11.163188
前後	-10.926770
資産	-11.048752
取り組ん	-11.074291
ログイン	-10.695906
体重	-10.926646
負け	-10.739499
分け	-10.671929
開い	-10.986565
世の中	-10.837327
反対	-10.901006
秒	-10.934677
'	-5.679550
独自	-10.959604
閲覧	-10.889732
収集	-11.056415
こんにちは	-10.886232
厳しい	-10.918180
承	-10.597203
ちょうど	-10.784777
筋	-10.799956
初期	-10.893690
助け	-10.832391
主張	-11.005946
対処	-10.838346
クリニック	-10.875768
ニーズ	-11.088951
残り	-10.730481
星	-10.676579
形式	-10.868396
災害	-11.067513
信用	-10.956225
おそらく	-10.848997
結婚式	-10.987275
給	-10.562117
雑誌	-10.910481
同士	-10.926964
フ	-10.873860
描い	-11.012528
予算	-11.021816
森	-10.829585
求める	-10.948134
ベスト	-10.805052
かかわら	-10.921868
無く	-10.700159
ファッション	-10.920732
なので	-8.029539
学ぶ	-10.970192
城	-10.811369
毎月	-10.900548
荷	-10.549094
つく	-10.572373
t	-8.121561
行政	-11.075261
不要	-10.934711
アルバム	-10.831033
性格	-10.921697
診	-10.942264
肩	-10.833614
仮想	-11.014302
長期	-10.955191
好	-10.670851
か月	-10.964779
コイン	-11.522106
数字	-10.967002
受講	-10.916985
確定	-10.918932
多少	-10.862918
突然	-10.873321
キ	-10.805570
Q	-10.484819
サッカー	-10.898766
正	-10.664064
地図	-10.885671
定め	-11.080253
固定	-10.948279
売り	-10.818510
イ	-10.653685
セフレ	-11.342731
マン	-10.458824
禁止	-10.922610
フランス	-11.016277
多様	-11.159675
和	-10.534504
o	-10.176082
経過	-10.921931
あまりに	-11.462145
人材	-11.171103
関心	-11.038011
転	-10.770197
間違っ	-10.936033
ころ	-10.934210
発言	-10.954348
過ごす	-10.858064
湿	-10.937600
マッサージ	-10.857853
遅く	-10.752360
節	-10.625096
返信	-10.847515
建設	-11.138202
そのもの	-11.042430
せっかく	-10.786694
防止	-11.027700
思い出し	-11.084506
箱	-10.775801
各種	-10.887819
偵	-11.370038
旧	-11.006412
方針	-11.037544
停止	-10.994819
タイム	-10.734686
該当	-10.929567
心理	-11.281351
楽天	-10.942179
発揮	-10.944134
話す	-11.001787
お前	-10.727702
ノ	-10.379574
あらかじめ	-10.844883
所有	-11.106831
チ	-10.949771
もしか	-12.172661
ドイツ	-11.090414
ひと	-10.927064
セキュリティ	-10.970267
選挙	-11.193944
DVD	-10.919076
炎	-10.785336
超える	-11.019899
魚	-10.893000
勤	-11.049805
航空	-11.192447
生じ	-11.113689
上手	-10.891754
包	-10.759898
切れ	-10.746005
職員	-11.032785
宇宙	-11.094677
付き合い	-10.788693
推進	-11.110194
角	-10.593871
受け付け	-10.677478
古い	-10.963789
組	-10.799328
代わり	-10.827771
おけ	-10.867899
低下	-11.078415
お腹	-10.807444
`	-9.165844
持た	-10.952280
治	-10.646252
国家	-11.185449
層	-10.507630
製	-10.749001
報道	-11.080680
ひとり	-10.692551
評判	-11.003286
ワン	-10.716267
http	-11.079411
工夫	-10.960115
ちゃう	-10.750752
切り	-10.586359
乗り	-10.826859
願い	-10.906332
連続	-10.959752
テーブル	-10.870384
ネタ	-10.802700
貴重	-10.909280
行な	-11.324675
体制	-11.142295
傷	-10.616816
言語	-11.091544
考慮	-11.008838
工場	-11.114010
もん	-10.894489
独	-10.836788
空港	-11.057625
小学校	-10.987284
関わら	-11.251891
意	-10.708077
込ま	-11.377411
当該	-11.371289
財産	-11.175220
背景	-11.075757
まさに	-10.994260
掲示板	-11.008120
ホルモン	-11.086728
列	-10.729780
即	-11.059018
一体	-10.903837
物質	-11.205032
分の	-10.186176
co	-9.619765
それほど	-10.972949
神社	-11.033075
期限	-10.998768
チャレンジ	-10.843524
たび	-10.868619
巻	-10.854326
印刷	-11.046214
並	-10.925336
予め	-10.791788
スムーズ	-10.920165
V	-10.169892
起こし	-11.357673
派遣	-11.270432
リー	-11.080142
ペット	-11.039847
千葉	-11.069771
待ち	-10.862544
パスワード	-10.868845
ビタミン	-11.164870
レンタル	-10.965219
聴	-10.796739
派	-10.969414
｜	-10.966037
上手く	-10.882297
講師	-11.011088
やり方	-10.946872
キャッシング	-11.333827
手間	-11.014378
機械	-11.107819
パーティー	-10.936770
診療	-11.164046
Ａ	-10.900735
温	-10.838503
王	-11.055328
幅	-10.915770
認知	-11.201965
集ま	-10.998649
要	-10.507971
配	-10.825267
骨	-10.776689
+	-9.715543
見つける	-10.996586
従業	-11.210002
金利	-11.383065
創	-10.994585
バイク	-10.991741
開け	-10.869836
可愛い	-10.794929
キャリア	-11.091288
否定	-11.023353
難	-10.843329
議論	-11.198597
別れ	-10.988112
見れ	-10.911916
講演	-11.045782
キー	-10.770964
寺	-10.861190
驚き	-10.990215
パワー	-10.929957
視点	-11.124578
第三者	-11.112419
市内	-11.090159
関わ	-10.825974
遊ん	-11.041018
農	-11.216322
たとえば	-11.201886
清	-11.058143
面接	-11.179529
窓	-10.989980
補	-11.069270
在	-10.690614
選ば	-11.058884
任意	-11.225742
野球	-11.108805
タイ	-11.009351
お母さん	-10.905274
単純	-11.024617
戦略	-11.206190
パターン	-10.972331
脱	-10.997841
賃貸	-11.242663
いらっしゃい	-10.812226
当初	-11.121135
ご飯	-10.913143
処分	-11.152177
彼氏	-11.040404
むしろ	-11.017158
決済	-11.045053
母親	-11.051504
植物	-11.117270
省	-10.920507
強化	-11.138209
ショッピング	-10.871849
住民	-11.196987
設立	-11.193767
論	-10.890163
レビュー	-10.842961
かける	-10.892378
異常	-11.069690
それで	-10.465388
深く	-10.930603
現金	-11.085863
端末	-11.082795
支え	-11.022363
喜び	-11.026299
丸	-10.801095
異	-10.139790
減少	-11.278512
全身	-11.134448
誠に	-10.675123
なるべく	-10.941597
就	-11.101094
恋	-11.062263
約束	-11.021417
ブ	-11.035003
学ん	-11.741739
と共に	-11.037443
冊	-11.033108
さすが	-10.951688
出張	-11.099077
広島	-11.155312
受け入れ	-11.044205
必須	-11.021401
福島	-11.192363
同意	-11.067973
徹底	-11.100220
問わ	-11.146135
改正	-11.234906
できるだけ	-10.798119
高め	-11.103907
汚れ	-11.077381
細胞	-11.368203
英	-11.234585
すら	-11.225360
活性	-11.140635
伝統	-11.208405
リフォーム	-11.177016
込め	-10.867722
比較的	-11.080706
生命	-11.130138
詳しい	-10.850731
台風	-11.006385
船	-10.776823
かね	-10.381637
なんだか	-10.797255
デジタル	-11.140709
スキン	-12.858959
遅れ	-10.998802
損害	-11.315453
クリア	-10.907455
マーク	-11.127807
受賞	-11.129629
あらゆる	-11.139950
丁目	-10.846681
短	-10.811403
CD	-10.884795
スピード	-11.070160
任せ	-10.994896
どうして	-10.901289
世紀	-11.327189
液	-10.868002
»	-10.134086
入手	-11.059287
ｗ	-10.729380
在庫	-11.087444
出産	-11.154072
加工	-11.096056
起こる	-11.063235
亡くな	-11.615974
先輩	-11.075283
団	-10.925597
密	-10.618442
健	-11.139002
ワーク	-11.001497
ご存知	-10.936787
実験	-11.217875
剣	-10.783719
ダ	-10.756439
加入	-11.164289
ネ	-10.772721
キーワード	-11.131686
周	-11.187371
去	-10.727811
見た目	-10.992783
起こっ	-11.308525
X	-10.425607
アドレス	-10.954033
抗	-10.926836
馬	-10.937505
食べ物	-11.066551
欠か	-11.302377
走っ	-11.290157
描	-10.900251
界	-10.974111
プラス	-10.921835
生きる	-11.075871
広	-11.056035
規制	-11.257908
古	-10.981571
ステージ	-10.983575
抑え	-11.100879
事例	-11.162877
コピー	-11.003810
広く	-11.188811
宜しく	-10.771095
取り入れ	-11.069672
目指す	-11.155125
純	-11.112088
男女	-11.071934
増える	-11.076211
合わ	-10.951866
作用	-11.212765
バージョン	-10.946349
ベース	-11.032026
想定	-11.172952
限	-10.463433
神奈川	-11.070999
∀	-10.782610
隣	-10.595069
徐々に	-11.043347
小説	-11.160789
オ	-10.600001
宿	-10.910009
共同	-11.265708
下さ	-10.948430
ぎ	-11.019809
根	-10.780115
滞在	-11.211125
交渉	-11.301228
向い	-11.286725
知	-9.790224
割引	-11.074226
仕様	-11.034993
収	-11.087018
薄	-11.071510
出身	-11.266844
人口	-11.429396
U	-10.268872
老	-11.176682
塩	-11.102058
N	-9.908664
ウェブサイト	-11.215237
原則	-11.146704
沿	-11.155045
連	-10.886641
ジ	-10.900054
ニキビ	-11.314296
込む	-11.178060
ワイン	-11.125013
もっ	-12.225550
ざる	-11.158805
それなり	-11.038159
初め	-11.031799
URL	-10.940255
休	-10.833940
独立	-11.194984
それから	-10.831890
欄	-10.924634
g	-9.658182
やつ	-10.943823
弱	-10.784989
消え	-11.000653
批判	-11.209319
いこ	-12.850416
オプション	-10.963617
敵	-10.897272
取り上げ	-11.111199
決める	-11.136231
カット	-10.953034
深い	-11.071060
息	-10.803350
校	-10.886552
ブロック	-11.334610
つか	-10.419208
皆さま	-10.934299
上げる	-10.910348
頂ける	-10.914075
絶	-10.956201
結	-11.046693
トラック	-10.871483
想い	-11.078845
組み合わせ	-11.040571
帰	-10.786129
選択肢	-11.152955
ボランティア	-11.107083
官	-10.842548
見積もり	-11.273247
撃	-10.981843
見つか	-11.213320
進行	-11.139809
後半	-11.122465
著作	-11.332625
嫁	-11.163992
雇用	-11.392682
退	-10.982420
食材	-11.122112
なれる	-11.060986
主催	-11.088617
もともと	-11.168738
厚	-11.040738
ストーリー	-11.037787
最低	-11.166539
デート	-11.125983
許	-11.033714
犯罪	-11.237263
調子	-10.991947
バイト	-11.233834
整	-11.190592
コンビニ	-11.056072
免許	-11.259267
アジア	-11.208412
気温	-11.149657
回数	-11.125649
政策	-11.420020
別に	-10.517895
頑張り	-10.861309
防ぐ	-11.156259
◆	-11.069646
パートナー	-11.168227
アルバイト	-11.214501
増	-11.145886
材料	-10.984706
明治	-11.367693
Twitter	-11.066336
年金	-11.479471
説	-10.861968
デメリット	-11.075201
公演	-11.158984
提示	-11.194743
住まい	-11.093582
普及	-11.266875
平和	-11.304758
高速	-11.150946
O	-10.016747
若	-11.202487
奴	-10.875083
LINE	-10.972717
解	-10.758105
備え	-11.225586
散歩	-11.017626
事態	-11.213612
有料	-11.099049
半分	-11.118305
建て	-11.286405
コントロール	-11.037237
損	-10.763419
ツ	-10.981787
留学	-11.408513
会う	-11.152993
現れ	-11.157279
そちら	-10.952656
発電	-11.429273
まるで	-11.098997
被災	-11.226419
お気に入り	-10.961614
圧	-10.737345
相	-10.816516
要求	-11.256473
挨拶	-11.093097
レポート	-11.064073
各地	-11.196312
株	-11.127284
枠	-11.161731
ロード	-11.530733
進む	-11.156413
穴	-11.055236
上昇	-11.282243
外部	-11.182451
イギリス	-11.267559
JR	-11.059815
義務	-11.326133
個別	-11.169198
意思	-11.256803
細か	-11.131198
育て	-11.142160
楽しめ	-11.053551
エステ	-11.246062
計	-10.639235
ランチ	-11.021389
SNS	-11.127305
送る	-11.130460
なんとか	-10.880839
速度	-11.213870
ミ	-10.812487
シェア	-11.140058
毎	-11.184700
世	-10.867660
切っ	-11.165208
そうした	-11.354692
申告	-11.339187
単位	-11.303275
複雑	-11.237847
恐れ	-11.049568
放題	-11.226416
難しく	-11.197764
実家	-11.119660
大統領	-11.466334
気に入っ	-11.116893
商	-11.126245
テキスト	-11.121283
出来事	-11.125368
公共	-11.270277
エンジン	-11.108254
苦労	-11.134521
製作	-11.143312
タグ	-11.102538
子育て	-11.232247
平日	-11.155606
くん	-10.959455
防	-11.194159
ID	-10.585886
進	-10.576441
怖い	-11.118703
内部	-11.271368
埼玉	-11.201493
おいしい	-11.016827
ところが	-10.316510
後ろ	-11.062140
キロ	-11.236156
確率	-11.219674
まっ	-11.013084
ウ	-11.155213
敷	-11.206155
つながり	-11.214236
なー	-11.049787
手軽	-11.202475
材	-10.947364
アンケート	-11.121678
スケジュール	-11.025258
ど	-11.076975
出版	-11.355022
お子様	-11.044789
念	-10.833475
思考	-11.237871
地区	-11.352703
おか	-11.130119
わずか	-11.231456
前提	-11.154836
我慢	-11.094517
寄	-11.212025
療法	-11.416105
サ	-10.623177
要因	-11.342047
乳	-11.176629
得意	-11.181917
特典	-11.092806
一括	-11.315211
神戸	-11.246828
身近	-11.195675
重ね	-11.182011
ケーキ	-11.008039
菌	-10.906031
リラックス	-11.097626
込み	-11.004115
済み	-11.126459
縁	-10.759806
優	-11.214905
開設	-11.200987
登	-11.300030
設け	-11.274916
優しい	-11.086848
終え	-11.153488
流行	-11.278609
っと	-10.855812
現	-11.182041
やってき	-11.072766
https	-11.936866
葉	-10.963835
鼻	-11.283331
日程	-11.066415
教	-11.276739
従来	-11.390578
保育	-11.481137
毎回	-11.150521
認証	-11.315242
どうも	-11.051958
止ま	-11.138433
ぐ	-11.125358
箇所	-11.189169
死ん	-11.494745
両方	-11.181182
辛い	-11.128615
我が家	-11.042847
ベッド	-11.180270
報酬	-11.299302
主人	-11.183746
所属	-11.261729
杯	-11.537106
嬉し	-11.044672
クリーム	-11.013421
中止	-11.140901
いわゆる	-11.334263
指示	-11.244635
ビデオ	-11.050301
不可能	-11.267361
罪	-11.137946
アプリケーション	-11.222906
皮	-10.962445
満	-11.171208
察	-11.180773
ブラック	-11.151458
霊	-11.163961
適	-10.790429
努め	-11.254991
札幌	-11.224620
読	-10.383961
緑	-11.228528
問合せ	-10.955729
オフィス	-11.308242
着物	-11.640793
表情	-11.134611
mm	-10.235763
来場	-11.032040
面白	-11.124205
ようやく	-11.121673
びっくり	-11.058674
中身	-11.192513
風邪	-11.144400
出発	-11.222962
IT	-10.741238
やっと	-10.992342
ひ	-11.199706
ティ	-10.976316
再び	-11.247594
涙	-11.141184
捨て	-11.032723
なくなり	-10.203033
配慮	-11.298401
比	-11.380003
記	-10.940979
お送り	-10.982810
保管	-11.275098
八	-11.349232
思える	-11.179073
違反	-11.311839
Amazon	-11.328472
ミス	-11.182333
郵便	-11.257656
手順	-11.085025
抜	-11.158844
腕	-11.024376
少年	-11.285830
標準	-11.277822
床	-11.072509
悪化	-11.278186
扱い	-11.194784
かつて	-11.392607
なきゃ	-11.361822
若者	-11.401100
州	-11.227439
祭り	-11.546309
秘密	-11.249817
放置	-11.144818
教師	-11.436109
書士	-11.340889
何故	-11.121291
死亡	-11.445486
諸	-11.287360
アート	-11.139620
七	-11.473677
愛知	-11.251588
搭載	-11.286828
鍵	-11.352572
重視	-11.336363
血液	-11.358512
軽く	-11.154845
聞こえ	-11.137901
暑い	-11.082238
マイ	-11.182779
上がり	-10.914944
こだわり	-11.207165
コミック	-11.417841
酸	-10.977996
たった	-10.985424
ステップ	-11.103612
見直し	-11.328213
日頃	-11.137051
心がけ	-11.211618
km	-11.093569
クラ	-11.821125
イラスト	-11.124303
日記	-11.121479
ルーム	-11.029992
恋人	-11.310106
圧倒	-11.276020
洗	-11.276667
芸術	-11.369800
モ	-10.791060
WEB	-11.062194
メンテナンス	-11.104807
HP	-11.033012
引越し	-11.481707
アイドル	-11.157852
寄せ	-11.195592
太	-10.980037
抜け	-11.088330
それでは	-11.002844
ビット	-12.461035
何とか	-11.138494
訓練	-11.401282
休日	-11.154813
遺産	-11.472367
短い	-11.224299
らしく	-11.098894
もっとも	-11.294658
シート	-11.146511
いける	-11.210074
定義	-11.318246
売れ	-11.263726
職業	-11.383875
TV	-10.957589
ホール	-11.048215
議員	-11.399977
ラーメン	-11.208508
夕方	-11.127829
シングル	-11.190527
ピアノ	-11.297909
いつか	-11.129263
後悔	-11.206175
アレルギー	-11.261817
意外	-11.236763
接	-10.830354
ガス	-11.306367
開示	-11.511336
少女	-11.230632
届い	-11.560437
少なくとも	-11.237115
ロック	-11.164524
史	-11.316453
多分	-11.064848
カー	-10.816219
入院	-11.333058
んで	-7.827615
フル	-10.967984
所得	-11.548146
終わる	-11.175714
頻	-11.321935
日曜日	-11.099060
入学	-11.348821
けれども	-11.431112
浸	-11.327507
基	-11.368335
手法	-11.419328
新宿	-11.386319
補助	-11.383605
キャラ	-11.065399
定める	-11.387435
お子さん	-11.211902
ちょっとした	-11.133486
ヨーロッパ	-11.385388
ロシア	-11.457624
グ	-11.061850
育成	-11.451920
劇場	-11.245117
ボール	-11.033681
旨	-11.214767
個性	-11.266055
投票	-11.412314
仮	-11.352517
ブック	-11.651181
モード	-11.104803
板	-11.024795
波	-10.871089
げ	-11.035925
引っ越	-11.373523
眠	-11.058789
落とし	-11.334663
カウンセリング	-11.211277
収録	-11.297938
修	-11.184225
迷っ	-11.465897
引き続き	-11.115711
置	-10.681189
促進	-11.425483
上司	-11.367783
｢	-11.324446
ペース	-11.241104
増やし	-11.465986
ノート	-11.199633
耐	-11.356636
割合	-11.440949
ぴったり	-11.203838
虫	-10.909578
繁	-11.182095
高校生	-11.304144
取材	-11.334031
小学生	-11.212852
気づ	-11.054417
児童	-11.524584
車両	-11.410131
明	-10.837406
渡し	-11.045237
腹	-10.958440
台湾	-11.468561
検証	-11.288540
腸	-11.405679
永	-11.202876
左右	-11.282493
背	-11.183324
医	-11.282954
自社	-11.448900
付近	-11.271338
邪魔	-11.119722
無視	-11.239689
飼	-11.359458
洗濯	-11.359201
井	-11.179341
散	-10.788270
鉄道	-11.389001
麻	-11.334288
履歴	-11.373493
諦め	-11.249165
お茶	-11.193584
モバイル	-11.272858
向	-11.061754
遅	-11.333944
ソフトウェア	-11.338039
状	-10.961153
一人	-9.236083
競技	-11.356953
戦い	-11.353659
再度	-11.172426
翌日	-11.254951
忙しい	-10.917496
司法	-11.421997
もう一度	-11.147729
別途	-11.121521
短期	-11.789000
基づい	-11.434428
酵素	-11.564688
スト	-11.074422
ゴール	-11.402611
送り	-11.202893
窓口	-11.309989
退職	-11.496388
動い	-11.420348
エ	-10.792608
撮り	-11.137327
代金	-11.273607
袋	-10.982493
つながる	-11.380226
ゼロ	-11.316253
逃げ	-11.196673
大幅	-11.381243
バンド	-11.183161
高める	-11.374297
負	-11.409616
投	-11.324107
不満	-11.348295
配送	-11.338355
源	-11.165790
飲食	-11.380137
カバー	-11.221914
いよ	-11.005618
ゴミ	-11.378940
遠く	-11.225927
関わる	-11.384694
六	-11.502698
伸び	-11.295297
易	-11.389246
入会	-11.326031
江戸	-11.407332
土曜日	-11.163707
残る	-11.245046
粉	-10.986749
取ら	-11.597850
オイル	-11.103829
返し	-11.011053
ごろ	-11.038573
策	-11.000101
庭	-11.125111
ビ	-10.898803
配置	-11.336783
風景	-11.300636
合計	-11.335260
届き	-11.113058
www	-10.040487
学会	-11.301964
混	-11.398551
見かけ	-11.256298
結論	-11.305222
人達	-11.204172
支持	-11.461342
臨	-11.203360
ガイド	-11.273887
抱	-11.337162
眺め	-11.251723
グッズ	-11.163937
〇	-11.835737
ガン	-11.321924
受信	-11.210035
配布	-11.287641
色んな	-11.190609
レース	-11.235933
おめでとう	-10.985789
昨	-11.325462
じ	-11.286035
比べる	-11.277684
協議	-11.470566
届	-10.952132
太陽	-11.413507
ニ	-11.009403
焼き	-10.981514
電	-11.137796
靴	-11.405156
処	-10.892013
ゴルフ	-11.399345
父親	-11.397235
尿	-11.257233
抵抗	-11.387850
上がる	-11.253581
たま	-11.377604
出かけ	-11.258162
インド	-11.478970
速	-10.841622
景色	-11.271980
主人公	-11.391877
ガラス	-11.359992
イタリア	-11.403951
広い	-11.288536
いら	-10.910806
だが	-9.514047
Facebook	-11.265386
裁判	-11.596278
正しく	-11.305781
役立つ	-11.323843
現象	-11.415745
電源	-11.350938
メ	-10.805383
辞め	-11.315467
｣	-11.371387
降り	-11.108273
免	-11.439871
紫	-11.417683
エラー	-11.176489
単に	-11.366007
性能	-11.245623
正常	-11.326785
▽	-11.074221
原発	-11.606701
規約	-11.410904
w	-10.101635
ソース	-11.288871
成立	-11.447268
パッケージ	-11.244217
茶	-11.314069
キレイ	-11.134800
静か	-11.329308
救	-11.421322
アップデート	-11.187710
卵	-11.253927
かわいい	-11.168560
寒い	-11.205930
パ	-10.961538
売上	-11.526225
･	-11.556897
進化	-11.412898
ダメージ	-11.291754
アプローチ	-11.388512
住む	-11.413756
空き	-11.350809
<	-10.143870
返事	-11.174853
新しく	-11.244261
それだけ	-10.579566
聖	-11.351772
＋	-11.362191
盗	-11.345445
サプリメント	-11.322363
メイク	-11.377653
ハイ	-11.206036
−	-11.294823
意外と	-11.314535
静岡	-11.461813
ジャンル	-11.268373
せよ	-11.854955
数多く	-11.186043
焼	-11.020244
越し	-11.764603
向き	-10.953539
反映	-11.351973
吸収	-11.418918
塗装	-11.541926
落	-11.292286
たぶん	-11.209254
カテゴリー	-11.201943
伝	-11.325897
PDF	-10.968912
売買	-11.519048
不正	-11.492523
臭い	-11.455355
くださる	-11.201492
コンサート	-11.205469
沢	-11.308704
遺	-11.577541
記述	-11.337539
~	-10.496601
読者	-11.374356
誌	-11.362664
うれしい	-11.179482
ビール	-11.260367
肝	-11.480167
除	-11.364084
応え	-11.200429
始まる	-11.321924
歓迎	-11.316432
出場	-11.402554
インタビュー	-11.288354
児	-11.128523
覚	-11.472494
湯	-10.824544
いえる	-11.477374
y	-8.826394
観察	-11.395497
労	-11.254236
歩く	-11.248522
玉	-11.034270
改	-11.423688
歩き	-11.229558
=	-10.118456
コン	-10.792679
ブラウザ	-11.230029
態度	-11.395531
格安	-11.408640
前日	-11.381059
載せ	-11.197590
措置	-11.587482
ドア	-11.352984
塾	-11.435778
そば	-11.311245
進み	-11.367573
呼吸	-11.374333
きれ	-11.136695
そろそろ	-11.161816
充電	-11.555584
呼ん	-11.703773
いきなり	-11.300255
すっかり	-11.204415
中小	-11.521747
部門	-11.635529
クライアント	-11.352672
願っ	-11.799755
堂	-11.054105
･･･	-11.060429
二つ	-11.337689
言	-9.433551
世間	-11.379596
宮	-11.090481
勇気	-11.317195
やり取り	-11.414626
橋	-10.999730
店内	-11.295046
株式	-11.606613
↓	-11.363534
借りる	-11.560086
収納	-11.421733
甘	-11.365228
ああ	-11.306693
ザ	-10.753524
ｰ	-11.477306
デ	-10.914792
じっくり	-11.322820
週末	-10.861562
運ん	-11.774649
ドレス	-11.572695
作家	-11.457798
幅広	-11.562991
コーナー	-11.268813
厚生	-11.552224
示す	-11.493703
緊急	-11.433156
政権	-11.616338
貸し	-11.560366
迎える	-11.347705
寒	-11.159735
タクシー	-11.459911
ハウス	-11.146492
入場	-11.360570
段	-11.068723
使	-9.561252
ヨガ	-11.532506
戸	-11.243291
時計	-11.460455
数値	-11.434766
スター	-11.100905
表面	-11.415660
害	-11.279878
時々	-11.303684
広が	-11.444536
バッグ	-11.288430
敏感	-11.473612
演出	-11.374761
ねぇ	-11.129805
わざわざ	-11.272275
容量	-11.421280
er	-8.486080
創業	-11.548082
アイデア	-11.487491
うつ	-11.571468
副	-11.545641
大型	-11.456379
］	-11.458795
一応	-11.233650
熊本	-11.545010
寝る	-11.356226
［	-11.459529
組合	-11.626593
レシピ	-11.279747
ダンス	-11.212332
飼い	-11.371906
可	-11.481341
取り扱い	-11.296553
油	-11.095703
未満	-11.429160
リアル	-11.291267
中学	-11.514787
捉え	-11.518095
カロリー	-11.466564
プライベート	-11.343771
お話し	-10.910440
みれ	-11.445247
スクール	-11.159026
一気に	-11.367243
美術館	-11.531193
進める	-11.482403
主婦	-11.554753
書き込み	-11.195024
メモ	-11.356984
オーナー	-11.320626
貸	-11.489843
付き合っ	-11.475719
初回	-11.296867
体内	-11.475427
管	-11.321587
知り合い	-11.323584
twitter	-11.128305
模様	-11.305146
翻訳	-11.670476
公表	-11.521013
なんとなく	-11.283795
先週	-11.396741
活かし	-11.673197
自動的	-11.314670
サーバ	-11.432371
にかけて	-11.301329
疾患	-11.666068
女優	-11.447065
逮捕	-11.509028
パフォーマンス	-11.184517
不可欠	-11.577316
バレ	-11.340848
奈良	-11.568764
タブレット	-11.392748
安倍	-11.581664
デビュー	-11.373956
ディ	-11.057061
無かっ	-11.245414
殺	-10.970438
小さく	-11.351763
幼	-11.488709
デバイス	-11.441560
置く	-11.452238
装置	-11.615837
付ける	-11.230628
たとえ	-11.467823
特殊	-11.460939
謝	-11.215161
何らかの	-11.452863
疫	-11.600984
迫	-11.005581
候補	-11.535016
裁判所	-11.686514
仲	-11.409595
軽減	-11.483873
背中	-11.431489
字	-11.126769
素	-10.770992
関西	-11.430817
依存	-11.534187
ショー	-11.132748
プロフィール	-11.330928
保障	-11.658139
担	-11.668679
解除	-11.396878
ミニ	-11.252653
オリンピック	-11.437290
社内	-11.557925
申	-12.496828
輸入	-11.556776
拠点	-11.606664
強制	-11.489939
本体	-11.399559
占い	-11.670448
建	-11.493562
ムダ	-11.599749
調べる	-11.401347
飛行機	-11.440654
弁当	-11.382618
宗教	-11.629179
容易	-11.562998
続	-10.726161
唯一	-11.475043
目安	-11.402403
アーティスト	-11.384444
追	-11.345766
早速	-11.226258
プ	-11.298094
国立	-11.506271
図書館	-11.514979
あくまで	-11.397900
Д	-11.117188
章	-11.356542
適し	-12.866909
整え	-11.440853
申込み	-10.827683
あわせ	-11.228015
打ち	-11.159061
一言	-11.354800
帰る	-11.306984
テ	-11.070149
シミ	-11.640714
暑	-11.051593
若干	-11.353565
関東	-11.397948
新潟	-11.566992
築	-11.430384
キッチン	-11.392782
核	-11.502930
お菓子	-11.350234
危機	-11.600144
送ら	-12.000023
会計	-11.609166
抑える	-11.483472
教授	-11.623213
ラジオ	-11.386875
出力	-11.429962
開き	-11.221772
衝撃	-11.410078
伴い	-11.459540
入金	-11.414138
屋根	-11.569799
欲	-10.938561
オーダー	-11.405470
避難	-11.664809
お手伝い	-10.840862
リーダー	-11.436712
優勝	-11.462122
ゲスト	-11.393582
マーケティング	-11.467725
報	-11.147388
集団	-11.590050
控え	-11.403752
分かれ	-11.421369
偏	-11.573290
ドメイン	-11.456457
ライフ	-11.215091
高度	-11.645773
育毛	-11.699266
コツ	-11.386864
載っ	-11.705927
注	-11.336808
アピール	-11.475887
ヒット	-11.463252
渋谷	-11.541652
プライバシー	-11.401371
積	-10.947293
変換	-11.444538
どんなに	-11.486084
オフ	-11.218373
保有	-11.592868
仕上げ	-11.357460
元々	-11.463513
画	-11.141660
熟	-11.159343
サプリ	-11.507825
出席	-11.501082
e	-10.267444
律	-11.424323
正式	-11.452085
天然	-11.492444
回収	-11.542297
ブルー	-11.245854
ヤ	-11.275891
払っ	-11.669818
予測	-11.592481
みなさま	-11.217174
弱い	-11.453693
土産	-11.324629
泊	-11.306802
与	-11.526422
プロセス	-11.627999
鳥	-11.144982
好評	-11.353130
なさい	-11.384136
たっぷり	-11.320318
嫌い	-11.263466
過程	-11.578871
サンプル	-11.325280
税金	-11.579874
望	-11.214053
マイナス	-11.481714
仕上が	-11.515572
ありがたい	-11.283823
衛生	-11.563606
本当は	-11.376366
ぼく	-11.434873
少	-10.850268
Android	-11.512832
こっち	-11.274293
友	-11.204485
機種	-11.432186
にくく	-11.444283
ライト	-11.163407
コマンド	-11.324238
エントリー	-11.335375
シャンプー	-11.364151
リング	-10.797698
講習	-11.440561
新鮮	-11.436590
承認	-11.603156
圏	-11.594442
意図	-11.505950
潜	-11.524313
セ	-10.940557
痛い	-11.434607
日時	-11.457666
明るく	-11.370126
一生	-11.411456
サイン	-11.393505
賢	-11.526593
素人	-11.483054
嬉しく	-11.321243
音声	-11.559498
委託	-11.727393
競争	-11.701236
a	-10.220810
しまえ	-11.454406
ヘア	-11.470599
バカ	-11.309933
人工	-11.685206
谷	-11.195350
返金	-11.447379
ラー	-11.707488
当たり	-10.939834
術	-11.165802
パック	-11.352011
溢れ	-11.542421
店頭	-11.376959
ボックス	-11.178118
び	-11.114128
p	-10.001300
副作用	-11.574459
北朝鮮	-11.679385
カレー	-11.444981
いかに	-11.691798
鏡	-11.547099
至る	-11.613851
農業	-11.767203
需要	-11.671388
低く	-11.567250
尚	-11.359440
飾	-11.252578
晴れ	-11.374963
家具	-11.570075
動く	-11.441162
なんで	-9.588461
移行	-11.541293
踏まえ	-11.557523
夏休み	-11.400930
医学	-11.645414
グローバル	-11.671211
解釈	-11.563856
打	-11.147781
親切	-11.451710
矯正	-11.640359
戻る	-11.419409
服用	-11.658614
破壊	-11.576863
測定	-11.697295
失	-11.119155
談	-10.898729
電力	-11.750312
休業	-11.433811
釣り	-11.396757
長年	-11.585408
添	-11.514654
長野	-11.570883
休憩	-11.468062
リーグ	-11.386004
ユーザ	-11.576252
アン	-11.055825
エン	-11.231155
起こり	-11.539956
化学	-11.670509
柔	-11.570397
濃	-11.609124
ボディ	-11.474118
朝食	-11.508980
片	-11.380535
とる	-11.089118
兵庫	-11.550171
ドライブ	-11.384457
届く	-11.442733
用品	-11.540824
帰宅	-11.459419
プレイヤー	-11.444251
課	-11.431110
施工	-11.557119
マップ	-11.307857
九	-11.787613
迅速	-11.539994
乗る	-11.381346
ｍ	-11.541057
志	-11.269017
見つかり	-11.354109
形成	-11.711046
部品	-11.637008
生理	-11.706130
匹	-11.512778
CM	-11.196139
直後	-11.565563
開く	-11.380623
証券	-11.710871
墓	-11.732108
成	-11.183993
領域	-11.712336
時半	-11.491674
入ら	-11.404858
サン	-11.017557
文書	-11.704805
ほんの	-11.431155
プール	-11.519715
訪れる	-11.624320
開業	-11.644183
＜	-11.397228
毎週	-11.482220
払い	-11.047202
適正	-11.682383
削減	-11.716171
セール	-11.417228
牛	-11.500721
試	-10.736319
r	-10.137696
松	-11.372028
復活	-11.465510
素直	-11.449780
驚い	-11.781736
ハ	-11.113006
ワークショップ	-11.319397
養	-11.237709
トーク	-11.495116
編	-10.861437
i	-10.581998
優しく	-11.429018
査	-11.775436
辺	-11.070090
こうして	-11.241746
b	-9.522691
保健	-11.698260
貴	-11.368196
ノウハウ	-11.557446
稼ぐ	-11.515452
医者	-11.121399
下が	-11.379235
’	-5.920191
優秀	-11.564477
増やす	-11.534368
参り	-11.135233
ふと	-11.450213
酸素	-11.685796
披露	-11.554977
ウイルス	-11.618594
道具	-11.502048
起	-11.074045
バッテリー	-11.505805
幼稚園	-11.564052
違和感	-11.491687
成績	-11.603024
自覚	-11.520252
外科	-11.712122
フォロー	-11.415390
ドリンク	-11.396094
常識	-11.613750
鉄	-11.502705
決まり	-11.327731
候	-11.457194
首相	-11.853081
宣伝	-11.561560
一生懸命	-11.417788
はじめて	-11.277218
風俗	-11.786057
崎	-11.699312
教会	-11.846036
本社	-11.741130
コミュニティ	-11.578038
c	-10.116832
ピン	-11.404839
h	-10.589091
改革	-11.830514
覚悟	-11.494337
動か	-11.227145
外出	-11.635483
動かし	-11.884848
輪	-11.064191
集まり	-11.512282
走る	-11.547067
痩せ	-11.551668
効	-11.291320
チェーン	-11.983284
パス	-11.402438
縮	-11.329897
悩ま	-11.771388
ところで	-9.888898
謎	-11.547918
エッチ	-11.712914
親子	-11.533171
算	-11.788578
仲良く	-11.411268
ワ	-11.499920
九州	-11.591616
パーツ	-11.470096
入社	-11.689818
技	-11.130530
起きる	-11.590539
にあたって	-11.477220
大学生	-11.658455
デスク	-12.265535
心から	-11.283952
広げ	-11.581944
いざ	-11.576667
美し	-11.577239
軟	-11.483935
推奨	-11.545654
祝	-11.531292
守っ	-11.929128
土日	-11.552438
スタジオ	-11.410839
相性	-11.547959
差別	-11.686814
朝鮮	-11.672767
起業	-11.711214
給与	-11.754888
出会う	-11.602693
明け	-11.162470
ショック	-11.474363
恵まれ	-11.510734
延長	-11.584894
万が一	-11.515864
誠	-11.574984
だいたい	-11.479682
不具合	-11.412681
便秘	-11.770845
神様	-11.593606
ギフト	-11.383101
述	-11.678685
振込	-11.540427
手紙	-11.584471
創造	-11.725594
適当	-11.454718
疲	-11.661970
変動	-11.643561
観点	-11.723933
NHK	-11.529971
用途	-11.559491
副業	-11.895247
案	-11.222577
育	-11.122413
Wi	-11.483796
笑っ	-12.538452
守	-11.170017
Y	-9.956175
シャツ	-11.121607
分割	-11.701353
伝わっ	-11.666289
港	-11.450787
買	-10.862056
東日本	-11.603331
ガ	-11.009149
消	-11.363464
おかしい	-11.389204
取り組む	-11.700126
男子	-11.575453
楽しか	-12.759066
減らす	-11.624389
行事	-11.614789
♡	-11.194819
暇	-11.458148
すると	-8.549823
OS	-11.175401
エアコン	-11.649727
忙しく	-11.481733
Fi	-10.769258
憲法	-11.958761
終	-11.589191
像	-11.419078
戻り	-11.377515
階段	-11.567000
ダウン	-11.433770
福	-11.225577
脚	-11.429436
クーポン	-11.480862
信	-11.178294
大震災	-11.594912
降っ	-11.715343
代理	-11.685022
東北	-11.603959
大臣	-11.873165
呼び	-11.589947
ついに	-11.522981
発症	-11.769031
尊	-11.561703
保つ	-11.613028
老人	-11.721377
柄	-11.062089
生物	-11.605271
我が	-11.666683
施行	-11.802048
地下鉄	-11.525786
流し	-11.910074
大半	-11.688617
清潔	-11.665208
解約	-11.660536
どうやら	-11.426629
カ月	-11.651781
動かす	-11.572560
アフィリエイト	-11.387872
話し合	-11.682265
だんだん	-11.481665
配合	-11.621151
もしも	-11.672879
ルート	-11.551600
調理	-11.662005
存	-11.431164
える	-11.427281
賠償	-11.808406
廃	-11.396490
走り	-11.494529
in	-9.013001
具合	-11.533998
隊	-11.194257
恐怖	-11.631615
゙	-13.163025
リニューアル	-11.315537
限界	-11.619376
節約	-11.692453
パート	-11.537904
受診	-11.671412
入荷	-11.343032
伴う	-11.691590
フード	-11.518553
白い	-11.545297
育児	-11.711745
根本	-11.600613
助かり	-11.407777
早期	-11.792996
群	-11.387700
飽き	-11.537417
告	-11.824730
ボード	-11.454392
ゴ	-11.285304
中学生	-11.538027
単	-11.719141
ぽ	-11.545480
多々	-11.603196
基づき	-11.748909
表記	-11.552466
鑑	-11.761183
避ける	-11.638825
専	-11.726099
間違え	-11.454234
根拠	-11.647050
タップ	-11.418881
既存	-11.665936
走行	-11.678859
向かう	-11.562338
花火	-11.684214
完璧	-11.595649
ゆったり	-11.486044
ごく	-11.570382
待つ	-11.555498
武	-11.485561
大勢	-11.587407
暴	-11.574416
拒否	-11.649978
造	-11.135775
規則	-11.607813
コンセプト	-11.638370
判明	-11.606353
混雑	-11.570781
慎重	-11.662329
分類	-11.632190
カップル	-11.621703
妹	-11.446125
辺り	-11.497578
財布	-11.659486
久	-11.316504
真実	-11.625742
送	-10.601470
名称	-11.673174
案件	-11.739888
反省	-11.583862
姉	-11.497024
生地	-11.502098
図る	-11.814632
それとも	-11.508319
キャッシュ	-11.953544
本物	-11.578553
アクション	-11.531991
写	-11.089855
尻	-11.409871
収益	-11.740881
即日	-11.966198
法令	-11.721027
トレ	-11.464172
繋が	-11.589660
アパート	-11.646783
おしゃれ	-11.537841
再開	-11.515974
経由	-11.637253
偽	-11.480587
オーバー	-11.509181
機構	-11.692929
理論	-11.753803
魔法	-11.522807
YouTube	-11.605105
ロボット	-11.772580
通う	-11.710567
当て	-11.267755
眼	-11.276916
消化	-11.703926
底	-11.008204
寄付	-11.712009
任	-11.427667
仙台	-11.693511
マスター	-11.325549
明るい	-11.582145
､	-11.722704
仮に	-11.688157
然	-12.004633
しかしながら	-11.714645
何より	-11.084879
晩	-11.092579
キャンプ	-11.432125
支払う	-11.749874
塗	-11.647317
驚く	-11.682071
概要	-11.508031
困り	-11.572057
だし	-10.479450
直し	-11.414510
マナー	-11.612670
生成	-11.662163
近づい	-11.494887
気づか	-11.582936
不良	-11.460536
生え	-11.706873
だいぶ	-11.479732
大体	-11.583725
冷静	-11.605801
ますます	-12.759689
怪我	-11.591896
勘違い	-11.459295
コンピュータ	-11.673611
回線	-11.755559
単語	-11.718377
ふ	-11.035160
やろ	-13.465183
困る	-11.606391
ケ	-11.184577
税込	-11.591476
甘い	-11.602568
記者	-11.805351
駆	-11.688075
置き	-11.380871
直前	-11.619544
隠し	-11.702255
少なか	-12.076758
義	-11.355230
プレー	-11.681004
たまたま	-11.597621
お祝い	-11.470165
取締役	-12.043275
招	-11.769736
セッション	-11.495867
提携	-11.732156
劇	-11.596536
描く	-11.669203
失っ	-11.986834
月額	-11.734299
バックアップ	-11.550499
囲ま	-11.722499
解放	-11.659362
ック	-12.055184
古く	-11.746111
理事	-11.910996
ポ	-11.100732
d	-8.172406
手作り	-11.519784
まさか	-11.433392
v	-10.039424
繋がり	-11.664815
Apple	-11.797682
愛し	-12.306552
つながっ	-11.945414
ﾉ	-11.296308
歴	-11.238252
盤	-11.215513
看板	-11.656029
怒り	-11.691899
かから	-11.681419
訴え	-11.765768
俳優	-11.786428
気づき	-11.451464
題	-11.161374
ポリシー	-11.589510
祝日	-11.572863
申し	-11.820950
f	-10.330046
貯	-11.691867
移転	-11.698658
分泌	-11.781217
自治体	-11.756233
インフルエンザ	-11.596360
基づく	-11.737656
アルコール	-11.687043
タバコ	-11.713046
受け取る	-11.529159
SIM	-11.794349
跡	-11.229838
データベース	-11.657394
回避	-11.671848
票	-11.510730
天皇	-11.774922
玄関	-11.658995
勝ち	-11.553334
復	-11.257904
パネル	-11.597860
スレ	-11.192195
ワクワク	-11.504798
壊れ	-11.585452
統計	-11.865236
移	-11.489014
復興	-11.817971
ケーブル	-11.602666
巨大	-11.789363
通じ	-11.779655
陸	-11.581682
まち	-11.708253
微	-11.667048
残す	-11.624552
持続	-11.853802
岡山	-11.793557
貼り	-11.517308
署	-11.417182
詐欺	-11.780036
Ｆ	-11.431588
共に	-11.461216
処方	-11.834846
勝利	-11.731564
誘	-11.171158
毒	-11.292855
l	-10.615493
遅い	-11.595991
達し	-12.092138
拡張	-11.709571
保育園	-11.715497
微妙	-11.580935
–	-7.870764
痛く	-11.605982
監視	-11.807494
有り	-11.550360
宮崎	-11.807011
Ｂ	-11.546270
見せる	-11.686551
サイド	-11.475428
育っ	-11.868998
死ぬ	-11.600537
草	-11.125613
少々	-11.609174
仏	-11.720947
必死	-11.564728
庁	-11.404350
泣	-11.586362
胃	-11.865259
長崎	-11.849622
頻度	-11.708988
果たし	-12.362831
栽	-11.814717
原作	-11.727874
同じく	-11.677251
ヒント	-11.635131
本質	-11.752406
レンズ	-11.689398
だからこそ	-11.061021
恩	-11.695944
ならでは	-11.708579
張	-11.397605
ランク	-11.697076
グリーン	-11.566564
膝	-11.727858
出品	-11.669359
おこ	-13.239713
させる	-9.433193
珍しい	-11.683189
貴方	-11.571066
癒	-11.251366
交際	-11.808502
奥さん	-11.650734
メートル	-11.822033
参	-11.404398
合い	-10.925457
随時	-11.461784
係る	-11.856731
方式	-11.871121
宣言	-11.730233
長時間	-11.732758
n	-10.339738
透明	-11.581277
◎	-11.559637
kg	-11.443323
かた	-12.047566
幸	-11.570033
簡	-11.755441
休暇	-11.884968
研究所	-11.776267
供給	-11.893128
フレーム	-11.581556
立ち寄	-12.119235
ソン	-11.714322
豆	-11.490103
つくる	-11.751316
お父さん	-11.576686
FX	-11.600029
パリ	-11.769930
特集	-11.728822
スペイン	-11.823490
歌詞	-11.673389
高等	-13.063564
語る	-11.780523
室内	-11.668791
食生活	-11.793285
限度	-12.013930
過ぎる	-11.617455
遊ぶ	-11.662269
毛穴	-11.987309
文句	-11.537031
触	-11.146082
捜	-11.801483
博物館	-11.849478
乗	-10.826159
飛ん	-11.763865
それに	-10.078588
テクニック	-11.666164
回り	-11.049278
勢い	-11.652735
«	-10.732522
関	-11.557467
おかけ	-11.437496
ボ	-11.353456
あくまでも	-11.673555
人類	-11.863110
x	-9.458100
前半	-11.742114
美味しく	-11.513272
問	-11.249931
ピンク	-11.623880
欠	-11.355964
数々	-11.780202
市販	-11.730971
標	-11.795228
支給	-11.915166
助	-11.572875
ソ	-11.321094
除く	-11.727813
チャット	-11.835814
活発	-11.837950
資源	-11.987424
同僚	-11.778438
乗せ	-11.527550
印	-11.262491
アイ	-11.334209
プログラミング	-11.749360
残さ	-11.756474
医院	-11.823971
カウンター	-11.559627
会長	-11.879355
ホワイト	-11.470657
オーストラリア	-11.737883
苦	-11.563391
生じる	-11.844316
ツイッター	-11.556100
とり	-11.184791
必ずしも	-11.749556
撮る	-11.603924
凄い	-11.485333
見事	-11.703727
切り替え	-11.641872
由来	-11.772674
広がり	-11.766103
じゃあ	-11.465105
作れ	-11.663262
洋服	-11.691535
抽選	-11.624302
招待	-11.720227
洗顔	-11.937721
武器	-11.722098
同社	-12.078534
性質	-11.744069
重い	-11.712094
ホント	-11.473419
温か	-11.673868
知人	-11.789539
陥	-11.582931
歌っ	-12.279493
Ｔ	-11.400979
フェイス	-12.649286
ポート	-11.619180
商店	-11.818368
ダム	-12.585223
年末	-11.483794
USB	-11.830843
起こす	-11.731983
番目	-11.887495
門	-11.189140
ねー	-11.479076
通過	-11.774082
愛情	-11.731276
なさ	-10.818273
岩	-11.651669
揃っ	-12.122131
最悪	-11.706349
容疑	-11.960242
情	-11.420442
新作	-11.600480
深刻	-11.904002
悲	-11.598710
越え	-11.740408
宮城	-11.802159
Yahoo	-12.062472
魂	-11.670880
出展	-11.648587
予報	-11.631550
増し	-12.107773
地下	-11.842827
ハード	-11.683879
ですから	-9.624495
兄	-11.670154
構	-11.672061
真っ	-11.696336
行ける	-11.631415
ラン	-11.177525
決断	-11.828118
集合	-11.683754
焼け	-11.560921
エロ	-11.688001
身長	-11.779237
ぶ	-11.500094
All	-10.896079
のんびり	-11.567122
癒し	-11.753566
ニー	-11.856347
やや	-12.012565
①	-11.440958
IP	-11.111753
再現	-11.738154
贈	-11.923380
正解	-11.723391
排	-11.967405
ポケット	-11.638182
務	-12.001093
向かい	-11.660600
関節	-11.760396
あんまり	-11.484231
取り付け	-11.691007
人事	-12.201834
筆者	-11.893286
覧	-11.873860
お過ごし	-11.489834
培	-11.488660
耐え	-11.691799
相互	-11.800458
マニュアル	-11.647688
思わず	-11.445762
ター	-11.601739
真面目	-11.678217
＠	-11.686706
アル	-11.440854
各国	-11.932335
大学院	-11.769107
マウス	-11.679222
概念	-11.855597
▼	-11.698096
マシン	-11.690488
興奮	-11.658190
憧れ	-11.785034
過剰	-11.811882
上映	-11.807684
有利	-11.830564
トランプ	-11.986044
カテゴリ	-11.454115
No	-9.707233
サークル	-11.664953
貧	-11.911846
折	-11.336328
ロゴ	-11.753751
兄弟	-11.799078
お礼	-11.562565
回転	-11.783783
実力	-11.730619
笑い	-11.367157
およそ	-11.887202
輝	-11.631228
膜	-11.953409
触れる	-11.789640
済ませ	-11.716461
本書	-12.020562
具	-11.290548
残業	-11.979193
堪能	-11.686966
関数	-11.814150
栄養素	-11.878148
向こう	-11.623538
べく	-11.936173
ット	-11.897912
鹿児島	-11.890818
激しい	-11.799117
制御	-11.902701
象	-11.575902
ヒ	-11.257379
ニューヨーク	-11.893574
連休	-11.655024
付属	-11.686870
iPad	-11.797629
隠れ	-11.725189
取り扱	-11.739235
蓄	-11.606565
齢	-11.984930
ゲット	-11.531224
レーザー	-11.913325
渡	-11.251571
自立	-11.906704
陣	-11.630651
実装	-11.729980
待た	-11.636521
立地	-11.884319
どっち	-11.549277
ハワイ	-11.827549
列車	-11.953273
っぽい	-11.534019
絵本	-11.834996
軒	-11.950881
郵送	-11.717496
過言	-11.695392
心臓	-11.903861
ターゲット	-11.807392
英会話	-11.846236
住み	-11.971064
pic	-11.932447
留	-11.800312
扱う	-11.869730
解析	-11.917548
)　	-11.649557
消し	-11.937276
泣き	-11.630055
論文	-11.937720
マンガ	-11.878290
買い取	-12.300439
異性	-11.926872
成人	-11.838776
いったい	-11.662706
復帰	-11.805367
楽器	-11.770159
押す	-11.638141
無効	-11.701278
終わら	-11.715321
馬鹿	-11.541856
GB	-11.418749
教材	-11.827258
疑い	-11.902554
介	-11.347527
しろ	-11.863428
伸ばし	-11.915564
特性	-11.865731
引用	-11.832447
雲	-11.483096
美味し	-11.247177
追求	-11.842205
充分	-11.756272
イエス	-12.070279
スイッチ	-11.602398
添付	-11.716264
ing	-7.265403
講義	-11.900243
確立	-11.931802
疑	-11.316548
乱	-11.454968
キリスト	-12.591088
接種	-11.915714
済む	-11.851545
生まれる	-11.795195
モニター	-11.750395
借入	-12.146203
代行	-11.867948
お断り	-11.618347
帰国	-11.849878
透	-11.689670
布	-11.187605
魔	-11.642117
個々	-11.908434
順位	-11.802548
ひどい	-11.747715
漏れ	-11.748040
守り	-11.386905
殆ど	-11.782327
Mac	-11.831365
着用	-11.767445
脇	-11.753151
ログ	-11.682823
読書	-11.861244
振	-11.594842
振り	-11.511322
戦闘	-11.791969
一致	-11.877920
受け取	-12.137402
役員	-11.901616
極めて	-11.904890
アウト	-11.545733
否	-11.559536
雑	-11.615908
陽	-11.441809
手伝い	-12.905620
不便	-11.697804
総会	-11.810130
｡	-11.653007
買え	-11.701274
臓	-11.755934
おかしく	-11.597165
要件	-11.943304
呼ぶ	-11.814174
生かし	-12.091249
収穫	-11.799208
よれ	-12.130687
勤め	-11.869727
親し	-12.000002
揃え	-11.765761
ドライバー	-11.808531
果	-11.741044
あえて	-11.759146
里	-11.210487
表し	-12.504050
宅配	-11.858557
Z	-10.713964
あら	-11.817208
路線	-11.938237
バラ	-11.668571
マッチ	-11.713136
隠	-11.558467
振り返	-11.721205
リクエスト	-11.604517
読め	-11.736857
エンジニア	-11.854484
発想	-11.885358
下げ	-11.671476
くに	-11.815189
兵	-11.467632
当選	-11.789159
芝	-11.757487
無線	-11.853494
装備	-11.742081
夕食	-11.746911
能	-11.421908
厳	-11.660110
ジム	-11.757404
闇	-11.655188
手続	-12.074410
冷え	-11.768802
運命	-11.819153
出店	-11.741739
あっという間に	-11.581198
なくなる	-10.266765
銀座	-11.866809
静	-11.378618
摂	-11.910995
偶然	-11.768712
ピ	-11.254286
債権	-12.196187
スペシャル	-11.601715
エピソード	-11.776359
立派	-11.748182
タオル	-11.823417
国会	-12.043179
ナンバー	-11.854185
すみません	-11.444541
才能	-11.890059
居る	-11.637043
にあたり	-11.774916
電池	-11.883840
正規	-11.934366
大分	-11.899766
穏やか	-11.733576
控除	-12.078766
見方	-11.965486
選べ	-11.799663
定番	-11.836830
Ｃ	-11.638703
山口	-11.904174
ニュー	-11.643772
ブース	-11.717815
首都	-11.967643
中学校	-11.779436
繊維	-11.967072
通し	-12.095453
出荷	-11.859205
在宅	-12.043039
どなた	-11.577233
がんばっ	-11.869626
最低限	-11.724303
在籍	-11.996933
実態	-12.008035
粋	-11.855013
ジャ	-11.626197
富	-11.812364
工	-11.497908
伝説	-11.811463
形態	-11.976519
体感	-11.663826
ベトナム	-12.030471
保持	-11.917269
還	-11.644032
失わ	-12.206999
都内	-11.915955
開放	-11.825462
転換	-11.903615
葬儀	-12.060466
田舎	-11.792690
習得	-11.879019
やりとり	-11.829272
プレ	-11.495932
牲	-11.940011
買わ	-11.798053
軸	-11.777593
照	-11.642749
OFF	-11.560250
補給	-11.882820
岐阜	-11.941376
飲ま	-11.968493
金曜日	-11.721649
時刻	-11.789865
稼ぎ	-11.787348
お手数	-11.543442
ふた	-12.588334
確信	-11.841708
上限	-11.972119
メモリ	-11.846123
奇	-11.387099
後日	-11.466707
金銭	-11.951680
あんな	-11.648039
モチベーション	-11.771537
らし	-11.588940
登記	-12.156750
緩和	-12.013838
故障	-11.855255
満た	-11.419257
違法	-11.950526
更	-11.806901
もはや	-11.852948
通い	-11.933830
竹	-11.825170
持参	-11.722499
思	-9.138516
有無	-11.909941
レス	-11.132083
茨城	-11.929164
アレンジ	-11.673881
納	-11.379962
リン	-11.439943
プラグ	-13.276474
マーケット	-11.525206
フォルダ	-11.650821
宝	-11.257596
映	-11.791451
イヤ	-12.050157
礼	-11.506346
岡	-11.694127
家電	-11.923789
龍	-11.819682
シャワー	-11.816651
カスタマイズ	-11.719616
坂	-11.501961
厳しく	-11.888457
冷蔵庫	-11.791254
鍛え	-11.881922
紅葉	-11.849841
やす	-11.935122
孤	-11.994522
トップページ	-11.537979
短く	-11.809455
網	-11.888139
悲しい	-11.730902
アリ	-11.692296
ウド	-15.116976
統一	-11.944883
カップ	-11.603156
ピッタリ	-11.790362
シー	-11.392172
博士	-12.010702
ウェブ	-11.838091
球	-11.409313
フロント	-11.743862
ビックリ	-11.710557
爆発	-11.913771
椅子	-11.592722
望ん	-12.378283
リゾート	-11.741672
務め	-12.027109
失礼	-11.680945
当たる	-11.979992
統合	-12.002445
廃棄	-12.098920
整形	-11.984553
スキー	-11.702183
減らし	-12.130777
告知	-11.756418
衣装	-11.816182
株主	-12.092642
混乱	-11.905355
潤	-11.905789
づらい	-11.782482
著者	-12.054943
ール	-12.145369
肉体	-11.953308
年末年始	-11.634075
吉	-11.362712
選手権	-11.749089
資本	-12.086986
進学	-12.071876
美術	-12.141364
美人	-11.862633
善	-11.274245
けっこう	-11.844166
入浴	-11.998307
出せ	-11.713354
麺	-11.865489
確かめ	-11.801203
だけど	-9.486975
リズム	-11.710584
美しく	-11.864156
方面	-11.759494
医薬品	-12.113579
先行	-11.908035
現時点	-11.849171
リア	-11.566555
集まる	-11.907236
指し	-12.185534
排出	-12.064248
やれ	-11.841623
絞	-11.893742
主演	-11.978256
洋	-11.782063
イライラ	-11.784571
自殺	-12.009707
チャンネル	-11.762757
不快	-11.850706
Ｍ	-11.663831
並べ	-11.840093
望む	-11.918522
プレミアム	-11.722926
支障	-11.920040
カレンダー	-11.680789
悩む	-11.869170
くだ	-13.266137
勿論	-11.851554
まとも	-11.857340
内側	-11.809060
プリント	-11.839280
臭	-11.592005
聴く	-11.822182
インテリア	-11.821614
気がつ	-11.600707
議会	-12.049918
ボリューム	-11.756912
弟	-11.802736
決意	-11.935652
もつ	-11.802890
爪	-11.977544
強力	-11.909527
デザイナー	-11.828138
遠慮	-11.721653
服装	-11.867802
アダルト	-12.021467
ふう	-11.859069
合わせる	-11.714502
したがって	-11.755186
帳	-11.631695
烈	-11.949076
吸	-11.917797
役に立つ	-11.859128
センス	-12.009238
調達	-12.064720
露	-11.617928
起こ	-11.079428
壊	-11.653365
立てる	-12.139001
k	-9.735834
幾	-11.938253
地上	-12.022545
都道府県	-12.036347
ライセンス	-11.933609
狭い	-11.919740
実に	-11.340272
汁	-11.536073
opyright	-15.152210
トレード	-11.817871
連合	-12.033713
詰ま	-11.818026
バスト	-12.743045
ギター	-11.848113
渡っ	-12.549815
氏名	-11.912339
戻し	-12.210969
深め	-11.980775
②	-11.557102
ぼ	-11.733001
臨床	-12.117535
騒	-11.754371
ベ	-11.353952
カナダ	-12.016944
かしら	-11.178656
描き	-11.707650
至っ	-12.284162
登山	-11.970257
縦	-11.907239
気候	-12.138069
替	-11.955209
出勤	-11.886124
←	-11.246575
籍	-12.016429
喫煙	-12.085359
AI	-11.788044
才	-11.840408
細かく	-11.856749
有する	-12.056335
クリーニング	-11.868151
震災	-12.046209
行え	-11.897993
聴き	-11.843020
合意	-12.159946
心地	-11.206431
送付	-11.850283
在住	-11.901471
砂	-11.925246
援助	-12.114744
完	-11.942248
男の子	-11.832684
含ん	-12.803430
突	-11.587319
補償	-12.100801
薄く	-11.891718
敬	-11.317689
つくり	-11.877292
褒め	-11.856896
↑	-11.596971
ゆう	-11.806389
職種	-12.120756
徴	-11.936958
芸能	-11.944748
樹	-11.388727
フェア	-11.701987
鬼	-11.735227
満たし	-12.722635
財団	-12.043107
目線	-11.913318
駅前	-11.797225
ビッグ	-11.847111
広場	-11.953123
障	-11.806566
モテ	-11.899529
タブ	-11.784417
だら	-12.083465
ペ	-11.414882
棚	-11.792100
生き方	-11.926859
水道	-12.056530
営	-11.609711
本番	-11.850779
予告	-11.715613
豊	-11.770764
伴	-11.981261
秀	-12.050456
デモ	-11.950618
定員	-11.774416
匂い	-11.911664
抜き	-11.474059
拝見	-11.708808
接し	-12.450071
分解	-11.977703
済	-11.326276
意欲	-12.054363
勢	-11.791110
恥ずかしい	-11.772261
サブ	-11.876626
投げ	-11.828374
廃止	-12.063118
設	-11.808597
詰め	-11.830211
狭	-11.948147
ディング	-11.983638
尊重	-12.024397
握	-11.864917
硬	-11.948674
める	-11.345700
ブーム	-12.058678
新幹線	-11.857009
羽	-11.746779
イオン	-11.866318
繋がる	-11.930760
景	-11.846808
用語	-11.886854
面積	-12.168365
燃	-11.909426
豪華	-11.898189
チラシ	-11.833817
話せ	-12.208003
プレス	-11.690939
連載	-12.036251
畑	-11.693773
刊	-12.054294
盛り上が	-11.713041
経費	-12.073264
但し	-11.875379
ごはん	-11.814150
寒く	-11.646680
ぜ	-11.630779
立つ	-11.801185
月曜日	-11.778645
刻	-11.492508
ヵ	-11.984630
兆	-12.070496
寿命	-11.990983
フィールド	-11.771841
試み	-12.017045
個室	-12.023056
交付	-12.142555
外し	-12.747509
オシャレ	-11.830063
グレード	-11.800273
部位	-12.051874
太陽光	-12.080832
飲み物	-11.869757
扉	-11.891593
酸化	-12.020230
ジャパン	-11.473557
党	-11.808637
津	-11.808044
きり	-11.791195
猛	-11.908910
大戦	-12.059033
知的	-12.101164
欧米	-12.114519
助成	-12.084016
心身	-12.033833
新築	-12.006950
池	-11.801781
貯め	-11.915152
al	-8.954470
防災	-12.158122
覆	-11.939698
ダー	-12.008362
フィリピン	-12.037672
リアルタイム	-11.890728
ロー	-11.410842
PS	-11.018220
替え	-11.644809
面白く	-11.849304
応用	-12.033014
たまに	-10.976401
政	-11.844298
コート	-11.745229
大い	-11.995871
金属	-12.023853
ポスト	-11.820245
湖	-11.836426
プレゼン	-12.004200
珍しく	-11.989152
掃	-12.104792
人形	-11.970648
故	-12.080188
推測	-12.002965
支配	-12.168102
ススメ	-11.812945
チーズ	-11.801467
同時	-11.881504
こども	-11.881921
教員	-12.219118
ダブル	-11.775436
センチ	-11.970582
とれ	-12.058185
集める	-11.976508
属	-11.244366
覚える	-11.974720
ちゃい	-10.751954
崩れ	-11.795846
強調	-12.086352
判	-11.822408
割り	-11.965730
理念	-12.174908
思想	-12.157870
止	-11.629581
チョコレート	-11.849193
欲し	-11.770514
メイド	-12.867471
経緯	-11.955715
ディスプレイ	-11.882230
楽曲	-12.011524
セル	-11.810430
おもちゃ	-11.896572
ねえ	-11.729241
植え	-11.794043
告白	-11.969153
譲渡	-12.114967
閉じ	-11.881794
ミネラル	-11.959656
テロ	-12.158743
あちこち	-11.879346
演技	-11.963130
弁	-11.635682
選定	-12.106411
ナー	-11.970147
沿い	-11.884750
執行	-12.215988
進出	-12.133484
科目	-12.278601
民族	-12.149101
商業	-12.133192
教える	-11.956818
いじめ	-12.065739
ギ	-11.621419
ツイート	-11.912758
本部	-12.162683
業種	-12.165864
妙	-11.391188
テンプレート	-11.853351
デフォルト	-11.824997
につき	-11.287809
取扱	-11.980138
ワールド	-11.578757
信仰	-12.236389
指輪	-12.130738
片付け	-11.864359
遠い	-11.907671
除去	-12.044754
ほ	-11.612593
癖	-11.687541
初日	-11.902039
トレンド	-11.953458
順調	-11.923620
遺言	-12.341628
した	-6.554945
主体	-12.182072
有難う	-11.679862
ピックアップ	-11.840960
称	-11.706610
取扱い	-11.947865
意志	-12.031597
走	-11.205747
生涯	-12.051412
しよう	-9.316567
シュ	-11.434480
こだわっ	-11.891161
鑑賞	-11.987678
払う	-11.985402
尾	-11.506137
久々	-11.755776
点検	-12.044854
《	-11.991345
ついで	-11.898310
寿司	-12.042855
配達	-11.989693
偶	-12.087911
糸	-11.781165
ホット	-11.936520
出口	-11.890362
とこ	-11.639368
復旧	-12.009986
ブラ	-11.698600
形状	-12.018836
用紙	-11.843689
贅沢	-11.891357
家賃	-12.186531
作れる	-11.849819
Ｓ	-11.582478
基地	-12.157462
不安定	-11.962459
交	-11.518601
まい	-11.999397
日付	-11.607071
フォト	-11.760775
クロ	-11.708607
香	-11.423724
iOS	-12.138283
殺し	-12.160694
誘導	-12.049859
The	-8.847156
》	-11.999649
現れる	-12.016932
損失	-12.151926
味わい	-11.888535
彩	-11.550554
タイヤ	-11.931878
無し	-11.350426
あい	-11.672105
梅	-11.965779
浴び	-11.945772
締結	-12.121152
Ｄ	-11.671789
ハッピー	-12.140618
高まり	-12.088052
モンスター	-11.808189
ヘッド	-11.878040
取れる	-11.868297
命令	-12.109427
巻き	-12.006249
単なる	-12.078693
スープ	-11.887599
厳選	-11.957932
薬局	-12.188404
条例	-12.265643
訂正	-12.047593
接客	-12.007634
自慢	-11.920247
不可	-11.919563
訴訟	-12.251173
ロンドン	-12.107798
ライフスタイル	-11.973443
気付	-11.846896
決	-11.782048
履	-11.955558
エコ	-11.977391
ポケモン	-11.955551
スッキリ	-11.837677
おはよう	-11.853643
広がる	-12.041897
整える	-11.964116
お出かけ	-11.779882
陰	-11.956781
救急	-12.130543
納税	-12.121541
民主	-12.248756
基盤	-12.206297
山形	-12.142179
打ち合わせ	-11.873843
衣	-11.788396
ハンド	-12.212395
抑制	-12.140947
除き	-11.942927
お答え	-11.751569
キーボード	-11.905836
ども	-11.701448
押さえ	-11.923266
決算	-12.109253
巡	-11.998420
役に立	-11.693174
スーツ	-11.918329
ation	-9.350403
ップ	-12.594062
突破	-12.008164
受け取り	-11.952862
次元	-12.135897
暮らす	-12.064732
コレクション	-11.728900
借り入れ	-12.335083
ビーチ	-11.956945
熱い	-11.979502
ゲ	-11.779080
ポスター	-11.953744
‥	-12.341783
苦し	-11.757629
議	-12.196015
侵害	-12.145229
孫	-11.861858
重大	-12.099387
度目	-12.324398
それにしても	-11.865017
占め	-12.082157
キス	-11.842124
入り口	-11.870565
勝負	-11.962002
or	-8.974524
晶	-12.064925
ペン	-11.650693
プラント	-14.249756
銃	-12.008494
満喫	-11.950626
コラボ	-11.835423
鍋	-11.838493
話しかけ	-11.981798
すっきり	-11.934118
机	-12.008843
抜群	-11.977736
光景	-11.992543
仕	-11.808945
脂	-12.113203
新人	-12.043712
合理	-12.138228
カジノ	-12.229935
しい	-11.632880
会見	-12.191607
無くな	-12.232031
法的	-12.105546
川崎	-12.074307
乗り越え	-11.953990
PR	-11.466127
net	-10.464390
転送	-12.032512
粒	-11.918090
却	-11.940381
ギャラリー	-11.810960
強み	-12.149139
フルーツ	-11.953518
に従って	-11.805516
オブジェクト	-11.989829
喜ば	-11.966284
永久	-12.032597
独身	-12.098011
お気	-11.496690
傷つけ	-12.088100
商標	-12.290805
すなわち	-12.236283
切る	-11.783639
ドキドキ	-11.838278
振興	-12.089328
行なう	-12.198952
録音	-12.105116
何卒	-11.742579
っこ	-11.755606
流通	-12.176791
暴力	-12.174944
後で	-11.484708
Reserved	-11.400138
キャンパス	-11.956499
ビー	-11.971595
まつり	-11.946275
買える	-11.951575
植	-12.131843
しく	-11.512549
なにか	-11.567423
税理士	-12.175291
稼働	-12.142694
トン	-11.586363
仲介	-12.210288
筆	-11.528353
定着	-12.119907
殺人	-12.148662
快	-11.447728
リハビリ	-12.085415
まわり	-11.695769
血管	-12.137491
書店	-12.002549
なるほど	-11.372549
循環	-12.155773
青年	-12.157007
族	-11.827970
冒険	-11.991170
乱れ	-12.131287
幸福	-12.114098
克服	-12.182165
従事	-12.200362
秋田	-12.162014
倒れ	-11.944634
青森	-12.191700
認める	-12.112880
賃金	-12.346537
ゆく	-11.871972
信号	-12.051994
旬	-11.868035
カタログ	-11.896287
Rights	-15.326905
特許	-12.360864
学科	-12.157163
照明	-12.126768
倒	-11.435231
どうにか	-12.025064
当事者	-12.211261
作り方	-11.932193
香港	-12.185057
つらい	-12.048602
酔	-12.148584
着け	-12.085615
当たっ	-12.262445
繰り返す	-12.037152
導	-11.906561
運行	-12.133481
負い	-12.003625
奪	-11.777206
預かり	-11.947215
語り	-12.004598
提	-12.083699
ティー	-11.406634
運び	-11.655662
不調	-12.045949
書け	-11.904495
ワード	-11.796801
人権	-12.335832
web	-11.596282
もたらす	-12.176888
黄色	-11.952828
愛する	-12.048080
塗り	-12.011773
持	-9.853542
あけ	-11.779819
詩	-11.982733
テーション	-12.034213
居住	-12.265594
判決	-12.334783
ユニット	-12.037028
乗車	-12.062629
一環	-12.168620
マラソン	-11.919093
均	-12.105110
手帳	-12.082421
工程	-12.136759
はるか	-12.099717
じゃん	-11.725102
励	-11.706583
正当	-12.107842
中華	-12.051825
マネジメント	-11.980557
継	-11.959785
銀	-12.003529
張り	-11.748996
育てる	-12.091995
水準	-12.240671
持て	-12.083213
原子力	-12.334795
クッキー	-12.117240
頼り	-12.037185
示	-11.304301
預金	-12.471944
預け	-11.985851
パーティ	-11.902371
数学	-12.277339
予	-11.894356
ソーシャル	-12.171383
慰謝	-12.325931
世帯	-12.383801
下手	-11.950290
一旦	-11.990766
エージェント	-12.054209
通る	-12.055757
汚染	-12.322427
スタンプ	-11.973160
姫	-11.812549
Java	-12.186079
辛	-11.926388
幅広く	-12.089007
明記	-11.985244
林	-11.556111
懸念	-12.280297
安価	-12.119032
伝わ	-11.917505
戦後	-12.189300
役立ち	-12.019288
工業	-11.943838
不妊	-12.242214
テニス	-11.984731
ウォーター	-11.958930
ける	-11.436474
論理	-12.175917
華	-11.787870
ション	-11.989814
内閣	-12.297136
総額	-12.201124
オレ	-11.824802
リビング	-11.978608
希	-11.914967
乗り換え	-12.122074
見つめ	-11.983113
ファ	-11.441490
最中	-11.941226
だれ	-12.043535
ストレッチ	-12.022644
巻き込ま	-12.098620
️	-11.624994
もったいない	-11.923634
又	-11.976354
にわたって	-12.170319
経ち	-11.949024
切	-11.416075
冒頭	-12.098937
対戦	-12.006175
近代	-12.289547
落ちる	-11.972555
業績	-12.222724
天井	-12.118688
だらけ	-11.930658
教科書	-12.185065
過ごせ	-11.868913
見つかる	-12.014599
誇り	-12.117253
不幸	-12.061594
遊	-11.440434
手配	-12.106241
セブン	-11.867537
味方	-12.012539
支える	-12.201925
学園	-11.969099
出会える	-12.132357
学部	-12.066597
サラリーマン	-12.055277
打っ	-12.523694
寂しい	-11.925865
よし	-12.067017
群馬	-12.131677
宅	-11.778526
集客	-12.094976
パーク	-11.630433
マイル	-12.195996
マスコミ	-12.076317
プラットフォーム	-12.216890
薄い	-12.062177
布団	-11.909758
満たす	-12.100294
削	-11.862029
正社員	-12.212370
￣	-12.448200
アクセサリー	-11.871837
さっき	-11.828726
コス	-12.354831
見破	-13.678797
郎	-12.001205
ゴールド	-11.875206
THE	-12.182326
ポジション	-12.045723
裁	-11.754560
火災	-12.301890
さら	-11.528096
レジ	-11.972294
レコード	-12.004935
メソッド	-12.015010
レイ	-11.601962
側面	-12.209591
仕入れ	-12.040903
労働省	-12.192216
先進	-12.294323
もち	-12.143741
組ん	-12.661104
財	-12.080147
犯人	-12.087622
こも	-12.226041
雑貨	-12.027167
名刺	-12.208364
会え	-11.962841
美味しか	-12.816495
協	-11.619862
ばあちゃん	-11.935504
ed	-7.355482
自主	-12.213284
—	-8.533863
´･	-11.619889
権限	-12.179716
軍事	-12.361631
出会え	-12.063266
落とす	-12.006203
濃い	-12.042668
監査	-12.570790
的確	-12.152543
演じ	-12.265146
塞	-12.347195
満ち	-12.093627
高ま	-12.180461
ずいぶん	-11.989810
大人気	-12.054524
崩壊	-12.207035
リサイクル	-12.158068
同期	-12.091802
恒例	-11.954615
現役	-12.151056
古代	-12.295234
実務	-12.240157
放	-11.503033
遺伝子	-12.314979
ディスク	-11.951153
ヌ	-11.955639
引き出し	-12.120497
学者	-12.276954
咲い	-12.338372
選考	-12.142354
ともかく	-12.043261
見積り	-12.082001
売れる	-12.103723
掲げ	-12.271782
京	-11.702324
梅雨	-12.020465
とんでも	-11.961006
影	-11.675447
離	-11.717519
クルマ	-12.210878
広報	-12.188466
ぶっ	-12.090743
怒	-11.722374
施	-12.000535
漢字	-12.172912
蔵	-11.662071
構い	-11.891295
競馬	-12.456790
注射	-12.244259
応	-11.915523
コール	-11.875797
全額	-12.084311
ゆ	-11.869941
季	-11.992006
婦	-12.106522
会える	-12.128816
移住	-12.272011
SEO	-12.205215
もたらし	-12.478069
スクリーン	-11.879319
灯	-11.992450
作曲	-12.216299
消防	-12.302278
器具	-12.153071
尽くし	-12.268509
コンパクト	-12.019715
お陰	-11.964226
地位	-12.239243
藤	-11.558208
着る	-12.102704
江	-11.644273
収め	-12.200203
ンス	-12.005662
実習	-12.290740
慢	-12.020966
洗浄	-12.206275
ホッ	-11.993852
稀	-12.189169
見守	-12.135875
脈	-11.994292
劣化	-12.159288
ハードル	-12.186444
石川	-12.137617
挿入	-12.036349
盆	-11.771745
検	-12.247213
行える	-12.231183
課金	-12.187265
聞け	-12.023533
シャ	-11.484385
テープ	-11.987981
爆	-11.722990
三重	-12.149837
侵入	-12.278466
中国人	-12.215736
身分	-12.174254
添え	-11.817018
出現	-12.208271
甲	-12.077256
富山	-12.281957
追わ	-12.606467
アフリカ	-12.298048
アイコ	-15.846595
合成	-12.186844
FAX	-11.889536
高知	-12.315855
採	-12.220318
放っ	-12.737261
分間	-12.129619
上場	-12.345654
もうすぐ	-11.942157
滋賀	-12.202675
福井	-12.266312
オー	-11.695916
来院	-12.072911
奇跡	-12.106113
モール	-11.894242
ch	-10.398920
必	-12.225658
止める	-12.066660
怒ら	-12.459604
併せ	-12.093074
月末	-11.339849
受	-11.916585
読める	-12.147948
署名	-12.285975
外れ	-11.915257
柱	-11.819453
射	-11.696146
泉	-11.629306
思い切	-12.136320
岩手	-12.217357
だめ	-11.958397
飛ば	-11.934112
やがて	-12.235328
某	-12.077854
目立つ	-12.164632
困	-11.342562
薬剤師	-12.361149
復元	-12.315917
韓	-12.301017
キャスト	-11.996477
公務員	-12.332727
ターン	-12.024760
ボーナス	-12.139845
革命	-12.374758
j	-10.398994
ボク	-11.973052
浮か	-12.046105
ローカル	-12.043404
グルメ	-12.064277
マルチ	-12.079770
利点	-12.239762
気づく	-12.081013
インター	-12.460729
しょうが	-10.851321
動向	-12.202944
触っ	-12.618004
及ぼす	-12.267148
引退	-12.146520
芸	-11.605485
給付	-12.420967
飛行	-12.312460
名義	-12.257875
表す	-12.161884
HTML	-12.145363
株価	-12.293100
減り	-12.109341
排除	-12.229790
ミッション	-12.000842
ビザ	-12.329807
係	-12.197479
短縮	-12.158856
掲げる	-12.276707
ひどく	-12.132937
溜ま	-12.085757
氷	-12.116268
つくっ	-12.514708
to	-9.320410
付与	-12.173819
ネガティブ	-12.103479
申し出	-12.123604
積み重ね	-12.187986
回し	-12.080569
銘柄	-12.268040
真似	-12.064549
グラフ	-12.084022
禁煙	-12.271036
戻す	-12.074521
重ねる	-12.123147
サクラ	-12.208611
ゾーン	-12.093779
ッシュ	-12.597752
欧州	-12.438369
リーズナブル	-12.119025
っけ	-11.985779
よって	-11.792500
シフト	-12.179842
流れる	-12.154072
恵	-11.875557
ノー	-11.904218
小型	-12.219993
恐らく	-12.078794
偉	-12.103109
警戒	-12.209280
うる	-11.998510
黙	-11.851216
財政	-12.481458
鮮	-11.929241
コンサルタント	-12.224318
して	-5.678587
中間	-12.268425
埋め	-12.194508
というのも	-11.162587
防衛	-12.309157
お家	-11.982319
トライ	-12.021096
冷たい	-12.072978
冷	-12.051196
よー	-11.882309
しばしば	-12.257483
に関しまして	-12.006222
難し	-11.936330
デン	-12.260743
暖かい	-11.987584
各社	-12.231541
至	-11.739024
オレンジ	-11.999243
祈り	-11.392131
警告	-12.179934
施策	-12.412354
到達	-12.215584
イチ	-12.056818
LAN	-11.589256
献	-12.337775
格好	-12.067158
カッコ	-12.019307
あきらめ	-12.070865
果たして	-11.683269
インチ	-12.183205
サー	-11.639865
言い方	-12.099706
欲しく	-11.992601
乾	-12.194099
真ん中	-12.047282
取	-10.848274
保守	-12.314896
味わ	-12.072053
気付か	-12.074483
オン	-11.468159
因	-11.941307
余り	-12.178633
運ぶ	-12.156184
携わ	-12.271763
良好	-12.239768
メルマガ	-12.019099
旅館	-12.189800
ついつい	-12.063143
こり	-11.778583
例え	-12.151441
全般	-12.176687
荒れ	-11.650561
見かける	-12.158713
衆	-11.830442
こんばん	-12.154364
コレ	-11.868401
日曜	-12.075701
凄く	-11.955735
総理	-12.336257
稼げる	-12.110359
儀	-12.096023
ジュース	-12.049798
小遣い	-12.234825
うん	-11.612256
ものすごく	-12.066446
どうせ	-12.027968
自衛隊	-12.341447
改良	-12.221828
皿	-11.948219
わが	-12.148262
of	-10.215159
索	-12.301903
決勝	-12.169272
信託	-12.400728
z	-9.871307
飾り	-12.100664
矢	-12.048339
マスク	-12.054508
市長	-12.335732
付く	-12.149833
燃料	-12.411002
手伝	-12.138478
the	-9.637251
誇る	-12.274186
こま	-12.742599
見込み	-12.298369
録画	-12.166387
仏教	-12.452768
攻略	-12.069532
盛り上げ	-12.094232
ordPress	-12.521793
宗	-12.011041
体温	-12.309181
慌て	-12.108424
フィルム	-12.153888
タンパク質	-12.318362
予備	-12.237278
遵守	-12.250701
興味深い	-12.159451
KB	-11.575097
べ	-11.678489
求	-11.901690
Ｈ	-11.894876
がら	-12.137235
栃木	-12.280351
膨大	-12.353011
さくら	-12.081445
観る	-12.140007
加盟	-12.372850
ックス	-12.405857
リード	-12.071056
意義	-11.644630
鎌倉	-12.362785
整体	-12.167663
さり	-12.997389
語ら	-13.376371
一同	-11.575442
馴染み	-12.182328
タワー	-11.872220
答える	-12.139998
いつの間にか	-12.024126
アマゾン	-12.117679
ディズニー	-12.052118
観測	-12.436368
マル	-11.986080
UP	-11.503555
何となく	-12.104676
シンガポール	-12.257360
売り上げ	-12.227704
判定	-12.243368
やりがい	-12.264426
ゆえ	-12.855468
要請	-12.373921
引き起こ	-12.291431
紛失	-12.238570
用いる	-12.360635
ホスト	-12.170798
ショート	-12.031534
性別	-12.246583
沈	-12.084964
本音	-12.191698
会館	-12.120622
おお	-12.263038
タスク	-12.199566
狙い	-12.275893
ヶ	-12.033376
メジャー	-12.199427
展望	-12.241096
ファミリー	-11.998688
和歌山	-12.282007
大抵	-12.133380
ドラゴン	-12.261737
le	-9.798121
文化財	-12.398881
報じ	-12.380021
盛り上がり	-12.118356
枝	-11.995209
受注	-12.177068
一貫	-12.317267
承諾	-12.265653
進歩	-12.310104
ローマ	-12.371878
芸能人	-12.167568
昇	-12.314996
友だち	-12.183971
輩	-11.944488
手当	-12.365579
習	-11.723747
苦しい	-11.975065
劣	-12.033138
チャート	-12.200314
ファースト	-12.075410
チョコ	-12.059782
学年	-12.110756
重量	-12.334806
徒	-12.504697
らお	-11.761934
半ば	-12.267804
生き物	-12.206992
市町村	-12.412424
黒い	-12.120034
キット	-12.019194
割れ	-12.143827
震	-12.344278
都会	-12.231627
タッチ	-11.916941
出かける	-12.161487
ラブ	-11.908331
遭遇	-12.195207
なんとも	-12.046306
伝わる	-12.208805
放棄	-12.336677
夜間	-12.299206
気味	-12.103111
幕	-11.986882
長男	-12.225944
サイクル	-12.192197
セルフ	-12.122349
下げる	-12.174997
歌手	-12.285112
合同	-12.204240
延	-12.130765
外観	-12.227454
滑	-11.904820
解体	-12.373573
入試	-12.296285
柔らか	-12.176745
棟	-11.962521
シン	-11.643162
ED	-10.463557
見積	-12.341630
見解	-12.333915
ごめんなさい	-11.901240
パスポート	-12.205479
貿易	-12.522518
右側	-12.108359
殿	-12.109917
法則	-12.266589
如何	-12.176177
Re	-10.748610
日数	-12.310332
併用	-12.179538
組み	-12.297327
フィ	-11.602053
温暖	-12.400428
条約	-12.615991
降	-11.721239
親戚	-12.204323
苦痛	-12.295570
合併	-12.436147
随分	-12.152304
クレジット	-12.256475
備	-12.053269
en	-9.936196
舌	-12.162975
Pro	-11.415166
越	-11.791725
レンジ	-12.038752
トータル	-12.209806
受け止め	-12.217378
ひたすら	-12.183166
緩	-12.228466
最短	-12.272183
飛	-11.929834
滞	-12.179382
執筆	-12.299934
ラスト	-12.071460
ﾝ	-12.065939
上下	-12.228588
徳	-11.886625
過ごせる	-12.133083
謝罪	-12.266855
出逢	-12.323496
濡れ	-12.105783
メガネ	-12.272301
ラップ	-12.675200
責め	-12.206259
本文	-12.213211
領	-11.889772
豚	-12.187754
暖かく	-11.998392
開ける	-12.106902
うどん	-12.182066
追い	-12.246116
規格	-12.377258
学術	-12.319473
著	-12.137759
問い	-12.299250
ジャンプ	-12.026975
全面	-12.284468
潰	-12.159546
演	-11.958449
待機	-12.253228
カート	-12.048130
課程	-12.376752
妄想	-12.094320
モン	-11.830180
センサー	-12.300715
迷い	-12.215110
優し	-12.211207
工作	-12.242448
飛び	-12.061787
表明	-12.360253
温め	-12.239972
ハート	-12.085080
ウィンドウ	-11.980443
ジョン	-12.092241
瀬	-11.977791
鶏	-12.237230
歪	-12.270113
想	-12.051507
勢力	-12.426226
汚	-12.272992
フォーラム	-12.167931
コンピューター	-12.339086
盛	-11.693188
コチラ	-11.947384
叶	-12.239099
座席	-12.283901
行方	-12.298068
クロス	-11.879680
html	-11.406674
役立て	-12.339646
インフラ	-12.460201
課税	-12.527928
絆	-12.288105
テクノロジー	-12.282680
ワクチン	-12.340824
駄目	-12.103836
キープ	-12.210910
税務	-12.405324
゜	-12.648248
さっそ	-12.060309
知能	-12.431675
成り立	-12.286717
適応	-12.365354
ード	-12.499123
フィギュア	-12.083719
メトロ	-12.136585
宴	-11.832749
ペア	-12.117054
加速	-12.380020
評	-11.936588
マー	-11.907584
従	-12.126405
通報	-12.325741
マジ	-11.939094
トロ	-12.262757
閉鎖	-12.261181
いかなる	-12.375390
ふるさと	-12.254420
致	-12.803565
取り入れる	-12.282084
気配	-12.325288
訪ね	-12.290667
煙	-12.217657
激しく	-12.237605
アイス	-12.105788
下り	-12.222575
傍	-12.277711
抱える	-12.396316
レイアウト	-12.114666
立た	-12.349724
スカイ	-12.064054
本屋	-12.261330
ライ	-11.988050
どおり	-12.183193
情熱	-12.331495
眠り	-12.131211
知恵	-12.271708
作戦	-12.266094
お疲れ様	-11.931886
稽古	-12.251400
万全	-12.255986
おっしゃっ	-12.504479
田中	-12.299815
by	-10.275479
完備	-12.301284
症候	-12.383613
骨盤	-12.287927
Blu	-12.269954
様式	-12.371441
怖く	-12.142532
富士	-12.278581
姉さん	-12.056243
洗い	-12.104497
かく	-12.021552
ＪＲ	-12.187981
お迎え	-11.971111
引く	-12.107864
占	-11.944852
バイオ	-12.250175
養成	-12.322667
惹か	-12.240230
焦点	-12.349966
山梨	-12.323027
◇	-12.273008
客室	-12.566110
切手	-12.597948
指標	-12.406066
仕掛け	-12.265164
眠れ	-12.219767
書面	-12.429254
ブラジル	-12.348015
正面	-12.141304
金持ち	-12.673516
富士山	-12.260914
菜	-11.636905
レンタ	-12.784167
喉	-12.254788
刑事	-12.406508
グランド	-12.107158
渡り	-12.164977
屈	-11.881123
っきり	-11.760918
コンサルティング	-12.281795
取り戻す	-12.391836
ユニーク	-12.317263
ハーブ	-12.180274
中でも	-10.438448
佐藤	-12.292273
懐かしい	-12.162386
体育	-12.220622
哲学	-12.490800
抜け毛	-12.400661
ジャケット	-12.057270
祖父	-12.343981
トマト	-12.184432
滝	-12.239647
ディレクトリ	-12.134548
クリ	-12.039487
何で	-11.521728
誘っ	-12.739933
鈴木	-12.348322
見舞い	-12.083848
童	-12.454069
岸	-12.026583
われ	-8.945299
ゼ	-11.733476
壇	-12.418876
輸出	-12.572451
喧嘩	-12.188858
許し	-12.507013
トラ	-11.855943
週刊	-12.315871
生み出し	-12.710611
恐ろしい	-12.218778
for	-10.145677
媒体	-12.406551
急ぎ	-12.074749
ソロ	-12.179729
商売	-12.200500
年数	-12.441152
倉庫	-12.314286
駆け	-12.225965
対話	-12.481866
相変わらず	-12.140047
味噌	-12.201943
予選	-12.254735
数え	-12.335606
SEX	-12.420826
恐	-12.215519
文学	-12.510249
マッチング	-12.328587
有る	-12.136472
定休	-12.372168
発音	-12.403918
コラム	-12.271409
車検	-12.601343
聖書	-12.564502
受け入れる	-12.264094
僕ら	-12.269624
革新	-12.511234
数量	-12.162761
尋ね	-12.316481
トライアル	-12.187981
子宮	-12.500663
おじさん	-12.151385
姉妹	-12.230045
傘	-12.260528
断言	-12.347970
見受け	-12.367206
揚げ	-12.082170
食い	-12.063116
兼ね	-11.930699
都度	-12.267040
ray	-10.720885
襲	-11.858984
順次	-12.132143
消滅	-12.530976
悪質	-12.362625
接する	-12.329342
重く	-12.248678
テンション	-12.043118
アレ	-12.041344
かし	-12.094168
差し	-11.782218
メンズ	-12.276647
電波	-12.361843
年々	-12.374781
マガジン	-12.069473
華やか	-12.205174
権力	-12.496078
協定	-12.524649
金沢	-12.344314
ER	-10.790306
検診	-12.394083
マネージャー	-12.216739
滅	-12.064409
狂	-12.132021
声優	-12.285739
ウェア	-12.116870
ミルク	-12.118473
何だか	-12.091960
艦	-12.071934
概	-12.315586
丘	-12.050782
ATM	-12.486513
VR	-11.930040
固	-11.971733
カン	-11.599419
変数	-12.299686
造り	-12.182056
世話	-12.311889
所在地	-12.276976
ロン	-11.981277
推	-12.378078
フロー	-12.198770
中途	-12.275372
es	-8.814562
防犯	-12.436881
レン	-11.866228
アトピー	-12.346224
有益	-12.365783
コラーゲン	-12.431190
スピーカー	-12.249834
買い上げ	-12.045616
パー	-11.793727
たしかに	-12.271867
アニメーション	-12.271018
語学	-12.431873
ポジティブ	-12.264704
徳島	-12.485797
スイーツ	-12.146409
左側	-12.175000
＼	-12.132739
崩し	-12.543906
バイ	-11.842725
エル	-11.706182
博多	-12.456565
届出	-12.464281
計測	-12.417450
検出	-12.444217
ビジョン	-12.290746
書き方	-12.247169
コーチ	-12.191526
盛り	-12.107488
国連	-12.632592
モチーフ	-12.238083
抽出	-12.402168
威	-12.029265
容器	-12.326300
御座	-12.089261
あて	-12.371621
支部	-12.373510
ッチ	-12.456520
返す	-11.879787
湧	-12.320368
スコア	-12.279496
技能	-12.524381
ショット	-12.020042
パンフレット	-12.153098
双方	-12.420391
通行	-12.376599
屋外	-12.387921
混ぜ	-12.058196
店長	-12.265186
煮	-12.109033
高値	-12.634035
没	-11.791418
コスメ	-12.168519
宛	-12.203176
コーディネート	-12.099196
牛乳	-12.330070
荒	-12.217547
手前	-12.373307
職務	-12.437523
ぁ	-11.844254
減る	-12.313829
漁	-12.390770
磨き	-12.342208
サラダ	-12.178433
気象	-12.473289
妊婦	-12.356015
ケガ	-12.328432
悲し	-12.301747
苦しん	-12.728382
ハロウィン	-12.157049
Ｇ	-11.834138
チップ	-12.252534
果たす	-12.468112
動機	-12.370348
興	-12.121114
最小限	-12.301282
怪しい	-12.290588
占める	-12.531757
出血	-12.360504
ミー	-12.199604
信じる	-12.314461
迎	-12.113119
ナイト	-11.920063
イスラム	-12.631499
必然	-12.361285
クラシック	-12.171570
下がる	-12.285647
ご存じ	-12.266420
圧力	-12.432722
時には	-10.379967
家計	-12.448175
フォント	-12.304376
水曜日	-12.178232
捕	-12.363374
まけ	-12.318269
並び	-12.024867
兼	-12.456101
カラオケ	-12.264473
まつ	-12.404233
タン	-11.726042
ヘ	-11.999242
生み出す	-12.403719
名所	-12.424488
ヒト	-12.390098
ソープ	-12.397484
怖	-12.225669
忙	-12.363777
藩	-12.860566
ハマ	-12.183976
諸国	-12.596524
指揮	-12.500342
精一杯	-12.158448
前年	-12.807890
国土	-12.546489
入口	-12.259681
放射線	-12.571647
面談	-12.431425
太郎	-11.757884
ベル	-11.704396
次第に	-12.473177
就任	-12.498323
松本	-12.341300
暗い	-12.302323
ウォーキング	-12.246304
ランニング	-12.284238
発明	-12.578160
Ｊ	-12.086691
浦	-12.182905
納品	-12.234193
ート	-12.431458
輸送	-12.575411
ソリューション	-12.196719
ベビー	-12.248301
検定	-12.410765
腎	-12.513191
思い出す	-12.267293
酷	-11.844855
趣旨	-12.431636
練	-11.981250
最寄り	-12.248776
オート	-12.084140
渋滞	-12.340745
寛	-12.407000
隙間	-12.326081
チェックイン	-12.239865
ニコニコ	-12.192657
コンテスト	-12.122077
ピーク	-12.333310
RT	-11.380101
Ｋ	-11.923443
戦っ	-13.112432
選べる	-12.284491
テラス	-12.244069
西洋	-12.412179
③	-11.981501
アド	-12.625655
巡り	-12.315456
一種	-12.069812
国籍	-12.420782
盛ん	-12.549285
親族	-12.502792
侵	-12.486961
中継	-12.389797
懇	-12.314020
往復	-12.361825
目覚め	-12.359168
以後	-12.483421
少数	-12.413767
砂糖	-12.255289
チャ	-11.830511
レッド	-12.087852
中断	-12.428955
内科	-12.313926
アミノ	-12.443137
el	-10.031108
スクリプト	-12.177746
枕	-12.363913
レート	-12.178607
獣	-12.126718
発覚	-12.378797
ーン	-12.305066
se	-10.048787
要する	-12.356967
すばらしい	-12.269875
シティ	-11.885037
•	-9.286210
修了	-12.384176
申し込む	-12.384107
パンツ	-12.058485
あがっ	-12.281268
捨てる	-12.237340
持てる	-12.353107
保全	-12.559064
無償	-12.371742
ちょ	-12.095053
スライド	-12.251008
行列	-12.348488
我	-12.085189
外交	-12.615419
中旬	-12.330357
にわたり	-12.409579
体操	-12.364910
人格	-12.444395
ﾙ	-12.188743
タレント	-12.343196
小売	-12.630222
頼む	-12.321274
亀	-12.386533
時に	-8.925030
可愛	-12.511191
革	-12.278935
トリ	-11.816892
うた	-12.747795
カスタム	-12.186991
願う	-12.312669
￥	-12.271270
選び方	-12.324479
感心	-12.357394
あふれ	-12.392908
少な	-12.239036
気持ちよく	-12.221200
醤油	-12.471464
ロング	-12.141536
退会	-12.450672
クオリティ	-12.263833
肺	-12.433666
中村	-12.357765
用事	-12.226851
針	-12.259114
取り扱う	-12.541282
留学生	-12.571989
マネー	-12.307988
言い訳	-12.274402
畳	-12.363871
表彰	-12.409502
直面	-12.547237
Ｐ	-11.993945
ミン	-12.137771
観戦	-12.312454
っぱなし	-12.214931
長期間	-12.450460
皮脂	-12.533203
ラッキー	-12.171018
日光	-12.352138
まくっ	-12.404435
何かと	-12.250319
上野	-12.397897
航	-12.403933
研	-12.337794
デッキ	-12.199933
食料	-12.501047
st	-9.454902
海岸	-12.433355
この間	-12.282347
言及	-12.423053
ディナー	-12.220972
境	-11.997365
お詫び	-12.147176
ルー	-12.193169
インパクト	-12.295209
勇	-12.289570
嫌わ	-13.368452
買い求め	-12.329417
IC	-11.261091
怠	-12.206693
二度と	-12.208870
イスラエル	-12.671531
佐賀	-12.538554
原稿	-12.429886
下がり	-12.180558
太っ	-12.911478
こいつ	-12.109966
酷い	-12.279614
認	-12.660977
祈	-12.247434
火曜日	-12.199662
おもしろい	-12.216223
餌	-12.308481
羅	-12.023997
ブル	-11.698189
シア	-12.417491
さっぱり	-12.169716
摂る	-12.446669
驚か	-12.432984
促す	-12.499427
今年度	-12.372319
戦う	-12.380133
ほんと	-12.057419
歩行	-12.476355
半身	-12.426597
まとめる	-12.286231
取り寄せ	-12.310663
寄り添	-12.426802
引き起こす	-12.428776
居酒屋	-12.407508
ココ	-12.151584
策定	-12.626782
ゆる	-12.315752
ギリギリ	-12.262172
ディーラー	-12.424421
満載	-12.285819
天使	-12.353086
ユ	-11.863995
制定	-12.599883
ハリ	-12.318188
ストップ	-12.222463
LED	-12.107832
一連	-12.443605
札	-11.929367
ナチュラル	-12.202049
リフレッシュ	-12.220065
icrosoft	-12.662565
歌う	-12.358182
多彩	-12.443750
花見	-12.329189
ヽ	-11.997737
発注	-12.428890
徴収	-12.567085
準	-12.336352
高まる	-12.531751
縮小	-12.312304
バリエーション	-12.227480
津波	-12.574564
速報	-12.277147
ふく	-12.307770
雄	-11.998121
リサーチ	-12.333210
有機	-12.564402
識別	-12.603288
鳥取	-12.571105
関与	-12.551260
四季	-12.343399
ミュージック	-12.089714
カジュアル	-12.285385
半島	-12.524939
アカデミー	-12.304139
オブ	-11.740439
攻め	-12.413625
紅茶	-12.356974
撮れ	-12.166980
ネイル	-12.252187
忘れる	-12.266172
冷凍	-12.379480
わり	-11.531714
大正	-12.555645
ほし	-12.440407
指名	-12.419367
愛媛	-12.478742
ッド	-12.598992
追記	-12.208263
招き	-12.407542
山田	-12.370814
さいたま	-12.362937
上級	-12.322503
表紙	-12.313396
小林	-12.442784
アナ	-12.223427
曖昧	-12.422526
加える	-12.350027
労力	-12.537444
略	-11.823296
社団	-12.114285
抜く	-12.380469
究	-12.233850
見合い	-12.492960
漢方	-12.548307
括	-12.331122
単独	-12.451367
こなし	-12.357032
間隔	-12.370348
掴	-12.366857
号線	-12.453903
キャッチ	-12.323774
句	-12.151974
営利	-12.425566
あー	-12.197776
どころか	-12.389332
司	-12.038644
紛争	-12.683204
ワタ	-12.159778
アクティブ	-12.339179
手頃	-12.657815
ハッキリ	-12.284537
ガイドライン	-12.482987
匿	-12.357993
AL	-10.585553
Vol	-12.566828
ちゃり	-13.427366
勘	-12.518964
まして	-9.850022
あれこれ	-12.284682
心掛け	-12.456291
th	-8.904317
フロア	-12.387794
好意	-12.372451
暑く	-12.205430
総務	-12.706153
澤	-12.231467
受給	-12.594236
申し込	-12.164157
水素	-12.647326
下さる	-12.248617
募金	-12.436240
望ましい	-12.447583
溶け	-12.381989
系列	-12.442010
嵐	-12.324337
Ｑ	-11.928305
嬢	-12.405436
安値	-12.425790
改修	-12.514410
組み立て	-12.325430
ソウル	-12.400847
香川	-12.493922
仰	-12.198475
PV	-12.017174
フェスティバル	-12.013782
踊り	-12.282601
頂戴	-12.223298
繋	-12.379362
千代田	-12.347356
黄	-12.463367
放映	-12.424560
幻想	-12.376799
来月	-12.251473
乃木坂	-12.455140
ＨＰ	-12.142286
忠	-12.448987
本年	-12.228381
吉田	-12.409105
いてい	-8.918092
並ぶ	-12.360984
あり方	-12.878770
ユダヤ	-12.769518
座り	-12.317498
づつ	-12.227498
沼	-12.285073
閉店	-12.281312
プレート	-12.270088
知事	-12.396827
見れる	-12.263107
終える	-12.316738
栄	-11.863612
au	-10.513731
棒	-12.245456
愛顧	-12.109981
ストーン	-12.199841
集会	-12.490132
バナー	-12.160690
it	-9.565042
域	-11.985395
取り揃え	-12.269838
おこなっ	-12.418868
手持ち	-12.422665
闘	-11.866739
直ぐ	-12.380309
バン	-11.870649
寄り	-11.486950
バトル	-12.142905
平気	-12.299414
ジュ	-11.794292
交え	-12.436091
危な	-13.490528
まとまっ	-12.421652
工学	-12.506307
費や	-12.050922
参拝	-12.492719
自治	-12.627555
帽子	-12.371402
シミュレーション	-12.451053
ほんとに	-12.173899
ユニ	-12.334558
どころ	-12.222791
レンタカー	-12.526801
リセット	-12.255324
トー	-12.171037
缶	-12.274708
スタンド	-12.253436
本店	-12.378340
ダイヤモンド	-12.384053
図り	-12.592867
考察	-12.415529
打つ	-12.393026
ラインナップ	-12.291682
地獄	-12.380341
プロモーション	-12.330420
頑張る	-12.322731
たる	-11.744678
近づく	-12.393915
塔	-12.274304
秘	-11.933553
セリフ	-12.359714
担う	-12.659251
置き換え	-12.445604
きっ	-12.778175
それと	-11.241607
肥満	-12.646530
未だに	-12.351977
釣	-12.285031
蓋	-12.295605
省略	-12.365304
開店	-12.364961
熱く	-12.314458
惑	-12.509125
痢	-12.539813
新品	-12.373283
エレベーター	-12.393388
フィルター	-12.426628
出掛け	-12.447277
拾	-12.276609
につれて	-12.387872
認可	-12.527216
合宿	-12.461935
湿度	-12.542821
堂々	-12.265394
審議	-12.674200
ゴム	-12.345859
広め	-12.536375
崩	-11.998410
融	-12.532080
クール	-12.217068
勃	-12.617544
渡す	-12.134377
ばっかり	-12.230679
せめて	-12.262212
直す	-12.083618
解散	-12.437188
突っ込	-12.281213
死に	-11.986056
知名度	-12.513235
自民党	-12.639189
納期	-12.391949
留め	-12.315978
出費	-12.545652
癌	-12.488341
取り除	-12.597338
NPO	-12.443896
スパ	-12.156698
かな	-8.769869
浮	-12.463455
最強	-12.370980
ランド	-11.716858
ザー	-12.348534
ミーティング	-12.342618
ライバル	-12.372113
恥ずかし	-12.313578
パーセント	-12.643375
メント	-12.217215
民主党	-12.556053
タウン	-12.077149
カビ	-12.497673
徳川	-12.718702
有用	-12.566470
ネコ	-12.241476
飯	-11.810476
素早	-13.639584
モジュール	-12.431036
下旬	-12.358962
磨	-11.994375
罰	-12.041389
ッツ	-12.383548
博	-12.049944
とどま	-12.663765
クエスト	-12.583392
編成	-12.556965
ｅ	-12.415223
一目	-12.378670
統	-12.417960
目立	-11.896653
件数	-12.640329
フライ	-12.269155
ダイビング	-12.363827
戻	-11.321946
制約	-12.605818
みな	-11.960541
ラウンジ	-12.372562
願望	-12.456516
GO	-11.724477
間に合わ	-12.330439
ウチ	-12.189774
葛	-12.501222
法案	-12.725490
専攻	-12.467310
結成	-12.548733
グレー	-12.264792
加算	-12.451245
修行	-12.467415
サル	-12.690267
陶	-12.549198
襲わ	-12.845433
腔	-12.645383
サウンド	-12.323054
あたし	-12.220002
当てはまる	-12.301414
パッド	-12.183359
高橋	-12.495885
Ｉ	-11.936700
ドコモ	-12.455240
振り返る	-12.415327
フィット	-12.331239
ＯＫ	-12.213973
伸ばす	-12.462661
正義	-12.510505
ドン	-12.024338
はてな	-12.435665
益	-12.306328
後期	-12.516065
腫れ	-12.513491
パッ	-12.318413
入札	-12.590648
グラス	-12.285506
取り出し	-12.348420
Co	-11.407031
ーズ	-12.075094
訴	-12.821734
虐待	-12.642454
況	-12.517536
池袋	-12.412596
庭園	-12.641415
譲	-12.011382
ストア	-11.864946
やって来	-12.379145
無難	-12.433918
デー	-11.992228
ドクター	-12.433988
桁	-12.535544
ソフトバンク	-12.385843
マイクロ	-12.437469
トヨタ	-12.502261
おもい	-12.287944
——	-11.924550
掛かる	-12.393140
同等	-12.494106
素晴らし	-12.249886
増大	-12.639800
房	-12.378138
囲	-12.237902
言動	-12.496054
フェ	-11.826461
望み	-12.453086
ポーズ	-11.923166
失う	-12.454920
広ま	-12.701345
インドネシア	-12.570123
之	-12.201049
反面	-12.507318
バグ	-12.310276
壮	-12.366234
お正月	-12.328045
県立	-12.344561
則	-12.131425
厄	-12.484555
含み	-12.520933
コア	-12.442484
青い	-12.407318
動け	-12.442489
名誉	-12.511849
要するに	-12.445229
外来	-12.568179
シナリオ	-12.457357
装飾	-12.551725
フラ	-12.284415
遂行	-12.637815
□	-12.587180
ぱ	-12.711222
令	-12.318613
及ぶ	-12.659090
ング	-12.420411
先端	-12.024786
見極め	-12.570215
キング	-12.219824
葉酸	-12.722412
買取り	-12.577146
及	-11.987192
贈り物	-12.382906
警備	-12.642784
遺跡	-12.742897
景気	-12.465099
DS	-11.217861
妥当	-12.546740
工房	-12.418830
適合	-12.522168
販	-12.215419
歌い	-12.450550
轄	-12.661059
スタ	-11.947483
us	-9.773852
シール	-12.317978
ボトル	-12.379465
ターミナル	-12.479343
貰う	-12.462609
着く	-12.273961
肥	-12.433207
おもてなし	-12.386892
吐き	-12.486968
突入	-12.432148
治す	-12.466278
やさしい	-12.408445
ヨ	-11.835581
開封	-12.428005
卓	-12.503930
延期	-12.435931
明る	-12.498019
願	-11.582223
CO	-11.427556
＿	-12.805378
あふれる	-12.498203
ソニー	-12.475893
ノン	-12.078999
鍼灸	-12.516750
賜り	-12.290828
et	-9.888464
点数	-12.550119
ｃｍ	-12.522020
ライター	-12.404781
水着	-12.561294
API	-12.667554
ゆき	-12.197643
裏切	-12.526073
流出	-12.640196
テント	-12.371444
チン	-11.774541
アンテナ	-12.465721
かえって	-12.353814
閉	-11.910757
作り上げ	-12.482871
隆	-12.514850
含	-11.638589
舞	-12.160356
an	-10.340361
ly	-7.835050
まり	-11.741495
向き合	-12.514397
おしゃべり	-12.290309
効き	-12.560097
セン	-12.131991
フレーズ	-12.309990
かん	-11.864810
ic	-9.791691
立体	-12.553634
レー	-12.511683
オランダ	-12.622335
味わう	-12.449407
巣	-12.033838
支店	-12.546804
Ｗ	-12.202856
ゾ	-12.428545
非難	-12.557176
小学	-12.551252
おっしゃる	-12.453160
裕	-12.563298
ツリー	-12.227636
辞書	-12.574739
沖	-12.494531
カラダ	-12.447668
現行	-12.624818
咲き	-12.286270
引き出す	-12.496396
有害	-12.653330
淡	-12.419063
u	-10.884470
踊	-12.373069
ずれ	-12.434610
構え	-12.535435
領収	-12.563286
出せる	-12.138867
ベルト	-12.242768
就労	-12.759903
どん	-12.419444
外側	-12.454382
賛成	-12.576586
ハー	-12.250905
ユーロ	-12.704427
ta	-10.195102
柔らかく	-12.372431
固ま	-12.468243
苦笑	-12.326376
マット	-12.345325
並み	-11.961088
隅	-11.951077
寮	-12.623243
重点	-12.621049
弱く	-12.446598
ブレーキ	-12.435900
イケメン	-12.441817
改定	-12.552501
プラスチック	-12.538547
祖母	-12.525873
感性	-12.552663
フジテレビ	-12.474171
悪魔	-12.508142
ヨーグルト	-12.410643
そっち	-12.300017
nstagram	-12.160195
豪雨	-12.487353
差し上げ	-12.269387
速く	-12.433896
体育館	-12.450958
んだ	-7.908038
欠け	-12.464311
下車	-12.344383
プリ	-12.019763
山本	-12.533905
ar	-10.155710
アロマ	-12.340056
シンポジウム	-12.420807
赤字	-12.659682
覚め	-12.363319
輝き	-12.465572
スポンサー	-12.489401
犯	-11.988068
ドライ	-12.318126
送金	-12.628281
敗	-12.121447
やれる	-12.624660
北部	-12.630150
EC	-11.440460
派手	-12.462736
オール	-12.239137
ガー	-12.335513
Ｅ	-12.009318
似合	-12.513084
洒落	-12.445721
連盟	-12.519058
運送	-12.641176
飲め	-12.469711
備わ	-12.643653
オーディオ	-12.416349
見通し	-12.650882
リンパ	-12.557377
唐	-12.498485
夕	-12.273185
安易	-12.586500
結ぶ	-12.656358
$	-8.516665
印鑑	-12.748377
付き合う	-12.454582
識	-12.677312
づい	-13.009909
阪神	-12.525932
奨学	-12.776969
ステキ	-12.260557
ブレ	-12.319107
機材	-12.528873
贈る	-12.530367
スルー	-12.215502
カーテン	-12.446491
エア	-12.380258
わき	-12.783353
森林	-12.813165
巨人	-12.522628
大雨	-12.513749
仮面	-12.491083
品種	-12.647285
木曜日	-12.378532
争い	-12.567388
過ご	-11.368377
複製	-12.737888
下部	-12.343769
責	-12.706488
洗う	-12.556100
見出し	-12.580279
ラベル	-12.502785
Ｎ	-12.213980
マイク	-12.475411
アイディア	-12.514036
通用	-12.509862
よろしけれ	-12.120953
返還	-12.781127
デザート	-12.347323
売り切れ	-12.314375
顧問	-12.636070
デリケート	-12.548631
傾け	-12.542644
東海	-12.506608
どうか	-9.455494
得点	-12.614279
トランス	-12.295818
･`	-12.044119
明細	-12.579019
出来上が	-12.843022
疎	-12.422088
JAPAN	-12.303425
繁殖	-12.616238
四国	-12.563730
慰	-12.603009
引っ張	-12.415950
ロス	-12.280779
日経	-12.318796
�	-11.603379
あそこ	-12.429526
購読	-12.585625
スイス	-12.681248
結び	-12.503748
д	-12.187744
ｽ	-12.449114
q	-11.014947
フレンド	-12.490062
良品	-13.157437
おいしく	-12.390486
ふさわしい	-12.563554
ﾌ	-11.981893
負わ	-12.623696
丼	-12.459177
ヒーロー	-12.474364
喋	-12.265417
持ち歩	-13.018443
賀	-12.627270
blog	-11.679352
ボス	-12.316154
髪型	-12.476694
食器	-12.535024
虚	-12.114127
ハンドル	-12.447893
負う	-12.647328
完結	-12.531856
イイ	-12.336408
Ｘ	-12.413866
ふり	-12.338062
すご	-12.579655
拡散	-12.594272
境界	-12.658381
宣	-12.755586
保ち	-12.570538
志望	-12.679085
描写	-12.590286
脚本	-12.710240
痩せる	-12.514762
ゅ	-12.695400
転載	-12.398537
振り込	-12.299435
隣接	-12.675231
喜ぶ	-12.478102
オリーブ	-12.409410
トンネル	-12.561240
呼びかけ	-12.657376
各自	-12.446462
太平洋	-12.526773
召し上がり	-12.281557
殻	-12.583761
残高	-12.656001
先頭	-12.601367
倉	-12.265956
録	-12.356341
at	-10.282745
泡	-12.463484
キャ	-12.044251
ジャズ	-12.578243
コマ	-12.559146
欠点	-12.561014
伊	-12.525373
ur	-10.309030
テン	-11.954695
こん	-12.603737
プレッシャー	-12.502505
シルバー	-12.386363
パスタ	-12.476009
見直す	-12.543547
vol	-11.265263
ＰＣ	-12.339150
来日	-12.724935
年寄り	-12.549536
時効	-13.118106
良し	-12.562336
推薦	-12.668622
駆除	-12.867212
御礼	-12.360405
叶え	-12.550921
着替え	-12.450884
不十分	-12.724630
傾	-12.610876
ステータス	-12.437837
瞑想	-12.602640
イノベーション	-12.739588
移し	-13.044262
マス	-12.223444
施し	-12.892472
決まる	-12.528041
そろ	-12.469254
放射	-12.797980
ゲート	-12.408319
調停	-12.872185
っぱ	-12.290782
奈	-11.953981
on	-9.574802
ジェ	-11.922644
辞める	-12.502595
引換	-12.346335
掛かっ	-12.600213
告げ	-12.502930
効く	-12.614984
戸惑	-12.564459
SSL	-12.191699
救い	-12.587785
カウンセラー	-12.540034
豪	-12.243190
アップル	-12.460526
トレーナー	-12.398611
きっちり	-12.514896
遺伝	-12.738561
ドキュメント	-12.455184
祝い	-12.573815
繊	-12.540871
財務	-12.778905
ヴァ	-12.070594
使い分け	-12.590973
NO	-11.396467
あらためて	-12.479535
じっと	-12.474723
セレクト	-12.440013
かわり	-12.526475
折れ	-12.455015
反射	-12.558308
落ち着き	-12.460631
カリキュラム	-12.611441
やめる	-12.481669
再会	-12.491518
ro	-10.153238
抱き	-12.508891
同居	-12.604781
重な	-12.545918
強度	-12.607088
ぷ	-12.421528
建造	-12.759432
若しくは	-12.913990
瘍	-12.810089
助ける	-12.547981
人前	-12.852522
悲しみ	-12.575911
原理	-12.685442
文庫	-12.570075
伊藤	-12.669930
当方	-12.525047
南部	-12.763304
間近	-12.516650
深める	-12.622908
ジー	-12.253830
Script	-12.256287
潮	-12.071339
大和	-12.611478
ペーパー	-12.365575
走ら	-12.517231
フラワー	-12.196747
整骨	-12.572448
酢	-12.572240
聞こえる	-12.449281
勝て	-12.460753
出入り	-12.698207
分離	-12.702668
ミリ	-12.504403
がん	-11.348997
桃	-12.322008
不利	-12.589871
新入	-12.564392
カ国	-12.839198
メキシコ	-12.686495
めちゃくちゃ	-12.341195
挙げる	-12.632079
平安	-12.729623
背負	-12.598622
トルコ	-12.762347
指す	-12.672292
振り返り	-12.532255
グラフィック	-12.406452
視力	-12.734184
連動	-12.600190
知らせ	-12.508320
Renta	-13.136996
患	-12.393824
期日	-12.636073
市役所	-12.551392
きょう	-12.499790
賛同	-12.541836
占い師	-12.707598
模索	-12.604620
存じ	-12.424576
ホン	-12.951295
気に入	-11.984411
酵	-12.746042
クレーム	-12.542467
成田	-12.709241
手助け	-12.591064
締め切り	-12.359186
清水	-12.574431
AN	-11.323404
進展	-12.731807
王子	-12.514410
Linux	-12.711032
周知	-12.692563
マシ	-12.283588
秘め	-12.568696
年賀状	-12.543156
交代	-12.579568
区域	-12.836173
上り	-12.542383
FC	-11.638956
可愛く	-12.344427
刺さ	-12.506787
デンウィーク	-12.928649
留意	-12.612104
のち	-12.533973
広げる	-12.621826
枚数	-12.485354
自力	-12.577005
接近	-12.542058
ベンチャー	-12.700272
対立	-12.817722
浜松	-12.609321
App	-12.021507
ウェディング	-12.522819
代わ	-12.764986
涼し	-12.467913
資	-12.254300
向き合う	-12.559825
態	-12.801162
ヴィ	-11.973296
絞り	-12.596801
全日本	-12.399058
代替	-12.671775
アー	-11.959761
肝臓	-12.742293
‼	-12.449508
収容	-12.801380
代目	-12.627653
入門	-12.545707
錠	-12.668515
稲	-12.573102
いったん	-12.496687
BookLive	-12.809330
授乳	-12.614779
ステーション	-12.161468
揺れ	-12.589933
若く	-12.555095
書き込ん	-12.319128
新卒	-12.653997
オーガニック	-12.491552
むくみ	-12.673862
西日本	-12.536437
メン	-12.153540
精進	-12.390546
育ち	-12.621565
溶	-12.730518
区分	-12.821331
ショ	-12.495108
土曜	-12.477312
フォーマット	-12.507486
やすかっ	-12.460641
顎	-12.702670
完売	-12.370676
レット	-12.471443
腐	-12.319841
役目	-12.609360
ィ	-12.611428
スペック	-12.403386
支出	-12.833660
集計	-12.631071
労務	-12.758487
並びに	-12.540694
駐	-12.263441
ジェット	-12.459594
取り除く	-12.597263
唱	-12.743360
衝突	-12.776950
僅	-12.577463
参入	-12.760271
縛	-12.428646
フリーランス	-12.620261
爽やか	-12.436340
公益	-12.416786
クラウドファン	-12.496758
見舞	-12.676068
そりゃ	-12.370308
受け継	-12.620829
キラキラ	-12.422655
In	-10.177437
拓	-12.315853
ライブラリ	-12.421744
乳酸菌	-12.696275
館内	-12.612709
飲料	-12.649842
スタンダード	-12.476575
撤	-12.723878
県民	-12.677350
あんた	-12.298648
解明	-12.720517
フリ	-12.519265
疑わ	-13.029604
シューズ	-12.458445
サイ	-12.039402
連中	-12.395939
LE	-10.596338
オフィシャル	-12.334931
堅	-12.396539
泳	-12.453609
部長	-12.643280
NG	-11.904308
速い	-12.619031
半額	-12.540131
コンタクト	-12.504815
ｼ	-12.284240
辿り	-12.501094
けい	-12.384014
取り戻し	-12.710490
吹	-12.247374
紋	-12.701882
忍	-12.483997
ウェイ	-12.261956
移民	-12.906154
建てる	-12.661204
院長	-12.629470
ｏ	-12.444025
浴衣	-12.661168
ad	-9.893030
ほっと	-12.480243
切ら	-12.674160
チャージ	-12.474284
✨	-12.260886
胆	-12.310820
コレステロール	-12.768275
朗	-12.395944
ｯ	-12.379413
へん	-12.389888
多め	-12.500383
パーソナル	-12.553394
リソース	-12.667312
主役	-12.615680
パチンコ	-12.533041
表れ	-12.708191
Ｏ	-12.011603
通訳	-12.834253
迷	-11.698171
倫理	-12.818351
啓発	-12.742646
再婚	-12.831688
騎	-12.578316
ガーデン	-12.181500
推移	-12.677930
療	-12.949826
羊	-12.543901
バス停	-12.512199
オーク	-13.728843
ムービー	-12.323826
知り合	-12.983702
文明	-12.850204
浪	-12.548960
応答	-12.682420
is	-9.988994
苗	-12.447652
いちばん	-12.566492
降る	-12.501718
刀	-12.258821
よろしい	-12.322138
併設	-12.646114
算出	-12.721344
遅れる	-12.484739
平等	-12.682161
ヤリ	-12.683339
カイ	-12.246729
案外	-12.568619
自作	-12.507431
塚	-12.473121
休止	-12.528367
割り切	-12.709647
貯ま	-12.733726
指針	-12.762969
学べる	-12.644224
サラ	-12.605319
ent	-10.224306
振替	-12.502667
促し	-12.944537
©	-11.531822
会談	-12.943945
治る	-12.570530
ガソリン	-12.634508
るみ	-13.238587
個体	-12.651652
モダン	-12.607136
東洋	-12.639649
エンド	-12.179793
フライト	-12.603230
イルミネーション	-12.419779
交差点	-12.651287
貫	-12.523416
サプライズ	-12.463048
しまわ	-12.646975
殺害	-12.772432
舎	-12.356119
借	-12.420530
賛	-12.564601
複合	-12.720438
払わ	-12.602187
別々	-12.552566
同行	-12.594088
拘束	-12.718183
歯磨き	-12.661023
飛躍	-12.699017
幼児	-12.362113
チョイス	-12.488507
沙汰	-12.508857
配列	-12.665181
塗る	-12.576314
CPU	-12.749662
やってくる	-12.492883
挟	-12.490528
スタジアム	-12.413244
返答	-12.522849
クス	-12.403852
回る	-12.399952
呪	-12.534918
護	-12.175870
助言	-12.701028
天才	-12.630701
新車	-12.674182
カル	-12.027395
こころ	-12.568567
反論	-12.581463
卒	-12.219389
白く	-12.585565
竜	-12.453182
ステ	-12.257969
衛星	-12.872287
ピザ	-12.681822
®	-11.698906
女王	-12.667131
とらえ	-12.773828
ｉ	-12.761299
従って	-12.652641
AGA	-12.526690
多大	-12.600979
遣い	-12.187746
寺院	-12.887329
優位	-12.698646
ジャック	-12.418126
ﾘ	-12.549252
幹	-12.264231
甘え	-12.557581
パニック	-12.505287
わん	-12.399582
ol	-10.706448
兄さん	-12.474881
帝国	-12.710438
佐	-12.335073
さあ	-12.474414
コト	-12.372643
母乳	-12.770124
抗議	-12.711834
持ち主	-12.609782
束	-12.433721
迷う	-12.597266
ストレート	-12.524687
バリ	-12.413536
燃え	-12.658297
匠	-12.856086
情勢	-12.822275
持ち込み	-12.562019
かっこいい	-12.448406
目の	-9.518599
MB	-11.562850
北九州	-12.681713
実証	-12.814879
衰え	-12.692247
文部	-12.790784
引き上げ	-12.757315
石鹸	-12.682943
踏み出	-12.514138
丁度	-12.478218
下落	-12.790660
ドラッグ	-12.434911
落札	-12.674150
ビュー	-12.122540
ごめん	-12.398104
配当	-12.852876
正月	-12.580190
こめ	-12.456200
共演	-12.672260
洗面	-12.688819
メンタル	-12.527354
そうすると	-12.192364
ネイティブ	-12.629234
推定	-12.868962
出資	-12.946799
秘訣	-12.646797
必見	-12.521416
カメラマン	-12.517864
ギャップ	-12.642933
同級	-12.634029
うまい	-12.521381
相対	-12.736418
もしかして	-12.292326
うっかり	-12.552964
治安	-12.796197
曜日	-12.623614
ES	-11.029775
貨	-13.012041
くせ	-12.535978
待ち合わせ	-12.533314
明示	-12.771691
苦情	-12.637787
≦	-12.330078
シワ	-12.775045
貰える	-12.576312
存分	-12.571731
扶	-12.788170
固め	-12.662951
ともに	-11.583493
非公開	-12.646173
上品	-12.530103
HDD	-12.427141
ミサイル	-12.754033
岐	-12.723723
無人	-12.976669
阻	-12.727755
キッズ	-12.414335
三つ	-12.635266
幕府	-13.033014
競合	-12.806138
ピース	-12.518052
講じ	-12.836800
すみ	-12.658496
えっ	-12.523549
連結	-12.799193
只	-12.485276
ント	-12.596747
減ら	-12.264568
隠す	-12.689794
休ま	-13.187405
≧	-12.333900
抜か	-12.440594
がき	-11.868072
フラッシュ	-12.555168
コンプレックス	-12.628188
埋ま	-12.574363
逃し	-11.714976
泊ま	-12.719207
島根	-12.787073
染め	-12.555098
セカンド	-12.617149
スケール	-12.605187
ていう	-13.195129
探せ	-12.883674
餅	-12.447864
移植	-12.850008
ロビー	-12.541081
工芸	-12.782676
響き	-12.637591
綿	-12.552459
サンタ	-12.515650
どり	-12.562339
変形	-12.678862
卒業生	-12.714192
貰い	-12.586716
ri	-10.513134
市立	-12.491736
染	-12.781976
タル	-12.615850
クイズ	-12.573850
ゆとり	-12.651384
ゆみ	-13.037772
おいし	-12.648560
Excel	-12.388490
サポーター	-12.592704
共和	-12.686433
プチ	-12.379348
感激	-12.557095
うーん	-12.461932
堺	-12.798170
援	-12.471489
裂	-12.718243
キリ	-12.397565
ニア	-12.266494
持ち帰	-13.298468
鳴	-12.082650
引き継	-12.740835
ズレ	-12.484574
隔	-12.182121
に際して	-12.692268
パッチ	-12.436910
分ける	-12.232815
頂	-11.306643
ポリ	-12.423700
フィードバック	-12.593943
抑	-12.867530
ia	-9.756734
ドロップ	-12.260501
豆腐	-12.673987
台数	-12.751455
事柄	-12.719123
私立	-12.803049
te	-10.279631
何と	-11.736977
叫	-12.496374
オープニング	-12.474840
ほんとう	-12.471542
綴	-12.569680
流す	-12.662073
互いに	-12.672838
寂し	-12.609783
かり	-12.463653
逃れ	-13.066493
怪	-12.579660
ウィルス	-12.609588
民事	-13.007258
惨	-12.286841
ワールドカップ	-12.550646
振込み	-12.503700
品川	-12.713955
レモン	-12.653231
容	-12.267181
大賞	-12.683993
予感	-12.523279
抱く	-12.773109
務める	-12.871096
杉	-12.631270
ナビ	-12.174798
上海	-12.815854
いちい	-13.059205
税別	-12.636254
免除	-12.864481
打ち上げ	-12.691898
典型	-12.785413
すすめ	-12.798922
直結	-12.707559
紐	-12.611935
構想	-12.862162
たいへん	-12.625499
ロケーション	-12.667024
組む	-12.717995
id	-10.162170
浜	-12.090453
ポール	-12.627004
をもって	-10.796548
補正	-12.796994
遂げ	-12.806435
少子	-12.881325
飛ぶ	-12.596048
セールス	-12.661554
故郷	-12.708530
文献	-12.855409
mg	-11.866784
玄	-12.640433
去っ	-12.975039
旗	-12.291840
ソング	-12.415110
長官	-12.980099
法定	-12.833153
アドバイザー	-12.486033
代理人	-12.849854
TOP	-12.064231
減額	-12.842836
レア	-12.351754
カルシウム	-12.755569
シャッター	-12.566528
いまだに	-12.643838
漏	-12.321509
優待	-12.677360
途端	-12.668171
出願	-12.951610
いっしょ	-12.430641
消す	-12.520667
幻	-12.640249
コツコツ	-12.600643
演劇	-12.822490
お誘い	-12.375307
PHP	-12.717804
手がけ	-12.849020
冷め	-12.622108
ピー	-12.479714
モー	-12.487808
渡る	-12.632676
ベテラン	-12.718935
石油	-12.830885
老舗	-12.745519
有限	-12.650839
モットー	-12.673310
加藤	-12.747197
フェッショナル	-12.713001
タダ	-12.676935
仁	-12.379994
マザー	-12.672619
踏ん	-12.802461
シニア	-12.753263
謀	-12.828340
インストラクター	-12.609794
さほど	-12.554923
試す	-12.636724
立ち読み	-12.883465
かき	-12.326913
ストック	-12.580461
涼しく	-12.454566
コラボレーション	-12.701442
ソファ	-12.704569
蕎麦	-12.713230
不審	-12.730203
事由	-12.833792
SP	-11.710925
吹き	-12.566297
消去	-12.724573
アイコン	-11.383818
拝	-12.165396
リモート	-12.673245
停電	-12.754917
リース	-12.601290
おば	-12.635096
冠	-12.525471
気付き	-12.321397
公認	-12.805862
見分け	-12.963743
欧	-12.909065
タンク	-12.642981
バブル	-12.749913
連邦	-12.963011
彦	-12.490660
間取り	-12.843101
足し	-13.086512
住居	-12.876809
広大	-12.810945
両手	-12.561382
ヒアルロン	-12.841661
インスタグラム	-12.538119
スカート	-12.470971
あう	-12.643134
同盟	-12.918278
急増	-12.873025
ナンパ	-12.800876
一概	-12.737515
粗	-12.646444
辛く	-12.569758
亜	-12.578050
慣れる	-12.598491
とらわれ	-12.754888
プラ	-12.229002
思い浮かべ	-12.649506
偉大	-12.779935
頑張れ	-12.816606
待遇	-12.991396
消耗	-12.645966
詞	-12.983983
拍手	-12.583826
連日	-12.675051
答	-12.574733
謙	-12.762097
li	-10.183367
途上	-12.915816
由	-12.428035
了	-12.197033
今更	-12.520377
嘆	-12.677434
裏側	-12.677440
サイバー	-12.835865
照らし	-12.798413
上回る	-12.837214
撲	-12.806144
ハードウェア	-12.744626
朝日	-12.675470
片方	-12.775416
にわたる	-12.835027
緒	-12.807746
炭酸	-12.791460
EN	-11.228200
∇	-12.404516
繕	-12.886461
見極める	-12.723546
同年	-13.107450
後継	-12.873234
ミラー	-12.507399
スキャン	-12.658504
至ら	-12.735985
ボート	-12.575137
泥	-12.692490
イラク	-12.935337
ヤツ	-12.444203
芽	-12.243856
殖	-12.884340
容赦	-12.537788
つまらない	-12.485157
働ける	-12.791258
ビニール	-12.642419
エジプ	-12.979707
オークション	-12.093656
菓子	-12.257648
自衛	-12.966587
巨	-12.853916
オタク	-12.722113
トリートメント	-12.221702
筋力	-12.764449
いち	-12.026052
直ちに	-12.824342
改訂	-12.913193
濃厚	-12.628452
向ける	-12.683037
並行	-12.734012
NEXT	-12.672119
フランス語	-12.720637
回路	-12.765693
レディ	-12.753770
損傷	-12.833033
開幕	-12.713182
迷わ	-12.694891
妊活	-12.894279
黒ず	-12.749959
也	-12.445165
ぴ	-12.422423
ブライダル	-12.636377
バラエティ	-12.706898
ええ	-12.339396
イー	-12.342552
横断	-12.817391
北京	-12.936649
結びつ	-13.011680
おおよそ	-12.732448
プロデューサー	-12.662578
ボー	-12.232841
遊べる	-12.619374
BOX	-12.212820
ならびに	-12.780013
ry	-9.596491
選出	-12.882817
天国	-12.661755
info	-12.103051
導く	-12.789320
年上	-12.649328
um	-10.104566
長女	-12.686244
内蔵	-12.719643
伊勢	-12.820925
スタンス	-12.677598
多岐	-12.875275
失い	-12.770536
赤く	-12.615195
しわ	-12.676492
国境	-12.939987
引き受け	-12.702584
禁	-12.433037
あわ	-12.906608
プロパティ	-12.550714
実情	-12.908055
懐	-12.715343
柏	-12.776570
王国	-12.782072
AV	-11.951901
キレ	-13.143308
スタン	-12.873359
親友	-12.718826
木材	-12.876028
人柄	-12.728233
がんばり	-12.358512
ダイレクト	-12.588036
マレーシア	-12.795289
和食	-12.767615
っぽ	-12.205921
イル	-12.806622
クマ	-12.525551
ﾄ	-12.461419
折り返し	-12.522862
先祖	-12.818633
薬剤	-12.929937
クト	-12.776095
要注意	-12.549346
ってな	-12.650588
本能	-12.718086
ギリシャ	-12.878318
マインド	-12.601807
操	-12.625152
ウソ	-12.612905
神話	-12.908744
ion	-9.781783
途	-12.356582
貸切	-12.674103
証言	-12.886709
コンディション	-12.648290
バル	-12.328126
あっさり	-12.593590
響	-12.280329
貰え	-12.667772
de	-10.045021
プロミス	-13.147399
咳	-12.766906
くれぐれも	-12.488747
賑わ	-12.671719
境内	-12.807461
めっちゃ	-12.505301
音源	-12.690407
対面	-12.708545
犯し	-13.467960
胎	-12.790828
創設	-13.004120
皇	-12.724400
満開	-12.618936
ON	-11.115608
大陸	-12.767858
茎	-12.575903
LIVE	-12.723481
ベンチ	-12.618753
遇	-12.872981
〒	-12.535341
片手	-12.702207
納付	-12.956332
浮かぶ	-12.729157
未だ	-12.762227
スプレー	-12.665365
アク	-12.744997
ツボ	-12.718265
梅田	-12.719145
出回	-12.841560
締切	-12.616120
つなげ	-12.762880
ごみ	-12.655223
ワキガ	-13.161394
歩け	-12.789167
婦人	-12.753455
re	-7.849478
ほん	-12.757690
生まれ変わ	-13.771842
追いかけ	-12.571856
レディース	-12.639515
要領	-12.697810
ジュエリー	-12.639891
東急	-12.729882
ミュージシャン	-12.735584
発掘	-12.923775
丈	-12.376487
プライム	-12.570996
NTT	-12.756493
挫折	-12.723357
アウトドア	-12.716734
一斉	-12.779801
僧	-12.829797
趣	-12.744850
名乗	-13.359095
漏洩	-12.883191
飲酒	-12.850579
習っ	-13.062182
右手	-12.662988
住人	-12.712635
ルド	-12.902376
クリエイティブ	-12.752021
留ま	-12.890172
六本木	-12.741614
クセ	-12.524533
痛感	-12.742687
圏内	-12.793461
iTunes	-12.760691
クッション	-12.652897
それなら	-12.335956
さらさ	-12.875761
眺める	-12.708247
締め	-12.568972
プレーヤー	-12.653342
AKB	-12.726683
〉	-12.846271
通す	-12.669625
エクササイズ	-12.654344
ハードディスク	-12.682186
ヒア	-12.859498
取り外	-12.758097
消える	-12.673507
TBS	-12.657233
特例	-12.894934
写し	-12.969398
ダイ	-12.253474
Chrome	-13.103142
テレ	-12.676062
マジック	-12.545468
Adobe	-12.778934
ランダム	-12.626587
ｲ	-12.658799
違	-11.905812
あん	-12.586831
バウンド	-13.018168
わい	-12.693369
けども	-13.195926
HD	-12.634598
大豆	-12.887785
干	-12.484371
ヴ	-12.874898
封	-12.218638
いらっしゃっ	-12.590542
クラフト	-12.519521
発足	-12.947965
△	-13.084857
シェフ	-12.707364
ふれあ	-12.749777
信長	-13.003720
バンク	-12.575493
ラウンド	-12.584071
掛かり	-12.261986
着手	-12.953213
不能	-12.809798
イレブン	-12.477856
銭	-12.535583
ＣＤ	-12.623228
講	-12.338051
曇り	-12.622996
魅了	-12.804930
中野	-12.705111
審	-12.752119
ひとつひとつ	-12.663770
振る舞	-12.774390
シップ	-12.771193
ml	-11.788282
意味合い	-12.774037
産まれ	-12.607901
題材	-12.834939
GPS	-12.949865
ａ	-12.608459
宝石	-12.882286
押さ	-12.771642
促	-12.470976
呼び出し	-12.843123
オーディション	-12.695865
バラバラ	-12.681287
がたい	-13.556581
制服	-12.791095
甲斐	-12.526066
ge	-10.376796
アナログ	-12.754901
プライド	-12.699936
捗	-12.775320
復習	-12.748914
イカ	-12.626126
英文	-12.798655
キン	-12.075100
訴える	-12.867182
all	-10.638773
ストレージ	-12.726043
受取	-12.894139
本件	-13.006715
〈	-12.867219
幹部	-12.928073
携わる	-12.887881
後々	-12.729995
グラ	-11.960357
破綻	-12.884026
壁紙	-12.806353
股	-12.550521
諾	-12.965684
パーマ	-12.667238
逃げる	-12.637280
遠慮なく	-12.487976
祝福	-12.794915
取組	-12.964331
東大	-12.997775
松山	-12.844068
後見	-13.217490
CSS	-12.668801
貞	-12.706871
暇つぶし	-12.857804
雷	-12.467093
東西	-12.809594
バンコク	-12.849871
ソー	-12.500932
至り	-12.803070
信念	-12.849410
再建	-13.045376
鎮	-12.623214
経理	-12.944099
グーグル	-12.754195
専念	-12.765066
油断	-12.675875
軌道	-12.841609
こっそり	-12.634341
インスタ	-12.649133
備考	-12.591488
よほど	-12.778034
繰り返	-12.280326
裸	-12.460980
恥	-12.625646
ノリ	-12.721904
思いやり	-12.750071
庶	-12.875763
まる	-11.979549
応える	-12.865937
積み	-12.643964
Japan	-13.476168
特長	-12.886862
ギャンブル	-12.845975
逆転	-12.765364
たどり着	-12.663387
損な	-12.766840
踏み	-12.654036
ストリート	-12.557216
ミュージカル	-12.721382
ひい	-14.176550
胃腸	-12.809367
Ｒ	-12.149125
もらわ	-12.465999
狩り	-12.539567
小屋	-12.627720
暖房	-12.681105
挙	-12.521521
落と	-12.064713
売り場	-12.794646
通路	-12.833886
スケート	-12.640096
まれ	-10.079815
きつい	-12.735128
膨ら	-12.474739
誘い	-12.839782
クル	-12.743034
なき	-11.591323
気が付	-11.822875
愚痴	-12.726287
くす	-13.092000
そうですね	-11.243926
座る	-12.727040
ニオイ	-12.878131
‘	-8.837221
ブリ	-12.280583
浄化	-12.832666
頼み	-12.804655
シンボル	-12.848797
ウス	-12.697838
半数	-12.949317
役所	-12.880667
競	-12.995593
シェ	-12.845776
測	-12.259386
ラグビー	-12.801158
工務	-12.820580
見よ	-14.995482
小麦	-12.824216
解像	-12.811861
ランプ	-12.596376
閉め	-12.675146
とうとう	-12.595352
第一歩	-12.775939
バツ	-12.957917
校長	-12.944199
丈夫	-12.751414
SE	-11.237150
励まし	-12.709212
簿	-12.525355
急遽	-12.675117
遺品	-13.117963
リック	-12.673786
チャン	-12.323788
不当	-12.959307
疹	-13.056275
任せる	-12.850577
ダイニング	-12.590277
凝	-12.810144
ーナ	-12.820522
雅	-12.190072
眼鏡	-12.731147
ine	-10.112968
あぁ	-12.576488
及ぼし	-13.027408
Ｕ	-12.250344
重複	-12.751238
ドラッグストア	-12.723159
潔	-12.469229
幹事	-12.825166
鹿	-12.607942
アコム	-13.271766
世界一	-12.779729
滑り	-12.733893
所在	-13.065649
示唆	-12.951379
ゼミ	-12.906369
失業	-13.109027
弟子	-12.927554
吸い	-12.884423
満席	-12.589656
廊	-12.722229
確かめる	-12.823859
･･･。	-12.508942
バージョンアップ	-12.529828
くじ	-12.282389
らっ	-12.354594
腫	-12.529073
山頂	-12.796972
堀	-12.323962
申し付け	-12.488226
浅	-12.811424
惜し	-12.704226
にも	-7.577449
築く	-12.876495
ケータイ	-12.702761
マイホーム	-12.900033
兵士	-12.969794
初代	-12.934449
如	-12.518936
塗料	-12.962770
おじいちゃん	-12.573552
支	-12.615128
選抜	-12.853847
南北	-12.925782
在日	-12.752923
死刑	-13.000541
プリンター	-12.764157
銅	-12.823268
ワイ	-12.444247
カウント	-12.675266
繰り広げ	-12.825116
インデックス	-12.673980
スロー	-12.631706
青山	-12.721855
向か	-11.582801
ぇ	-12.428638
受験生	-12.779833
めん	-12.658046
クリエイター	-12.675806
ﾞｰ	-12.621412
身の	-11.627247
忙し	-12.567129
▲	-12.557737
くださ	-11.408839
基金	-13.013267
民家	-12.871048
手動	-12.735717
狙う	-12.805484
クリーン	-12.814547
ぶん	-12.562925
振る	-12.794519
up	-9.308003
摯	-12.896450
未成	-12.600636
more	-11.088330
名作	-12.909860
主導	-12.979191
離島	-12.801128
青空	-12.679179
許せ	-12.810514
かわる	-12.938075
カリフォルニア	-12.915416
主題歌	-12.719039
みなさ	-12.927125
盛り込	-12.702519
漠然と	-12.798512
フラット	-12.760713
刑	-12.453285
ロケ	-12.706146
マクロ	-12.697361
合唱	-12.874396
マッチングアプリ	-12.984512
斬	-12.885155
傷つ	-13.199215
アットホーム	-12.711290
づけ	-12.878919
ho	-11.157341
コンクリート	-12.819778
褒美	-12.666923
見据え	-12.966436
紀	-12.244471
買収	-13.072706
運動会	-12.765873
搭乗	-12.878591
解雇	-13.097422
コーティング	-12.683894
断念	-12.775064
昌	-12.875877
償	-12.547960
司会	-12.834988
架	-12.464379
コンクール	-12.751588
浴	-12.523282
.　	-13.582889
水槽	-12.764734
不自然	-12.758622
うれしく	-12.684953
見どころ	-12.796479
思い込み	-12.761425
屋敷	-12.845881
　(	-12.301389
演じる	-13.012408
炊	-12.582862
彫刻	-12.963900
相応	-12.797232
フォ	-12.421139
GW	-12.246671
審判	-12.905748
入れ替え	-12.689711
IN	-11.245425
ファー	-12.307805
郷	-12.417622
剛	-12.824275
イマイチ	-12.663366
パラメータ	-12.751874
近辺	-12.803159
クレンジング	-12.646100
スピーチ	-12.868601
アンダー	-12.798069
無くなり	-12.643014
歌舞伎	-12.956144
水族館	-12.825649
炉	-12.790038
僚	-13.106355
おまえ	-12.557034
固有	-12.956958
子会社	-12.973746
に従い	-12.669496
蛇	-12.518426
画家	-13.040536
禁じ	-12.833392
稿	-12.512361
独り	-12.854086
Ｌ	-12.222491
HOME	-14.012229
就寝	-12.837049
骨折	-12.942249
につれ	-12.854834
か所	-12.872021
参戦	-12.748585
系統	-12.911205
ダイヤ	-12.774185
スレッド	-12.521362
Store	-13.818665
lo	-10.266726
レーション	-12.560123
つなぐ	-12.882188
試行錯誤	-12.395939
カラフル	-12.704311
正体	-12.769098
滴	-12.604152
将軍	-12.971474
ラク	-12.484630
モーニング	-12.666009
しま	-7.989565
蓮	-12.732952
供養	-12.970891
腕時計	-13.010154
鶴	-12.584511
頓	-12.879444
バナナ	-12.753435
気付く	-12.734482
木造	-12.988869
三菱	-12.806295
記号	-12.919638
とれる	-13.287557
賭け	-12.892512
カバン	-12.815465
ゲイ	-12.667275
画質	-12.862195
リス	-12.451944
商工	-13.016498
am	-9.845998
図面	-12.910142
facebook	-12.318804
php	-11.890259
un	-10.257487
増す	-12.927091
SD	-12.107043
確	-12.729649
あいつ	-12.655307
朝日新聞	-12.877465
佐々木	-12.826665
mp	-10.616244
互換	-12.765488
賃	-13.071201
ハメ	-12.746847
解け	-12.852059
掲示	-12.876823
US	-11.022696
ぼん	-12.700168
救う	-12.869764
メカニズム	-12.943020
倒産	-12.970442
面し	-15.056120
痛め	-12.758692
かたち	-13.127472
バレエ	-12.885696
すこし	-12.674055
除外	-12.889237
フォーカス	-12.750134
買い替え	-12.870984
家康	-13.096272
夜景	-12.865334
班	-12.926981
たて	-12.613608
ジュニア	-12.664362
飛び込	-12.599648
前進	-12.871949
ワンピース	-12.675430
ループ	-12.648546
TA	-11.440014
参画	-12.999319
°	-11.782778
スコ	-12.893790
達する	-12.681111
登り	-12.599334
注い	-12.843682
充	-12.173450
納め	-12.781755
ブラシ	-12.795578
模型	-12.914799
画期的	-12.941584
唇	-12.893070
咲く	-12.727199
神宮	-12.776649
ter	-10.115571
ファンド	-12.912571
虎	-12.810383
位置づけ	-13.045856
担任	-12.876042
公立	-12.832026
なさっ	-13.599201
っぽく	-12.461045
通称	-12.994770
改札	-12.881964
動脈	-12.929507
直径	-12.903552
Ｖ	-12.313115
大地	-12.823586
がい	-9.652973
つくら	-13.893894
RO	-11.719424
満点	-12.796049
Read	-11.608351
一段	-12.858498
過失	-13.059605
上陸	-12.913293
割り当て	-12.816384
わくわく	-12.686956
ぃ	-12.451698
働か	-12.815705
創出	-13.186507
坪	-12.953246
払	-12.176904
ペットボトル	-12.762611
智	-12.355772
ひととき	-12.656818
単身	-13.018010
アーカイブ	-12.685542
ワー	-12.988646
振動	-12.935790
女子大	-12.993934
ヒロイン	-12.822092
固く	-12.768145
こだわる	-12.852047
パズル	-12.740241
シス	-12.814931
プロテイン	-12.977380
働	-12.013410
ロープ	-12.790287
晒	-12.764856
プラザ	-12.333569
わか	-11.904434
手の	-10.847458
ーム	-13.073064
歩み	-12.982592
改め	-12.999693
稼げ	-12.783595
離れる	-12.805799
bit	-10.956203
切り替える	-12.749623
離脱	-12.982229
ie	-9.910862
ぶた	-12.952148
渡辺	-12.921067
返送	-12.938071
上旬	-12.856265
バター	-12.714352
中部	-12.901885
放射能	-12.982750
陳	-12.455420
ジン	-12.249314
たまらない	-12.718574
ろう	-8.252896
ma	-10.188145
いまいち	-12.751060
古典	-13.051284
慶	-12.735914
苦しく	-12.663081
異動	-12.938351
心地よい	-12.769049
四半期	-12.964633
投与	-13.093298
コミ	-12.410605
著書	-13.004534
ルーター	-12.763550
ワキ	-12.961365
ぉ	-12.508236
不適切	-12.845573
格納	-12.861073
エキス	-12.700334
フォロワー	-12.817066
シチュエーション	-12.741508
ニュージーランド	-12.872722
こなす	-12.786787
反響	-12.897065
許容	-12.915870
リピート	-12.736248
虹	-12.820470
太り	-12.821918
瞳	-12.825793
町村	-12.895486
木村	-12.825849
ニング	-12.722781
洗剤	-12.923362
作り出す	-12.927543
ッタ	-12.891059
理学	-11.928400
ブロガー	-12.632635
デイ	-12.357012
細心	-12.922997
スクロール	-12.657561
ドーム	-12.592773
決定的	-12.915149
出来上がり	-12.575002
秋葉原	-12.839424
泊まり	-12.589375
恥ずかしく	-12.662370
カギ	-12.893391
浅い	-12.896029
iPod	-12.821686
パラ	-12.563501
相手方	-13.115218
うけ	-12.836455
バーベキュー	-12.757960
いた	-7.442245
公衆	-12.945566
図書	-12.983404
変革	-13.175502
格闘	-12.842686
オペラ	-12.978868
藤原	-13.113379
飛び出し	-13.116634
縫	-12.712861
os	-10.261311
解答	-12.899103
更年	-12.964657
効力	-12.997096
ノーベル	-12.972409
敢え	-12.844181
点灯	-12.842128
ra	-10.154346
庫	-12.560544
たって	-11.190749
特急	-12.994683
届ける	-12.860690
在り	-13.021075
助かっ	-12.766388
組み合わせる	-12.830515
本学	-12.941099
ビア	-12.964910
ドキュメンタリー	-12.927375
ニコ	-12.782698
ap	-10.644404
戦力	-12.918159
要は	-12.787920
ir	-10.593849
殺す	-12.833377
ラボ	-12.601264
ダン	-12.428202
理屈	-12.760354
ライトアップ	-12.767547
通わ	-13.472317
新設	-12.996266
味わえ	-12.828947
うさぎ	-12.777005
要し	-13.273217
書き換え	-12.806086
ハーフ	-12.686903
惑星	-12.927630
去る	-12.721539
one	-9.934636
高温	-12.915246
気合	-12.756950
人員	-13.055043
イス	-12.408361
加減	-12.972330
しょ	-12.724172
歩道	-12.724582
ことば	-13.249512
大宮	-12.874998
悪意	-12.925578
チリ	-12.943771
真っ白	-12.802703
つまみ	-12.733983
α	-12.798922
ーク	-13.219266
主観	-12.890879
換金	-12.910617
あいだ	-13.022357
たん	-9.236692
IS	-11.574088
養護	-12.989656
錦	-12.931693
AC	-11.774457
奮	-12.623468
ベイ	-12.451774
ディスカッション	-12.914251
めぐり	-12.875122
EU	-12.517230
いち早	-14.047381
翼	-12.379552
インク	-12.883734
ゃ	-13.432308
転が	-12.779215
証書	-13.028807
入所	-13.073599
菊	-12.895582
容姿	-12.923472
アフター	-12.685091
ネーム	-12.370183
政党	-13.140003
着き	-12.704021
家屋	-13.125098
果て	-12.706877
三井	-12.861385
バタバタ	-12.499255
低減	-13.085870
介入	-13.081865
世田谷	-12.903821
生年月日	-12.852749
とりわけ	-13.170539
停め	-12.833953
盛況	-12.760341
決議	-13.115456
プロダクト	-12.973860
舐め	-12.819759
日にち	-12.807949
マイクロソフト	-12.875820
ヘルプ	-12.690947
エンディング	-12.707546
鉱	-12.961832
気持	-12.968923
ビジュアル	-12.701077
アナウンス	-12.807129
サーフィン	-12.776433
池田	-12.999590
防ぎ	-12.908127
観覧	-12.813040
そうして	-12.531638
ハン	-12.213585
加わっ	-12.952834
書ける	-12.787369
ity	-9.226485
に関し	-12.882229
ＮＨＫ	-12.874037
ファンデーション	-12.857946
休め	-12.793193
河	-12.618681
小児	-13.089564
区切	-13.345961
My	-10.463164
序	-12.340282
ネック	-12.645606
暮らせ	-13.171827
錯	-12.761094
カフェイン	-12.948012
ANA	-12.353731
未知	-12.953027
人種	-13.090363
大腸	-13.143450
グッ	-12.827980
バリア	-12.800237
炭水化物	-12.975204
ひな	-12.803738
発し	-12.756957
著しく	-13.077197
ユー	-12.572372
ダーク	-12.732389
あいさつ	-12.925699
ベランダ	-12.825429
晋	-13.048288
警報	-12.989063
奏	-12.446420
パイ	-12.300108
撤退	-12.925144
活かす	-12.881181
同日	-13.123176
フレンドリー	-12.931869
痒	-12.884391
視察	-12.988396
増進	-13.047211
ーラ	-12.812010
陥る	-12.999814
暮れ	-12.890569
ドリ	-12.499884
蘇	-12.838968
ライダー	-12.147601
IoT	-13.240303
徹	-12.721595
ＤＶＤ	-12.713320
芯	-12.873475
民法	-13.084829
アメリカン	-12.672120
柳	-12.555501
Ver	-12.780517
伸	-12.706095
前もって	-12.858691
原点	-12.999131
リボン	-12.730978
man	-9.319195
八幡	-12.724275
妨げ	-12.949845
顕著	-13.076943
猿	-12.877809
あがり	-12.615990
りん	-12.799889
タイル	-12.933584
防御	-12.943135
難い	-12.887684
白髪	-12.910677
カプセル	-12.861297
チュ	-12.592467
巧	-12.767008
区間	-13.078266
ぶつけ	-12.847476
成年	-13.476101
Office	-12.959207
ゴールデン	-12.115520
相次	-14.163978
ランナー	-12.837819
優遇	-13.004522
ペニス	-12.949367
冥	-12.848214
普	-13.090341
ッター	-12.897396
店主	-12.857742
読み込み	-12.759070
村上	-13.027377
つない	-13.025253
好む	-13.069767
ゼリー	-12.830657
後遺	-13.134092
がっかり	-12.856871
市街地	-13.072475
ものすごい	-12.798981
グランプリ	-12.817335
兄ちゃん	-12.677446
来れ	-12.796598
敏	-12.638791
託	-12.437351
おかしな	-12.801714
オナニー	-12.722967
医学部	-13.113111
吐	-12.862903
生態	-13.148911
ikipedia	-13.446057
拉致	-13.023871
レジャー	-12.930227
俗	-12.614484
Ch	-11.534012
こい	-12.851315
ドー	-12.669643
コー	-12.269695
おいしかっ	-12.696314
乗客	-13.046103
引け	-12.929516
あたる	-12.351095
クチコミ	-12.898361
阪急	-12.845856
漬け	-12.604089
il	-10.301753
立ち上が	-12.982908
プロデュース	-12.877816
湘南	-12.914314
姻	-13.154779
ネックレス	-12.706256
ヶ所	-12.964863
ーター	-13.102790
アンチエイジング	-12.869358
おなか	-12.783266
母子	-13.004898
ドット	-13.086768
悲劇	-13.000566
海軍	-13.155098
有名人	-12.896501
衝動	-12.872692
国語	-12.350252
ST	-11.280109
アルミ	-12.807454
合法	-13.084530
シリア	-13.213290
屋上	-12.960058
嫌が	-12.576219
カ所	-13.071644
近道	-12.894996
喫茶店	-12.891822
おこなう	-13.052875
儀式	-13.062295
くま	-12.661925
混み	-12.588444
クック	-12.718711
大気	-13.288887
隷	-13.054389
うかが	-12.887716
享	-13.118026
改ざん	-13.135496
道のり	-12.896525
暦	-12.690306
そっと	-12.795297
往	-12.914329
野外	-12.952486
スウェーデン	-13.043843
設ける	-13.046645
まつわ	-13.064457
需	-13.067059
強め	-13.122869
尽	-12.404150
お尋ね	-12.701372
トラベル	-12.850821
義務付け	-13.109121
伸びる	-12.926659
捧げ	-13.035374
本線	-12.651499
名付け	-13.013192
物価	-13.147580
アホ	-12.662043
フィルタ	-12.915057
払え	-12.982637
さっさと	-12.755286
詣	-13.041649
免責	-13.140407
ガード	-12.684109
精密	-13.010956
温かく	-12.817073
東南アジア	-13.040524
フォー	-12.357584
as	-9.803737
嶋	-13.018765
喪失	-13.047346
事象	-12.989158
MV	-12.401020
カンボジア	-13.026692
レギュラー	-12.853334
要項	-12.708309
公募	-12.995593
罰金	-13.046718
なくす	-13.082528
日本テレビ	-12.916796
蒸	-12.962438
郊外	-13.107298
近畿	-12.993578
見上げ	-13.189749
ケン	-12.255281
吹い	-13.084372
供	-12.972752
法務	-12.854836
帰属	-13.061067
屋台	-12.974846
大まか	-12.949973
カルチャー	-12.917954
新婦	-12.977482
故に	-12.900791
絶え	-13.058609
駆けつけ	-12.885381
ru	-11.112864
換算	-13.076483
うれしかっ	-12.739140
霧	-12.711460
ンズ	-12.726688
同窓会	-12.868207
海上	-13.113751
浄	-13.157027
飢え	-13.176869
演説	-13.132218
最小	-13.013328
菅	-12.991723
待	-11.244249
交響	-12.988601
におい	-12.708362
将棋	-13.000595
望ま	-13.091372
はじまり	-12.898215
未定	-12.769520
ハッシュ	-12.954712
祈る	-12.832223
覚醒	-12.932046
賑やか	-12.852969
義母	-12.876406
瓶	-12.524078
長寿	-13.221702
編み	-12.906758
儲か	-13.075314
ショートカット	-12.686227
紅	-12.670747
④	-12.521776
一周	-12.851598
メガ	-12.967826
na	-9.839212
ハリウッド	-13.028134
取り巻く	-13.125476
創り	-13.022248
滑ら	-12.941647
古墳	-13.437383
累計	-13.121325
物流	-13.102849
溝	-12.790259
姫路	-13.056460
議院	-13.235707
単体	-12.903134
浅草	-13.052928
継ぎ	-12.982186
奥行	-13.814427
視界	-12.894207
月曜	-12.830794
歓	-12.937307
上手い	-12.870293
空け	-12.942314
レントゲン	-12.943287
諦める	-12.891633
溜め	-13.021323
魔女	-12.922428
づらく	-12.860568
属す	-16.197813
会合	-13.131359
発作	-13.108289
惚れ	-12.745584
悔しい	-12.922271
葬式	-13.046591
EL	-11.248570
内緒	-12.947082
パーキング	-12.787113
黄金	-12.966206
age	-9.788470
井上	-13.045073
夏季	-12.857759
待合	-13.089533
衛	-13.145732
通じる	-12.989737
忠実	-13.010200
欲望	-13.004063
マイナー	-12.841070
おかけいたし	-12.588188
トラウマ	-12.910272
Go	-11.445601
従う	-14.517251
忘年会	-12.894460
叩き	-12.795183
院内	-13.003199
そしたら	-12.749472
運搬	-13.160661
引き締め	-12.940463
活気	-13.051363
汚い	-12.927753
煎	-12.990207
会わ	-13.066497
トピック	-13.010278
多摩	-13.002951
郊	-13.029626
貼る	-12.882914
スク	-12.626974
すい	-13.673079
ローズ	-12.567018
履き	-12.775813
ment	-9.455295
薄れ	-13.120898
浴室	-12.992282
湾	-12.615924
一戸建て	-12.971761
落ち着く	-12.876852
扇	-12.772927
RI	-11.505044
刊行	-13.154305
アリス	-12.824910
おせ	-12.940644
一家	-13.016570
日産	-13.112878
解く	-13.024858
どうにも	-12.346927
炭	-13.003206
フェス	-12.363093
向き合い	-13.003249
II	-12.229321
アトラクション	-12.912274
ターナショナル	-13.138939
何ら	-12.976747
載	-12.060560
段々	-12.885394
先程	-12.852768
実在	-13.008821
あちら	-12.847264
落下	-13.051737
バレンタイン	-12.698510
控えめ	-12.898011
政令	-13.219487
恵み	-13.044908
聞	-11.338421
SA	-11.446808
メル	-12.465986
ﾊ	-12.310637
ハゲ	-12.993323
乗り切	-13.099292
mail	-10.355612
真理	-13.049937
橋本	-13.009852
槽	-13.214360
追う	-13.011582
amazon	-12.320113
規範	-13.092797
食卓	-12.974175
金曜	-12.854035
冊子	-12.955634
喜	-11.814229
反し	-14.110448
付か	-12.748085
外す	-12.919216
ot	-10.903954
武蔵	-13.018672
メス	-12.970043
天神	-13.001342
チェ	-12.323433
阿	-12.897051
呼	-11.924000
and	-9.052615
寸	-12.646941
封筒	-13.026280
スロット	-12.853626
斜め	-12.876085
ざ	-12.322506
年月	-13.069992
鬱	-12.912864
征	-12.533601
信者	-12.965657
シリコン	-13.079847
注入	-13.150080
羽田	-13.033427
トーナメント	-12.755653
海洋	-13.135496
誓	-12.960365
レフ	-12.861245
届け出	-13.337430
出題	-13.128732
ｇ	-12.557727
プラセンタ	-13.011432
たえ	-12.876869
パイプ	-12.893461
多発	-13.079744
混ざ	-12.949733
東部	-12.877209
函館	-13.105912
おもしろ	-12.849676
袖	-12.390687
延ば	-12.908421
掛ける	-12.633390
Ｙ	-12.346100
味付け	-12.858749
葬	-12.638381
従っ	-14.240735
運賃	-13.124820
走れ	-13.379667
チキン	-12.780607
演習	-13.141634
アルゴリズム	-13.107838
ロケット	-12.941998
ce	-10.253209
抜ける	-12.765403
英雄	-12.969775
みせ	-12.959651
お薦め	-12.591765
〔	-12.957449
両国	-13.214365
ポン	-12.415431
停車	-13.044980
ひき	-12.921028
避	-12.792936
花嫁	-13.010407
次男	-12.965741
織	-12.574082
EX	-12.072664
地帯	-13.094219
邪	-12.765719
クリップ	-12.819825
ﾗ	-12.909808
日本橋	-13.017442
大島	-13.027676
結末	-12.958643
たまり	-12.641733
プロバイダ	-12.852037
QR	-12.572755
美女	-12.958578
あっという間	-12.763862
治医	-13.106623
ェ	-13.059455
ダイアログ	-12.723087
ツイン	-12.798690
オーラ	-12.700167
三角	-12.959329
クルーズ	-13.006799
ース	-13.446881
ウエスト	-12.831415
絶賛	-12.957080
ＴＶ	-12.767884
引き寄せ	-12.746390
結合	-13.115581
クレ	-12.747731
ダニ	-13.109750
師匠	-12.942942
ワイド	-12.960197
爆弾	-13.057626
学べ	-13.030612
TOKYO	-12.922791
オス	-12.652701
分子	-13.107886
警	-12.593473
To	-10.818261
起訴	-13.277286
遥か	-12.966462
百貨店	-12.849987
集約	-13.115709
ボロボロ	-12.887242
絶景	-13.025721
‐	-12.717882
出向	-13.614414
グリ	-12.457116
物資	-13.039134
ING	-10.433457
解禁	-12.974031
送れる	-12.970052
メモリー	-12.922068
ジョ	-12.307735
グル	-12.576876
吟	-13.058354
到	-12.967463
前期	-13.080644
グッド	-12.878827
叫び	-12.864066
LO	-11.703703
本名	-13.072755
鋭	-12.549312
エサ	-12.984014
十字	-13.117230
お子さ	-13.004867
Youtube	-12.842013
康	-13.012142
籠	-12.908126
送れ	-12.964684
枯れ	-12.932127
解凍	-12.808371
疑惑	-13.095089
POP	-12.584543
箱根	-13.050446
ピアス	-12.879737
ｋｍ	-12.957163
行き届	-13.184514
〕	-12.976569
ノイズ	-12.971054
中高年	-13.177103
絶滅	-13.124359
淡路	-13.112478
冷やし	-13.182909
獲	-12.484692
Blog	-12.956362
貨物	-13.225565
観念	-13.053903
ee	-10.512116
TO	-11.503834
チャー	-12.555550
AP	-11.647302
セクシー	-12.928274
楽譜	-13.025030
やっぱ	-12.686196
妨害	-13.040644
鮮明	-13.009764
鈍	-13.087390
ソ連	-13.356930
攻	-12.543969
コップ	-12.851129
フォーク	-12.911162
周波数	-13.162482
イラン	-13.357830
すき	-12.921371
わば	-15.290753
丁	-12.687293
ぜひとも	-12.895410
儲け	-12.563987
インターンシップ	-13.035136
鳴ら	-12.974406
デリヘル	-13.139668
乗れ	-12.931838
ai	-11.290602
luetooth	-12.899338
当てはま	-12.952475
大使館	-13.123247
ありえ	-12.004139
スパイ	-12.988576
閣	-12.854757
フレンチ	-12.889382
伊豆	-12.938679
監	-13.044923
クン	-13.451334
電磁	-13.170701
入賞	-12.954845
ティング	-12.830651
発射	-13.094189
ラッシュ	-12.837199
負傷	-13.198190
セラピスト	-12.733266
暖か	-13.006380
坊	-12.369165
WiFi	-13.148469
蘭	-13.009681
ブラウン	-12.844524
ハガキ	-12.995886
絶好	-13.003792
厳し	-13.002343
教養	-13.167896
和らげ	-13.036361
申し立て	-13.172575
生放送	-12.906339
スパイス	-12.864328
国々	-13.237809
増税	-13.189390
すん	-12.771853
遍	-12.781841
メラニ	-13.347648
すいません	-12.524895
焼く	-12.889169
ステーキ	-12.937329
かかりつけ	-12.999679
DM	-12.434132
間に合	-12.787080
がかり	-12.830769
声明	-13.249745
都営	-12.995606
掘り	-13.063954
シャトル	-12.845763
おばさん	-12.899060
登る	-12.992355
助手	-12.981019
デジカメ	-12.802370
チャンピオン	-12.882363
ひとまず	-12.918797
らく	-12.637426
髄	-13.222326
返せ	-12.770828
バーチャル	-12.990990
ちな	-12.070068
オバマ	-13.209049
本棚	-13.102686
症例	-13.198160
けが	-12.995741
指数	-13.142917
マリア	-12.937387
追い込	-12.728540
ISO	-12.313201
よっぽど	-12.881890
示談	-13.223708
ひら	-12.209221
かぎり	-13.017774
慣	-13.251891
めぐる	-13.225247
水泳	-13.022110
ヤフー	-12.919870
no	-9.880506
リターン	-12.878041
字幕	-13.104307
返り	-12.746019
特色	-13.167059
干し	-12.686112
妖怪	-13.068232
北陸	-13.031395
反する	-12.853852
セミ	-12.819783
コメ	-12.860354
召	-12.864162
リンゴ	-12.950564
釈	-12.822859
倶楽部	-12.938523
木々	-13.000246
ガチャ	-12.742747
RPG	-12.650423
太鼓	-13.104700
ドラム	-12.987885
St	-11.836742
眼科	-13.130534
プレミア	-12.956654
トゥ	-12.524068
心境	-13.056864
問う	-13.159014
薦め	-13.572983
テル	-12.612687
サマー	-12.878027
苦悩	-13.190795
到来	-13.084877
和解	-13.280029
博し	-14.266305
エクセル	-12.896755
ｶ	-12.622927
辞	-12.616030
アポ	-13.130210
摘	-13.129955
越える	-13.028816
ナル	-12.859016
働け	-13.047316
同人	-12.823175
揚	-13.057585
宇都宮	-13.119896
子孫	-13.117401
原子	-13.383419
前々	-12.825354
狼	-13.005041
追って	-12.438298
開通	-13.141678
述べる	-13.120580
不信	-13.144768
相違	-13.139639
デイサービス	-12.946877
栗	-12.904005
満員	-12.968958
捕まえ	-12.907595
da	-10.573109
マイケル	-13.072309
op	-10.377064
降ら	-13.150480
訪	-12.650927
お母様	-12.917762
仕立て	-13.063958
マリ	-12.636812
准	-13.010797
執	-12.710012
ぐら	-13.059203
ist	-9.698766
引っかか	-13.095794
New	-12.046554
ケイ	-12.694648
蜂	-12.941498
梨	-12.510706
ファイ	-13.429624
技法	-13.158985
緑色	-12.988470
着信	-13.029600
ow	-10.848152
ボケ	-12.956698
壌	-13.335405
キャップ	-12.737610
友好	-13.156887
DA	-11.823718
vs	-12.646929
嗜	-13.150408
好か	-12.990140
言い換え	-13.154281
ッカ	-12.919484
生き残	-13.632437
ぺ	-12.775945
しかた	-13.142032
だす	-12.856398
起源	-13.228898
どっ	-13.310546
女神	-13.052027
致命	-12.972128
教習	-13.185871
Me	-11.663175
寝室	-13.025330
飲める	-12.957932
啓	-13.075294
ワケ	-12.862909
提言	-13.313781
One	-11.367593
親しい	-13.088116
味覚	-13.088335
回す	-12.956004
思い出せ	-13.008984
かわいそう	-12.851894
エイ	-12.569089
TOEIC	-13.122469
計上	-13.203566
阻害	-13.203819
切断	-13.041822
小泉	-13.117413
ほっ	-12.933801
小さ	-12.914272
一読	-12.877392
奉仕	-13.168441
イタリアン	-12.917937
がっ	-12.360298
どー	-12.832243
色合	-13.257258
笑う	-12.969589
放し	-13.667418
餃子	-13.098711
アクセント	-12.903506
XP	-13.191671
臣	-13.339745
なのに	-10.514043
積み上げ	-13.128541
織田	-13.237999
尽き	-13.037053
ねる	-12.305524
チェンジ	-12.593432
いやいや	-12.825396
初対面	-12.996450
メタ	-12.944902
io	-11.215661
繁栄	-13.193344
たんぱく	-13.012808
ゲン	-12.609982
モーター	-12.784932
目黒	-13.144547
搬送	-13.219616
sex	-11.911640
小倉	-13.124065
いたる	-13.144947
あいに	-12.868882
残ら	-13.111875
渋	-12.950050
おれ	-13.075139
片づけ	-12.988906
わざと	-12.931340
とう	-12.052375
於	-13.013084
ょ	-13.018242
事案	-13.266738
共産党	-13.201791
換気	-13.179312
耕	-13.030640
比べれ	-13.091074
ジョギング	-13.059240
前面	-13.076451
夏場	-13.050398
作動	-13.058836
漢	-12.701569
祀	-12.971245
ミュージアム	-12.760061
コム	-12.821837
デパート	-13.019465
硬く	-13.025318
プラチナ	-12.980429
AM	-11.363108
柔道	-13.214357
カツ	-12.911090
けん	-12.811336
市川	-13.139906
乙	-13.087468
晴	-12.872217
ディレクター	-13.038377
体臭	-13.341553
ブドウ	-13.202997
パケット	-13.106095
蚊	-13.154788
ちら	-12.970303
発祥	-13.179383
験	-13.543121
中期	-13.264172
BA	-12.094029
ひろ	-12.868084
クソ	-12.537845
甲子園	-13.073448
那覇	-13.186781
you	-10.464036
灰	-12.966223
磨く	-13.064186
須	-12.722559
リッチ	-12.799619
nd	-10.528010
美少女	-12.901438
教わ	-13.140191
任務	-13.148472
SF	-12.600698
ip	-10.885818
茂	-12.970554
ワシントン	-13.227656
擁護	-13.026346
アナタ	-12.920844
ゆかり	-13.060742
かさ	-12.384305
カニ	-13.108964
筈	-12.952363
防げ	-13.166725
Kindle	-13.130039
生む	-13.129793
ムーン	-12.724263
持ち合わせ	-13.092547
セーブ	-12.957306
勝てる	-12.907219
オールインワン	-13.157181
危惧	-13.173594
ぶつか	-13.123216
高層	-13.179462
スリム	-12.923086
押し付け	-12.905692
がり	-12.244435
問い合せ	-12.753745
ローソン	-12.920799
皆無	-13.106691
ツヤ	-13.096642
駒	-12.988887
浮き	-13.112598
la	-10.213637
Air	-13.145050
ッキー	-13.320185
移り	-12.724569
戦隊	-13.056383
宅地	-13.347891
熊	-12.914204
つぶやき	-12.913750
かまい	-12.855272
中東	-13.352889
流行り	-13.088980
アンティーク	-12.877002
テレビ朝日	-13.066615
シャル	-13.008607
市街	-13.274262
会計士	-13.255641
ポップ	-12.984892
奪っ	-13.648357
窮	-12.747492
坂本	-13.124788
ステロイド	-13.163361
きまして	-12.714561
議事	-13.209660
放出	-13.222594
おかず	-13.015174
懐かし	-13.081522
債	-13.453979
箸	-13.001810
新曲	-12.968131
リアン	-13.083107
育つ	-13.099912
湿気	-13.061977
複	-13.241452
親父	-12.927327
みえ	-12.994821
コンセント	-12.936661
佳	-12.819097
BGM	-12.963006
収支	-13.162855
ストーブ	-12.937797
プッシュ	-13.046276
ut	-10.763201
トル	-12.863198
明かし	-13.500768
崇	-13.206964
叶える	-13.005959
解ら	-12.920692
苦しむ	-13.101018
瓦	-13.077783
つくば	-13.047817
ディー	-12.694623
ミックス	-12.836097
えい	-13.123622
不利益	-13.172232
営む	-13.316767
良き	-13.089804
はや	-12.236091
学院	-12.875891
贈り	-12.975542
余儀な	-13.218720
切れる	-12.919693
フェリー	-13.045757
値上げ	-13.162705
何者	-13.100316
唾	-13.182245
新生	-13.171532
リオ	-12.579323
メイ	-12.690019
道場	-13.076868
巡る	-13.226312
突き	-12.882513
郭	-13.276906
ラッピング	-12.772581
ニン	-12.669130
オリ	-12.778787
税制	-13.276189
恒	-13.254074
youtube	-11.925560
est	-9.710888
同伴	-12.966098
ふつ	-13.080179
郷土	-13.128690
染み	-13.297909
りんご	-12.925812
控える	-13.113149
好まし	-13.273737
パウダー	-12.910327
なじみ	-13.061666
ate	-10.025182
sh	-10.231473
斜	-13.113912
治り	-13.067022
気に入り	-12.929675
CE	-11.309177
俊	-13.087450
望め	-13.338850
山手	-13.023385
バイアグラ	-13.352868
VISA	-12.721254
努める	-13.255838
らい	-11.522925
下ろし	-12.721113
校舎	-13.182965
貴族	-13.288374
気持ちいい	-12.899963
スリー	-12.826968
翔	-12.886168
ドラ	-12.462341
顕	-13.291741
生み出	-12.666936
導き	-13.135925
酎	-13.180438
スピーディー	-13.169479
ペイ	-12.925293
仮定	-13.111236
ジェル	-12.524437
ニンテンドー	-12.901291
銀河	-13.200396
募	-13.184251
洞窟	-13.164834
刑務	-13.282284
インターン	-13.215190
別れる	-13.036951
馴染	-13.076709
ぞい	-12.950806
替わ	-13.035104
上演	-13.239858
ll	-7.826227
屋内	-13.084726
コーチング	-12.969462
排泄	-13.247761
規程	-13.243905
ボイス	-12.851692
命じ	-13.292896
Plus	-13.155345
ティック	-12.863799
浴びる	-13.090610
貧乏	-13.041885
任天堂	-12.980885
武田	-13.275406
曲が	-11.710835
ウッド	-12.723570
DNA	-13.078300
月間	-12.498731
省エネ	-13.245429
に当たって	-12.758971
真っ赤	-12.985152
オファー	-13.072077
イヤー	-13.303346
渡航	-13.313903
騒ぎ	-12.930362
アクティビティ	-12.983585
ジャー	-12.637257
いい加減	-12.640256
JP	-12.543775
高松	-13.145481
砲	-12.796970
逸	-12.899888
驚	-12.170734
ミャンマー	-13.327214
おこなわ	-13.125690
高騰	-13.206478
不全	-13.004753
三浦	-13.147026
アマ	-13.132636
上回	-13.283819
比例	-13.027219
らす	-13.582611
薪	-13.116627
見送	-13.764923
黒人	-13.228118
SQL	-13.049086
墨	-12.955643
侶	-13.304071
個展	-13.012201
拳	-12.869671
リフト	-12.666935
無くなる	-12.972375
アシスタント	-13.052430
疾病	-13.336720
もとより	-13.280456
茶色	-13.031493
ロイヤル	-12.934972
らかの	-13.147106
揺ら	-13.318494
ell	-11.169326
咲	-12.275021
からには	-13.085361
定款	-13.221665
順序	-13.128777
フジ	-12.956006
ベーシック	-12.972638
負債	-13.396545
試作	-13.526923
mo	-10.276513
悪用	-13.242715
マニア	-12.935965
きどき	-13.193101
洞	-12.782884
オーブン	-12.891268
フレッシュ	-12.991935
いちご	-13.031904
若年	-13.289545
福山	-13.151563
ヨン	-12.819302
vi	-10.658496
暮	-13.150144
AR	-11.559109
oo	-11.086302
卑	-13.032274
女子高	-13.370836
丹	-13.095767
握り	-13.052469
合流	-13.040040
番地	-13.077087
始	-12.523783
盛りだくさん	-12.920509
露天風呂	-13.096534
くり	-12.264853
回戦	-13.064949
ヒーリング	-12.696868
土木	-13.280105
採択	-13.360217
ガイドブック	-12.991576
着せ	-13.031261
NEWS	-12.480531
じみ	-12.965540
好ま	-13.210509
膨らま	-13.755907
～　	-12.760217
つり	-12.891307
干渉	-13.115693
授与	-13.225804
発動	-13.029355
教職	-14.252764
触ら	-13.371011
レオ	-12.875608
ディズニーランド	-12.962009
たくし	-12.985397
祈願	-13.208491
スタイリッシュ	-12.955371
セラミド	-13.390237
八王子	-13.166709
殺到	-13.129055
委任	-13.287681
交通省	-13.180657
ハズ	-13.271645
ひか	-13.002142
かぶっ	-13.009789
ヒゲ	-13.200781
式典	-13.149377
込	-11.454376
ハイブリッド	-13.045854
無用	-13.120796
大げさ	-13.051592
戦場	-13.068473
Live	-12.808460
im	-10.549402
掛	-12.852420
西口	-13.023644
出雲	-13.229138
エビ	-13.020625
留守	-12.960372
台詞	-13.029634
ラリー	-12.821905
ET	-11.500778
ンド	-13.550489
エス	-12.570288
妊	-13.303394
荘	-12.734424
当てる	-12.984366
PM	-11.790714
互い	-13.263585
そろえ	-13.089203
会津	-13.185670
ice	-10.935684
ホイール	-12.966617
リットル	-13.075469
銘	-12.831683
おっぱい	-13.009909
しっくり	-12.985905
しゃ	-12.332343
ケンカ	-13.019961
踊る	-13.107993
混じ	-13.089810
権威	-13.321495
働きかけ	-13.217960
みなし	-13.416246
絡	-12.634448
アンチ	-12.943533
秩	-13.316575
ラム	-12.725522
水中	-13.161766
穏	-13.168989
ハローワーク	-13.115702
シリアル	-12.964963
出迎え	-12.983315
ヤバ	-12.937813
おにぎり	-13.025336
アナウンサー	-13.119462
ディス	-12.890248
降りる	-13.009614
MS	-11.573738
ぶら	-13.085959
不眠	-13.236860
IL	-11.246713
oc	-10.723022
樹脂	-13.220174
工具	-13.219268
止まる	-13.030320
震え	-13.034025
奨	-13.037291
可愛らしい	-12.948799
解り	-12.990714
靴下	-13.132322
吸う	-13.124856
ｱ	-12.657589
咲かせ	-13.017138
教科	-13.403642
フレ	-12.456512
Server	-14.030617
環	-13.144574
配線	-13.104042
甲状腺	-13.441577
珈	-13.099758
蒸し	-12.994595
役職	-13.376108
クリスタル	-12.936156
ミク	-12.942696
等々	-13.164178
捻	-13.175870
抜粋	-12.978838
ag	-10.671986
悟	-13.002569
カスタマー	-13.004635
さやか	-12.877349
快く	-12.975285
ホンダ	-13.120022
プリン	-12.932391
かご	-12.253778
選任	-13.324269
神田	-13.026047
催し	-13.099309
浮かべ	-13.054298
含める	-13.184617
移す	-13.128791
エントリ	-13.001736
琲	-13.105402
アメリカ合衆国	-13.218534
町田	-13.154619
分配	-13.329358
てき	-8.044112
難しか	-13.901334
曲げ	-12.947009
アリーナ	-12.904933
オーケストラ	-13.095934
道徳	-13.290503
イケ	-12.943229
出典	-13.219445
すす	-14.660395
だからといって	-12.479034
ホワイトニング	-12.991771
SI	-11.754010
独学	-13.161960
麗	-12.802462
ねこ	-13.165954
La	-11.690441
OT	-11.575537
VIO	-12.993671
Word	-12.398892
スカ	-12.771672
問いかけ	-13.185511
恵比寿	-13.146523
分担	-13.227949
差し引	-13.200986
繋げ	-13.111446
文字通り	-13.227844
IE	-11.561925
ニック	-13.107144
芳	-13.001952
引き取	-13.289742
アカ	-13.022770
中性	-13.336663
停滞	-13.216894
ダンボール	-13.106157
起用	-13.240109
閉じ込め	-13.088545
BS	-11.932722
sa	-10.479474
西武	-13.175357
試食	-13.061497
済ませる	-13.174602
アス	-12.636557
描け	-13.161625
ロール	-12.374477
断る	-13.165410
澄	-12.799604
トム	-13.112870
ネジ	-13.147793
スマートフォン	-10.762442
味わえる	-13.162582
カラ	-12.723941
宝物	-13.084016
栓	-12.846541
死体	-13.162579
陵	-13.418608
守護	-13.232236
バテ	-13.140585
夕飯	-12.966545
アイフル	-13.707593
ベルリン	-13.376362
ﾚ	-13.033518
双子	-13.114358
振り回さ	-13.046729
一品	-12.845507
小川	-13.196887
貸付	-13.358576
ツーリング	-12.885856
トーン	-13.034632
ec	-11.354268
麦	-12.944640
♪　	-12.809786
パイロット	-13.135265
執着	-13.155416
心強	-14.431582
度合い	-13.283063
部員	-13.116957
組み込ま	-13.261358
地名	-13.274527
大田	-13.330090
互	-13.171113
中島	-12.990736
腺	-12.999863
邸	-12.581024
やさしく	-13.028410
つなぎ	-13.165675
よそ	-13.527948
UI	-12.215545
夫妻	-13.220826
両替	-13.386120
貝	-13.029902
高原	-12.800365
コンテナ	-13.236176
Open	-12.685290
SS	-11.652855
Play	-12.958140
配分	-13.311550
サボ	-12.956584
あき	-13.074894
ブレンド	-13.033042
セクション	-13.175811
弓	-13.081216
帰れ	-13.059237
em	-10.192942
そっくり	-13.080427
キム	-13.109188
加わり	-13.118909
莫	-13.280556
めざし	-13.526428
通り過ぎ	-13.149947
グラム	-12.797498
懸命	-13.210696
悠	-13.215889
はじめる	-13.066232
せん	-11.760024
眠気	-13.223496
睡	-13.135433
青少年	-13.303570
岡田	-13.206258
ミュ	-13.163456
栄え	-12.650523
間もなく	-12.952210
シャー	-12.842798
汎	-13.146642
蛍	-13.216766
着こな	-13.314154
DL	-12.325860
さぁ	-12.923519
ツル	-14.070533
さておき	-13.094048
アウトプッ	-13.177584
省令	-13.317258
ゴン	-13.206842
Win	-12.781141
交わ	-13.033540
さりげ	-13.078186
ナン	-12.557737
パブリック	-13.070893
里親	-13.059773
刃	-13.048929
ill	-11.959906
大河	-13.208624
夢見	-13.427994
シアター	-12.979659
＃	-13.022631
Internet	-13.014052
etc	-12.225849
ウェ	-12.836449
易い	-13.067162
GA	-12.173075
リノベーション	-13.060411
づか	-13.189225
獄	-13.360607
焦ら	-13.566413
そのうえ	-13.341110
❤	-12.107357
受託	-13.305156
ファイナル	-13.033113
近鉄	-13.125248
近づけ	-13.088333
邦	-13.010712
後回し	-13.132761
察し	-12.992017
OB	-12.299022
天下	-13.096378
ータ	-12.950189
弁護	-13.398402
メルカリ	-13.104781
最上	-12.875721
聴覚	-13.285182
末期	-13.183489
辻	-13.172982
ドライバ	-12.773611
搬	-13.283875
インスタンス	-13.122296
リーダーシップ	-13.296652
ッカー	-13.282183
WiMAX	-13.120032
追いつ	-13.652401
交感	-13.403451
宜	-13.204827
ぜんぜん	-13.116849
河川	-13.447981
犯行	-13.247852
直線	-12.937673
あま	-13.305133
トリー	-13.272425
随	-12.623416
ＣＭ	-13.039779
衰	-13.045962
ワイヤレス	-13.170013
カクテル	-13.063023
刺し	-13.686855
剥	-13.150564
つる	-13.025574
隈	-13.169114
恐れ入	-14.369828
ーション	-12.983755
一角	-13.253712
折り	-12.858355
つかっ	-12.568386
カミソリ	-13.308902
モヤモヤ	-12.867904
使いこな	-13.143099
弾き	-13.104650
年下	-13.110166
立ち止ま	-13.094075
やし	-13.193407
パル	-12.653252
ゆえに	-12.597772
亜鉛	-13.334453
インナー	-13.046365
ヾ	-12.841697
泣く	-13.147473
小野	-13.235031
まえ	-12.870169
懲役	-13.328579
ムシ	-13.307992
EM	-11.970181
ポンプ	-13.157692
琴	-13.001633
RA	-11.487945
ION	-12.173385
ねん	-12.848384
ありのまま	-13.085964
ポルトガル	-13.319312
祖	-12.972807
武士	-13.393853
弱っ	-14.291150
地形	-13.338367
無利	-13.627786
呼べ	-13.209605
空手	-13.240637
ティッシュ	-12.884472
そら	-13.038422
per	-10.336423
ko	-11.111005
とかいう	-13.142380
NA	-11.935084
返さ	-12.854434
判別	-13.171342
映え	-13.021700
真に	-13.254176
bo	-10.785250
載せる	-13.069980
くし	-12.765547
主任	-13.293074
名簿	-13.216202
ni	-10.265773
園内	-13.206441
ハッ	-13.040152
っさん	-13.026071
痕	-13.040642
立川	-13.244368
無縁	-13.294774
スピリチュアル	-13.125003
切符	-13.188679
積立	-13.444821
栄養士	-13.310456
ジャン	-12.701793
ネル	-13.280176
怖が	-13.151866
考案	-13.305270
悪し	-13.095004
Free	-12.382534
東武	-13.165811
me	-10.094537
レベルアップ	-13.085959
NET	-12.080136
胡	-13.149533
拍	-12.922449
兼ね備え	-13.229850
ウィーン	-13.169356
大小	-13.275095
ァ	-13.025275
レール	-13.001296
属し	-14.074478
戻れ	-13.091837
なおかつ	-13.285328
ニュア	-13.058143
鈴	-12.870777
よけれ	-12.900021
自発	-13.276871
寸法	-13.231328
ベルギー	-13.256619
充て	-13.836028
自負	-13.222771
かけがえ	-13.111506
噴	-13.207956
ネオ	-13.098889
己	-12.840585
ヤフオク	-13.026681
アトリエ	-13.041706
ハム	-12.530399
裁判官	-13.416056
キツ	-13.107996
ユニバーサル	-13.142043
なぎ	-13.090844
何気なく	-13.217058
星空	-13.171482
すれ違	-13.427202
倒す	-13.049879
っそり	-13.304972
役立	-12.836381
ウン	-12.900461
教訓	-13.275024
果実	-13.260582
農園	-13.208090
セラピー	-12.922794
算定	-13.395077
破棄	-13.180249
ティア	-13.092929
ナイ	-12.632153
解き	-13.020065
ne	-9.959017
いかにも	-13.254251
路面	-13.227245
OM	-12.182659
遊園	-13.211475
見当た	-14.280838
プリンタ	-13.148724
パレード	-12.967256
電圧	-13.391216
酔っ	-13.575773
中世	-13.440964
愛人	-13.409813
カネ	-13.217448
帝	-13.118716
ブリッジ	-13.087216
月頃	-13.010227
Cisco	-14.268177
リピーター	-12.926341
功績	-13.319305
ゴー	-12.681411
二の	-12.451886
ぷら	-13.148610
央	-13.199195
慮	-13.339665
プレビュー	-13.024039
とどめ	-13.233744
住友	-13.195550
KO	-12.602982
号機	-13.307104
リーディング	-12.979692
SH	-12.228881
テンポ	-13.094678
正し	-13.153478
β	-13.144313
競売	-13.457539
リエ	-13.219144
You	-8.990357
チョ	-12.802985
東口	-13.111883
専任	-13.349541
ｔ	-12.707972
RSS	-13.299109
ねぎ	-12.994091
局長	-13.212312
釜	-13.138165
わら	-12.785599
シルエット	-12.953235
近づき	-13.118685
ジャム	-13.069328
はね	-13.807276
ナイフ	-13.009456
国外	-13.493875
盛り上がる	-13.143856
ぬいぐるみ	-13.049262
リモコン	-13.108542
責務	-13.521358
アマチュア	-13.178667
トランク	-13.175915
留守番	-13.016279
督	-12.674323
そっ	-13.334432
争	-12.795316
評論	-13.360700
習い事	-13.348181
歌声	-13.166102
For	-10.780805
嘔吐	-13.311107
階級	-13.390986
ウォーズ	-13.163564
ユース	-13.148377
LA	-11.492419
憂鬱	-13.152836
附属	-13.146725
辞典	-13.343557
弦	-13.106319
取組み	-13.376652
やむを得な	-15.126239
DI	-11.795800
痺	-13.232606
或	-13.358240
炒め	-13.082398
手掛け	-13.396142
災	-12.909387
言い聞かせ	-13.050186
ましてや	-13.224680
くら	-12.904168
資質	-13.346464
接点	-13.332605
pa	-10.912491
イエロー	-12.975735
修士	-13.240565
鳴き	-13.210861
ue	-11.266322
水平	-13.310977
宇	-13.147841
岡崎	-13.314841
ライド	-13.199664
滅多	-16.038133
カス	-12.740835
カレ	-13.115929
･｀	-12.727787
かろ	-16.376342
バスケットボール	-13.117058
交わし	-13.492698
アスリート	-13.099791
捕ま	-13.305249
水戸	-13.221889
シャン	-12.820263
助産	-13.286613
動員	-13.336950
担い	-13.391362
チュー	-13.280889
ick	-11.407654
やん	-12.868518
浮かび	-13.137647
赤坂	-13.290095
ーブ	-13.246132
面倒くさ	-12.988037
誕	-13.387097
Switch	-13.946152
不定期	-13.031845
亡く	-11.673450
去り	-13.048293
遣	-13.029576
DJ	-13.074100
鳩	-13.218814
七夕	-13.101479
メダル	-12.964185
キズ	-13.077837
切り取	-13.528487
De	-11.524091
弘	-12.957695
楚	-13.374289
罹	-13.397688
ヘアスタイル	-13.141526
採取	-13.331909
暴走	-13.207859
めま	-12.892290
つら	-12.808391
揺	-13.029943
繍	-13.216053
農林	-13.406955
社外	-13.435337
マウント	-12.963164
Home	-12.890637
ナース	-13.182329
ドゥ	-12.923639
クラウド	-11.803964
マクドナルド	-13.174864
大都市	-13.415833
素朴	-13.198177
追い詰め	-13.158419
スカウト	-13.095154
埋める	-13.272309
戒	-13.093600
配り	-12.825071
綾	-13.204067
キャンドル	-12.910838
引っ張り	-13.060474
アパレル	-13.283393
クーラー	-13.130868
成し遂げ	-13.285439
凹	-13.034735
書き込む	-13.032415
賑わい	-13.299578
朽	-13.441699
落語	-13.350314
年会	-12.248660
クリス	-13.370141
見失	-13.722568
閉ま	-13.171210
ショールーム	-13.003540
浴場	-12.860739
su	-11.211056
開館	-13.260705
ブーツ	-12.967435
人組	-13.222669
むら	-12.863945
リュ	-13.104575
大金	-13.215754
肖像	-13.282984
ミュゼ	-13.236402
青葉	-13.181970
単品	-13.102688
火山	-13.341916
涼	-12.989740
響く	-13.208852
長引	-13.677215
拒絶	-13.310469
何でも	-11.183206
デカ	-13.172176
相模原	-13.203962
幣	-13.569542
ワイヤー	-13.151874
劇団	-13.250490
風土	-13.432279
山崎	-13.164465
抹	-13.106849
対価	-13.352737
二次	-11.545223
高山	-13.188878
終始	-13.232694
塊	-12.833338
グラウンド	-13.086165
シング	-13.245452
Con	-11.388298
レザー	-12.952870
禅	-13.060157
躍	-12.820074
hi	-11.514215
まわっ	-13.431088
太田	-13.199143
ポチ	-13.144279
Cookie	-12.653074
ジャーナリスト	-13.395075
諭	-13.437160
カタチ	-13.197255
矢印	-13.160257
ッキ	-13.662845
取り付ける	-13.120715
孝	-12.837851
アラ	-12.813589
太もも	-13.243634
ライヴ	-13.219673
ana	-10.891357
欠席	-13.224693
大社	-13.237947
AT	-11.636709
奴ら	-12.907993
エース	-13.026586
鉛	-13.090942
ざっくり	-13.125547
キャベツ	-13.134522
紅白	-13.208933
愚か	-13.304273
見本	-13.166636
誘う	-13.258433
フィンランド	-13.381302
西郷	-13.487778
メーター	-13.143740
繁華	-13.315694
中山	-13.210014
まじめ	-13.150059
なおさら	-13.199738
キッカケ	-13.170638
ドリーム	-12.967884
ごとく	-12.882859
実況	-13.127652
漆	-13.403411
暖	-13.153853
ba	-10.540819
BC	-12.042193
電化	-13.299975
アラフォー	-13.374723
ポーランド	-13.422688
構図	-13.306126
いいえ	-13.060726
Be	-11.015478
ありがた	-13.143340
功	-13.007118
ージ	-13.393389
ﾀ	-12.695133
カンタン	-13.256250
ずる	-12.987325
鉢	-12.784250
ライオン	-13.124502
放課	-13.292472
昆	-13.433531
海賊	-13.257217
ｓ	-12.724426
熟練	-13.342257
雑談	-13.144405
でかけ	-13.172066
仲良し	-13.061291
スイング	-13.237264
共済	-13.493548
香水	-13.283559
ープ	-14.442580
ハロ	-13.112395
酷く	-13.192251
製薬	-13.134436
委ね	-13.394702
嫌がらせ	-13.123732
おこない	-13.205001
冷却	-13.340675
牧場	-13.284963
コンビ	-13.278002
ok	-11.554813
サイエンス	-13.173864
アンド	-12.803959
ix	-11.075856
長岡	-13.314019
ha	-10.740509
フラン	-13.062890
ふんだん	-13.205880
ストーカー	-13.114742
沈黙	-13.228589
熟成	-13.294020
間に合う	-13.107922
大野	-13.106549
無職	-13.296415
古来	-13.334189
レンガ	-13.294774
ay	-11.388158
ite	-10.712499
カーソル	-13.099088
どっか	-13.009028
径	-12.964747
祓い	-13.497092
西部	-13.181450
役場	-13.288941
出合い	-13.087526
延滞	-13.424143
トリミング	-13.042907
寄附	-13.465437
消失	-13.332749
先駆け	-13.392402
改変	-13.385640
山下	-13.268864
虐	-12.868877
RE	-11.105145
除け	-12.928179
陛	-13.362974
ムード	-13.147172
試行	-14.354897
まかせ	-12.851214
フィットネス	-13.057699
VS	-12.536394
たばこ	-13.493134
安田	-13.286803
日本海	-13.314907
伏	-12.777227
吸引	-13.488933
ヘルパー	-13.358380
手洗い	-13.141191
碑	-13.065136
条項	-13.464886
っぷり	-13.200128
乃	-12.692856
廷	-13.566188
ちょい	-12.947067
ホームセンター	-13.075923
同性	-13.059149
min	-10.575345
マリン	-12.899048
CC	-11.388179
﻿	-12.047808
春日	-13.344561
index	-12.439862
ステッカー	-13.051327
拒	-13.340915
甘味	-13.271909
火事	-13.298628
聞ける	-13.138638
グラン	-12.726253
イズ	-13.081339
守れ	-13.234921
出世	-13.326924
バイキング	-13.080847
協同	-13.319503
福音	-13.524800
唱え	-13.317213
イト	-13.113520
しんどい	-13.202037
つかむ	-13.283823
痴	-13.014568
曰く	-13.246972
紳士	-13.265109
水産	-13.254739
縁起	-13.228800
フィー	-13.074115
ヴェ	-12.683311
復讐	-13.278727
食わ	-13.343044
明白	-13.353911
冷え性	-13.328326
取り組め	-13.562092
アルファベット	-13.120837
立ち向か	-13.563479
受領	-13.359082
垂	-13.041439
豊田	-13.363967
ハンター	-12.943605
硬い	-13.236869
寂しく	-13.117304
アクア	-13.065465
追っ	-14.630409
掘り下げ	-13.184268
MacBook	-13.358032
娯	-13.399541
心構え	-13.283200
議長	-13.527984
通え	-13.470705
引越	-13.594182
赤み	-13.290873
JCB	-13.018434
助かる	-13.227385
ドライヤー	-13.279498
暗殺	-13.408033
篤	-13.242643
取り込む	-13.259119
ss	-10.355669
協賛	-13.178215
紛れ	-13.145106
カタ	-13.100707
ルト	-13.256691
吉野	-13.343924
ヴァー	-12.984387
Flash	-13.242499
付け加え	-13.388528
垂れ	-13.212847
和室	-13.224481
取り消し	-13.353676
セレブ	-13.247490
枠組	-13.669191
田んぼ	-13.202357
和菓子	-13.303178
厳格	-13.450660
ふわ	-13.176200
大雪	-13.178985
ロサンゼルス	-13.346019
限る	-13.425034
寿	-12.878582
難点	-13.327354
つなげる	-13.374192
本場	-13.234437
待て	-13.271006
棲	-12.926110
スプーン	-13.098253
零	-13.274172
将	-13.057022
キシ	-13.288654
ボン	-12.621063
飲	-11.744566
og	-11.551167
死な	-13.120414
Firefox	-13.343473
別荘	-13.356264
糞	-13.042048
おける	-13.297909
サンド	-12.832587
おねがい	-12.867089
バリアフリー	-13.344471
伏見	-13.343146
熊野	-13.517677
東海道	-13.278292
ps	-10.552712
話し方	-13.303560
つま	-12.715818
すじ	-12.534865
パール	-12.772740
パラリンピック	-13.365763
賠	-13.506731
アイスクリーム	-13.051185
西側	-13.360275
帯び	-13.334562
ボディー	-13.123065
CEO	-13.386862
みつけ	-13.202487
MP	-11.730140
ただいま	-12.822031
ぐっと	-13.183471
不都合	-13.226505
ダイナミック	-13.298120
震度	-13.415929
湧き	-13.294173
貸出	-13.234931
鋼	-13.051815
白石	-13.350690
出番	-13.136766
デンマーク	-13.381495
テクニカル	-13.230565
うるさい	-13.154679
コーデ	-12.921014
スペ	-13.158607
ジェイ	-13.159208
水浴	-14.386478
喚	-13.233845
DO	-11.927976
google	-12.817973
親指	-13.277281
ゼン	-13.325173
波動	-13.315340
野田	-13.361472
全文	-13.294333
ｷﾀ	-12.610300
ボーイ	-12.922787
ワーキング	-13.419624
造形	-13.307803
TC	-12.020703
ソファー	-13.207527
重度	-13.390499
んなり	-14.099907
かわっ	-13.270257
隙	-13.160194
っか	-13.346017
ウィ	-12.778871
シャープ	-13.247084
ひょっと	-13.073349
セッティング	-13.142906
秘書	-13.361319
東山	-13.308857
増額	-13.481179
LL	-11.824185
ベン	-12.753523
ゾンビ	-13.236738
奥深	-13.582730
つめ	-12.786452
port	-10.795590
差異	-13.406869
OL	-11.263454
ノード	-13.449508
倍率	-13.379130
串	-13.215420
ya	-11.037527
見当	-12.694291
!　	-13.394459
マンツーマン	-13.210044
井戸	-13.352233
艦隊	-13.253960
ear	-11.446574
Pay	-12.973601
セント	-12.943523
組ま	-13.855279
探る	-13.370011
Ⅱ	-13.176920
貌	-13.346115
ドラえもん	-13.247640
歯ブラシ	-13.262132
たびたび	-13.375680
CG	-12.499010
検知	-13.429056
伊達	-13.482881
org	-10.525431
line	-9.979445
大津	-13.305819
ファンタジー	-13.267578
笠	-13.232405
砂漠	-13.342174
中国語	-12.346871
HA	-11.997923
こす	-13.952977
インプット	-13.296664
恐竜	-13.469742
映し出	-13.297761
魚介	-13.274888
任期	-13.506468
ジョージ	-13.392027
ふたつ	-13.284759
ig	-10.601673
夫人	-13.521696
be	-10.192085
重み	-13.321777
したがっ	-16.623948
プロトコル	-13.268353
ダンサー	-13.220368
豊臣	-13.615710
まど	-12.930949
オル	-13.042150
ビジネスマン	-13.357460
サム	-12.776357
キミ	-13.074626
ヘルニア	-13.334137
進撃	-13.232652
BO	-11.928907
後述	-13.310854
心がける	-13.257386
mixi	-13.019821
えー	-13.048483
怒る	-13.212329
椎	-12.896739
do	-10.027891
PA	-11.734284
box	-10.949797
石原	-13.290442
らわ	-13.626628
ピカ	-13.558110
)･	-12.844433
すり	-12.482452
尽くす	-13.270458
踏み込	-13.237957
リクルート	-13.266905
エッセンス	-13.126919
毎度	-13.198594
イルカ	-13.288714
マットレス	-13.244397
ピーター	-13.558672
作詞	-13.293509
産み	-13.417176
不況	-13.463886
狩	-13.266362
喚起	-13.379332
蒼	-13.192048
課長	-13.433616
RM	-12.073654
まもなく	-13.231802
コンポーネント	-13.277156
いのち	-13.491563
キリスト教	-12.504465
わっ	-13.280420
nt	-10.408033
手袋	-13.268434
憲	-13.258242
同情	-13.306227
IA	-11.931923
ムラ	-12.904582
釣れ	-13.330179
分裂	-13.433636
修学	-13.296791
ブレイク	-12.973950
生かす	-13.336922
炎上	-13.334601
暴れ	-13.279161
大根	-13.266780
蝶	-13.052925
坐	-13.436683
旋	-12.911509
od	-11.042030
AD	-11.495395
遮断	-13.372757
ハル	-13.144308
COM	-11.751404
キュー	-12.791203
引き落と	-13.459737
ッサ	-13.459048
税額	-13.489845
川越	-13.452664
乗り越える	-13.299125
始末	-13.199852
FAQ	-13.304929
鍼	-13.415330
桐	-13.116430
芋	-12.924833
セキュリティー	-13.249504
TE	-11.415160
ﾟｰ	-13.089377
もたら	-13.242743
アンパン	-13.184585
ポー	-12.938861
好調	-13.369218
ルイ	-13.226057
アメ	-13.085050
共生	-13.462023
統制	-13.625351
代々木	-13.235623
あたっ	-14.621195
ズーム	-12.849083
最優秀	-13.350726
ワックス	-13.274776
艶	-13.176803
済ま	-13.732584
ふれ	-13.351263
磁	-13.486706
ずーっと	-13.106144
祐	-13.234753
ステイ	-13.301151
高崎	-13.376808
知らず	-11.656958
ネズミ	-13.356472
髭	-13.434939
ND	-11.711716
大名	-13.557064
慈	-13.352305
ヘリ	-13.293592
お立ち	-12.013871
召し上が	-13.044144
ヤマ	-12.804035
ビス	-12.835988
眉	-13.405726
傑作	-13.369669
垣間見	-13.338366
連鎖	-13.417129
興行	-13.539914
夕日	-13.272436
休館	-13.196369
柴	-13.185614
ホラー	-13.282617
通算	-13.422925
理科	-13.349011
しょっちゅう	-13.260319
因果	-13.395627
スパム	-13.205080
増や	-12.258864
安保	-13.565708
素晴らしく	-13.251370
区画	-13.441276
バッチリ	-13.156894
イチゴ	-13.213329
手放す	-13.296602
ca	-10.386740
立案	-13.503958
熱帯	-13.382060
ROM	-12.421616
平野	-13.272576
ビルド	-12.893547
マリオ	-13.064017
ウォーク	-13.067081
閉じる	-13.181977
OW	-11.909664
無茶	-13.259895
産物	-13.323415
勧告	-13.553199
ソーラー	-13.376913
Do	-10.392268
亡くなる	-13.402904
MA	-11.631889
カノ	-13.243717
しめ	-12.805607
そうなると	-12.360622
横須賀	-13.407160
目覚まし	-13.451637
まったり	-12.633059
ser	-11.474906
原告	-13.640879
備える	-13.451000
プロレス	-13.212236
ノミネート	-13.503330
謗	-13.335693
ｕ	-13.128547
にんにく	-13.372173
･(	-12.842676
ジョー	-13.085589
あや	-13.404129
AS	-11.625287
ぐる	-13.169798
柿	-13.306988
レコーディング	-13.259372
サーキット	-13.156273
アウトレット	-13.022085
吹奏	-13.332343
コンソール	-13.132813
威力	-13.273971
๑	-13.390477
気持ち良	-14.256862
デル	-12.849574
ヒップ	-13.355022
note	-11.909410
リュック	-13.266339
〝	-13.383561
遊ば	-13.267601
テレビ局	-13.430718
メタル	-12.933482
気さく	-13.253546
コロ	-12.940999
カルテ	-13.443775
離し	-13.649630
おさえ	-13.295389
ak	-11.017357
ギア	-12.920021
コモンズ	-12.674953
サンフランシスコ	-13.422852
ズボン	-13.264473
シェル	-12.804462
コットン	-13.083265
観音	-13.391754
まお	-15.836475
con	-10.383020
預か	-13.448344
ッパー	-13.393309
レイヤー	-13.135286
ズム	-13.693867
川口	-13.337562
気持ちよ	-13.764217
ヒロ	-13.031781
ょう	-10.112707
尼	-13.373912
レター	-13.108412
保安	-13.606068
ウイ	-13.451702
怪し	-13.596349
いじっ	-13.036649
小山	-13.389373
鳥居	-13.320766
VIP	-13.379335
操縦	-13.475725
小児科	-13.390664
噴火	-13.520860
ex	-10.409049
休診	-13.121531
ラル	-13.240131
物足りない	-13.215074
mi	-10.885551
LOVE	-13.335556
シルク	-13.242550
ｒ	-13.221701
ヴォ	-13.083659
人民	-13.460181
エー	-12.820751
ｸ	-12.728885
話し合う	-13.377762
藻	-13.463667
月経	-13.430703
ワークス	-13.412782
ヘルメット	-13.246076
そいつ	-13.051691
公民館	-13.300976
スーツケース	-13.323354
値下げ	-13.343093
尋ねる	-13.376519
知らせる	-13.357498
共用	-13.441337
ash	-11.497632
ウィキペディア	-13.484777
射精	-13.158451
冷たく	-13.203856
上っ	-14.139134
第一	-10.370593
珠	-13.138199
合え	-13.265354
国宝	-13.550562
呑み	-12.928835
サウナ	-13.361948
ホルダー	-13.205941
んと	-11.810529
悔し	-13.161238
ヘルス	-13.378395
サングラス	-13.214027
フィード	-13.401222
積も	-13.146994
ベット	-13.024074
風習	-13.326470
浩	-13.227222
ガール	-12.830697
サイクリング	-13.211068
摩擦	-13.434317
哉	-13.421438
特約	-13.477917
高田	-13.231763
ぶつかっ	-13.417998
引き締ま	-13.286218
ロッカー	-13.237086
精算	-13.416783
ビン	-12.811313
リティ	-13.070336
JAL	-13.324109
埋もれ	-13.340655
媒介	-13.671973
琉球	-13.545669
ホールディングス	-13.251162
激減	-13.388313
カナ	-12.980795
通れ	-13.494387
リップ	-13.233417
サーチ	-13.170937
MC	-12.223550
分かち	-13.334745
ニット	-13.019248
王様	-13.209675
まじ	-13.176118
おなじみ	-13.209866
哲	-13.222827
名曲	-13.367346
潰れ	-13.405494
ers	-8.703476
ｷ	-13.155685
獣医	-12.907918
契	-13.633254
要約	-13.336716
お嬢	-13.000397
コピペ	-13.085087
ディープ	-13.214123
罠	-13.315351
熱狂	-13.461088
tor	-10.832466
コーディネーター	-13.399571
Power	-12.917286
補完	-13.427504
議決	-13.392511
ざっと	-13.222105
アンプ	-13.300165
コナン	-13.312381
前方	-13.593757
ウインドウ	-13.097816
履行	-13.337586
尽く	-12.912300
コク	-13.246129
昇格	-13.396974
燃や	-13.345257
😊	-12.522403
プル	-12.886459
耐性	-13.452017
浮上	-13.387732
多用	-13.360471
癒す	-13.355946
雛	-13.216489
喘息	-13.495083
物体	-13.441610
臨む	-13.460331
カール	-13.149416
CT	-11.778986
スムージー	-12.962419
離乳	-13.389019
いまだ	-13.971615
引きず	-13.272111
建立	-13.586344
意地	-13.213613
五月	-13.644940
甚	-13.364098
定数	-13.254407
パナソニック	-13.289249
ちん	-12.908158
蓄え	-13.447429
群れ	-13.407725
アニ	-13.183948
茹で	-13.289852
鞄	-13.391933
開演	-13.279540
end	-10.493688
TH	-11.231827
無休	-13.271095
ウォール	-13.244075
キャプテン	-13.283989
筆記	-13.408050
ベビーカー	-13.368470
カーブ	-13.185758
入れ替わ	-13.323151
out	-9.996064
広域	-13.557052
織り	-13.387469
昭	-13.163790
パワーアップ	-13.100341
PO	-12.232796
業法	-13.555830
爽	-13.229298
張る	-13.084799
泊り	-13.189980
Le	-11.752813
ｍｍ	-13.367871
嘉	-13.333082
がまま	-13.092986
イラストレーター	-13.281153
アッ	-13.233207
のぼり	-13.152982
CH	-11.486943
オフライン	-13.246902
ガル	-12.832268
受理	-13.430473
延々	-13.346697
一族	-13.464299
李	-13.400251
回ら	-13.252882
bu	-11.176728
収ま	-13.376481
ポップアップ	-13.127553
宇治	-13.520750
ハリー	-13.379564
さき	-12.889191
精子	-13.499276
前田	-13.381570
不動	-13.418140
せいぜい	-13.326379
引き下げ	-13.642054
インフレ	-13.410223
全域	-13.440261
置け	-13.555318
びと	-13.568158
our	-10.472859
じつは	-13.369450
アイロン	-13.328730
頂点	-13.441326
レバー	-13.278561
貧しい	-13.530150
ライティング	-13.066790
yo	-11.933842
ょっぴり	-13.184133
FM	-12.392674
漁業	-13.678161
根付	-13.572611
ほめ	-13.468179
cc	-11.408271
気圧	-13.302409
かえ	-12.578691
エッセイ	-13.453153
またまた	-12.914440
テック	-12.649820
んな	-12.095498
ばれ	-11.642911
ごちゃ	-13.505280
擬	-12.890656
垢	-12.715815
スタイリング	-13.146657
臼	-13.403388
討論	-13.516611
履修	-13.662291
上田	-13.448585
戦術	-13.420328
誓い	-13.339828
つて	-14.622434
ヤマト	-13.405271
NY	-12.221295
ort	-11.353742
サンシャイン	-13.127226
ケージ	-13.266117
思い立	-13.377613
縮め	-13.462477
セットアップ	-12.934797
来館	-13.384690
木製	-13.396562
OR	-11.278207
ure	-10.797004
検察	-13.566094
アナル	-13.002840
ウォッチ	-12.830000
考	-13.019638
CA	-11.484266
UV	-12.755015
ｙ	-13.334024
Explorer	-15.051624
レシート	-13.333811
あつ	-13.307423
云々	-13.283166
きら	-13.123858
聖堂	-13.574480
大使	-13.596092
すく	-13.376771
とことん	-13.334134
ターテイメント	-13.738334
梗	-13.071945
ti	-10.746536
迫る	-13.502488
ゴジラ	-13.569513
準拠	-13.510346
皮肉	-13.373897
チェア	-13.267000
憎	-13.061802
むね	-13.439470
睦	-13.311081
まくり	-13.394242
づ	-12.954880
鎖	-13.455970
World	-12.940521
スリン	-13.631531
父様	-13.302716
逢	-13.287506
養う	-13.480868
祝う	-13.380232
部会	-13.584027
終わ	-12.242410
ネス	-12.931502
むや	-13.496524
プロバイダー	-13.417777
IX	-12.513205
om	-10.878843
据え	-13.410785
大山	-13.598170
薬品	-13.376920
チョウ	-13.447204
松井	-13.446577
益々	-13.298666
早くから	-13.269065
取り出す	-13.313193
足立	-13.345141
合戦	-13.488048
一郎	-12.923065
ステンレス	-13.344052
こだわら	-13.345124
小田原	-13.469849
ki	-11.072187
あご	-13.574011
桂	-13.379069
ウルトラ	-13.244943
マックス	-12.957165
able	-8.853181
淹	-13.279619
沸騰	-13.286321
醍醐味	-13.381415
拭い	-13.330997
近江	-13.490226
典	-13.095386
尋	-13.429775
ぼっ	-13.314178
いくらでも	-12.710464
アイデンティティ	-13.478361
総称	-13.522508
ハイキング	-13.360303
谷川	-13.557329
小松	-13.450448
ポット	-13.176861
ニュ	-13.185780
疲れる	-13.284821
ナス	-12.923198
参議院	-13.558388
単一	-13.551633
エリ	-13.080252
まわ	-13.234986
目玉	-13.366055
マック	-13.187835
ジョブ	-13.125164
後方	-13.552215
取り消	-13.533460
拙	-13.057719
ぼちぼち	-12.994030
捨離	-13.277346
マツダ	-13.441365
土砂	-13.686642
ウォー	-13.389022
ッコ	-13.324698
ポンド	-13.608520
緊	-13.299020
ピュア	-13.216273
スニーカー	-13.276544
是正	-13.638142
･)	-12.967359
リレー	-13.349754
下地	-13.142494
ふざけ	-13.161539
タカ	-13.115694
たしか	-13.533031
デトックス	-13.304845
マイペース	-13.150751
ボーカル	-13.289755
進め方	-13.474270
異変	-13.375751
大谷	-13.441444
連ね	-13.573257
義理	-13.357264
何も	-9.722934
三田	-13.402803
ぐり	-13.385476
持ち上げ	-13.342097
重なる	-13.159860
インターフェース	-13.353610
クイック	-13.265265
ab	-10.540690
売店	-13.162758
借り換え	-13.566289
築き	-13.518236
開場	-13.353564
物品	-13.584508
ディア	-13.137364
ﾛ	-13.296235
コンタクトレンズ	-13.400276
月日	-13.548085
最多	-13.602143
あか	-13.567209
中川	-13.421106
Dr	-12.621161
共産	-13.654864
産婦人科	-13.416431
コンプライアンス	-13.571773
背筋	-13.335491
ググ	-13.149926
閑	-13.297709
苦しめ	-13.429603
泊まる	-13.357924
相乗	-13.480833
ME	-11.810192
引き取り	-13.139976
呂	-13.524981
むけ	-13.197054
Python	-13.537431
司令	-13.548635
ハイライト	-13.323569
しっとり	-12.808902
上る	-13.381238
つづけ	-13.415675
亭	-12.935832
art	-11.270745
脅迫	-13.460111
さわやか	-13.294509
じわ	-13.280698
きい	-13.427365
ポーチ	-13.221129
姪	-13.261855
曇	-13.274751
パンク	-13.245069
牧	-13.073177
ちの	-11.564240
過ち	-13.503707
バイトル	-14.691160
析	-13.704906
キュ	-12.703739
ストラ	-13.355615
ハンバーガー	-13.377131
ウサギ	-13.306812
チューブ	-13.323697
伏せ	-13.043285
紀元	-13.697911
ほら	-12.789132
近々	-13.177792
綱	-13.175496
貨幣	-13.688709
ブレスレット	-13.171809
ポータルサイト	-13.308991
正午	-13.355049
船橋	-13.372540
立証	-13.515443
go	-10.133559
煩	-13.361817
ラック	-12.815466
マラ	-13.275183
セブ	-13.432064
埋め込	-12.938136
喫茶	-13.402190
超過	-13.475201
頸	-13.535310
引き渡し	-13.405094
配る	-13.448466
磯	-13.345604
ダイヤル	-12.737144
吉祥寺	-13.393771
ワンコ	-13.059386
稲荷	-13.466739
間違える	-13.315892
香料	-13.438530
杜	-13.436085
プランナー	-12.943492
AG	-12.469259
マネ	-12.848283
苔	-13.491064
末永	-13.250853
東京電力	-13.566781
デイリー	-13.284635
養子	-13.569537
開会	-13.396422
なかろ	-15.713435
やま	-12.499490
石田	-13.417118
IM	-11.755592
ピル	-13.280416
海老	-13.343307
仙	-12.948091
ゆり	-13.352027
歌わ	-14.299867
NP	-12.492818
ぅ	-12.808043
台場	-13.445982
Wii	-12.763584
年次	-13.310531
Mo	-11.969740
ザン	-13.371906
ビッチ	-13.483901
衣服	-13.493725
しつこ	-13.371516
仕込	-12.985423
シンガー	-13.375977
tion	-10.646887
見知らぬ	-13.428582
グラビア	-13.413717
取り組ま	-13.705675
パンダ	-13.224429
決めつけ	-13.586237
黒く	-13.283259
リボ	-13.357342
近寄	-13.453046
ぶどう	-13.459109
武将	-13.526159
糧	-13.358943
釘	-13.365403
OP	-11.983882
玩具	-13.533096
あがる	-13.197524
拭	-12.979065
あらわ	-13.456930
裾	-13.272826
ルズ	-13.792463
ボウ	-13.678837
Music	-13.457027
打ち明け	-13.418902
藤井	-13.451546
立ち会	-13.927513
⌒	-13.649441
バルコニー	-13.444008
スナック	-13.370197
錯誤	-14.923473
成約	-13.350103
ちび	-13.122478
バックス	-13.239649
ヤミ	-13.521275
みどり	-13.345287
エクステ	-13.356456
たいした	-13.306219
まき	-12.890901
キャン	-12.962450
姓	-13.023897
フタ	-13.126067
旭	-13.280151
そそ	-13.366550
最寄	-12.970860
ガム	-13.081034
穀	-13.162569
DIY	-13.435830
食糧	-13.692718
･´	-12.984098
オペレーター	-13.469259
旦	-13.442684
活か	-12.506836
可哀想	-13.237890
愉し	-13.518112
レコ	-13.191757
マイニング	-13.538197
ほぐし	-13.234105
肘	-13.367696
手放	-12.929650
立候補	-13.482704
ドッグフード	-13.283211
アクリル	-13.268038
ワゴン	-13.305638
リメイク	-13.192334
付き添	-13.416943
タコ	-13.406874
翌月	-13.501133
エイジングケア	-13.241332
iphone	-13.361679
盛岡	-13.460088
試算	-13.609362
著し	-13.874579
吹き出	-13.417169
チア	-13.531830
バチ	-13.396603
っとり	-14.054930
ゲル	-12.722110
化石	-13.643702
敗れ	-13.541770
ダラダラ	-13.268186
噛む	-13.422444
加わる	-13.536321
打合せ	-13.334811
Watch	-13.281102
⑤	-12.984197
コミュ	-13.280921
ベリー	-12.917365
ラス	-12.833598
じめ	-13.665856
遂	-13.209848
締めくく	-13.388799
ゴロゴロ	-13.262082
パワフル	-13.301000
凝縮	-13.435588
セラ	-13.599988
js	-12.639143
平行	-13.387218
スリ	-13.413100
ミル	-12.751728
フェスタ	-12.745146
アメニティ	-13.555425
薩摩	-13.659474
ユニフォーム	-13.338857
藤沢	-13.503267
見送り	-13.282476
化け	-12.856212
デッド	-13.037389
どき	-13.198288
触り	-12.793759
守備	-13.466025
甥	-13.352288
ロマン	-13.453218
ac	-10.522823
いつのまにか	-13.330466
拠出	-13.611519
リスニング	-13.441860
リコ	-13.732248
祭典	-13.469269
しびれ	-13.468759
渇	-13.134679
手口	-13.622054
小田急	-13.365197
ヒーター	-13.265519
酔い	-13.138086
GT	-12.651537
南海	-13.559166
ou	-11.873168
以	-13.221733
アイルランド	-13.562077
後援	-13.470421
武力	-13.772283
いす	-13.645829
コンパイル	-13.243808
ネパール	-13.567436
乙女	-13.276772
インスタント	-13.344433
奪う	-13.451267
AND	-12.016064
ブロ	-13.068731
Tr	-11.937523
ゾン	-13.269440
有難い	-13.378625
チベット	-13.649087
登壇	-13.445722
カゴ	-13.308113
割安	-13.577181
引き換え	-13.354492
読み方	-13.467285
のど	-12.659504
ﾏ	-13.122211
二酸化炭素	-13.652500
あたかも	-13.595894
ver	-10.899707
見守る	-13.452038
♥	-12.162706
ごらん	-13.179347
セクハラ	-13.538569
晴天	-13.315142
エリート	-13.507646
ージュ	-13.067172
本会	-13.460751
ビリティ	-13.395784
きつく	-13.376604
アルファ	-13.326850
Nintendo	-13.637994
トレーダー	-13.321592
兆候	-13.564046
目次	-13.610963
利子	-13.695007
ウケ	-13.440426
笹	-13.473665
ake	-11.442584
拡充	-13.657426
くつろぎ	-13.319848
縄文	-13.592340
サミット	-13.414120
集結	-13.470826
闘い	-13.529509
かわいく	-13.253007
因み	-13.348367
名言	-13.461980
日に	-9.133567
本田	-13.389526
崩れる	-13.345823
スピレーション	-13.449111
団地	-13.510784
みかん	-13.342097
ヴァン	-12.884989
宛て	-13.368582
ミステリー	-13.391025
作物	-13.274209
打て	-13.805666
GI	-12.250677
ペースト	-13.234544
推し	-13.554755
太い	-13.409788
一大	-13.635833
わかれ	-13.236298
カトリック	-13.691705
ハナ	-13.206177
一挙	-13.395931
試練	-13.461395
キュート	-13.213726
ブランク	-13.412950
ひざ	-13.412195
命名	-13.520694
一向に	-13.510559
武蔵野	-13.419040
総数	-13.597333
用具	-13.452821
ふだん	-13.501657
リハーサル	-13.315785
レクチャー	-13.304601
数少ない	-13.473294
リラクゼーション	-13.364386
ｋｇ	-13.481657
富裕	-13.624421
警視	-13.622358
フィン	-13.023487
イモ	-13.694527
がけ	-12.580849
つぶや	-13.227185
符	-13.171457
チル	-13.437891
HI	-12.153738
きめ	-12.782229
タク	-13.508678
各所	-13.426129
叩く	-13.351029
エンジョイ	-13.488226
飽	-13.517234
PE	-11.764876
借入れ	-13.856817
ｄ	-12.813818
測る	-13.557549
日和	-13.262316
和田	-13.157701
れこれ	-13.818889
塵	-13.515795
杏	-13.365214
キチン	-13.381212
譲り	-13.378786
おも	-13.583776
軽井沢	-13.421657
拾い	-13.256519
ブルーベリー	-13.448196
ぐっす	-13.394260
小さめ	-13.332368
清算	-13.609977
NEW	-13.034704
せれ	-13.864657
気が付き	-13.244658
カワ	-13.021124
ect	-11.687079
酵母	-13.532594
頁	-13.753324
ea	-11.214004
ふら	-13.516205
Fire	-13.106904
まさしく	-13.452158
​	-11.400502
ナノ	-13.418933
裏付け	-13.557291
決ま	-12.475131
軟骨	-13.812626
慰め	-13.430675
きわめて	-13.664972
マカ	-13.462539
那須	-13.532229
斑	-13.398939
アダプタ	-13.333956
ピンチ	-13.403640
移る	-13.465300
らん	-12.273538
淀	-13.140873
蒙	-13.587038
抹消	-13.550699
ウェル	-13.546835
探検	-13.486472
ランチタイム	-13.303948
SMS	-13.361113
戦車	-13.608966
ギー	-13.392102
数える	-13.484419
過半数	-13.652633
PDT	-13.219314
鉄板	-13.462136
豊島	-13.457846
ムリ	-13.224117
岳	-12.936146
本館	-13.376221
ルータ	-13.359414
飛び交	-13.498631
乗れる	-13.424016
年始	-13.334402
ンダ	-13.446730
流動	-13.598439
そん	-13.528606
局面	-13.652957
ひかり	-13.446847
けし	-13.829408
クリスチャン	-13.469627
More	-12.308235
スー	-13.150573
ばら	-12.758179
一望	-13.467531
㎡	-13.725867
腹痛	-13.446153
ul	-10.293963
キノコ	-13.395550
アラブ	-13.683341
book	-10.935823
SC	-11.751124
ci	-10.542716
排気	-13.536676
NS	-11.863854
告げる	-13.453271
大塚	-13.509756
スティ	-13.233641
空中	-13.555345
ドラクエ	-13.242529
Skype	-13.619022
皇帝	-13.582618
url	-12.479300
プロファイル	-13.453670
ファーム	-13.119571
重た	-15.632954
bi	-10.555583
DB	-12.261639
舟	-13.179337
好ん	-15.224209
LDK	-13.484737
京阪	-13.505203
大騒ぎ	-13.399979
ゼル	-13.285551
別物	-13.380980
スポ	-13.269981
ji	-11.404305
exe	-12.408534
❗	-13.293362
サンドイッチ	-13.352463
ロータリー	-13.604292
言論	-13.598963
投じ	-13.694301
兵衛	-13.644880
支度	-13.187239
コミュニティー	-13.477784
スケ	-12.789828
ロウ	-12.949607
創る	-13.504255
たす	-15.518237
走り回	-13.371354
処方箋	-13.599884
タイマー	-13.207253
GE	-11.735441
遊べ	-13.324374
掴み	-13.397445
浦和	-13.390660
暴力団	-13.772275
まんま	-13.327847
喪	-13.467052
ひっ	-13.183024
エフ	-13.618103
明かり	-13.250300
成り	-13.101055
久し	-13.464290
変わり目	-13.301745
強ま	-13.952212
ソウ	-13.599582
自営業	-13.558390
aku	-13.035473
頭部	-13.489236
TEL	-12.880377
ネイ	-13.502451
一息	-13.306175
外せ	-13.503990
ヴァイオリン	-13.296179
くも	-12.934070
豚肉	-13.427648
クラッシュ	-13.272527
ant	-9.880327
極め	-13.723332
ピッチ	-13.155028
足利	-13.720037
ティス	-13.333051
ONE	-11.962859
函	-13.481499
みずほ	-13.601626
次いで	-12.913173
ヒューマン	-13.488634
アシスト	-13.414746
庵	-13.409813
ガンガン	-13.242980
イング	-13.350155
朱	-13.434906
揃える	-13.528345
ニャ	-13.432005
おこし	-13.321094
パンケーキ	-13.483773
ダッシュ	-13.288332
懇談	-13.541526
モチ	-13.585633
ゲー	-12.807778
コーン	-13.111854
eg	-10.815396
ちり	-14.022640
Ex	-11.738271
市議会	-13.565300
ついていけ	-13.908284
秩父	-13.575490
明石	-13.422255
医薬	-13.676070
即時	-13.586726
セイ	-12.604913
OC	-11.973358
ダンジョン	-13.009413
半導体	-13.793631
球場	-13.335703
ワンマン	-13.368206
習い	-13.275206
ピア	-12.980244
レポ	-13.144681
破れ	-13.539837
ッキング	-13.469893
丸の内	-13.378766
ハンバーグ	-13.333287
焙	-13.577449
銭湯	-13.540203
ゲストハウス	-13.459503
BBQ	-13.430705
易く	-13.334498
弾け	-13.712908
じり	-13.420762
グレ	-12.886614
置き場	-13.777935
光る	-13.427551
ハチ	-13.545237
本題	-13.345335
呑	-13.402553
乏しい	-13.606050
麻生	-13.529533
たどり着く	-13.433200
ance	-10.045735
ASP	-12.971653
伐	-13.620562
po	-10.829825
離せ	-13.342278
収まる	-13.436561
goo	-12.811833
穂	-12.793249
ライズ	-13.363631
サード	-13.483267
をもちまして	-13.230136
フェノール	-13.372467
本土	-13.565322
蹴	-13.038356
すむ	-13.498637
JA	-13.139812
泰	-13.268536
CS	-12.330781
ウル	-12.799981
姜	-13.544106
まくる	-14.180960
コーディング	-13.368086
踏	-12.780887
維	-13.126930
Fate	-12.785313
タメ	-14.430455
デブ	-13.403327
撮れる	-13.298714
いただ	-10.988117
鳴る	-13.496580
ルーツ	-13.557467
立ち上がり	-13.383448
つぶし	-13.739926
見慣れ	-13.464294
Ruby	-13.710850
ネクタイ	-13.464859
不愉快	-13.420906
ようこそ	-13.224023
墓参り	-13.392037
かけ離れ	-13.471918
チャリティー	-13.295340
カリ	-12.901152
締め切	-13.304067
ッグ	-13.868307
ダイバー	-13.334028
イーサリアム	-13.413933
抵当	-13.740766
相応しい	-13.463115
誘惑	-13.574367
ロボ	-13.232101
じん	-13.324740
峠	-13.252195
さかのぼ	-13.598281
エール	-12.972343
見直	-13.024273
作り上げる	-13.554361
クエリ	-13.410832
ﾎ	-12.701642
エゴ	-13.434752
つかめ	-13.517560
絞り込む	-13.591585
切り離	-13.535691
ギャル	-13.321645
mb	-10.901386
詰め込	-12.996578
本町	-12.840766
オーストリア	-13.596762
原動力	-13.603844
ロジック	-13.453889
ラテン	-13.560387
死去	-13.649180
pe	-10.385529
フッ	-13.615771
溶か	-13.361355
彙	-13.672781
欅	-13.473677
ナリーオプション	-13.507865
ウエディング	-13.389929
ベストセラー	-13.543781
有り難う	-13.152695
阿部	-13.534757
着付け	-13.450476
ーレ	-13.145615
yahoo	-12.504237
ヘルシー	-13.353529
勘弁	-13.275957
Gmail	-12.851371
肝要	-13.682479
ＩＤ	-13.239144
並木	-13.561188
ts	-9.761295
dy	-10.427422
バルセロナ	-13.613212
宝塚	-13.492704
ロット	-13.166360
此	-13.397078
芽生え	-13.538746
つかみ	-13.591421
星野	-13.556836
〟	-13.569432
日本国	-12.617838
得策	-13.581137
ティブ	-13.449528
握る	-13.502259
つくづく	-13.399285
モラル	-13.519829
見頃	-13.431575
看	-13.446497
救命	-13.612096
NT	-11.937502
いっそ	-14.021461
アラーム	-13.468610
やばい	-13.337535
フリーター	-13.511753
ジオ	-13.214529
生き残っ	-13.686895
ボクシング	-13.248049
婆	-13.188433
初診	-13.544903
濁	-13.296016
西宮	-13.523426
税込み	-13.420667
投下	-13.588060
Studio	-14.047420
石垣	-13.612632
ご馳走	-13.274832
もってこい	-13.383801
グローブ	-13.233055
コミット	-13.553133
ワーカー	-13.602554
やり直	-12.976001
江戸川	-13.506347
冷や	-13.084161
値する	-13.692703
ンダー	-13.697436
近づける	-13.442201
スタイリスト	-13.396275
始動	-13.309784
珍	-13.280628
コリ	-13.114936
ッシング	-13.617399
かなえ	-13.696957
ユネスコ	-13.763904
ワイワイ	-13.308491
可否	-13.468661
電球	-13.549553
南側	-13.512913
新居	-13.530449
らう	-12.835991
Sh	-12.339152
CI	-12.055477
モニタリング	-13.652830
凝らし	-13.893570
ビーズ	-13.283985
ぼろ	-13.761917
っかい	-13.388739
ind	-11.655221
ジェネリック	-13.627442
義援金	-13.449598
かわいらし	-13.555115
ローション	-13.273310
野村	-13.426504
被る	-13.612844
見習	-13.739271
懲	-13.578769
ウィーク	-12.422201
クター	-13.497180
VA	-12.228503
レスポンス	-13.373941
リーマン	-13.558491
文京	-13.574302
探求	-13.653560
Type	-13.368568
憑	-13.038434
pro	-10.965095
ベー	-13.300538
堤	-13.356309
重なり	-13.338382
代え	-13.562540
レコーダー	-13.197776
枢	-13.708795
骸	-13.592424
ユーモア	-13.510214
心筋	-13.730582
胞	-13.795110
スポンジ	-13.438576
チャイルド	-13.299268
叔父	-13.541371
エンジェル	-13.332623
GDP	-13.365669
メロン	-13.325312
GS	-12.277653
ガールズ	-12.832456
並べる	-13.510909
計り	-13.475975
勾	-13.694731
ビビ	-13.477064
照ら	-13.347481
崖	-13.530791
ペイント	-13.261083
換え	-12.946569
いわき	-13.581890
風水	-13.557370
ブー	-13.257987
スゴイ	-13.395834
火葬	-13.696537
半減	-13.544323
アイランド	-13.456505
カエル	-13.448747
ヘン	-13.027858
曹	-13.438047
罵	-13.440827
受け取れる	-13.485862
三島	-13.583857
読み取り	-13.453046
倣	-13.750605
衡	-13.812292
老若	-13.521124
with	-10.956073
告発	-13.725206
巻き込	-12.971296
上がれ	-13.894336
ドール	-12.812904
EV	-12.276883
魅せ	-13.513486
蠣	-13.682874
取り立て	-13.664125
羨ましい	-13.328971
心得	-13.551342
げん	-12.984795
しつこい	-13.483933
ラフ	-13.092321
エディタ	-13.229686
ack	-12.165201
ケット	-13.908174
魔法使い	-13.359886
サンダル	-13.401873
DC	-12.270810
◯	-13.304477
オチ	-13.370829
レビ	-13.795867
伯	-13.345078
微笑	-13.288776
国債	-13.682668
挙動	-13.469248
ゆが	-13.524895
めい	-13.345651
☺	-12.946717
実費	-13.521346
ショウ	-13.058626
包み	-13.612281
エレガント	-13.492700
依然として	-13.795291
悔い	-13.475985
DNS	-12.950492
振り向	-13.580738
漂う	-13.586529
抱きしめ	-13.346860
遅らせ	-13.595910
動的	-13.374395
ャー	-13.587698
いっそう	-13.554496
ass	-10.549402
両論	-13.513208
バレる	-13.540258
トラフィック	-13.628619
批評	-13.680307
つぶ	-13.162073
藤田	-13.637700
酒造	-13.730968
ビュッフェ	-13.438667
醸造	-13.693214
単行本	-13.127464
予言	-13.612110
パク	-13.224863
受か	-13.919947
軍人	-13.733300
Ma	-11.499421
歩む	-13.531598
働かせ	-13.619842
Cloud	-13.665125
粛	-13.603513
うんざり	-13.503868
還付	-13.694195
飯田	-13.537096
借入金	-13.860987
ct	-10.981278
OF	-13.313907
対談	-13.607165
初音	-13.467327
FF	-11.730327
ｐ	-12.810691
ｗｗｗ	-13.117376
後藤	-13.637852
are	-11.401832
モンゴル	-13.695027
算数	-13.624187
硬貨	-13.805933
絶えず	-13.686844
雑草	-13.615647
じて	-12.318798
iz	-11.717634
蒸気	-13.378405
内訳	-13.576921
増やせ	-13.767757
あお	-13.459016
花屋	-13.505280
強盗	-13.641647
公益社	-14.264930
茅	-13.543367
ｌ	-13.182872
ベタ	-13.767686
モニタ	-13.487953
琵琶湖	-13.629515
練馬	-13.578615
おむつ	-13.454498
バード	-13.366581
│	-13.288584
トレイ	-13.238687
いは	-12.646545
が丘	-13.433877
見比べ	-13.650330
猪	-13.671491
道中	-13.490292
Reader	-12.372893
置き換える	-13.483524
ＳＮＳ	-13.558249
禄	-13.825237
アラサー	-13.568419
乳首	-13.503349
府中	-13.557651
si	-10.586564
エコー	-13.535610
TI	-12.025465
厨房	-13.549926
諏訪	-13.526051
洗脳	-13.481224
懐かしく	-13.421412
杖	-13.364165
おもっ	-13.766509
IO	-12.390939
急上昇	-13.615847
しゃべっ	-13.395982
相棒	-13.469028
刻印	-13.474932
ETC	-13.286097
強固	-13.672088
注ぐ	-13.460536
火星	-13.735558
エド	-13.498933
ton	-9.695589
実体	-13.681953
SSD	-13.101815
倉敷	-13.564528
BB	-12.731651
なみ	-13.395117
DMM	-13.371907
ぶる	-13.460965
PL	-11.693055
地蔵	-13.632807
受け取れ	-13.462788
まさ	-12.858040
県庁	-13.611837
快晴	-13.427438
荒川	-13.545789
いたっ	-16.998921
ボロ	-13.281092
日立	-13.672191
ピント	-13.474337
一夜	-13.536445
治ま	-13.933421
いたずら	-13.590472
ポートフォリオ	-13.486826
耳鼻	-13.561149
分別	-13.608153
羽生	-13.539502
御覧	-13.247249
az	-11.563053
MO	-11.846132
兎	-13.350867
作文	-13.594072
ニス	-13.815013
ウィッグ	-13.593018
見出す	-13.730587
ひっくり返	-13.444120
ウクライナ	-13.862263
白髪染	-13.943160
伝授	-13.502819
va	-10.567279
ミング	-13.646011
パブ	-13.691704
鐘	-13.170724
壊れる	-13.497198
侍	-13.531647
クビ	-13.430616
鈴鹿	-13.588038
刻み	-13.421073
デス	-12.808388
本位	-13.521924
簿記	-13.739809
撫で	-13.409246
処女	-13.693003
金庫	-13.187467
ulu	-12.761790
PlaySt	-13.796460
娩	-13.827522
可決	-13.743134
授か	-13.777043
アルゼンチン	-13.594252
ファスティング	-13.459267
駿	-13.658476
運勢	-13.686640
ヒルズ	-13.302588
双	-13.723997
温室	-13.732891
労災	-13.741357
桑	-13.432642
BD	-12.336182
マメ	-13.410138
ob	-11.057667
ニョ	-13.360394
老け	-13.560918
不向き	-13.513559
ICT	-12.813784
水晶	-13.642229
お疲れさま	-13.210198
ターテインメント	-13.616782
金剛	-13.963879
生み	-13.756298
Mi	-12.124870
鳴り	-12.990397
欠ける	-13.594406
レム	-13.809944
mon	-10.588507
敢	-13.750762
ガラケー	-13.536410
コントローラー	-13.389069
ty	-9.719718
向く	-13.405927
一足	-13.419156
収まっ	-13.858449
パレスチナ	-13.926589
図鑑	-13.537089
ナッツ	-13.326026
GET	-12.818936
心地よく	-13.427443
モア	-13.653012
GP	-12.962465
ビカム	-15.069752
考えよ	-17.207835
アベノミクス	-13.652965
エストロゲン	-13.612479
バレーボール	-13.517955
くっつい	-13.474756
弥	-13.363848
見やすく	-13.360885
かまわ	-13.394982
あわて	-13.554336
ヤング	-13.415199
プー	-13.262278
真田	-13.790369
常用	-14.026759
Update	-13.530473
ガッカリ	-13.522795
大晦	-13.511822
本拠	-13.742999
っす	-13.868131
プログラマー	-13.597589
キッ	-13.154473
━━━━(	-12.910752
お買い得	-13.048940
カンファレンス	-13.450888
ウィキメディア	-12.803435
折りたた	-13.453239
ＦＡＸ	-13.240110
カウントダウン	-13.351400
ウォン	-13.413673
民営	-13.798814
触れ合	-13.639555
持ち帰っ	-13.876032
あらわれ	-13.574646
FJ	-13.403695
帆	-13.355152
プス	-13.465809
拐	-13.689478
プリンス	-13.324409
後退	-13.643969
まとまり	-13.448489
出そ	-17.174462
スラ	-13.270608
牽引	-13.764152
トク	-13.193334
チームワーク	-13.613671
投げかけ	-13.692917
he	-10.908881
松田	-13.618149
転居	-13.763378
)━━━━	-12.923707
ank	-12.710301
税法	-13.702581
ヤレ	-13.765520
狙わ	-14.455365
フォメーション	-13.324315
プロペシア	-13.701814
絞り込み	-13.704604
テーマパーク	-13.559462
総裁	-13.820965
スマホアプリ	-13.445711
悪玉	-13.664643
神殿	-13.836167
駅伝	-13.658037
発着	-13.664494
近藤	-13.652334
スティック	-12.851251
FP	-12.645959
サビ	-13.485159
瀬戸	-13.611228
Love	-12.382294
トッピング	-13.366763
ary	-9.703003
すま	-13.406182
農場	-13.666269
曲線	-13.659000
溜まり	-13.502799
まめ	-12.371160
?　	-14.023480
ワイルド	-13.269543
my	-10.430719
弊	-12.950926
ちょこちょこ	-13.299968
曝	-13.862625
Enter	-13.198035
使いこなせ	-13.593847
外務省	-13.746330
位置付け	-13.801789
秋冬	-13.229136
請負	-13.767567
凛	-13.308901
終戦	-13.717115
東側	-13.649505
桜井	-13.572762
シロ	-12.859447
途切れ	-13.570643
ティン	-13.740140
FL	-12.673573
日の出	-13.241940
eck	-12.190075
しつけ	-12.903828
シャット	-13.410188
荒らし	-13.293659
人身	-13.730063
間違	-12.357808
蒲	-13.821455
ニッポン	-13.495694
麻雀	-13.578438
に際し	-13.560845
東芝	-13.655794
備品	-13.653943
DR	-12.356070
ome	-11.820251
メディカル	-13.370133
練り	-13.425799
サクサク	-13.400547
スペシャリスト	-13.564164
Tokyo	-14.377754
ランドセル	-13.616578
じゅう	-13.442347
受精	-13.778407
FT	-12.139592
ニート	-13.453906
つわり	-13.608562
テー	-13.401455
神楽	-13.631369
払い戻	-13.530560
カタカナ	-13.490410
有楽町	-13.569368
妖精	-13.534721
郡山	-13.368257
残留	-13.690721
旅立	-13.591423
期生	-13.589747
ペル	-13.571123
書道	-13.728590
阪	-13.514623
ウォレット	-13.083667
移り変わ	-13.971730
年版	-13.568672
フット	-13.279470
ーっと	-12.482979
真っ直ぐ	-13.485461
Xbox	-13.667166
なおし	-13.782048
ケチ	-13.407859
語り合	-13.715619
取消	-13.679375
PP	-12.133817
竣工	-13.710129
碁	-13.727963
pdf	-11.904345
ヘルスケア	-13.801040
恨み	-13.448319
エイズ	-13.750424
小池	-13.708740
古本	-14.101595
利率	-14.011660
買い換え	-13.575859
押	-12.400434
CR	-12.183409
ax	-11.609897
UR	-11.598447
枯	-13.500421
news	-12.295817
なかでも	-12.870421
タトゥー	-13.481920
ＰＲ	-13.579811
緑茶	-13.709040
ﾃ	-12.958637
コル	-13.044652
アム	-13.545778
おいで	-13.094764
そく	-13.660755
言うまでもなく	-13.668738
カーペット	-13.550775
スカイプ	-13.479400
内心	-13.553303
明言	-13.678988
講じる	-13.713388
柵	-13.580861
ネギ	-13.373117
py	-11.593083
ガチ	-13.356462
スワップ	-13.594173
資する	-13.908413
羽目	-13.559964
やみ	-13.489044
気づけ	-13.024252
リュー	-13.238616
HO	-12.184186
ひょっとしたら	-13.392960
ﾑ	-13.445233
めったに	-13.247299
ミドル	-13.472832
ボストン	-13.679226
温ま	-13.849589
四角	-13.493090
金魚	-13.729754
フットサル	-13.421142
祇園	-13.666687
テレビ東京	-13.321584
取り残	-13.937871
それどころか	-13.572319
アダプター	-13.402678
喰	-13.173986
臨機	-13.638005
HIV	-13.603180
国防	-14.026503
ウム	-13.827251
合える	-13.292376
錬	-13.105314
カラコン	-13.659707
シル	-12.969993
ベータ	-13.397706
フレッツ	-13.525057
青木	-13.632606
ast	-11.685422
ph	-10.921043
eo	-11.689933
危う	-13.614842
リハリ	-13.624519
般	-13.704386
降ろ	-13.587796
航海	-13.663139
彼岸	-13.586095
ｎ	-13.739270
まら	-13.115322
若返	-13.716602
プランニング	-13.392808
SK	-12.594344
クローゼット	-13.304804
見積も	-13.739972
バッジ	-13.422049
浮かび上が	-13.673687
Bu	-12.389637
大麻	-13.971481
改行	-13.533277
･｡	-13.097155
峰	-13.064527
ゲージ	-13.357531
sc	-10.929099
ゃん	-13.350611
すっ	-13.387537
ＮＰＯ	-13.658101
水曜	-13.522932
わかん	-12.761333
ぶつ	-13.325416
Point	-12.855279
スイカ	-13.522584
蔓延	-13.680681
あいまい	-13.613572
米ドル	-13.870067
にゃ	-13.551674
蜜	-13.159079
洲	-13.109898
クイーン	-13.284573
所長	-13.728522
京王	-13.624729
安らぎ	-13.551439
ハロー	-13.538060
公安	-13.799311
mini	-12.179184
等しい	-13.655828
浅く	-13.640765
キャバ	-13.430447
注ぎ	-13.402005
例会	-12.778497
カッコイイ	-13.434820
毀損	-13.607385
阿蘇	-13.728120
Vista	-13.973881
すぐれ	-13.762809
ガキ	-13.178934
安藤	-13.651999
まね	-13.463989
カメ	-13.285882
RY	-11.508623
明か	-13.244159
押せ	-13.537508
ココナッツ	-13.470298
ローヤル	-13.580666
ブランディング	-13.477767
敗北	-13.662823
ヒール	-13.469856
みつ	-13.062977
尺	-13.506038
はずれ	-13.410098
鷹	-13.531227
ハラスメント	-13.810707
救援	-13.763332
rd	-10.467828
int	-10.965977
例文	-13.418872
スキ	-13.364769
選別	-13.678597
AO	-13.079017
見知り	-13.598993
薔薇	-13.523907
爆笑	-13.439775
NE	-11.790194
KU	-12.979767
クロー	-13.724935
TER	-11.468061
サバ	-13.342564
ポリス	-13.363315
是	-13.532248
掴め	-13.615602
噛み	-13.062012
シドニー	-13.731442
フェラチオ	-13.209350
甲府	-13.621676
知恵袋	-13.333556
如く	-13.601959
ボルト	-13.247821
藍	-13.481943
tr	-11.296025
ＵＰ	-13.225168
邁	-13.597699
刈	-13.671632
ka	-10.744287
達人	-13.681143
トイ	-13.264036
デュ	-12.800260
ホームステイ	-13.787311
ランドリー	-13.576806
不貞	-13.831360
縫い	-13.366994
マイカー	-13.695515
舶	-13.936624
平凡	-13.617866
爆乳	-13.290057
リトル	-13.412301
ワザ	-13.713629
ホー	-13.029610
クー	-13.213957
すっご	-13.718102
ﾙﾌ	-13.425799
鑑み	-13.965546
OPEN	-12.783391
ホリデー	-13.436911
発端	-13.707281
挟ま	-13.740135
根源	-13.705530
実業	-13.755140
クション	-13.278899
腑	-13.513280
ガレージ	-13.498701
バースデー	-13.373250
リツイート	-13.558819
平方メートル	-13.921527
亮	-13.527393
大概	-13.670481
ドロ	-13.168811
断り	-13.223716
探り	-13.180601
くさ	-12.555321
見つめる	-13.583913
ライス	-12.940978
ICO	-12.884370
コマーシャル	-13.780319
エンスストア	-13.589690
バリバリ	-13.512524
押し寄せ	-13.660576
キツイ	-13.507261
トス	-13.573989
気がつき	-13.106663
MAX	-12.806696
商法	-13.735976
品目	-13.949632
成り立つ	-13.657585
せつ	-13.362080
踏み切	-14.116350
取り込み	-13.600838
フリーズ	-13.370014
卸売	-13.742953
塀	-13.690743
請け負	-13.736182
ノーマル	-13.373665
惣	-13.646303
注意深	-16.517068
低め	-13.602225
オシ	-13.620240
窯	-13.622031
三郎	-13.669706
スン	-13.729535
醸し出	-13.523722
ピラミッド	-13.731053
巨乳	-13.580310
りぎり	-13.790506
オオ	-13.507426
フェラ	-13.410493
もり	-12.592069
MT	-12.351533
規	-13.359043
辞退	-13.641325
script	-12.073058
転落	-13.739637
退社	-13.651034
ツァ	-13.716945
旅客	-13.606074
切り替わ	-13.423500
エクス	-13.282514
ish	-10.385988
秒間	-13.572701
炭素	-13.924748
高画質	-13.569358
剖	-13.775421
自家製	-13.464166
アタック	-13.436061
キモ	-13.564306
大久保	-13.474893
性愛	-14.557431
ナトリウム	-13.669715
こし	-13.705969
FS	-12.355210
カラス	-13.539660
とたん	-13.891049
スリップ	-13.435451
食用	-13.610475
ヘタ	-13.576743
ちか	-14.351031
アース	-13.329681
鼓	-13.468898
環境省	-13.866873
ゴマ	-13.725299
追悼	-13.767434
巡礼	-13.723388
おろし	-13.168016
ハブ	-13.457727
ヤン	-13.184143
スパン	-13.601117
つながら	-13.585368
用心	-13.668425
搾	-13.703804
当てはめ	-13.597252
態勢	-13.753338
サムネイル	-13.432673
延べ	-13.699958
くだらな	-13.435687
鍛	-13.614842
北東	-14.067325
唄	-13.510731
ヴェル	-13.542518
かかれ	-14.171712
清々し	-13.489896
ゆで	-13.505058
詰まり	-13.475729
泥棒	-13.642712
陰謀	-13.695124
気の	-11.216262
忍者	-13.590026
単発	-13.633927
長け	-13.535365
石井	-13.664309
タイムリー	-13.643307
Player	-13.885078
忌	-13.042708
ムー	-13.506768
ロイド	-13.634900
何気な	-13.891031
フェル	-13.620515
music	-12.828687
カリウム	-13.644963
呆れ	-13.723696
野郎	-13.426000
スケッチ	-13.429876
鯖	-13.472608
凌	-13.694714
区民	-13.729674
京都大	-15.387316
呉	-13.746632
曲がり	-13.596549
変われ	-13.582744
原産	-13.787319
乾杯	-13.548611
マギカ	-13.433608
山岳	-13.824032
gi	-11.072308
説教	-13.673795
ばく	-13.701933
アサ	-13.362468
万博	-13.801362
まさかの	-13.565265
ッパ	-13.931739
繰	-13.441272
彼等	-13.678979
いまや	-14.367740
ラーニング	-13.235644
ふる	-13.345560
力強い	-13.678130
出社	-13.635202
とけ	-13.235012
足ら	-13.712703
マリー	-13.198401
産む	-13.625896
アルツハイマー	-13.738525
ピクセル	-13.771056
譜	-13.237731
花び	-13.581111
ッソ	-13.529627
割い	-13.681484
新橋	-13.583032
尽きる	-13.624760
フー	-13.484214
レバレッジ	-13.611361
オムツ	-13.624445
ジョジョ	-13.435552
凶	-13.169829
つしか	-13.094465
ii	-10.946682
奉	-13.410137
農産	-13.880593
Mar	-12.548941
ロマンチック	-13.614843
キャバクラ	-13.569716
供述	-13.701754
駄	-13.205584
ang	-11.054187
南西	-13.871987
ken	-11.563399
福田	-13.737380
デジ	-13.559434
メロディ	-13.643434
ドーナツ	-13.538173
斎藤	-13.654578
牧師	-13.928810
垣	-13.150683
セラミック	-13.657469
対決	-13.672329
成婚	-13.795606
何時	-12.532862
物販	-13.584865
ten	-10.549115
那	-13.140011
黒田	-13.828573
HTTP	-13.939965
エフェクト	-13.507036
ホコリ	-13.659514
濫	-13.830946
試飲	-13.568631
沙	-13.061242
損ね	-13.718259
av	-11.413193
つぎ	-13.586387
パートナーシップ	-13.662557
アンコール	-13.626336
ひも	-13.729209
団結	-13.653898
官房	-13.872293
エク	-13.224622
争う	-13.685881
フランク	-13.614443
げる	-13.270988
大物	-13.612075
原画	-13.662820
グロ	-13.391357
集積	-13.907899
VI	-12.205177
美味	-13.676400
マニアック	-13.604182
パーフェクト	-13.526903
シューティング	-13.417677
こぼれ	-13.363671
フローリング	-13.649418
かぁ	-13.424141
違え	-13.291119
ナチス	-13.866141
ＵＲＬ	-13.393056
南アフリカ	-13.792034
マーカー	-13.594224
タス	-13.466012
アジ	-13.383858
めんどくさい	-13.490442
マグロ	-13.602763
フォルダー	-13.473856
仕切り	-13.468346
air	-11.522283
ＩＣ	-13.366015
Day	-12.198569
らず	-9.793596
築け	-13.793842
アメブロ	-13.494336
ゅう	-14.255040
裏切り	-13.636598
淳	-13.733767
直営	-13.714305
バックグラウンド	-13.640588
ごまか	-13.598860
スクエア	-13.173402
OD	-12.194074
やせ	-13.681907
山中	-13.791006
VPN	-12.785903
無理矢理	-13.551380
告示	-13.794150
旭川	-13.679526
宮古	-13.658223
海水	-13.093223
増設	-13.641662
剥がれ	-13.689119
シネマ	-13.371799
XML	-13.032480
べし	-13.898906
円満	-13.722159
トリック	-13.323777
疵	-13.945881
オメガ	-13.719380
ブラッシング	-13.612699
待ち受け	-13.645739
融通	-13.762864
ロク	-13.401041
クズ	-13.408068
リストラ	-13.830466
的中	-13.877168
ジング	-13.378663
顔色	-13.643340
ちょこっと	-13.359428
グリップ	-13.467897
真珠	-13.747482
家畜	-13.877624
aki	-12.617729
カンパニー	-13.201000
下っ	-14.399417
佑	-13.552046
土佐	-13.762644
論じ	-14.012328
舗	-13.782731
キック	-13.328649
パンチ	-13.489351
イド	-13.378671
ぜん	-13.376376
授賞	-13.750591
宅急便	-13.561248
加賀	-13.677711
難波	-13.705023
草津	-13.714569
der	-10.556842
コネクタ	-13.435782
ニンニ	-13.818019
ＩＴ	-13.280417
摩	-13.261763
取り締ま	-13.812022
敢行	-13.827640
寝不足	-13.675136
北条	-14.003962
痛む	-13.718400
っぷ	-12.757022
ぐるみ	-13.611424
ock	-11.671346
ib	-11.412256
執り行	-13.667509
お天気	-11.969172
囚われ	-13.652374
じま	-13.615069
カミ	-13.368546
転じ	-14.009446
ぼり	-13.487106
依	-13.240819
HE	-12.977108
マフラー	-13.502917
カム	-13.116989
振り分け	-13.621373
スピ	-12.851868
予告編	-13.573398
相馬	-13.827580
委	-13.630039
ーダー	-14.505990
紗	-13.450284
じる	-13.376419
eb	-11.849031
愚	-13.571736
中略	-13.925548
洋食	-13.676215
ｂ	-12.957968
チュートリアル	-13.428418
栄光	-13.772021
Lo	-11.755697
意気込み	-13.662364
高圧	-13.715768
法廷	-13.860457
切り開	-14.219272
擦	-13.626085
中日	-13.973485
str	-11.328683
緩め	-13.663751
ブス	-13.337379
スノー	-13.262525
クローバー	-13.504041
ダイソー	-13.479737
ルックス	-13.651077
ヤバイ	-13.503851
常備	-13.532048
Pi	-12.884419
Continue	-13.822892
ase	-12.141554
絡み	-13.630938
好物	-13.672978
ds	-10.463978
ei	-11.859457
tt	-10.852049
MySQL	-13.033444
プリキュア	-13.445795
GMO	-13.024240
冷やす	-13.635825
すず	-13.567468
気持ち良く	-13.581290
未婚	-13.818639
詠	-13.700409
遣っ	-14.127137
aka	-12.088842
アイアン	-13.630252
世に	-11.948435
残せ	-13.913750
つかん	-14.753672
読み取る	-13.667270
諸島	-13.210381
透け	-13.627916
萌え	-13.484392
ボブ	-13.536596
助け合	-13.861583
読み込む	-13.510123
Let	-11.087972
先方	-13.838812
挑む	-13.730327
ペンギン	-13.615576
興信	-13.937102
壊滅	-13.747715
リル	-13.755422
IG	-12.319022
呼び出す	-13.557091
バラエティー	-13.643072
恐れる	-13.697690
sp	-10.747340
あたたか	-13.602618
ソール	-13.631098
コンシェルジュ	-13.533549
ポリエステル	-13.734757
騙し	-14.092222
かかわり	-13.776428
デビット	-13.535711
持て余	-13.802270
監修	-13.729724
テロリスト	-13.724396
トピックス	-13.452807
AWS	-13.249818
深まり	-13.627228
ビーフ	-13.467382
大井	-13.689498
コンペ	-13.583748
恋し	-13.994417
チアシード	-13.735550
ヨハネ	-13.870844
パワハラ	-13.832802
失恋	-13.712987
野良	-13.622550
Pa	-11.636008
view	-11.570891
ツー	-13.079945
ため息	-13.576875
エレ	-13.394584
がる	-12.354303
che	-11.247015
ﾍ	-12.832372
TY	-12.169217
飛鳥	-13.770483
シュート	-13.535768
施す	-13.772065
見込める	-13.790546
¥	-13.284642
aw	-11.193258
カカオ	-13.723250
ょくちょく	-13.482379
エッジ	-13.416762
魔王	-13.549771
受容	-13.918165
アルカリ	-13.726825
ビート	-13.490218
ミット	-13.795917
急行	-13.547594
悔や	-13.249945
彫	-13.683087
耐える	-13.687432
レンジャー	-13.075255
ino	-11.400889
ドッグ	-12.812910
デニム	-13.453010
かぼちゃ	-13.534450
touch	-13.178478
イングランド	-13.774555
差し入れ	-13.435620
ローラー	-13.446337
創刊	-13.843262
{	-11.809557
逝	-13.310601
ツキ	-13.658143
刷	-13.595732
グレイ	-13.351340
サッ	-13.460566
おろそか	-13.619424
ピアニスト	-13.749201
エスカレータ	-13.700964
岡本	-13.701125
南京	-13.868983
とっくに	-13.475460
IDE	-12.383895
音楽家	-13.858671
半期	-13.732493
ダル	-13.206802
方策	-13.892148
タレ	-13.497992
さっと	-13.417906
下水道	-14.001621
ノルマ	-13.561631
ありとあらゆる	-13.712832
スズキ	-13.691856
ミノキシジル	-13.774523
敬老	-13.597047
切り捨て	-13.770365
メッシュ	-13.514425
隠れ家	-13.664345
ザイ	-13.844372
下見	-13.657977
ッジ	-13.771109
続出	-13.835539
吐く	-13.590471
たけ	-12.608364
ダイエットサプリ	-13.888715
ヴィン	-13.846295
寂	-13.773189
ぐるぐる	-13.543159
デオドラント	-13.977691
厳守	-13.633168
松戸	-13.693343
通帳	-13.726963
覚まし	-13.988784
討	-13.569658
リーズ	-13.833827
こっ	-13.683330
わし	-13.191813
ヘッダー	-13.435480
ご苦労	-13.495823
ワット	-13.900373
ドック	-13.022348
東京ドーム	-13.589836
マネジャー	-13.893228
Red	-12.953152
虜	-13.223037
りゃ	-13.456018
末日	-14.621082
利か	-14.030496
Document	-14.302515
ber	-10.593806
プロダクション	-13.598099
憤	-13.586451
レク	-13.548284
マイナビ	-13.528476
判例	-13.917546
おばあさん	-13.576469
ピッ	-13.733504
ディオ	-13.726168
アナリティクス	-13.383774
son	-10.113893
アーチ	-13.702939
チー	-13.696387
小樽	-13.750322
寄贈	-13.817748
あたりまえ	-13.644745
サクッ	-13.556092
ボーダー	-13.518938
自家用	-13.807308
弥生	-13.784453
遊戯	-13.519726
史跡	-13.848353
NI	-12.386041
ブルース	-13.791227
LP	-12.381123
呼び出	-13.305814
UB	-12.152775
輝か	-13.993880
篇	-13.456955
ツッコミ	-13.571957
前立腺	-13.937469
蒸し暑	-13.569366
千歳	-13.572380
チカ	-13.574909
チェン	-13.734397
眠れる	-13.598354
チェコ	-13.845753
引き上げる	-13.839006
ノミ	-13.558698
老眼	-13.892173
スギ	-13.746922
伐採	-13.889664
村山	-13.849782
ail	-11.609307
トースト	-13.485297
泳ぎ	-13.563942
猟	-13.281197
キャスター	-13.540455
吾	-13.240895
TS	-11.147604
LTE	-13.420307
高台	-13.775139
応じる	-13.740889
ヒマ	-13.604142
全う	-13.720200
スマイル	-13.321755
シック	-13.141144
VE	-11.674301
ヴィンテージ	-13.438552
まだしも	-13.619235
松江	-13.783601
ョ	-13.698385
軽視	-13.864959
おっしゃ	-12.765712
時速	-13.774610
ビング	-13.681210
憶	-13.546940
先天	-13.811488
たし	-11.036955
ﾝﾄ	-13.362862
ordpress	-14.033272
マナ	-13.588187
差し支え	-13.585466
途絶え	-13.723715
採点	-13.671749
上杉	-14.011773
高生	-13.396631
立ち入り	-13.717394
多角	-13.830509
落ち込む	-13.674739
みち	-13.581400
ペナルティ	-13.623377
リアリティ	-13.679416
日銀	-14.023025
ゼクシィ	-13.730494
早稲田大学	-13.733624
繁盛	-13.667671
弊害	-13.803344
ヒート	-13.311757
黒字	-13.922020
ガイ	-13.165004
TP	-12.710042
ミュー	-13.621309
get	-11.326114
ばし	-14.039432
やわらか	-13.654016
掛か	-13.879033
ハザード	-13.638396
熊谷	-13.805388
Mbps	-13.557428
ぶち	-13.605032
ケル	-13.594139
atch	-12.851446
最高裁	-14.029244
準じ	-13.764788
ついて	-10.497196
悪循環	-13.738689
石けん	-13.741318
セーラー	-13.574116
びのび	-13.637285
奉納	-13.960857
折り紙	-13.677590
リアクション	-13.604657
iv	-10.857839
藩主	-14.096645
彫り	-13.335387
YA	-13.135054
ナシ	-13.491905
挙が	-13.773319
吠え	-13.599692
Po	-12.226029
お手	-11.038827
お年	-13.534393
はなし	-13.302391
空調	-13.740572
ひび割れ	-13.770082
エコノミー	-13.715314
生き延び	-13.794439
アルト	-13.517506
変態	-13.564963
太子	-13.882395
おそ	-13.650151
ウイスキー	-13.632323
オヤジ	-13.646911
案の定	-13.616248
皇后	-13.747907
やき	-13.070757
ポピュラー	-13.722127
チャネル	-13.740055
フェンス	-13.524554
不振	-13.831009
国王	-13.790703
合わさ	-14.091394
戸田	-13.695372
呈	-13.828924
フィクション	-13.333227
踏み出せ	-13.715931
ゴキブリ	-13.731558
軌跡	-13.693372
スノーボード	-13.602686
基板	-13.851915
バトン	-13.548393
田村	-13.528973
ベター	-13.660379
囚	-13.919112
現し	-13.827613
白血	-13.916887
悟り	-13.729991
主題	-13.894052
ｖ	-13.117322
安ら	-13.664376
不気味	-13.641983
捏造	-13.658578
真っ黒	-13.603889
FI	-12.385827
石巻	-13.842601
ard	-10.436715
有り難い	-13.584927
葵	-13.613802
手抜き	-13.655205
💦	-13.321032
mu	-11.896387
きめ細か	-13.920262
取り替え	-13.721597
溜まる	-13.677129
tu	-10.953395
伺え	-13.696932
ランス	-13.826944
クライ	-13.326386
セントラル	-13.525726
windows	-13.655423
逸品	-13.693977
毒素	-13.827586
撤回	-13.886389
ウィル	-13.586863
クルー	-13.285785
EE	-11.730449
すげ	-13.516878
気遣	-13.374146
素晴らしか	-14.889020
木曜	-13.631614
昆布	-13.845696
幾ら	-13.836582
眉毛	-13.808456
高岡	-13.799191
レクリエーション	-13.739561
IR	-11.833516
くず	-13.631736
商社	-13.998259
踏み入れ	-13.645321
かお	-12.694380
ストン	-13.716147
タロット	-13.704566
ノルウェー	-13.845920
デバッグ	-13.616547
腐敗	-13.863824
消火	-13.871771
法規	-14.260259
実演	-13.667538
北西	-14.103768
GNU	-13.732197
つかれ	-13.034704
マルシェ	-13.383354
NC	-11.986881
後払い	-13.676321
きた	-9.050369
一文	-13.579383
Inter	-12.812008
さらい	-13.521886
辞任	-13.879829
ブッシュ	-13.723494
喜ばしい	-13.775391
飲用	-13.921240
ジャニ	-13.703529
手遅れ	-13.623565
ヤマハ	-13.751939
一筋	-13.777973
テージ	-14.013961
すぐさま	-13.717302
駅舎	-13.882232
閉ざ	-13.770826
ive	-9.965570
モザイク	-13.605883
揺さぶ	-13.680952
バッファ	-13.751852
ふまえ	-13.721008
shi	-11.993461
落とし穴	-13.691306
飴	-13.569412
ガソリンスタンド	-13.684822
裏腹	-13.746151
ヌー	-13.721804
クシ	-13.016944
覚める	-13.492491
目指	-11.606662
んど	-13.657766
top	-11.400125
國	-13.576144
シオ	-13.693481
バリュー	-13.549747
Safari	-13.670622
アーケード	-13.680324
レインボー	-13.573587
こぼし	-13.667678
寝かせ	-13.596846
パチ	-13.596172
大成	-13.723636
手がかり	-13.793818
添える	-13.578470
こみ	-13.112285
沸	-13.481973
vo	-10.780795
戴	-13.568014
紡	-13.792620
フレーバー	-13.669277
タンス	-13.698855
木の	-11.788862
跡地	-13.932825
退場	-13.624289
取り掛か	-13.913984
みや	-12.507543
引渡	-13.857947
スタバ	-13.626559
ラグ	-13.167121
アール	-13.366749
日向	-13.587193
お披露目	-13.624860
Life	-12.360818
シカゴ	-13.861810
トリガー	-13.474781
対比	-13.861183
どろ	-13.022056
まわし	-13.576490
ちみ	-14.460763
ファンクラブ	-13.499081
yu	-12.245822
ゴースト	-13.587855
モヤ	-14.954320
どうこう	-13.550998
ネン	-13.716379
コメディ	-13.625355
アドベンチャー	-13.358980
ビフィズス	-13.931344
不完全	-13.803879
非課税	-13.881474
モト	-13.611010
NGO	-13.559453
似顔	-13.645674
修得	-13.838059
UM	-11.832664
TT	-12.084317
萩	-13.669714
モモ	-13.530715
CAD	-12.945102
コーラ	-13.258517
小沢	-13.839575
VC	-12.779355
催促	-13.821538
ギルド	-13.557611
若松	-13.827521
wiki	-12.966240
力強く	-13.803839
松下	-13.841573
取り合	-13.528157
ヒル	-13.196191
gu	-10.760535
範	-13.216550
人質	-13.745759
控	-13.983535
款	-13.932970
フランチャイズ	-13.818377
リウマチ	-13.935199
敵対	-13.859238
勝ち取	-14.436530
プライス	-13.474288
三条	-13.084273
腹の	-13.687531
テリア	-13.879821
まん	-12.414236
イア	-13.824476
片付ける	-13.752591
遷移	-13.684477
片思い	-13.771236
カーナビ	-13.759987
シカ	-13.342464
辛か	-14.710655
条文	-13.925626
コースター	-13.607577
AGE	-11.993928
ｈ	-13.225096
きく	-13.636056
こむ	-13.251827
RC	-11.800344
叔母	-13.699930
惑わさ	-13.699508
観賞	-13.702958
開園	-13.757826
ボーン	-13.539206
たして	-14.279183
公社	-13.782137
テイスト	-13.169510
病原	-13.879439
忙しか	-14.153610
ｸｶ	-13.540159
乗用車	-13.851528
英単語	-13.795198
ペダル	-13.661797
シャンパン	-13.592672
思い切り	-13.694076
下す	-13.839653
読み上げ	-13.961448
あな	-13.889401
time	-9.787188
差し込	-13.409268
引っ	-13.155904
ｸﾌ	-13.523335
下ろす	-13.764268
らっしゃる	-13.454619
Suica	-13.718621
バーコード	-13.742372
クエン	-13.652397
So	-10.325169
データ通信	-13.347026
こりゃ	-13.504964
校正	-13.882222
おとなしく	-13.474592
Vi	-12.467510
app	-11.386379
Ro	-11.921886
ティーン	-13.442021
っぱら	-13.750284
光学	-13.716617
タラ	-13.516794
トモ	-13.620523
Hamster	-13.151912
情けない	-13.625076
ノロ	-13.698681
楽団	-13.288441
ありがたく	-13.434081
大嫌い	-13.629793
エクスプレス	-13.505168
カブ	-13.681201
えん	-13.234341
セー	-13.705303
DX	-13.166182
テナント	-13.942827
グアム	-13.740113
アラート	-13.785915
久保	-13.561121
甲骨	-13.764756
ビューティー	-13.298576
セフ	-14.101041
UC	-12.316685
地裁	-13.992930
ud	-10.885599
RU	-12.440419
投げる	-13.711025
ときには	-10.947320
和気	-13.751572
hotoshop	-13.998968
マク	-13.624749
ヘイ	-13.895789
活き	-13.844896
瑞	-13.803667
読売新聞	-13.731764
異国	-13.832788
ﾁ	-13.517221
Project	-13.496281
PCMAX	-13.819925
賞賛	-13.881145
弘前	-13.818022
完走	-13.686911
技師	-13.939419
ッピング	-13.732913
部数	-13.919994
別府	-13.764655
こよ	-14.662930
負え	-13.662087
乗り込ん	-13.655421
内服	-13.962785
思う存分	-13.634617
ひど	-13.696430
EA	-11.626347
LGBT	-13.793319
エキスパート	-13.769878
セロトニン	-13.810497
嫌う	-13.747638
lio	-12.164331
ファミリーマート	-13.559602
坂道	-13.745941
憂	-13.156063
ニックネーム	-13.626117
まことに	-13.503627
信州	-13.748930
脱却	-13.878262
バッチ	-13.563963
四つ	-13.575499
手厚	-13.914619
ミント	-13.554160
大橋	-13.452961
ストリーミング	-13.526078
ーニャ	-13.903803
リカ	-13.274631
運輸	-13.847901
列挙	-13.737923
倍増	-13.788758
所詮	-13.694872
安否	-13.912765
価額	-13.967373
受け止める	-13.780764
SU	-11.662124
Ad	-12.457532
規則正し	-14.125036
佐野	-13.539466
リチウム	-13.683110
ヘッドホン	-13.693319
むし歯	-13.889897
越谷	-13.851639
ドリル	-13.706042
トピ	-13.405752
chi	-11.483939
log	-11.707905
潜水	-13.909700
乾か	-13.594082
馳せ	-13.768250
同然	-13.811646
うま	-13.367824
wa	-11.531540
ガニ	-13.637291
コーポレート	-13.714657
シグナル	-13.806884
ハプニング	-13.798664
ian	-10.106317
試聴	-13.624616
ファクトリー	-13.595495
	-13.613960
きゅう	-13.672463
MD	-12.819617
先入	-13.811136
仕切	-13.742202
[...]
